{
  "version": "1.0",
  "truncation": null,
  "padding": null,
  "added_tokens": [
    {
      "id": 0,
      "content": "[PAD]",
      "single_word": false,
      "lstrip": false,
      "rstrip": false,
      "normalized": false,
      "special": true
    },
    {
      "id": 1,
      "content": "[EOT]",
      "single_word": false,
      "lstrip": false,
      "rstrip": false,
      "normalized": false,
      "special": true
    },
    {
      "id": 2,
      "content": "[UNK]",
      "single_word": false,
      "lstrip": false,
      "rstrip": false,
      "normalized": false,
      "special": true
    },
    {
      "id": 3,
      "content": "[Res0]",
      "single_word": false,
      "lstrip": false,
      "rstrip": false,
      "normalized": false,
      "special": true
    },
    {
      "id": 4,
      "content": "[Res1]",
      "single_word": false,
      "lstrip": false,
      "rstrip": false,
      "normalized": false,
      "special": true
    },
    {
      "id": 5,
      "content": "[Res2]",
      "single_word": false,
      "lstrip": false,
      "rstrip": false,
      "normalized": false,
      "special": true
    },
    {
      "id": 6,
      "content": "[Res3]",
      "single_word": false,
      "lstrip": false,
      "rstrip": false,
      "normalized": false,
      "special": true
    },
    {
      "id": 7,
      "content": "[Res4]",
      "single_word": false,
      "lstrip": false,
      "rstrip": false,
      "normalized": false,
      "special": true
    },
    {
      "id": 8,
      "content": "[Res5]",
      "single_word": false,
      "lstrip": false,
      "rstrip": false,
      "normalized": false,
      "special": true
    },
    {
      "id": 9,
      "content": "[Res6]",
      "single_word": false,
      "lstrip": false,
      "rstrip": false,
      "normalized": false,
      "special": true
    },
    {
      "id": 10,
      "content": "[Res7]",
      "single_word": false,
      "lstrip": false,
      "rstrip": false,
      "normalized": false,
      "special": true
    },
    {
      "id": 11,
      "content": "[Res8]",
      "single_word": false,
      "lstrip": false,
      "rstrip": false,
      "normalized": false,
      "special": true
    },
    {
      "id": 12,
      "content": "[Res9]",
      "single_word": false,
      "lstrip": false,
      "rstrip": false,
      "normalized": false,
      "special": true
    },
    {
      "id": 13,
      "content": "[Res10]",
      "single_word": false,
      "lstrip": false,
      "rstrip": false,
      "normalized": false,
      "special": true
    },
    {
      "id": 14,
      "content": "[Res11]",
      "single_word": false,
      "lstrip": false,
      "rstrip": false,
      "normalized": false,
      "special": true
    },
    {
      "id": 15,
      "content": "[Res12]",
      "single_word": false,
      "lstrip": false,
      "rstrip": false,
      "normalized": false,
      "special": true
    },
    {
      "id": 16,
      "content": "[Res13]",
      "single_word": false,
      "lstrip": false,
      "rstrip": false,
      "normalized": false,
      "special": true
    },
    {
      "id": 17,
      "content": "[Res14]",
      "single_word": false,
      "lstrip": false,
      "rstrip": false,
      "normalized": false,
      "special": true
    },
    {
      "id": 18,
      "content": "[Res15]",
      "single_word": false,
      "lstrip": false,
      "rstrip": false,
      "normalized": false,
      "special": true
    },
    {
      "id": 19,
      "content": "[Res16]",
      "single_word": false,
      "lstrip": false,
      "rstrip": false,
      "normalized": false,
      "special": true
    },
    {
      "id": 20,
      "content": "[Res17]",
      "single_word": false,
      "lstrip": false,
      "rstrip": false,
      "normalized": false,
      "special": true
    },
    {
      "id": 21,
      "content": "[Res18]",
      "single_word": false,
      "lstrip": false,
      "rstrip": false,
      "normalized": false,
      "special": true
    },
    {
      "id": 22,
      "content": "[Res19]",
      "single_word": false,
      "lstrip": false,
      "rstrip": false,
      "normalized": false,
      "special": true
    }
  ],
  "normalizer": {
    "type": "Sequence",
    "normalizers": [
      {
        "type": "NFD"
      },
      {
        "type": "StripAccents"
      },
      {
        "type": "Replace",
        "pattern": {
          "String": "[^a-zA-Z0-9\\s!\"\\#\\$%\\&'\\(\\)\\*\\+,\\-\\./:;<=>\\?@\\[\\\\\\]\\^_`\\{\\|\\}\\~]"
        },
        "content": ""
      }
    ]
  },
  "pre_tokenizer": {
    "type": "Sequence",
    "pretokenizers": [
      {
        "type": "WhitespaceSplit"
      },
      {
        "type": "Split",
        "pattern": {
          "String": "\\d"
        },
        "behavior": "Isolated",
        "invert": false
      },
      {
        "type": "ByteLevel",
        "add_prefix_space": true,
        "trim_offsets": true,
        "use_regex": true
      }
    ]
  },
  "post_processor": null,
  "decoder": {
    "type": "ByteLevel",
    "add_prefix_space": true,
    "trim_offsets": true,
    "use_regex": true
  },
  "model": {
    "type": "BPE",
    "dropout": 0.1,
    "unk_token": "[UNK]",
    "continuing_subword_prefix": null,
    "end_of_word_suffix": null,
    "fuse_unk": false,
    "byte_fallback": false,
    "ignore_merges": false,
    "vocab": {
      "[PAD]": 0,
      "[EOT]": 1,
      "[UNK]": 2,
      "[Res0]": 3,
      "[Res1]": 4,
      "[Res2]": 5,
      "[Res3]": 6,
      "[Res4]": 7,
      "[Res5]": 8,
      "[Res6]": 9,
      "[Res7]": 10,
      "[Res8]": 11,
      "[Res9]": 12,
      "[Res10]": 13,
      "[Res11]": 14,
      "[Res12]": 15,
      "[Res13]": 16,
      "[Res14]": 17,
      "[Res15]": 18,
      "[Res16]": 19,
      "[Res17]": 20,
      "[Res18]": 21,
      "[Res19]": 22,
      "\t": 23,
      "\n": 24,
      " ": 25,
      "!": 26,
      "\"": 27,
      "#": 28,
      "$": 29,
      "%": 30,
      "&": 31,
      "'": 32,
      "(": 33,
      ")": 34,
      "*": 35,
      "+": 36,
      ",": 37,
      "-": 38,
      ".": 39,
      "/": 40,
      "0": 41,
      "1": 42,
      "2": 43,
      "3": 44,
      "4": 45,
      "5": 46,
      "6": 47,
      "7": 48,
      "8": 49,
      "9": 50,
      ":": 51,
      ";": 52,
      "<": 53,
      "=": 54,
      ">": 55,
      "?": 56,
      "@": 57,
      "A": 58,
      "B": 59,
      "C": 60,
      "D": 61,
      "E": 62,
      "F": 63,
      "G": 64,
      "H": 65,
      "I": 66,
      "J": 67,
      "K": 68,
      "L": 69,
      "M": 70,
      "N": 71,
      "O": 72,
      "P": 73,
      "Q": 74,
      "R": 75,
      "S": 76,
      "T": 77,
      "U": 78,
      "V": 79,
      "W": 80,
      "X": 81,
      "Y": 82,
      "Z": 83,
      "[": 84,
      "\\": 85,
      "]": 86,
      "^": 87,
      "_": 88,
      "`": 89,
      "a": 90,
      "b": 91,
      "c": 92,
      "d": 93,
      "e": 94,
      "f": 95,
      "g": 96,
      "h": 97,
      "i": 98,
      "j": 99,
      "k": 100,
      "l": 101,
      "m": 102,
      "n": 103,
      "o": 104,
      "p": 105,
      "q": 106,
      "r": 107,
      "s": 108,
      "t": 109,
      "u": 110,
      "v": 111,
      "w": 112,
      "x": 113,
      "y": 114,
      "z": 115,
      "{": 116,
      "|": 117,
      "}": 118,
      "~": 119,
      "Ġ": 120,
      "he": 121,
      "Ġt": 122,
      "Ġa": 123,
      "in": 124,
      "er": 125,
      "an": 126,
      "on": 127,
      "Ġ|": 128,
      "or": 129,
      "Ġthe": 130,
      "es": 131,
      "is": 132,
      "en": 133,
      "ar": 134,
      "at": 135,
      "ed": 136,
      "Ġo": 137,
      "Ġw": 138,
      "Ġ||": 139,
      "Ġs": 140,
      "al": 141,
      "it": 142,
      "Ġb": 143,
      "Ġof": 144,
      "Ġin": 145,
      "Ġ1": 146,
      "Ġc": 147,
      "ic": 148,
      "ĠS": 149,
      "Ġf": 150,
      "re": 151,
      "as": 152,
      "nd": 153,
      "Ġp": 154,
      "ro": 155,
      "ĠA": 156,
      "ĠT": 157,
      "Ġm": 158,
      "Ġand": 159,
      "le": 160,
      "ĠC": 161,
      "ing": 162,
      "Ġ2": 163,
      "ĠM": 164,
      "Ġd": 165,
      "ou": 166,
      "ion": 167,
      "ol": 168,
      "ig": 169,
      "Ġ(": 170,
      "il": 171,
      "Ġ19": 172,
      "ĠP": 173,
      "Ġto": 174,
      "ĠI": 175,
      "am": 176,
      "Ġis": 177,
      "Ġh": 178,
      "ent": 179,
      "ĠB": 180,
      "om": 181,
      "us": 182,
      "ĠR": 183,
      "ĠH": 184,
      "ĠL": 185,
      "id": 186,
      "Ġ20": 187,
      "el": 188,
      "ĠThe": 189,
      "ct": 190,
      "Ġwas": 191,
      "Ġl": 192,
      "ir": 193,
      "ĠF": 194,
      "et": 195,
      "ĠD": 196,
      "ad": 197,
      "||": 198,
      "ch": 199,
      "ur": 200,
      "ers": 201,
      "ĠN": 202,
      "Ġn": 203,
      "iv": 204,
      "ay": 205,
      "Ġal": 206,
      "ot": 207,
      "ĠG": 208,
      "em": 209,
      "st": 210,
      "ef": 211,
      "ĠJ": 212,
      "ĠE": 213,
      "ĠO": 214,
      "ĠW": 215,
      "ist": 216,
      "Ġth": 217,
      "th": 218,
      "her": 219,
      "Ġg": 220,
      "im": 221,
      "ov": 222,
      "Ġon": 223,
      "ce": 224,
      "un": 225,
      "ht": 226,
      "Ġfor": 227,
      "op": 228,
      "ow": 229,
      "Ġk": 230,
      "ian": 231,
      "ber": 232,
      "ly": 233,
      "ation": 234,
      "rom": 235,
      "Ġre": 236,
      "ag": 237,
      "and": 238,
      "Ġe": 239,
      "ut": 240,
      "ight": 241,
      "ies": 242,
      "ĠK": 243,
      "Ġst": 244,
      "ec": 245,
      "ra": 246,
      "est": 247,
      "Ġ|-": 248,
      "Ġfrom": 249,
      "Ġ200": 250,
      "oc": 251,
      "Ġas": 252,
      "ia": 253,
      "um": 254,
      "ul": 255,
      "ign": 256,
      "ĠU": 257,
      "os": 258,
      "ces": 259,
      "all": 260,
      "mer": 261,
      "Ġan": 262,
      "ter": 263,
      "Ġby": 264,
      "ith": 265,
      "ĠIt": 266,
      "art": 267,
      "right": 268,
      "col": 269,
      "ak": 270,
      "od": 271,
      "ep": 272,
      "ish": 273,
      "av": 274,
      "ĠHe": 275,
      "ĠSt": 276,
      "ican": 277,
      "Ġkm": 278,
      "Ġare": 279,
      "res": 280,
      "Ġbe": 281,
      "Ġ201": 282,
      "color": 283,
      "ill": 284,
      "gcolor": 285,
      "ac": 286,
      "Ġalign": 287,
      "=#": 288,
      "Ġwith": 289,
      "Ġat": 290,
      "Ġbgcolor": 291,
      "ĠIn": 292,
      "Ġhe": 293,
      "Ġv": 294,
      "ity": 295,
      "ain": 296,
      "00": 297,
      "eb": 298,
      "Ġpl": 299,
      "Ġcom": 300,
      "'s": 301,
      "ap": 302,
      "ther": 303,
      "Ġwh": 304,
      "if": 305,
      "eren": 306,
      "ĠV": 307,
      "Ġthat": 308,
      "Ġ\"": 309,
      "ember": 310,
      "ĠAmer": 311,
      "19": 312,
      "ary": 313,
      "ab": 314,
      "oun": 315,
      "ĠRef": 316,
      "ie": 317,
      "erences": 318,
      "Ġor": 319,
      "ĠReferences": 320,
      "ĠCh": 321,
      "ip": 322,
      "Ġit": 323,
      "eop": 324,
      "up": 325,
      "ard": 326,
      "eople": 327,
      "Ġ199": 328,
      "ĠAmerican": 329,
      "ld": 330,
      "ong": 331,
      "ust": 332,
      "ant": 333,
      "ate": 334,
      "ort": 335,
      "Ġpro": 336,
      "ug": 337,
      "ud": 338,
      "ew": 339,
      "ĠUn": 340,
      "Ġ3": 341,
      "ment": 342,
      "ran": 343,
      "ame": 344,
      "ri": 345,
      "ub": 346,
      "rit": 347,
      "ver": 348,
      "ear": 349,
      "Ġ-": 350,
      "orn": 351,
      "ich": 352,
      "Ġcon": 353,
      "og": 354,
      "Ġde": 355,
      "Ġch": 356,
      "Ġmov": 357,
      "ast": 358,
      "ount": 359,
      "our": 360,
      "se": 361,
      "Ġr": 362,
      "ge": 363,
      "Ġhis": 364,
      "Ġpeople": 365,
      "Ġ18": 366,
      "ated": 367,
      "EA": 368,
      "Ġplay": 369,
      "so": 370,
      "ore": 371,
      "end": 372,
      "ell": 373,
      "ĠSoc": 374,
      "ive": 375,
      "ath": 376,
      "ue": 377,
      "ial": 378,
      "ctor": 379,
      "ost": 380,
      "Ġse": 381,
      "ine": 382,
      "ord": 383,
      "Ġus": 384,
      "ok": 385,
      "ere": 386,
      "ĠY": 387,
      "20": 388,
      "man": 389,
      "ates": 390,
      "orro": 391,
      "ĠMar": 392,
      "IN": 393,
      "Ġte": 394,
      "ĠTh": 395,
      "land": 396,
      "ited": 397,
      "EAR": 398,
      "ĠSocorro": 399,
      "ĠLIN": 400,
      "ĠLINEAR": 401,
      "),": 402,
      "own": 403,
      "uc": 404,
      "Ġ4": 405,
      "Ġalso": 406,
      "ork": 407,
      "Ġle": 408,
      "ire": 409,
      "Ġhas": 410,
      "sit": 411,
      "ry": 412,
      "Ġsp": 413,
      "ical": 414,
      "Ġsh": 415,
      "ang": 416,
      "ave": 417,
      "ess": 418,
      "qu": 419,
      "Ġwere": 420,
      "und": 421,
      "Ġ198": 422,
      "ĠAl": 423,
      "ebsit": 424,
      "ey": 425,
      "ern": 426,
      "ack": 427,
      "irst": 428,
      "Ġex": 429,
      "uary": 430,
      "age": 431,
      "Ġnot": 432,
      "Ġy": 433,
      "Ġwebsit": 434,
      "Ġ5": 435,
      "ome": 436,
      "ng": 437,
      "ure": 438,
      "ĠSp": 439,
      "ik": 440,
      "ect": 441,
      "ĠUnited": 442,
      "ric": 443,
      "ide": 444,
      "out": 445,
      "Ġbir": 446,
      "Ġ197": 447,
      "Ġbec": 448,
      "ions": 449,
      "ĠOther": 450,
      "ond": 451,
      ").": 452,
      "ths": 453,
      "efe": 454,
      "ass": 455,
      "Ġcomp": 456,
      "Ġwhich": 457,
      "Ġab": 458,
      "ational": 459,
      "ime": 460,
      "Ġ7": 461,
      "sp": 462,
      "Ġfirst": 463,
      "amp": 464,
      "Ġcan": 465,
      "any": 466,
      "hen": 467,
      "ĠAr": 468,
      "ice": 469,
      "lish": 470,
      "iz": 471,
      "ace": 472,
      "fef": 473,
      "fefefe": 474,
      "Ġwebsites": 475,
      "oot": 476,
      "Ġ6": 477,
      "ory": 478,
      "Ġar": 479,
      "200": 480,
      "Ġbirths": 481,
      "Ġhave": 482,
      "ous": 483,
      "ied": 484,
      "ĠStates": 485,
      "ĠLe": 486,
      "ach": 487,
      "ph": 488,
      "Ġ8": 489,
      "ĠNew": 490,
      "aw": 491,
      "ball": 492,
      "Ġun": 493,
      "per": 494,
      "olit": 495,
      "Ġ196": 496,
      "ician": 497,
      "Ġpart": 498,
      "fter": 499,
      "ound": 500,
      "ade": 501,
      "ob": 502,
      "les": 503,
      "ater": 504,
      "ff": 505,
      "ept": 506,
      "Ġro": 507,
      "to": 508,
      "Ġone": 509,
      "Ġ9": 510,
      "ens": 511,
      "ober": 512,
      "ts": 513,
      "ree": 514,
      "ĠShe": 515,
      "Ġcl": 516,
      "Ġthey": 517,
      "Ġkn": 518,
      "cl": 519,
      "Ġhad": 520,
      "io": 521,
      "ren": 522,
      "ision": 523,
      "Ġser": 524,
      "aus": 525,
      "ĠEng": 526,
      "orld": 527,
      "ĠAn": 528,
      "Ġj": 529,
      "ĠCom": 530,
      "Ġ17": 531,
      "ood": 532,
      "te": 533,
      "eptember": 534,
      "Ġdeath": 535,
      "Ġother": 536,
      "Ġwho": 537,
      "ics": 538,
      "ib": 539,
      "Ġtheir": 540,
      "ne": 541,
      "ans": 542,
      "ild": 543,
      "old": 544,
      "wn": 545,
      "Ġ2000": 546,
      "ĠSeptember": 547,
      "mun": 548,
      "ress": 549,
      "Ġ194": 550,
      "lect": 551,
      "ootball": 552,
      "ind": 553,
      "lev": 554,
      "pp": 555,
      "ĠAs": 556,
      "Ġ195": 557,
      "Ġher": 558,
      "ĠFran": 559,
      "Ġyear": 560,
      "Ġactor": 561,
      "iss": 562,
      "ĠThis": 563,
      "Ġbut": 564,
      "Ġtw": 565,
      "ings": 566,
      "ward": 567,
      "orm": 568,
      "ally": 569,
      "Ġ193": 570,
      "ounty": 571,
      "ĠJan": 572,
      "erman": 573,
      "are": 574,
      "rop": 575,
      "ivers": 576,
      "ĠSh": 577,
      "ident": 578,
      "Ġcall": 579,
      "Ġag": 580,
      "outh": 581,
      "ah": 582,
      "ons": 583,
      "ations": 584,
      "Ġknown": 585,
      "Ġact": 586,
      "oh": 587,
      "iving": 588,
      "ctober": 589,
      "Ġabout": 590,
      "ral": 591,
      "Ġmovies": 592,
      "ased": 593,
      "ĠThey": 594,
      "ake": 595,
      "ark": 596,
      "Ġ10": 597,
      "ince": 598,
      "Ġthis": 599,
      "one": 600,
      "ould": 601,
      "Ġ16": 602,
      "ook": 603,
      "ult": 604,
      "ĠOctober": 605,
      "Ġpolit": 606,
      "orth": 607,
      "tern": 608,
      "Ġused": 609,
      "Ġsc": 610,
      "Ġall": 611,
      "ubl": 612,
      "ities": 613,
      "Ġmovie": 614,
      "ists": 615,
      "ram": 616,
      "act": 617,
      "hed": 618,
      "uch": 619,
      "Ġ2001": 620,
      "ĠInd": 621,
      "Ġ15": 622,
      "erson": 623,
      "21": 624,
      "pr": 625,
      "ton": 626,
      "Ġmus": 627,
      "ĠMarch": 628,
      "Ġcalled": 629,
      "ery": 630,
      "=\"": 631,
      "Ġgro": 632,
      "we": 633,
      "ames": 634,
      "als": 635,
      "ile": 636,
      "ex": 637,
      "ugust": 638,
      "Ġits": 639,
      "ock": 640,
      "Ġwork": 641,
      "Ġdis": 642,
      "199": 643,
      "born": 644,
      "ents": 645,
      "oy": 646,
      "ĠJanuary": 647,
      "ĠAust": 648,
      "Ġmade": 649,
      "ĠGerman": 650,
      "ments": 651,
      "ĠZ": 652,
      "ence": 653,
      "ina": 654,
      "Ġad": 655,
      "port": 656,
      "Ġsing": 657,
      "Ġafter": 658,
      "Ġtwo": 659,
      "Ġdeaths": 660,
      "ors": 661,
      "ĠAugust": 662,
      "ĠMay": 663,
      "oug": 664,
      "levision": 665,
      "Ġcont": 666,
      "ick": 667,
      "ĠNov": 668,
      "clud": 669,
      "ĠDec": 670,
      "ite": 671,
      "Ġfootball": 672,
      "Ġres": 673,
      "ten": 674,
      "Ġmost": 675,
      "Ġsong": 676,
      "ebr": 677,
      "Ġmany": 678,
      "ict": 679,
      "iver": 680,
      "Ġme": 681,
      "ĠBrit": 682,
      "ev": 683,
      "Ġ14": 684,
      "Ġborn": 685,
      "uring": 686,
      "oll": 687,
      "Ġinclud": 688,
      "18": 689,
      "Ġ12": 690,
      "inn": 691,
      "ese": 692,
      "fer": 693,
      "apan": 694,
      "ages": 695,
      "ition": 696,
      "ĠSc": 697,
      "ĠDecember": 698,
      "Ġwrit": 699,
      "ĠNovember": 700,
      "ont": 701,
      "Ġthere": 702,
      "ail": 703,
      "Ġen": 704,
      "son": 705,
      "Ġtime": 706,
      "Ġ13": 707,
      "ĠEnglish": 708,
      "pl": 709,
      "gan": 710,
      "Ġbeen": 711,
      "Ġcity": 712,
      "pril": 713,
      "ĠOn": 714,
      "ĠJapan": 715,
      "itt": 716,
      "ike": 717,
      "az": 718,
      "ause": 719,
      "Ġtelevision": 720,
      "span": 721,
      "22": 722,
      "overn": 723,
      "ebruary": 724,
      "Ġinto": 725,
      "olog": 726,
      "Ġshe": 727,
      "uct": 728,
      "Ġfound": 729,
      "\"|": 730,
      "ash": 731,
      "ays": 732,
      "ĠCounty": 733,
      "Ġdied": 734,
      "Ġ11": 735,
      "mp": 736,
      "Ġac": 737,
      "ĠIs": 738,
      "ĠPr": 739,
      "ĠCl": 740,
      "Ġmore": 741,
      "ĠCan": 742,
      "ĠApril": 743,
      "Ġim": 744,
      "ague": 745,
      "ury": 746,
      "ĠFebruary": 747,
      "resident": 748,
      "une": 749,
      "Ġdo": 750,
      "Ġoff": 751,
      "Ġwhen": 752,
      "Ġup": 753,
      "ife": 754,
      "ool": 755,
      "ck": 756,
      "Ġpolitician": 757,
      "eak": 758,
      "ĠWorld": 759,
      "Ġdire": 760,
      "hes": 761,
      "reat": 762,
      "Ġpop": 763,
      "ĠPro": 764,
      "eg": 765,
      "Ġra": 766,
      "Ġpr": 767,
      "Ġper": 768,
      "ĠJu": 769,
      "Ġcount": 770,
      "10": 771,
      "ix": 772,
      "bum": 773,
      "row": 774,
      "||||": 775,
      "Ġev": 776,
      "Ġest": 777,
      "Ġteam": 778,
      "Ġcent": 779,
      "ĠJoh": 780,
      "hip": 781,
      "ft": 782,
      "Ġrec": 783,
      "pt": 784,
      "oin": 785,
      "ier": 786,
      "ase": 787,
      "ĠBritish": 788,
      "Ġreg": 789,
      "ĠLiving": 790,
      "here": 791,
      "enn": 792,
      "Ġbet": 793,
      "ĠWar": 794,
      "Ġapp": 795,
      "Ġbecame": 796,
      "inist": 797,
      "Ġout": 798,
      "uss": 799,
      "Ġ1999": 800,
      "igh": 801,
      "Ġthem": 802,
      "ll": 803,
      "ĠCar": 804,
      "iversity": 805,
      "Ġnum": 806,
      "iet": 807,
      "ins": 808,
      "Ġfam": 809,
      "Ġover": 810,
      "ogra": 811,
      "Ġyears": 812,
      "ann": 813,
      "ance": 814,
      "vel": 815,
      "istric": 816,
      "urn": 817,
      "ĠFrance": 818,
      "ose": 819,
      "ĠDe": 820,
      "ĠBr": 821,
      "Ġ2002": 822,
      "Ġnew": 823,
      "ily": 824,
      "Ġcommun": 825,
      "ĠKing": 826,
      "Ġactors": 827,
      "Ġalbum": 828,
      "Ġ2020": 829,
      "Ġprod": 830,
      "ĠJuly": 831,
      "icip": 832,
      "att": 833,
      "Ġname": 834,
      "Ġseries": 835,
      "Ġsome": 836,
      "Ġ192": 837,
      "ĠJohn": 838,
      "ĠSw": 839,
      "ĠAt": 840,
      "ĠGe": 841,
      "Ġgroup": 842,
      "Ġsy": 843,
      "atch": 844,
      "Ġph": 845,
      "Ġpopul": 846,
      "Ġfl": 847,
      "Ġdep": 848,
      "ĠCol": 849,
      "Ġso": 850,
      "Ġplayed": 851,
      "Ġestab": 852,
      "ĠAnd": 853,
      "ĠYork": 854,
      "ley": 855,
      "Ġcol": 856,
      "Ġelect": 857,
      "ĠPh": 858,
      "ener": 859,
      "Ġdif": 860,
      "aj": 861,
      "Ġrele": 862,
      "17": 863,
      "ĠBl": 864,
      "Ġonly": 865,
      "ale": 866,
      "imes": 867,
      "ism": 868,
      "Ġthan": 869,
      "Ġsec": 870,
      "ĠPar": 871,
      "ween": 872,
      "ever": 873,
      "Ġdes": 874,
      "ai": 875,
      "iam": 876,
      "ĠFor": 877,
      "oth": 878,
      "Ġhim": 879,
      "ĠQ": 880,
      "ĠLeague": 881,
      "Ġlar": 882,
      "uk": 883,
      "Ġstart": 884,
      "icial": 885,
      "ars": 886,
      "ĠSouth": 887,
      "ĠEu": 888,
      "able": 889,
      "istory": 890,
      "Ġplayer": 891,
      "Ġatt": 892,
      "round": 893,
      "resent": 894,
      "Ġbu": 895,
      "ĠJune": 896,
      "ĠPl": 897,
      "red": 898,
      "ĠAustral": 899,
      "ĠCal": 900,
      "ert": 901,
      "ugh": 902,
      "ower": 903,
      "ks": 904,
      "ĠItal": 905,
      "oman": 906,
      "Ġform": 907,
      "15": 908,
      "ouse": 909,
      "ĠPal": 910,
      "Ġbl": 911,
      "air": 912,
      "rib": 913,
      "mon": 914,
      "Ġstud": 915,
      "ograph": 916,
      "rench": 917,
      "ĠUniversity": 918,
      "Ġtr": 919,
      "ures": 920,
      "der": 921,
      "ely": 922,
      "\".": 923,
      "ĠMus": 924,
      "iel": 925,
      "emb": 926,
      "ett": 927,
      "16": 928,
      "ived": 929,
      "angu": 930,
      "anc": 931,
      "chool": 932,
      "ve": 933,
      "cess": 934,
      "14": 935,
      "ĠCon": 936,
      "ĠCanad": 937,
      "lishments": 938,
      "Ġbetween": 939,
      "ys": 940,
      "13": 941,
      "istrict": 942,
      "icipal": 943,
      "Ġbecause": 944,
      "12": 945,
      "ĠThere": 946,
      "ica": 947,
      "ĠPeople": 948,
      "Ġtra": 949,
      "ĠCity": 950,
      "erm": 951,
      "way": 952,
      "ron": 953,
      "ĠFrench": 954,
      "Ġstate": 955,
      "ĠAd": 956,
      "ient": 957,
      "unicipal": 958,
      "ather": 959,
      "198": 960,
      "ional": 961,
      "ĠEd": 962,
      "Ġgo": 963,
      "Ġnumber": 964,
      "ĠRep": 965,
      "Ġagain": 966,
      "ublic": 967,
      "other": 968,
      "ason": 969,
      "ved": 970,
      "ĠNational": 971,
      "inal": 972,
      "Ġwhere": 973,
      "Ġduring": 974,
      "rope": 975,
      "rat": 976,
      "ement": 977,
      "eth": 978,
      "Ġshow": 979,
      "ĠOr": 980,
      "Ġmon": 981,
      "au": 982,
      "Ġco": 983,
      "aid": 984,
      "Ġvery": 985,
      "ives": 986,
      "my": 987,
      "Ġund": 988,
      "Ġpre": 989,
      "Ġend": 990,
      "Ġwould": 991,
      "Ġ2010": 992,
      "urg": 993,
      "urr": 994,
      "ĠNorth": 995,
      "til": 996,
      "ital": 997,
      "Ġspec": 998,
      "ually": 999,
      "Ġplayers": 1000,
      "ĠEurope": 1001,
      "ough": 1002,
      "yp": 1003,
      "ee": 1004,
      "Ġmay": 1005,
      "Ġman": 1006,
      "Ġwon": 1007,
      "Ġlike": 1008,
      "ros": 1009,
      "artment": 1010,
      "rist": 1011,
      "ĠAward": 1012,
      "form": 1013,
      "Ġsm": 1014,
      "Ġear": 1015,
      "aint": 1016,
      "Ġsuch": 1017,
      "ax": 1018,
      "hem": 1019,
      "000": 1020,
      "Ġtown": 1021,
      "ferent": 1022,
      "Ġrel": 1023,
      "ĠFl": 1024,
      "Ġart": 1025,
      "Ġmusic": 1026,
      "ered": 1027,
      "ious": 1028,
      "Ġind": 1029,
      "23": 1030,
      "ual": 1031,
      "Ġreleased": 1032,
      "Ġcre": 1033,
      "amed": 1034,
      "ĠTe": 1035,
      "ines": 1036,
      "Ġ24": 1037,
      "ished": 1038,
      "Ġestablishments": 1039,
      "Ġchar": 1040,
      "ium": 1041,
      "ĠPresident": 1042,
      "rough": 1043,
      "ĠPart": 1044,
      "ternational": 1045,
      "Ġbro": 1046,
      "ĠAf": 1047,
      "pen": 1048,
      "sh": 1049,
      "ets": 1050,
      "Ġthree": 1051,
      "Ġdifferent": 1052,
      "Ġperson": 1053,
      "ung": 1054,
      "Ġsecond": 1055,
      "Ġdirect": 1056,
      "Ġuntil": 1057,
      "ĠMov": 1058,
      "cer": 1059,
      "ĠRiver": 1060,
      "ĠRuss": 1061,
      "Ġsup": 1062,
      "Ġlong": 1063,
      "rowspan": 1064,
      "ĠWest": 1065,
      "efore": 1066,
      "Ġstr": 1067,
      "ott": 1068,
      "ĠEl": 1069,
      "Ġgovern": 1070,
      "Ġ2003": 1071,
      "erg": 1072,
      "ise": 1073,
      "Ġwill": 1074,
      "oss": 1075,
      "Ġ25": 1076,
      "ilm": 1077,
      "Ġqu": 1078,
      "Ġcap": 1079,
      "Ġ1998": 1080,
      "ĠLa": 1081,
      "Ġworld": 1082,
      "ĠII": 1083,
      "eed": 1084,
      "ox": 1085,
      "Ġlead": 1086,
      "stem": 1087,
      "Ġlater": 1088,
      "Ġmed": 1089,
      "ĠGr": 1090,
      "Ġthen": 1091,
      "11": 1092,
      "Ġbook": 1093,
      "ĠAll": 1094,
      "areer": 1095,
      "ants": 1096,
      "Ġchild": 1097,
      "ĠHis": 1098,
      "Ġ2019": 1099,
      "ried": 1100,
      "ative": 1101,
      "let": 1102,
      "erv": 1103,
      "Ġdr": 1104,
      "Ġ2017": 1105,
      "Ġdec": 1106,
      "enc": 1107,
      "ze": 1108,
      "Ġnational": 1109,
      "Ġmember": 1110,
      "Ġage": 1111,
      "Ġthrough": 1112,
      "ĠRel": 1113,
      "Ġmar": 1114,
      "Ġarea": 1115,
      "ats": 1116,
      "omen": 1117,
      "ĠAb": 1118,
      "Ġmain": 1119,
      "its": 1120,
      "ĠAfter": 1121,
      "thern": 1122,
      "ampions": 1123,
      "ution": 1124,
      "Ġ2004": 1125,
      "30": 1126,
      "ĠWh": 1127,
      "ĠAm": 1128,
      "ĠSe": 1129,
      "ĠGu": 1130,
      "ography": 1131,
      "els": 1132,
      "ĠCommun": 1133,
      "Ġ30": 1134,
      "fect": 1135,
      "ink": 1136,
      "cc": 1137,
      "vent": 1138,
      "Ġsongs": 1139,
      "197": 1140,
      "Ġ2018": 1141,
      "Ġsame": 1142,
      "Ġsinger": 1143,
      "ĠBar": 1144,
      "ctors": 1145,
      "ull": 1146,
      "ology": 1147,
      "Ġsmall": 1148,
      "Ġband": 1149,
      "OS": 1150,
      "Ġcar": 1151,
      "Ġmake": 1152,
      "Ġloc": 1153,
      "ĠHer": 1154,
      "Ġ2005": 1155,
      "reen": 1156,
      "ĠGeor": 1157,
      "Ġ2014": 1158,
      "ĠChrist": 1159,
      "Ġformer": 1160,
      "Ġfour": 1161,
      "Ġsub": 1162,
      "dom": 1163,
      "lymp": 1164,
      "ĠBe": 1165,
      "ger": 1166,
      "ĠMan": 1167,
      "gest": 1168,
      "Ġret": 1169,
      "50": 1170,
      "ino": 1171,
      "ret": 1172,
      "ians": 1173,
      "com": 1174,
      "Ġdepartment": 1175,
      "Ġcons": 1176,
      "Ġlangu": 1177,
      "Ġkill": 1178,
      "Ġfe": 1179,
      "Ġprov": 1180,
      "ĠSpace": 1181,
      "Ġuse": 1182,
      "Ġam": 1183,
      "ĠOlymp": 1184,
      "Ġlife": 1185,
      "lp": 1186,
      "Ġmet": 1187,
      "akes": 1188,
      "ĠWill": 1189,
      "iforn": 1190,
      "ĠCent": 1191,
      "Ġair": 1192,
      "isc": 1193,
      "ounc": 1194,
      "ove": 1195,
      "cent": 1196,
      "ĠCaliforn": 1197,
      "Ġbeing": 1198,
      "Ġ190": 1199,
      "ural": 1200,
      "yl": 1201,
      "\",": 1202,
      "Ġcr": 1203,
      "ĠHar": 1204,
      "ĠCalifornia": 1205,
      "Ġgame": 1206,
      "fess": 1207,
      "ĠParty": 1208,
      "Ġwell": 1209,
      "Ġ2021": 1210,
      "Ġproduc": 1211,
      "Ġed": 1212,
      "ollow": 1213,
      "ble": 1214,
      "Ġmod": 1215,
      "Ġback": 1216,
      "ject": 1217,
      "ĠRe": 1218,
      "Ġno": 1219,
      "Ġpages": 1220,
      "Ġrecord": 1221,
      "ĠHow": 1222,
      "Ġdid": 1223,
      "Ġoften": 1224,
      "Ġbel": 1225,
      "yn": 1226,
      "ank": 1227,
      "Ġ21": 1228,
      "Ġrep": 1229,
      "Ġnamed": 1230,
      "iew": 1231,
      "24": 1232,
      "ating": 1233,
      "ĠBra": 1234,
      "lands": 1235,
      "omet": 1236,
      "Ġstarted": 1237,
      "60": 1238,
      "ield": 1239,
      "Ġgu": 1240,
      "rest": 1241,
      "Ġ.": 1242,
      "ĠChar": 1243,
      "Ġold": 1244,
      "ĠPol": 1245,
      "ĠOff": 1246,
      "Ġ2016": 1247,
      "ae": 1248,
      "Ġregion": 1249,
      "Ġbased": 1250,
      "Ġ23": 1251,
      "25": 1252,
      "stit": 1253,
      "ĠGermany": 1254,
      "ĠNor": 1255,
      "ille": 1256,
      "ught": 1257,
      "Ġbefore": 1258,
      "Ġsystem": 1259,
      "ald": 1260,
      "Ġ2015": 1261,
      "ĠAng": 1262,
      "80": 1263,
      "Ġmunicipal": 1264,
      "ries": 1265,
      "Ġfamily": 1266,
      "ĠMinist": 1267,
      "Ġ29": 1268,
      "ĠJapanese": 1269,
      "icians": 1270,
      "omar": 1271,
      "ourn": 1272,
      "ĠEngland": 1273,
      "Ġsaid": 1274,
      "Ġpar": 1275,
      "Ġrem": 1276,
      "ĠIndian": 1277,
      "ĠRelated": 1278,
      "Ġown": 1279,
      "ĠRoman": 1280,
      "eneral": 1281,
      "Ġ2006": 1282,
      "ĠPalomar": 1283,
      "Ġagainst": 1284,
      "Ġsince": 1285,
      "elf": 1286,
      "Ġunder": 1287,
      "ĠTr": 1288,
      "ific": 1289,
      "ird": 1290,
      "Ġcareer": 1291,
      "ondon": 1292,
      "uck": 1293,
      "Ġactress": 1294,
      "ony": 1295,
      "ether": 1296,
      "Ġcommune": 1297,
      "illion": 1298,
      "Ġtran": 1299,
      "Ġnorth": 1300,
      "Ġlaw": 1301,
      "burg": 1302,
      "ke": 1303,
      "40": 1304,
      "eng": 1305,
      "Ġgames": 1306,
      "27": 1307,
      "ĠBro": 1308,
      "ĠPeak": 1309,
      "Ġnear": 1310,
      "ĠMovies": 1311,
      "ĠItalian": 1312,
      "ĠX": 1313,
      "ĠEm": 1314,
      "ĠKitt": 1315,
      "ĠLondon": 1316,
      "29": 1317,
      "Ġ26": 1318,
      "ĠEn": 1319,
      "ĠAir": 1320,
      "Ġpo": 1321,
      "ĠDeath": 1322,
      "str": 1323,
      "bs": 1324,
      "ata": 1325,
      "ĠHistory": 1326,
      "Ġplace": 1327,
      "Ġcharact": 1328,
      "ask": 1329,
      "Ġany": 1330,
      "Ġwe": 1331,
      "Ġ28": 1332,
      "Ġhelp": 1333,
      "watch": 1334,
      "28": 1335,
      "ĠEx": 1336,
      "ĠCup": 1337,
      "Ġfollow": 1338,
      "che": 1339,
      "Ġwater": 1340,
      "Ġ2011": 1341,
      "iation": 1342,
      "26": 1343,
      "ature": 1344,
      "ison": 1345,
      "Ġass": 1346,
      "af": 1347,
      "Ġwar": 1348,
      "Ġ27": 1349,
      "ĠSpacewatch": 1350,
      "Ġgovernment": 1351,
      "Ġent": 1352,
      "Ġdirected": 1353,
      "Ġbest": 1354,
      "Ġinter": 1355,
      "ampionship": 1356,
      "ĠEar": 1357,
      "Ġtyp": 1358,
      "iness": 1359,
      "ring": 1360,
      "Ġgr": 1361,
      "Ġthese": 1362,
      "Ġanim": 1363,
      "gram": 1364,
      "ling": 1365,
      "Ġ2007": 1366,
      "ular": 1367,
      "ala": 1368,
      "Ġcentury": 1369,
      "EAT": 1370,
      "by": 1371,
      "uth": 1372,
      "ara": 1373,
      "ains": 1374,
      "ham": 1375,
      "ĠUS": 1376,
      "ĠNEAT": 1377,
      "con": 1378,
      "ideo": 1379,
      "ĠAss": 1380,
      "Ġpopulation": 1381,
      "ĠSome": 1382,
      "ana": 1383,
      "edy": 1384,
      "33": 1385,
      "int": 1386,
      "Ġever": 1387,
      "Ġseason": 1388,
      "ody": 1389,
      "Ġmil": 1390,
      "rama": 1391,
      "Ġ2022": 1392,
      "oon": 1393,
      "Ġcountry": 1394,
      "Ġsur": 1395,
      "ator": 1396,
      "Ġ&": 1397,
      "ows": 1398,
      "ĠKingdom": 1399,
      "Ġappear": 1400,
      "ords": 1401,
      "ama": 1402,
      "rog": 1403,
      "alt": 1404,
      "Ġ2013": 1405,
      "Ġaround": 1406,
      "Ġincluding": 1407,
      "ute": 1408,
      "ĠWhen": 1409,
      "Ġorig": 1410,
      "Ġland": 1411,
      "ster": 1412,
      "Ġorgan": 1413,
      "Ġ1990": 1414,
      "ĠMe": 1415,
      "fl": 1416,
      "90": 1417,
      "Ġboth": 1418,
      "Ġsever": 1419,
      "oint": 1420,
      "The": 1421,
      "ode": 1422,
      "aul": 1423,
      "Ġwebsite": 1424,
      "Ġ2008": 1425,
      "ajor": 1426,
      "70": 1427,
      "tt": 1428,
      "anish": 1429,
      "Ġschool": 1430,
      "rem": 1431,
      "Ġcould": 1432,
      "Ġinv": 1433,
      "Ġ22": 1434,
      "amb": 1435,
      "que": 1436,
      "rid": 1437,
      "ales": 1438,
      "ĠMc": 1439,
      "ipp": 1440,
      "de": 1441,
      "ĠBel": 1442,
      "zer": 1443,
      "ones": 1444,
      "Ġem": 1445,
      "Ġset": 1446,
      "Ġdistrict": 1447,
      "ĠGovern": 1448,
      "ilt": 1449,
      "ner": 1450,
      "istan": 1451,
      "ĠInternational": 1452,
      "urch": 1453,
      "usiness": 1454,
      "ĠCanadian": 1455,
      "ized": 1456,
      "embers": 1457,
      "Ġimport": 1458,
      "ĠWilliam": 1459,
      "ms": 1460,
      "ĠAustralia": 1461,
      "Ġbuild": 1462,
      "Ġ2012": 1463,
      "Ġ()": 1464,
      "Ġlist": 1465,
      "ought": 1466,
      "ĠMed": 1467,
      "Ġprofess": 1468,
      "ago": 1469,
      "Ġeach": 1470,
      "Ġhow": 1471,
      "Ġrun": 1472,
      "ĠAmerica": 1473,
      "aur": 1474,
      "Ġsl": 1475,
      "aking": 1476,
      "Ġhigh": 1477,
      "umb": 1478,
      "34": 1479,
      "Ġusually": 1480,
      "ney": 1481,
      "Ġright": 1482,
      "Ġlived": 1483,
      "ĠAnderson": 1484,
      "ĠComp": 1485,
      "ĠCommunes": 1486,
      "uction": 1487,
      "oard": 1488,
      "ĠMes": 1489,
      "Ġexamp": 1490,
      "velop": 1491,
      "ĠPhil": 1492,
      "Ġsim": 1493,
      "ĠThese": 1494,
      "orts": 1495,
      "Ġ2009": 1496,
      "alk": 1497,
      "ross": 1498,
      "99": 1499,
      "Ġchildren": 1500,
      "ĠMon": 1501,
      "37": 1502,
      "Ġhum": 1503,
      "ience": 1504,
      "65": 1505,
      "ract": 1506,
      "omin": 1507,
      "ues": 1508,
      "ummer": 1509,
      "ĠMich": 1510,
      "ible": 1511,
      "ĠHouse": 1512,
      "writ": 1513,
      "Ġlast": 1514,
      "ole": 1515,
      "Ġdevelop": 1516,
      "colspan": 1517,
      "ĠAustr": 1518,
      "64": 1519,
      "adem": 1520,
      "eter": 1521,
      "Ġcreated": 1522,
      "Ġrock": 1523,
      "Ġcompos": 1524,
      "68": 1525,
      "ĠOne": 1526,
      "67": 1527,
      "istor": 1528,
      "Ġcaus": 1529,
      "NE": 1530,
      "\"|-": 1531,
      "Ġserv": 1532,
      "ĠIndia": 1533,
      "35": 1534,
      "ĠMinister": 1535,
      "ĠLou": 1536,
      "Ġsk": 1537,
      "Ġran": 1538,
      "ĠSwed": 1539,
      "urrent": 1540,
      "lex": 1541,
      "Ġcounty": 1542,
      "Ġ'": 1543,
      "Ġbegan": 1544,
      "Ġadd": 1545,
      "Ġseveral": 1546,
      "Ġprogram": 1547,
      "\"|-||": 1548,
      "Ġwinn": 1549,
      "Ġsign": 1550,
      "ĠSan": 1551,
      "Ġclub": 1552,
      "ĠPer": 1553,
      "Ġsouth": 1554,
      "Ġstat": 1555,
      "ĠDem": 1556,
      "Ġattack": 1557,
      "ene": 1558,
      "Ġwhile": 1559,
      "Ġoper": 1560,
      "ĠState": 1561,
      "Ġcommon": 1562,
      "ĠSec": 1563,
      "inc": 1564,
      "ane": 1565,
      "Ġwriter": 1566,
      "38": 1567,
      "Ġ1980": 1568,
      "ĠDav": 1569,
      "Ġvers": 1570,
      "app": 1571,
      "ĠGl": 1572,
      "eder": 1573,
      "for": 1574,
      "ful": 1575,
      "ĠSup": 1576,
      "Ġlarge": 1577,
      "ches": 1578,
      "Ġterm": 1579,
      "ush": 1580,
      "ĠSy": 1581,
      "itary": 1582,
      "Ġimportant": 1583,
      "Ġlive": 1584,
      "ven": 1585,
      "ensus": 1586,
      "side": 1587,
      "ington": 1588,
      "Ġofficial": 1589,
      "ĠHowever": 1590,
      "45": 1591,
      "Ġsingle": 1592,
      "ĠSch": 1593,
      "Ġif": 1594,
      "Ġpol": 1595,
      "Ġhead": 1596,
      "ĠDeaths": 1597,
      "Ġdrama": 1598,
      "rew": 1599,
      "ĠAustralian": 1600,
      "Ġdisc": 1601,
      "ired": 1602,
      "Ġacc": 1603,
      "day": 1604,
      "ĠCities": 1605,
      "69": 1606,
      "Ġwent": 1607,
      "Ġ1997": 1608,
      "Ġfilm": 1609,
      "na": 1610,
      "ler": 1611,
      "Ġint": 1612,
      "attle": 1613,
      "Ġpopular": 1614,
      "ste": 1615,
      "aught": 1616,
      "aster": 1617,
      "Ġsuc": 1618,
      "ĠAc": 1619,
      "Ġmillion": 1620,
      "berg": 1621,
      "the": 1622,
      "ĠMesa": 1623,
      "Ġdef": 1624,
      "Ġmunicipality": 1625,
      "ĠOfficial": 1626,
      "Ġdiv": 1627,
      "ĠRussian": 1628,
      "Ġlanguage": 1629,
      "ico": 1630,
      "zil": 1631,
      "39": 1632,
      "aut": 1633,
      "idd": 1634,
      "Ġnow": 1635,
      "oice": 1636,
      "rol": 1637,
      "Ġsoc": 1638,
      "ĠMiss": 1639,
      "Ġleg": 1640,
      "48": 1641,
      "Ġexample": 1642,
      "47": 1643,
      "Ġmat": 1644,
      "ange": 1645,
      "cept": 1646,
      "Ġdesign": 1647,
      "Ġ1996": 1648,
      "omb": 1649,
      ".\"": 1650,
      "Ġpower": 1651,
      "Ġfin": 1652,
      "ĠSer": 1653,
      "Ġchang": 1654,
      "Ġcountries": 1655,
      "Ġmin": 1656,
      "Ġearly": 1657,
      "Ġep": 1658,
      "Ġann": 1659,
      "ĠChampionship": 1660,
      "Ġpresident": 1661,
      "ĠBrazil": 1662,
      "Ġdist": 1663,
      "ometimes": 1664,
      "iven": 1665,
      "Ġhome": 1666,
      "ĠMex": 1667,
      "Ġget": 1668,
      "west": 1669,
      "Ġeng": 1670,
      "ĠHol": 1671,
      "ĠLO": 1672,
      "ĠQu": 1673,
      "Ġcompet": 1674,
      "Ġwest": 1675,
      "ĠCo": 1676,
      "Ġgroups": 1677,
      "ockey": 1678,
      "Ġinclude": 1679,
      "ices": 1680,
      "ĠPark": 1681,
      "ĠRec": 1682,
      "Ġopen": 1683,
      "Ġday": 1684,
      "..": 1685,
      "ivil": 1686,
      "Ġvideo": 1687,
      "Ġinc": 1688,
      "oph": 1689,
      "ief": 1690,
      "lin": 1691,
      "Ġexp": 1692,
      "Ġtrans": 1693,
      "bert": 1694,
      "ĠRober": 1695,
      "Ġcapital": 1696,
      "ple": 1697,
      "Ġspecies": 1698,
      "Ġmeans": 1699,
      "ĠSm": 1700,
      "ford": 1701,
      "NEOS": 1702,
      "ĠLONEOS": 1703,
      "Ġ1960": 1704,
      "Ġwritten": 1705,
      "ĠPolit": 1706,
      "riend": 1707,
      "ij": 1708,
      "ĠSpanish": 1709,
      "conom": 1710,
      "57": 1711,
      "Ġleft": 1712,
      "ges": 1713,
      "ien": 1714,
      "ĠSing": 1715,
      "Ġway": 1716,
      "ided": 1717,
      "ĠJames": 1718,
      "ĠSchool": 1719,
      "Ġext": 1720,
      "ĠTur": 1721,
      "rod": 1722,
      "ĠPaul": 1723,
      "ocrat": 1724,
      "Ġevery": 1725,
      "ĠSen": 1726,
      "ĠMor": 1727,
      "gin": 1728,
      "Ġhistory": 1729,
      "Ġ1995": 1730,
      "aces": 1731,
      "Ġ,": 1732,
      "ĠDr": 1733,
      "98": 1734,
      "Ġmembers": 1735,
      "ĠTex": 1736,
      "ourt": 1737,
      "ĠPort": 1738,
      "ĠCanada": 1739,
      "Ġpass": 1740,
      "ĠActors": 1741,
      "iod": 1742,
      "Ġtimes": 1743,
      "ĠEast": 1744,
      "co": 1745,
      "ĠAngel": 1746,
      "ĠFootball": 1747,
      "eal": 1748,
      "led": 1749,
      "ius": 1750,
      "Ġ1970": 1751,
      "Ġdown": 1752,
      "FA": 1753,
      "ris": 1754,
      "ĠSaint": 1755,
      "lege": 1756,
      "uff": 1757,
      "Ġmuch": 1758,
      "ĠGree": 1759,
      "chn": 1760,
      "over": 1761,
      "Ġmanag": 1762,
      "Ġmarried": 1763,
      "Ġactiv": 1764,
      "arn": 1765,
      "Ġwhat": 1766,
      "97": 1767,
      "58": 1768,
      "ania": 1769,
      "ides": 1770,
      "ma": 1771,
      "rain": 1772,
      "Ġprot": 1773,
      "epend": 1774,
      "oung": 1775,
      "rote": 1776,
      "ĠRepublic": 1777,
      "Ġfamous": 1778,
      "itar": 1779,
      "||||||||": 1780,
      "iter": 1781,
      "istics": 1782,
      "Ġcancer": 1783,
      "Ġshort": 1784,
      "Ġ1994": 1785,
      "Ġwomen": 1786,
      "ean": 1787,
      "ior": 1788,
      "Ġvar": 1789,
      "osp": 1790,
      "ĠMil": 1791,
      "ĠReg": 1792,
      "ida": 1793,
      "ĠSov": 1794,
      "Ġstill": 1795,
      "Ġcomedy": 1796,
      "Ġmajor": 1797,
      "ael": 1798,
      "ĠFlor": 1799,
      "orp": 1800,
      "ĠNot": 1801,
      "Ġclass": 1802,
      "ĠTown": 1803,
      "yle": 1804,
      "uel": 1805,
      "Ġref": 1806,
      "oe": 1807,
      "ĠProv": 1808,
      "Ġbuilt": 1809,
      "ction": 1810,
      "Ġfather": 1811,
      "han": 1812,
      "Ġ31": 1813,
      "ya": 1814,
      "olution": 1815,
      "alth": 1816,
      "Ġjoin": 1817,
      "view": 1818,
      "Ġcurrent": 1819,
      "illa": 1820,
      "ĠGeorge": 1821,
      "ĠIts": 1822,
      "Ġrece": 1823,
      "ky": 1824,
      "ĠNY": 1825,
      "Ġ100": 1826,
      "gy": 1827,
      "ves": 1828,
      "66": 1829,
      "Ġstar": 1830,
      "astern": 1831,
      "ĠLouis": 1832,
      "Ġsold": 1833,
      "ases": 1834,
      "Ġ188": 1835,
      "Ġ1992": 1836,
      "ope": 1837,
      "Ġbre": 1838,
      "ĠPrime": 1839,
      "Ġpubl": 1840,
      "ĠSoviet": 1841,
      "95": 1842,
      "ĠPre": 1843,
      "hel": 1844,
      "Ġtit": 1845,
      "of": 1846,
      "Ġ1993": 1847,
      "Ġvill": 1848,
      "rick": 1849,
      "Ġdoes": 1850,
      "ĠJos": 1851,
      "Ġsupport": 1852,
      "utch": 1853,
      "ĠJack": 1854,
      "Ġlargest": 1855,
      "Ġcompany": 1856,
      "Ġtook": 1857,
      "Ġson": 1858,
      "Ġaward": 1859,
      "ĠArt": 1860,
      "Ġpublic": 1861,
      "ĠRed": 1862,
      "ĠChic": 1863,
      "ĠCat": 1864,
      "ansas": 1865,
      "Ġbusiness": 1866,
      "Ġgood": 1867,
      "ĠItaly": 1868,
      "ĠTw": 1869,
      "Ġwrote": 1870,
      "ĠVal": 1871,
      "ĠUnion": 1872,
      "ĠMount": 1873,
      "Ġmoved": 1874,
      "ĠEuropean": 1875,
      "ĠVir": 1876,
      "ĠKore": 1877,
      "ĠMany": 1878,
      "ena": 1879,
      "Ġanother": 1880,
      "Ġbecome": 1881,
      "ĠComm": 1882,
      "Ġla": 1883,
      "Ġfootballer": 1884,
      "ĠRich": 1885,
      "ĠTexas": 1886,
      "ness": 1887,
      "Ġthird": 1888,
      "ĠAg": 1889,
      "adio": 1890,
      "ised": 1891,
      "ĠChina": 1892,
      "Ġcame": 1893,
      "Ġsuccess": 1894,
      "Ġob": 1895,
      "ociation": 1896,
      "Ġheld": 1897,
      "ĠChicago": 1898,
      "Ġdirector": 1899,
      "Ġtop": 1900,
      "Ġbody": 1901,
      "Ġstage": 1902,
      "Ġ1991": 1903,
      "cy": 1904,
      "ĠRo": 1905,
      "ency": 1906,
      "work": 1907,
      "36": 1908,
      "Ġbig": 1909,
      "ades": 1910,
      "Ġneed": 1911,
      "ĠNYS": 1912,
      "44": 1913,
      "ots": 1914,
      "Ġeven": 1915,
      "ĠDemocrat": 1916,
      "rica": 1917,
      "Ġproble": 1918,
      "Ġcontin": 1919,
      "ournal": 1920,
      "uthor": 1921,
      "Ġalbums": 1922,
      "Ġgiven": 1923,
      "Ġprofessional": 1924,
      "Ġpos": 1925,
      "Ġwant": 1926,
      "ured": 1927,
      "Ġgen": 1928,
      "ival": 1929,
      "agn": 1930,
      "Ġbas": 1931,
      "Ġmean": 1932,
      "ady": 1933,
      "Ġphys": 1934,
      "ĠCast": 1935,
      "Ġbooks": 1936,
      "ĠPak": 1937,
      "ĠPri": 1938,
      "Ġpolitical": 1939,
      "Ġcond": 1940,
      "ĠDon": 1941,
      "ext": 1942,
      "ĠRobert": 1943,
      "ĠMont": 1944,
      "aced": 1945,
      "osed": 1946,
      "raft": 1947,
      "ĠSport": 1948,
      "ĠCap": 1949,
      "ĠLos": 1950,
      "rican": 1951,
      "ĠDuring": 1952,
      "Ġdeb": 1953,
      "55": 1954,
      "ĠMy": 1955,
      "Ġjust": 1956,
      "arm": 1957,
      "Ġcomm": 1958,
      "ĠSl": 1959,
      "Ġsix": 1960,
      "irl": 1961,
      "ĠDistrict": 1962,
      "Ġworked": 1963,
      "uter": 1964,
      "Ġocc": 1965,
      "ĠYou": 1966,
      "ki": 1967,
      "Ġnov": 1968,
      "ĠBlack": 1969,
      "Ġpoliticians": 1970,
      "78": 1971,
      "ĠMost": 1972,
      "ĠDavid": 1973,
      "Ġcensus": 1974,
      "ander": 1975,
      "ĠList": 1976,
      "ĠBest": 1977,
      "hi": 1978,
      "ĠDep": 1979,
      "Ġdesc": 1980,
      "ĠTra": 1981,
      "aving": 1982,
      "Ġcult": 1983,
      "iety": 1984,
      "Ġcharacter": 1985,
      "ility": 1986,
      "tain": 1987,
      "Ġthings": 1988,
      "ĠClub": 1989,
      "ula": 1990,
      "ĠJew": 1991,
      "Ġkilled": 1992,
      "atural": 1993,
      "era": 1994,
      "ĠAfrican": 1995,
      "Ġresp": 1996,
      "outhern": 1997,
      "Ġpresent": 1998,
      "31": 1999,
      "ĠChin": 2000,
      "ĠMal": 2001,
      "Ġepis": 2002,
      "ĠNe": 2003,
      "ĠHigh": 2004,
      "Ġalong": 2005,
      "Ġmen": 2006,
      "ville": 2007,
      "Ġrul": 2008,
      "Ġfive": 2009,
      "ump": 2010,
      "ĠFrom": 2011,
      "uted": 2012,
      "ĠDutch": 2013,
      "ĠScott": 2014,
      "men": 2015,
      "Ġlight": 2016,
      "ru": 2017,
      "Ġ|}": 2018,
      "ĠBas": 2019,
      "rab": 2020,
      "itions": 2021,
      "med": 2022,
      "Ġword": 2023,
      "oo": 2024,
      "ĠWe": 2025,
      "Ġfem": 2026,
      "ĠRes": 2027,
      "ories": 2028,
      "sc": 2029,
      "ĠHen": 2030,
      "ĠRoy": 2031,
      "ĠWash": 2032,
      "Ġ1989": 2033,
      "Ġliving": 2034,
      "Ġsw": 2035,
      "me": 2036,
      "ĠGro": 2037,
      "ids": 2038,
      "ĠAsia": 2039,
      "earch": 2040,
      "Ġperiod": 2041,
      "Ġmilitary": 2042,
      "ilar": 2043,
      "Ġred": 2044,
      "Ġrole": 2045,
      "ĠBy": 2046,
      "ĠAcadem": 2047,
      "ĠSal": 2048,
      "avy": 2049,
      "ĠSummer": 2050,
      "94": 2051,
      "ĠAfrica": 2052,
      "ĠEmp": 2053,
      "writer": 2054,
      "ĠBer": 2055,
      "Ġ1988": 2056,
      "Ġfounded": 2057,
      "Ġplays": 2058,
      "ano": 2059,
      "Ġ1981": 2060,
      "Ġtem": 2061,
      "Ġversion": 2062,
      "ĠDes": 2063,
      "Ġserved": 2064,
      "olic": 2065,
      "val": 2066,
      "ittle": 2067,
      "32": 2068,
      "Ġpublished": 2069,
      "ty": 2070,
      "ĠHal": 2071,
      "Ġhistor": 2072,
      "ours": 2073,
      "Ġef": 2074,
      "ĠMad": 2075,
      "Ġprovince": 2076,
      "eum": 2077,
      "Ġrepresent": 2078,
      "Ġusing": 2079,
      "ĠIll": 2080,
      "nect": 2081,
      "ĠQue": 2082,
      "off": 2083,
      "antic": 2084,
      "Ġexpl": 2085,
      "ux": 2086,
      "ĠThom": 2087,
      "reg": 2088,
      "ota": 2089,
      "Ġlook": 2090,
      "Ġworks": 2091,
      "ells": 2092,
      "ically": 2093,
      "Ġmy": 2094,
      "Ġorder": 2095,
      "ouncil": 2096,
      "'t": 2097,
      "Ġfrog": 2098,
      "irc": 2099,
      "ĠCath": 2100,
      "ĠMart": 2101,
      "Ġfollowing": 2102,
      "ĠWashington": 2103,
      "line": 2104,
      "Ġcamp": 2105,
      "77": 2106,
      "ĠGrand": 2107,
      "rael": 2108,
      "Ġparts": 2109,
      "Ġfew": 2110,
      "Ġaged": 2111,
      "lements": 2112,
      "Ġreturn": 2113,
      "Ġtog": 2114,
      "ĠSam": 2115,
      "Ġdise": 2116,
      "Ġ0": 2117,
      "Ġspecial": 2118,
      "Ġtogether": 2119,
      "Ġevent": 2120,
      "ĠAngeles": 2121,
      "ality": 2122,
      "ĠChinese": 2123,
      "ĠBut": 2124,
      "Ġengine": 2125,
      "ĠBu": 2126,
      "ĠAlex": 2127,
      "tal": 2128,
      "ĠDiv": 2129,
      "ators": 2130,
      "ĠPakistan": 2131,
      "Ġauthor": 2132,
      "itzer": 2133,
      "ize": 2134,
      "Ġ1950": 2135,
      "Ġide": 2136,
      "ĠWrit": 2137,
      "96": 2138,
      "ream": 2139,
      "ka": 2140,
      "Ġheart": 2141,
      "Ġgreat": 2142,
      "Ġcaused": 2143,
      "oul": 2144,
      "ĠCharles": 2145,
      "Ġfood": 2146,
      "ha": 2147,
      "ĠChristian": 2148,
      "ission": 2149,
      "LO": 2150,
      "odes": 2151,
      "ĠMunicipal": 2152,
      "ĠFirst": 2153,
      "Ġbecom": 2154,
      "ĠGreat": 2155,
      "ĠEv": 2156,
      "Ġsometimes": 2157,
      "ization": 2158,
      "ified": 2159,
      "ĠHall": 2160,
      "Ġelection": 2161,
      "ounced": 2162,
      "ĠMichael": 2163,
      "rip": 2164,
      "Ġequ": 2165,
      "ored": 2166,
      "iction": 2167,
      "St": 2168,
      "Ġgot": 2169,
      "ona": 2170,
      "ops": 2171,
      "Ġes": 2172,
      "Ġrest": 2173,
      "ĠNo": 2174,
      "Ġsee": 2175,
      "ĠDay": 2176,
      "Ġhuman": 2177,
      "lection": 2178,
      "Ġter": 2179,
      "Ġimp": 2180,
      "Ġ1986": 2181,
      "Ġarr": 2182,
      "Ġhig": 2183,
      "Ġtake": 2184,
      "Ġperform": 2185,
      "Ġvoice": 2186,
      "ĠVirgin": 2187,
      "ands": 2188,
      "ced": 2189,
      "Ġput": 2190,
      "ĠGold": 2191,
      "speople": 2192,
      "rov": 2193,
      "iol": 2194,
      "54": 2195,
      "ĠKar": 2196,
      "ĠPat": 2197,
      "minist": 2198,
      "Ġthought": 2199,
      "ĠMary": 2200,
      "ĠPlay": 2201,
      "Ġgener": 2202,
      "gian": 2203,
      "ĠRichard": 2204,
      "Ġsol": 2205,
      "Ġbelie": 2206,
      "ĠOlympics": 2207,
      "iddle": 2208,
      "ĠBill": 2209,
      "ĠSpain": 2210,
      "Ġbi": 2211,
      "iers": 2212,
      "ĠBen": 2213,
      "ĠMass": 2214,
      "Ġfight": 2215,
      "BC": 2216,
      "ĠLaw": 2217,
      "ĠMet": 2218,
      "Ġtrad": 2219,
      "arch": 2220,
      "unt": 2221,
      "Ġvot": 2222,
      "Ġ1987": 2223,
      "Ġseat": 2224,
      "Ġguitar": 2225,
      "AS": 2226,
      "ĠIsrael": 2227,
      "Ġmother": 2228,
      "ording": 2229,
      "ĠIr": 2230,
      "ument": 2231,
      "ĠCarol": 2232,
      "ways": 2233,
      "ĠGod": 2234,
      "lo": 2235,
      "Ġarch": 2236,
      "ration": 2237,
      "Ġ1984": 2238,
      "Ġlevel": 2239,
      "Ġtype": 2240,
      "ude": 2241,
      "Ġrepl": 2242,
      "Ġ1979": 2243,
      "ĠSim": 2244,
      "ared": 2245,
      "ĠTer": 2246,
      "88": 2247,
      "Ġsent": 2248,
      "Ġvol": 2249,
      "Ġstars": 2250,
      "ĠSo": 2251,
      "Ġfriend": 2252,
      "Ġeconom": 2253,
      "ĠTom": 2254,
      "Ġinternational": 2255,
      "ĠParis": 2256,
      "ini": 2257,
      "Ġnext": 2258,
      "Ġfeat": 2259,
      "erence": 2260,
      "ĠYear": 2261,
      "ĠAwards": 2262,
      "Ġriver": 2263,
      "ĠUK": 2264,
      "unn": 2265,
      "ĠChurch": 2266,
      "ĠDemocratic": 2267,
      "Ġgeneral": 2268,
      "ued": 2269,
      "ĠFLO": 2270,
      "atives": 2271,
      "59": 2272,
      "Ġking": 2273,
      "Ġline": 2274,
      "ĠFrank": 2275,
      "Ġmaking": 2276,
      "Ġscient": 2277,
      "ially": 2278,
      "Ġ1973": 2279,
      "Ġmark": 2280,
      "Ġstory": 2281,
      "ĠTowns": 2282,
      "ĠIf": 2283,
      "Ġcrit": 2284,
      "ĠTurk": 2285,
      "Ġ1985": 2286,
      "mb": 2287,
      "ĠArg": 2288,
      "ĠIsland": 2289,
      "Ġdata": 2290,
      "Ġvillage": 2291,
      "ming": 2292,
      "ĠLat": 2293,
      "Ġyou": 2294,
      "ĠGeneral": 2295,
      "etwork": 2296,
      "Ġ1976": 2297,
      "Ġ1982": 2298,
      "liam": 2299,
      "Ġorigin": 2300,
      "Ġrelig": 2301,
      "ura": 2302,
      "ĠKn": 2303,
      "peror": 2304,
      "Ġfind": 2305,
      "Ġhouse": 2306,
      "ĠFlorida": 2307,
      "ari": 2308,
      "Ġant": 2309,
      "Ġ1983": 2310,
      "ĠSant": 2311,
      "ĠCollege": 2312,
      "Ġchem": 2313,
      "ĠAcademy": 2314,
      "formation": 2315,
      "ĠEmpire": 2316,
      "Ġ50": 2317,
      "Ġvis": 2318,
      "Ġleader": 2319,
      "ID": 2320,
      "ropical": 2321,
      "Ġ1977": 2322,
      "ule": 2323,
      "Ġfail": 2324,
      "iber": 2325,
      "Ġstruct": 2326,
      "ĠRock": 2327,
      "Ġjournal": 2328,
      "oma": 2329,
      "Ġreceived": 2330,
      "inois": 2331,
      "Ġsimilar": 2332,
      "cast": 2333,
      "ĠAtl": 2334,
      "ĠDan": 2335,
      "ĠGo": 2336,
      "ston": 2337,
      "most": 2338,
      "Ġlocated": 2339,
      "Ġne": 2340,
      "ĠHam": 2341,
      "ĠKh": 2342,
      "liament": 2343,
      "ained": 2344,
      "lic": 2345,
      "63": 2346,
      "ĠTV": 2347,
      "cher": 2348,
      "ĠGra": 2349,
      "):": 2350,
      "ĠAustrian": 2351,
      "ĠIllinois": 2352,
      "cient": 2353,
      "Ġ1972": 2354,
      "ĠBi": 2355,
      "itzerland": 2356,
      "ĠRev": 2357,
      "Ġartist": 2358,
      "sy": 2359,
      "Ġproducer": 2360,
      "ertain": 2361,
      "Ġaut": 2362,
      "iga": 2363,
      "Ġnovel": 2364,
      "overed": 2365,
      "Ġdays": 2366,
      "Ġstation": 2367,
      "ĠDis": 2368,
      "Ġeduc": 2369,
      "Ġstop": 2370,
      "ĠGreek": 2371,
      "ĠMusic": 2372,
      "imate": 2373,
      "Ġpaint": 2374,
      "ĠIm": 2375,
      "ĠGovernor": 2376,
      "Ġseen": 2377,
      "ĠZeal": 2378,
      "ĠGeorg": 2379,
      "Ġhost": 2380,
      "Ġallow": 2381,
      "Ġav": 2382,
      "aim": 2383,
      "hest": 2384,
      "Ġprom": 2385,
      "ads": 2386,
      "ended": 2387,
      "Ġstatistics": 2388,
      "ering": 2389,
      "Ġ1978": 2390,
      "ĠPeter": 2391,
      "Ġval": 2392,
      "ĠZealand": 2393,
      "Ġgl": 2394,
      "Ġless": 2395,
      "ĠSwitzerland": 2396,
      "arian": 2397,
      "Ġmount": 2398,
      "Ġeast": 2399,
      "Ġgrow": 2400,
      "ĠSportspeople": 2401,
      "ĠArch": 2402,
      "ror": 2403,
      "Ġmodern": 2404,
      "Ġturn": 2405,
      "aves": 2406,
      "yr": 2407,
      "ĠTran": 2408,
      "olf": 2409,
      "ape": 2410,
      "ĠKansas": 2411,
      "Ġmakes": 2412,
      "Ġconsid": 2413,
      "08": 2414,
      "ĠFranc": 2415,
      "Ġdisease": 2416,
      "aff": 2417,
      "iron": 2418,
      "ĠDel": 2419,
      "ĠOlympic": 2420,
      "ĠUp": 2421,
      "ĠAssociation": 2422,
      "Ġ1930": 2423,
      "ĠRussia": 2424,
      "alf": 2425,
      "2006": 2426,
      "49": 2427,
      "ima": 2428,
      "Ġ187": 2429,
      "yd": 2430,
      "century": 2431,
      "aria": 2432,
      "ĠPoliticians": 2433,
      "ĠSweden": 2434,
      "Ġisland": 2435,
      "Ġstyle": 2436,
      "asket": 2437,
      "2005": 2438,
      "Ġproduced": 2439,
      "uz": 2440,
      "Ġ1974": 2441,
      "aughter": 2442,
      "ĠFilm": 2443,
      "Ġthose": 2444,
      "Ġ1975": 2445,
      "Ġblack": 2446,
      "Ġled": 2447,
      "ests": 2448,
      "Ġevents": 2449,
      "Ġbeg": 2450,
      "Ġindepend": 2451,
      "ĠWriters": 2452,
      "iana": 2453,
      "Ġelected": 2454,
      "Ġteams": 2455,
      "ults": 2456,
      "ĠTo": 2457,
      "ĠProvince": 2458,
      "2007": 2459,
      "ĠCatholic": 2460,
      "ĠMer": 2461,
      "Ġcontrol": 2462,
      "udd": 2463,
      "Ġbrother": 2464,
      "Ġparty": 2465,
      "ĠMexico": 2466,
      "Ġsex": 2467,
      "unk": 2468,
      "Ġstates": 2469,
      "Ġshould": 2470,
      "Ġformed": 2471,
      "itional": 2472,
      "Ġ1971": 2473,
      "uce": 2474,
      "ĠGreen": 2475,
      "though": 2476,
      "aken": 2477,
      "rey": 2478,
      "Ġ1940": 2479,
      "Ġdel": 2480,
      "Ġcharacters": 2481,
      "inter": 2482,
      "46": 2483,
      "ites": 2484,
      "lear": 2485,
      "Ġgod": 2486,
      "SS": 2487,
      "ined": 2488,
      "lam": 2489,
      "Ġsound": 2490,
      "uke": 2491,
      "Ġ#": 2492,
      "gypt": 2493,
      "07": 2494,
      "urt": 2495,
      "ergy": 2496,
      "Ġwithout": 2497,
      "Ġ:": 2498,
      "Ġnomin": 2499,
      "ĠEarth": 2500,
      "II": 2501,
      "board": 2502,
      "ted": 2503,
      "Ġmoney": 2504,
      "wood": 2505,
      "Ġphil": 2506,
      "ĠAct": 2507,
      "ada": 2508,
      "Ġconf": 2509,
      "Ġtitle": 2510,
      "Ġsay": 2511,
      "ĠVirginia": 2512,
      "ani": 2513,
      "Ġoriginal": 2514,
      "Ġplaces": 2515,
      "field": 2516,
      "Ġproblems": 2517,
      "oz": 2518,
      "aper": 2519,
      "Ġdi": 2520,
      "Ġside": 2521,
      "ols": 2522,
      "ongress": 2523,
      "Ġannounced": 2524,
      "Ġ/": 2525,
      "fecture": 2526,
      "iff": 2527,
      "hemat": 2528,
      "reet": 2529,
      "ĠBec": 2530,
      "Ġdescrib": 2531,
      "adu": 2532,
      "ĠArmy": 2533,
      "ĠWestern": 2534,
      "atory": 2535,
      "2004": 2536,
      "Ġwife": 2537,
      "Ġice": 2538,
      "ental": 2539,
      "ights": 2540,
      "ĠEr": 2541,
      "ublican": 2542,
      "ĠRoyal": 2543,
      "Ġdue": 2544,
      "self": 2545,
      "ĠBC": 2546,
      "ĠAnt": 2547,
      "Ġaway": 2548,
      "eep": 2549,
      "Ġexper": 2550,
      "ills": 2551,
      "ĠHenry": 2552,
      "56": 2553,
      "Ġshows": 2554,
      "Ġopp": 2555,
      "Ġlot": 2556,
      "appen": 2557,
      "Ġjoined": 2558,
      "ĠMac": 2559,
      "ĠEgypt": 2560,
      "icle": 2561,
      "ĠThomas": 2562,
      "Ġstrong": 2563,
      "Ġdest": 2564,
      "Ġsil": 2565,
      "Ġkind": 2566,
      "eball": 2567,
      "Ġmedal": 2568,
      "Ġpoet": 2569,
      "ense": 2570,
      "Amer": 2571,
      "Ġhockey": 2572,
      "ĠBrazilian": 2573,
      "Ġel": 2574,
      "asketball": 2575,
      "kn": 2576,
      "ards": 2577,
      "ĠTor": 2578,
      "ĠIran": 2579,
      "urs": 2580,
      "Ġstand": 2581,
      "Ġtotal": 2582,
      "ĠOl": 2583,
      "ĠVict": 2584,
      "Ġ1968": 2585,
      "ister": 2586,
      "Ġcy": 2587,
      "Ġmusician": 2588,
      "olk": 2589,
      "ĠArgent": 2590,
      "Ġmatch": 2591,
      "ĠCentral": 2592,
      "aine": 2593,
      "roy": 2594,
      "ached": 2595,
      "ĠOh": 2596,
      "ĠWomen": 2597,
      "ĠFin": 2598,
      "Ġcomposer": 2599,
      "ĠWil": 2600,
      "ĠWind": 2601,
      "ita": 2602,
      "ĠAcc": 2603,
      "ĠCO": 2604,
      "ridge": 2605,
      "xt": 2606,
      "Ġdefe": 2607,
      "go": 2608,
      "eph": 2609,
      "ront": 2610,
      "stead": 2611,
      "Ġbuilding": 2612,
      "Ġcities": 2613,
      "Ġlanguages": 2614,
      "Ġsite": 2615,
      "asons": 2616,
      "Ġothers": 2617,
      "Ġlost": 2618,
      "Ġchanged": 2619,
      "erst": 2620,
      "ĠBook": 2621,
      "urb": 2622,
      "raw": 2623,
      "2003": 2624,
      "Ġplan": 2625,
      "Ġlocal": 2626,
      "ylv": 2627,
      "ĠFI": 2628,
      "ĠWith": 2629,
      "ĠVill": 2630,
      "Ġfire": 2631,
      "2001": 2632,
      "order": 2633,
      "Ġdiff": 2634,
      "Ġprocess": 2635,
      "Ġwrest": 2636,
      "ĠPrize": 2637,
      "Ġmust": 2638,
      "Ġareas": 2639,
      "urrican": 2640,
      "Ġposs": 2641,
      "ements": 2642,
      "Ġrights": 2643,
      "ĠBay": 2644,
      "orpor": 2645,
      "ĠCouncil": 2646,
      "American": 2647,
      "ĠStud": 2648,
      "Ġchange": 2649,
      "ĠDo": 2650,
      "2008": 2651,
      "Ġstudio": 2652,
      "ĠRob": 2653,
      "be": 2654,
      "reed": 2655,
      "Ġ1969": 2656,
      "ĠMin": 2657,
      "Ġwee": 2658,
      "Ġdem": 2659,
      "reland": 2660,
      "Ġreal": 2661,
      "ched": 2662,
      "ender": 2663,
      "flu": 2664,
      "Ġreport": 2665,
      "oria": 2666,
      "ĠRepublican": 2667,
      "87": 2668,
      "ĠPop": 2669,
      "Ġmult": 2670,
      "Ġwhite": 2671,
      "FF": 2672,
      "Ġ1964": 2673,
      "Ġbeh": 2674,
      "ĠStar": 2675,
      "Ġlate": 2676,
      "ĠRecords": 2677,
      "not": 2678,
      "ĠGames": 2679,
      "ĠPet": 2680,
      "ado": 2681,
      "ĠCatal": 2682,
      "Ġlives": 2683,
      "ele": 2684,
      "ĠSwedish": 2685,
      "wards": 2686,
      "Ġ=": 2687,
      "93": 2688,
      "etherlands": 2689,
      "Ġincludes": 2690,
      "Ġpat": 2691,
      "Ġpoint": 2692,
      "Ġhappen": 2693,
      "ersey": 2694,
      "ĠDev": 2695,
      "oms": 2696,
      "ĠIreland": 2697,
      "Ġplaying": 2698,
      "ĠOk": 2699,
      "ĠMic": 2700,
      "2002": 2701,
      "Ġ1967": 2702,
      "ĠCont": 2703,
      "eland": 2704,
      "bor": 2705,
      "Ġsocial": 2706,
      "Ġhard": 2707,
      "ĠWhite": 2708,
      "Ġ$": 2709,
      "Ġeffect": 2710,
      "ĠPenn": 2711,
      "Ġbroad": 2712,
      "Ġscience": 2713,
      "ĠGroup": 2714,
      "ĠAv": 2715,
      "rd": 2716,
      "icles": 2717,
      "ript": 2718,
      "Ġcivil": 2719,
      "ĠScot": 2720,
      "aly": 2721,
      "lished": 2722,
      "aries": 2723,
      "Ġdet": 2724,
      "Ġfun": 2725,
      "Ġnon": 2726,
      "ĠCarolina": 2727,
      "Ġyoung": 2728,
      "Ġgave": 2729,
      "Ġincluded": 2730,
      "ĠAustria": 2731,
      "ĠSuper": 2732,
      ".,": 2733,
      "iller": 2734,
      "ips": 2735,
      "Ġ)": 2736,
      "Ġmix": 2737,
      "43": 2738,
      "Ġread": 2739,
      "ĠSecret": 2740,
      "awa": 2741,
      "Ġradio": 2742,
      "Ġmostly": 2743,
      "ogn": 2744,
      "ĠOs": 2745,
      "2000": 2746,
      "anies": 2747,
      "Ġmag": 2748,
      "rel": 2749,
      "iro": 2750,
      "Ġanimals": 2751,
      "61": 2752,
      "ning": 2753,
      "Ġhand": 2754,
      "iqu": 2755,
      "shire": 2756,
      "Ġphot": 2757,
      "part": 2758,
      "ĠLife": 2759,
      "Ġ40": 2760,
      "Un": 2761,
      "Ġappeared": 2762,
      "Ġpain": 2763,
      "Ġgold": 2764,
      "aker": 2765,
      "Ġfield": 2766,
      "ederal": 2767,
      "amm": 2768,
      "ĠMr": 2769,
      "Ġtechn": 2770,
      "ibr": 2771,
      "Ġaff": 2772,
      "Ġfinal": 2773,
      "cle": 2774,
      "41": 2775,
      "za": 2776,
      "Ġhold": 2777,
      "alls": 2778,
      "Ġrace": 2779,
      "Ġadv": 2780,
      "Ġresult": 2781,
      "ĠCro": 2782,
      "bon": 2783,
      "Ġnor": 2784,
      "anton": 2785,
      "ĠMel": 2786,
      "ĠHon": 2787,
      "ĠSur": 2788,
      "Ġwords": 2789,
      "ĠNetherlands": 2790,
      "ador": 2791,
      "ĠArab": 2792,
      "ym": 2793,
      "ĠEarly": 2794,
      "ps": 2795,
      "craft": 2796,
      "Ġsett": 2797,
      "ĠMag": 2798,
      "anguage": 2799,
      "Ġ1945": 2800,
      "li": 2801,
      "iger": 2802,
      "ĠBo": 2803,
      "92": 2804,
      "ĠRh": 2805,
      "Ġsea": 2806,
      "ĠApp": 2807,
      "ected": 2808,
      "Ġcolor": 2809,
      "ato": 2810,
      "iles": 2811,
      "br": 2812,
      "Ġdaughter": 2813,
      "ecut": 2814,
      "lected": 2815,
      "epar": 2816,
      "lement": 2817,
      "ĠChe": 2818,
      "sport": 2819,
      "Ġdebut": 2820,
      "inning": 2821,
      "2009": 2822,
      "91": 2823,
      "Ġcor": 2824,
      "1999": 2825,
      "Ġcomputer": 2826,
      "opher": 2827,
      "aud": 2828,
      "osaur": 2829,
      "Ġcomes": 2830,
      "Ġcal": 2831,
      "ĠLab": 2832,
      "heast": 2833,
      "ither": 2834,
      "Ġstudy": 2835,
      "ĠMark": 2836,
      "Ġcoach": 2837,
      "Ġuses": 2838,
      "uced": 2839,
      "ĠCr": 2840,
      "Ġtrib": 2841,
      "Ġtaken": 2842,
      "Ġz": 2843,
      "Ġwanted": 2844,
      "ww": 2845,
      "iding": 2846,
      "62": 2847,
      "Ġgra": 2848,
      "ĠConf": 2849,
      "ĠOhio": 2850,
      "ique": 2851,
      "Ġ1966": 2852,
      "isl": 2853,
      "ĠFam": 2854,
      "lor": 2855,
      "cean": 2856,
      "Ġ(;": 2857,
      "ĠHa": 2858,
      "53": 2859,
      "ĠSince": 2860,
      "ĠVol": 2861,
      "Ġfemale": 2862,
      "state": 2863,
      "Ġoffice": 2864,
      "ĠThat": 2865,
      "itect": 2866,
      "ube": 2867,
      "ĠBattle": 2868,
      "ĠDen": 2869,
      "ination": 2870,
      "ĠDivision": 2871,
      "51": 2872,
      "Ġrefer": 2873,
      "ĠGar": 2874,
      "Ġ[": 2875,
      "ny": 2876,
      "itch": 2877,
      "Ġinvol": 2878,
      "iy": 2879,
      "42": 2880,
      "ca": 2881,
      "ĠHung": 2882,
      "Ġ1947": 2883,
      "ellow": 2884,
      "eh": 2885,
      "gen": 2886,
      "Ġhaving": 2887,
      "Ġbirth": 2888,
      "atic": 2889,
      "Ġscreen": 2890,
      "ĠPortug": 2891,
      "Ġnatural": 2892,
      "gr": 2893,
      "ware": 2894,
      "ĠJer": 2895,
      "ĠSol": 2896,
      "Ġwithin": 2897,
      "lete": 2898,
      "Ch": 2899,
      "annel": 2900,
      "ĠNob": 2901,
      "GB": 2902,
      "ĠMod": 2903,
      "ĠUk": 2904,
      "Ġround": 2905,
      "Ġsports": 2906,
      "ked": 2907,
      "sel": 2908,
      "ĠLeg": 2909,
      "ictures": 2910,
      "la": 2911,
      "ĠMuseum": 2912,
      "Ġdam": 2913,
      "igan": 2914,
      "rial": 2915,
      "ĠGeography": 2916,
      "Ġbetter": 2917,
      "Ġdeveloped": 2918,
      "Ġpost": 2919,
      "onia": 2920,
      "ria": 2921,
      "ĠGeorgia": 2922,
      "esse": 2923,
      "Ġ1965": 2924,
      "Ġsurv": 2925,
      "ĠJersey": 2926,
      "Ġport": 2927,
      "ĠJr": 2928,
      "abit": 2929,
      "ĠScottish": 2930,
      "Ġknow": 2931,
      "ĠHel": 2932,
      "ĠMos": 2933,
      "Ġfootballers": 2934,
      "iest": 2935,
      "ĠPolish": 2936,
      "ĠJewish": 2937,
      "ĠHum": 2938,
      "Ġ1948": 2939,
      "Ġsom": 2940,
      "Ġhalf": 2941,
      "Ġsays": 2942,
      "Ġvoc": 2943,
      "ĠNorthern": 2944,
      "Ġthink": 2945,
      "ged": 2946,
      "Ġprison": 2947,
      "ĠBoy": 2948,
      "Ġ1963": 2949,
      "ĠGen": 2950,
      "Ġ1956": 2951,
      "heim": 2952,
      "ĠSong": 2953,
      "ĠLo": 2954,
      "Ġinformation": 2955,
      "ĠPe": 2956,
      "Ġcome": 2957,
      "ĠBur": 2958,
      "sych": 2959,
      "VID": 2960,
      "Ġfree": 2961,
      "Ġsepar": 2962,
      "Ġmass": 2963,
      "Ġlearn": 2964,
      "ĠLake": 2965,
      "Ġestablished": 2966,
      "Ġdistrib": 2967,
      "ĠGall": 2968,
      "asy": 2969,
      "Ġviol": 2970,
      "ances": 2971,
      "ĠLove": 2972,
      "ĠKent": 2973,
      "ĠLee": 2974,
      "ua": 2975,
      "yo": 2976,
      "ification": 2977,
      "Ġconsidered": 2978,
      "bers": 2979,
      "urricane": 2980,
      "ological": 2981,
      "Ġbecomes": 2982,
      "Ġspeak": 2983,
      "Ġamong": 2984,
      "Ġstudied": 2985,
      "ĠSett": 2986,
      "ĠCOVID": 2987,
      "Ġtour": 2988,
      "acy": 2989,
      "Ġconnect": 2990,
      "ĠStev": 2991,
      "iple": 2992,
      "Ġtoo": 2993,
      "ĠBor": 2994,
      "ospital": 2995,
      "Ġadminist": 2996,
      "ĠRepresent": 2997,
      "ĠSun": 2998,
      "Ġfish": 2999,
      "umn": 3000,
      "Ġhon": 3001,
      "Ġsouthern": 3002,
      "agon": 3003,
      "Ġinflu": 3004,
      "ils": 3005,
      "ĠJul": 3006,
      "ources": 3007,
      "ola": 3008,
      "etts": 3009,
      "Ġable": 3010,
      "ĠCamp": 3011,
      "Ġlab": 3012,
      "uf": 3013,
      "lim": 3014,
      "Ġ2023": 3015,
      "ĠPrefecture": 3016,
      "roll": 3017,
      "ĠCenter": 3018,
      "Ġcommunity": 3019,
      "itor": 3020,
      "Ġ1961": 3021,
      "ĠCor": 3022,
      "itz": 3023,
      "acher": 3024,
      "less": 3025,
      "elling": 3026,
      "Ġsqu": 3027,
      "Ġepisode": 3028,
      "ĠQueen": 3029,
      "Ġdone": 3030,
      "ĠEmperor": 3031,
      "ouri": 3032,
      "utes": 3033,
      "Ġ1962": 3034,
      "ĠPrince": 3035,
      "ĠRos": 3036,
      "ta": 3037,
      "ament": 3038,
      "ĠAnn": 3039,
      "Ġ1946": 3040,
      "ĠBang": 3041,
      "Ġindust": 3042,
      "etic": 3043,
      "ems": 3044,
      "known": 3045,
      "sylv": 3046,
      "ĠSk": 3047,
      "ĠCount": 3048,
      "ĠCivil": 3049,
      "ondiss": 3050,
      "ashi": 3051,
      "Ġtrain": 3052,
      "vious": 3053,
      "ĠInter": 3054,
      "Ġcenter": 3055,
      "ĠSmith": 3056,
      "like": 3057,
      "Ġwoman": 3058,
      "urder": 3059,
      "ĠPan": 3060,
      "ĠInstit": 3061,
      "Ġspace": 3062,
      "Ġabove": 3063,
      "used": 3064,
      "ĠIrish": 3065,
      "\")": 3066,
      "Ġtre": 3067,
      "jan": 3068,
      "ĠCourt": 3069,
      "ĠColumb": 3070,
      "ams": 3071,
      "ĠMat": 3072,
      "song": 3073,
      "Ġmot": 3074,
      "Ġlow": 3075,
      "ĠJust": 3076,
      "ampion": 3077,
      "aps": 3078,
      "ĠIslam": 3079,
      "forman": 3080,
      "ĠSilla": 3081,
      "Ġmodel": 3082,
      "ĠLin": 3083,
      "mar": 3084,
      "Ġinstr": 3085,
      "ĠObs": 3086,
      "Ġmathemat": 3087,
      "Ġposition": 3088,
      "rie": 3089,
      "Ġwriters": 3090,
      "ĠMunicipalities": 3091,
      "achus": 3092,
      "itiz": 3093,
      "Ġ1942": 3094,
      "Ġcoast": 3095,
      "ĠGovernment": 3096,
      "sylvania": 3097,
      "ĠIII": 3098,
      "ĠFIFA": 3099,
      "ground": 3100,
      "oor": 3101,
      "apt": 3102,
      "Ġtrack": 3103,
      "Ġ1949": 3104,
      "Ġphilos": 3105,
      "sur": 3106,
      "aka": 3107,
      "Ġcop": 3108,
      "Ġnever": 3109,
      "Ġworking": 3110,
      "Ġ1957": 3111,
      "Ġ1920": 3112,
      "azz": 3113,
      "ĠCongress": 3114,
      "band": 3115,
      "Ġthough": 3116,
      "ĠBern": 3117,
      "1998": 3118,
      "ently": 3119,
      "ĠEOS": 3120,
      "Ġnorthern": 3121,
      "Ġ1941": 3122,
      "Ġincre": 3123,
      "Ġtro": 3124,
      "Ġtreat": 3125,
      "ately": 3126,
      "Ġcounties": 3127,
      "ĠMartin": 3128,
      "Ġcirc": 3129,
      "Ġ1944": 3130,
      "Ġiss": 3131,
      "ritory": 3132,
      "elt": 3133,
      "Ġwinners": 3134,
      "ĠSea": 3135,
      "achusetts": 3136,
      "Ġ1936": 3137,
      "ĠParliament": 3138,
      "Ġmusical": 3139,
      "ĠJim": 3140,
      "Ġ1951": 3141,
      "52": 3142,
      "Ġobject": 3143,
      "ĠMa": 3144,
      "play": 3145,
      "Ġintrod": 3146,
      "Ġet": 3147,
      "ĠTelevision": 3148,
      "ĠWW": 3149,
      "eff": 3150,
      "Ġkeep": 3151,
      "Ġalmost": 3152,
      "Ġfar": 3153,
      "ds": 3154,
      "vers": 3155,
      "back": 3156,
      "ĠScotland": 3157,
      "ĠFred": 3158,
      "Ġbr": 3159,
      "Ġ1939": 3160,
      "ĠMassachusetts": 3161,
      "Ġchart": 3162,
      "Ġill": 3163,
      "ĠTheir": 3164,
      "Ġoffic": 3165,
      "Ġplants": 3166,
      "wh": 3167,
      "verage": 3168,
      "ette": 3169,
      "Ġfull": 3170,
      "read": 3171,
      "ĠCons": 3172,
      "Ġtypes": 3173,
      "Ġhor": 3174,
      "Ġsingers": 3175,
      "Ġservice": 3176,
      "Ġ1934": 3177,
      "Ġhighest": 3178,
      "wa": 3179,
      "Ġfa": 3180,
      "ĠLand": 3181,
      "Ġ88": 3182,
      "ĠEdward": 3183,
      "Ġnames": 3184,
      "ishop": 3185,
      "ĠHaleak": 3186,
      "ĠWales": 3187,
      "ĠDisney": 3188,
      "Ġmusicians": 3189,
      "HL": 3190,
      "ĠJoseph": 3191,
      "ĠStan": 3192,
      "Ġ1958": 3193,
      "oto": 3194,
      "ĠSettlements": 3195,
      "Ġpres": 3196,
      "Ġthr": 3197,
      "Ġcast": 3198,
      "ĠBecause": 3199,
      "ĠBob": 3200,
      "ĠSat": 3201,
      "pec": 3202,
      "ĠHot": 3203,
      "ella": 3204,
      "aterial": 3205,
      "Ġaction": 3206,
      "Ġdev": 3207,
      "Ġcand": 3208,
      "ĠSil": 3209,
      "Ġretired": 3210,
      "Ġended": 3211,
      "ĠPennsylvania": 3212,
      "cul": 3213,
      "ĠHaleakala": 3214,
      "Ġhit": 3215,
      "ĠKorean": 3216,
      "now": 3217,
      "Ġwinning": 3218,
      "pher": 3219,
      "Ġbasketball": 3220,
      "Ġcomb": 3221,
      "Ġ1938": 3222,
      "Ġleast": 3223,
      "ider": 3224,
      "ba": 3225,
      "pe": 3226,
      "zech": 3227,
      "ĠEU": 3228,
      "AR": 3229,
      "ranch": 3230,
      "Ġkey": 3231,
      "ĠTok": 3232,
      "Ġsuccessful": 3233,
      "ologist": 3234,
      "ĠFormer": 3235,
      "ĠWrest": 3236,
      "Ġ1952": 3237,
      "Ġinf": 3238,
      "1997": 3239,
      "Ġopened": 3240,
      "ĠUs": 3241,
      "Ġenergy": 3242,
      "Ġ(\"": 3243,
      "Ġ1954": 3244,
      "istricts": 3245,
      "mark": 3246,
      "Ġche": 3247,
      "Ġwin": 3248,
      "ĠCarl": 3249,
      "Ġarmy": 3250,
      "ression": 3251,
      "Ġten": 3252,
      "estival": 3253,
      "owa": 3254,
      "ĠJo": 3255,
      "Ġprim": 3256,
      "Ġ1929": 3257,
      "Ġappro": 3258,
      "uit": 3259,
      "Ġ1959": 3260,
      "Ġmetal": 3261,
      "ĠKorea": 3262,
      "ĠBir": 3263,
      "ĠNotes": 3264,
      "ĠSom": 3265,
      "Ġconstit": 3266,
      "Ġpolice": 3267,
      "ĠSenate": 3268,
      "Ġrom": 3269,
      "Ġrail": 3270,
      "Ġmid": 3271,
      "Ġ1933": 3272,
      "aign": 3273,
      "Ġhimself": 3274,
      "ĠRail": 3275,
      "ĠMissouri": 3276,
      "bour": 3277,
      "Ġmeaning": 3278,
      "ĠJackson": 3279,
      "ores": 3280,
      "Ġfailure": 3281,
      "Ġminist": 3282,
      "Ġtemper": 3283,
      "ĠBig": 3284,
      "TV": 3285,
      "ulf": 3286,
      "ĠSar": 3287,
      "orf": 3288,
      "Ġcomplet": 3289,
      "ĠAsian": 3290,
      "Ġjournalist": 3291,
      "nes": 3292,
      "och": 3293,
      "leg": 3294,
      "Ġ1943": 3295,
      "ĠLatin": 3296,
      "ĠTim": 3297,
      "Ġforces": 3298,
      "Ġculture": 3299,
      "ova": 3300,
      "ĠCzech": 3301,
      "Ġgive": 3302,
      "ĠDisc": 3303,
      "ĠPhilipp": 3304,
      "ĠEnter": 3305,
      "ĠOb": 3306,
      "Ġlik": 3307,
      "ĠFC": 3308,
      "Ġtransl": 3309,
      "ĠMexican": 3310,
      "ires": 3311,
      "Ġplant": 3312,
      "Ġ1955": 3313,
      "Ġmove": 3314,
      "Ġrequ": 3315,
      "owers": 3316,
      "Ġvarious": 3317,
      "Ġlawy": 3318,
      "ario": 3319,
      "ĠLater": 3320,
      "ecutive": 3321,
      "Ġi": 3322,
      "iano": 3323,
      "ĠIslands": 3324,
      "ye": 3325,
      "ĠGal": 3326,
      "viron": 3327,
      "gar": 3328,
      "ively": 3329,
      "Ġtest": 3330,
      "Ġcause": 3331,
      "ĠVer": 3332,
      "Ġ80": 3333,
      "ynast": 3334,
      "Ġlet": 3335,
      "Ġ1935": 3336,
      "Ġmanager": 3337,
      "Ġ1928": 3338,
      "ira": 3339,
      "Ġgirl": 3340,
      "ĠHockey": 3341,
      "Ġ1931": 3342,
      "Ġsymb": 3343,
      "Ġnetwork": 3344,
      "ĠCatalina": 3345,
      "Ġjob": 3346,
      "itte": 3347,
      "ĠSir": 3348,
      "Ġground": 3349,
      "ĠEs": 3350,
      "Ġaverage": 3351,
      "Ġliter": 3352,
      "itive": 3353,
      "Ġacross": 3354,
      "Ġbuildings": 3355,
      "ĠAccording": 3356,
      "Ġrecorded": 3357,
      "Ġlim": 3358,
      "ĠTwo": 3359,
      "Ġtry": 3360,
      "2010": 3361,
      "Ġbad": 3362,
      "ĠBrown": 3363,
      "Ġinstead": 3364,
      "ĠOver": 3365,
      "Ġperformed": 3366,
      "Ġ1937": 3367,
      "ĠUr": 3368,
      "Ġconc": 3369,
      "Ġstorm": 3370,
      "LS": 3371,
      "Ġtakes": 3372,
      "ĠTime": 3373,
      "ĠJean": 3374,
      "ĠUE": 3375,
      "ĠEduc": 3376,
      "Ġarrondiss": 3377,
      "Ġ60": 3378,
      "Ġproduct": 3379,
      "Ġcentral": 3380,
      "ĠMP": 3381,
      "har": 3382,
      "ething": 3383,
      "ĠPac": 3384,
      "Ġcurrently": 3385,
      "ĠHaw": 3386,
      "Ġprotect": 3387,
      "ios": 3388,
      "Ġtravel": 3389,
      "ĠFox": 3390,
      "gg": 3391,
      "asc": 3392,
      "Ġexist": 3393,
      "Ġmainly": 3394,
      "ĠOld": 3395,
      "1996": 3396,
      "Ġbar": 3397,
      "ably": 3398,
      "ĠFar": 3399,
      "Ġmeas": 3400,
      "Ġmaterial": 3401,
      "face": 3402,
      "ped": 3403,
      "Ġclaim": 3404,
      "ĠCSS": 3405,
      "Ġtowns": 3406,
      "anda": 3407,
      "eck": 3408,
      "ĠUnd": 3409,
      "stein": 3410,
      "ĠCam": 3411,
      "ĠMo": 3412,
      "ĠKe": 3413,
      "Ġroles": 3414,
      "ethod": 3415,
      "ĠSecond": 3416,
      "Ġcrime": 3417,
      "Ġdestroy": 3418,
      "language": 3419,
      "Ġunivers": 3420,
      "ĠMinn": 3421,
      "ĠLuc": 3422,
      "Ġamount": 3423,
      "Ġ1953": 3424,
      "Ġpark": 3425,
      "ĠTod": 3426,
      "Ġhealth": 3427,
      "Ġ1932": 3428,
      "ja": 3429,
      "Ġsug": 3430,
      "1995": 3431,
      "Ġwind": 3432,
      "Ġmovement": 3433,
      "Ġrelations": 3434,
      "abeth": 3435,
      "Ġeither": 3436,
      "Ġproper": 3437,
      "azine": 3438,
      "adesh": 3439,
      "Ġseats": 3440,
      "Ġ180": 3441,
      "Ġcertain": 3442,
      "Ġnorm": 3443,
      "stron": 3444,
      "Ġrecogn": 3445,
      "Ġwhe": 3446,
      "OR": 3447,
      "Ġblood": 3448,
      "ĠScient": 3449,
      "time": 3450,
      "Ġmonths": 3451,
      "Ġeat": 3452,
      "reme": 3453,
      "ĠAp": 3454,
      "ĠWood": 3455,
      "Ġchurch": 3456,
      "Ġview": 3457,
      "ko": 3458,
      "Ġhelped": 3459,
      "Ġseven": 3460,
      "Ġmight": 3461,
      "ource": 3462,
      "Ġwestern": 3463,
      "ivid": 3464,
      "Ġclose": 3465,
      "Ġ1926": 3466,
      "Ġball": 3467,
      "pecially": 3468,
      "Ġcreat": 3469,
      "Ġchemical": 3470,
      "Ġstructures": 3471,
      "Ġarchitect": 3472,
      "year": 3473,
      "ĠIowa": 3474,
      "Ġalways": 3475,
      "isco": 3476,
      "ĠStep": 3477,
      "Ġsit": 3478,
      "Ġvict": 3479,
      "Ġbroadcast": 3480,
      "United": 3481,
      "ĠDire": 3482,
      "ĠSpring": 3483,
      "airs": 3484,
      "Ġcase": 3485,
      "Ġcat": 3486,
      "89": 3487,
      "NA": 3488,
      "ih": 3489,
      "anger": 3490,
      "ending": 3491,
      "Ġwriting": 3492,
      "ention": 3493,
      "ĠStreet": 3494,
      "Ġreached": 3495,
      "ĠSecretary": 3496,
      "Ġpast": 3497,
      "ĠClass": 3498,
      "eld": 3499,
      "Ġident": 3500,
      "adium": 3501,
      "Ġonce": 3502,
      "wan": 3503,
      "Ġge": 3504,
      "Ġ1927": 3505,
      "Ġcompanies": 3506,
      "Ġtoday": 3507,
      "Ġproduction": 3508,
      "Ġ(,": 3509,
      "Ġcandid": 3510,
      "urther": 3511,
      "Ġdeg": 3512,
      "75": 3513,
      "Ġeight": 3514,
      "ĠNobel": 3515,
      "ali": 3516,
      "ĠJud": 3517,
      "ends": 3518,
      "ĠHill": 3519,
      "oints": 3520,
      "ĠBuild": 3521,
      "Ġfourth": 3522,
      "aki": 3523,
      "ĠAnton": 3524,
      "ĠSocial": 3525,
      "Ġmurder": 3526,
      "ĠPoland": 3527,
      "ĠSub": 3528,
      "ĠBad": 3529,
      "Ġnumbers": 3530,
      "ĠMichigan": 3531,
      "Ġshown": 3532,
      "Ġanimated": 3533,
      "Ġcompeted": 3534,
      "vironment": 3535,
      "Ġreplaced": 3536,
      "uments": 3537,
      "Ġpe": 3538,
      "stant": 3539,
      "Ġtree": 3540,
      "ĠOrder": 3541,
      "Ġcanton": 3542,
      "Ġpainter": 3543,
      "ucky": 3544,
      "Ġinh": 3545,
      "Ġpress": 3546,
      "ias": 3547,
      "embly": 3548,
      "ĠOut": 3549,
      "ĠBefore": 3550,
      "Ġprop": 3551,
      "Ġmonth": 3552,
      "ĠAre": 3553,
      "Ġidea": 3554,
      "ĠSports": 3555,
      "ĠHind": 3556,
      "use": 3557,
      "Ġgoal": 3558,
      "Ġtalk": 3559,
      "Ġcapt": 3560,
      "ibrary": 3561,
      "Ġcard": 3562,
      "Ġdevelopment": 3563,
      "ift": 3564,
      "ĠInt": 3565,
      "Ġsigned": 3566,
      "Ġrev": 3567,
      "ĠUnivers": 3568,
      "ĠLu": 3569,
      "Ġ70": 3570,
      "ĠCareer": 3571,
      "Ġinvent": 3572,
      "Ġsoft": 3573,
      "remier": 3574,
      "Ġchanges": 3575,
      "Ġcitiz": 3576,
      "cel": 3577,
      "Ġhot": 3578,
      "Ġcomed": 3579,
      "ĠGolden": 3580,
      "Ġprograms": 3581,
      "Ġcourt": 3582,
      "uty": 3583,
      "Ġcross": 3584,
      "ĠKenn": 3585,
      "ietn": 3586,
      "ume": 3587,
      "eds": 3588,
      "ĠWal": 3589,
      "72": 3590,
      "ĠBritain": 3591,
      "ĠServ": 3592,
      "ois": 3593,
      "enth": 3594,
      "ĠDar": 3595,
      "Ġreact": 3596,
      "ĠSeries": 3597,
      "ĠSociety": 3598,
      "Ġdecided": 3599,
      "ynasty": 3600,
      "ĠAlb": 3601,
      "atre": 3602,
      "Ġdead": 3603,
      "Ġuniversity": 3604,
      "Ġstudents": 3605,
      "ĠTenn": 3606,
      "ĠInstitute": 3607,
      "ĠAnim": 3608,
      "ĠMcC": 3609,
      "Ġpromot": 3610,
      "Ġinj": 3611,
      "ĠYoung": 3612,
      "idge": 3613,
      "Ġancient": 3614,
      "Ġpract": 3615,
      "Ġox": 3616,
      "Ġder": 3617,
      "ternet": 3618,
      "Ġnight": 3619,
      "Ġrelease": 3620,
      "ĠTeam": 3621,
      "ĠMiddle": 3622,
      "ĠBav": 3623,
      "Ġproject": 3624,
      "Ġ1925": 3625,
      "In": 3626,
      "ĠSand": 3627,
      "idence": 3628,
      "ĠOrgan": 3629,
      "Ġreturned": 3630,
      "Ġ!": 3631,
      "Ġarrest": 3632,
      "ĠRome": 3633,
      "oke": 3634,
      "oci": 3635,
      "ĠAtlantic": 3636,
      "sen": 3637,
      "Ġpay": 3638,
      "Ġlittle": 3639,
      "ĠLy": 3640,
      "ora": 3641,
      "Ġespecially": 3642,
      "emp": 3643,
      "Ġgoes": 3644,
      "Ġboy": 3645,
      "ĠBusiness": 3646,
      "esota": 3647,
      "ographer": 3648,
      "Ġprevious": 3649,
      "Ġadded": 3650,
      "Ġinside": 3651,
      "Ġ90": 3652,
      "Ġoutside": 3653,
      "urd": 3654,
      "Ġjud": 3655,
      "edia": 3656,
      "omer": 3657,
      "ipl": 3658,
      "Ġearl": 3659,
      "Ġgradu": 3660,
      "ĠThen": 3661,
      "ati": 3662,
      "ĠFe": 3663,
      "ĠRepresentatives": 3664,
      "inces": 3665,
      "Ġfiction": 3666,
      "Ġbattle": 3667,
      "ĠMuslim": 3668,
      "ĠLittle": 3669,
      "Ġindependent": 3670,
      "Ġfig": 3671,
      "ĠBab": 3672,
      "stra": 3673,
      "ĠGood": 3674,
      "ĠAbout": 3675,
      "ĠMax": 3676,
      "ĠVietn": 3677,
      "anche": 3678,
      "aska": 3679,
      "ulation": 3680,
      "ĠWork": 3681,
      "ĠMinnesota": 3682,
      "ĠPress": 3683,
      "ateg": 3684,
      "1994": 3685,
      "Ġperforman": 3686,
      "Ġallowed": 3687,
      "ĠDepartment": 3688,
      "Ġbaseball": 3689,
      "86": 3690,
      "Ġsen": 3691,
      "Ġdrug": 3692,
      "Ġfall": 3693,
      "Ġfre": 3694,
      "Ġmunicipalities": 3695,
      "ĠEver": 3696,
      "Ġartists": 3697,
      "Ġleaders": 3698,
      "ĠEp": 3699,
      "ĠSa": 3700,
      "ĠMah": 3701,
      "Ġhom": 3702,
      "Ġbox": 3703,
      "ĠGh": 3704,
      "Ġsomething": 3705,
      "Ġenough": 3706,
      "Ġfif": 3707,
      "mond": 3708,
      "Ġlaun": 3709,
      "ength": 3710,
      "Ġnominated": 3711,
      "Ġcannot": 3712,
      "rich": 3713,
      "Ġmountain": 3714,
      "Ġsouthwest": 3715,
      "Ġrap": 3716,
      "also": 3717,
      "ĠPers": 3718,
      "uns": 3719,
      "Ġmeet": 3720,
      "Ġfront": 3721,
      "Ġinterest": 3722,
      "Ġrelated": 3723,
      "Ġforce": 3724,
      "lah": 3725,
      "ĠTour": 3726,
      "ĠArmen": 3727,
      "ĠCompany": 3728,
      "people": 3729,
      "ĠWrestling": 3730,
      "ĠFrancisco": 3731,
      "Ġresearch": 3732,
      "icular": 3733,
      "riz": 3734,
      "adel": 3735,
      "Ġpossible": 3736,
      "Ġboard": 3737,
      "85": 3738,
      "oston": 3739,
      "Ġtheory": 3740,
      "ising": 3741,
      "ounds": 3742,
      "win": 3743,
      "Ġsystems": 3744,
      "ĠWay": 3745,
      "Ġsequ": 3746,
      "ĠJac": 3747,
      "ĠBul": 3748,
      "Ġcele": 3749,
      "ĠRon": 3750,
      "ĠFer": 3751,
      "ĠDuke": 3752,
      "hin": 3753,
      "Ġath": 3754,
      "ĠColumbia": 3755,
      "ĠPictures": 3756,
      "ĠGram": 3757,
      "Ġparents": 3758,
      "Ġbands": 3759,
      "Ġaircraft": 3760,
      "ĠNaz": 3761,
      "ĠEntertain": 3762,
      "Ġfriends": 3763,
      "ittee": 3764,
      "Ġ1924": 3765,
      "Ġactivist": 3766,
      "ĠLouisiana": 3767,
      "iting": 3768,
      "Ġgoing": 3769,
      "ĠVan": 3770,
      "estab": 3771,
      "izations": 3772,
      "ĠAlexander": 3773,
      "aged": 3774,
      "Ġcoll": 3775,
      "ĠForm": 3776,
      "Ġvir": 3777,
      "ivate": 3778,
      "CA": 3779,
      "Ġoriginally": 3780,
      "Ġstay": 3781,
      "Ġearth": 3782,
      "ĠTre": 3783,
      "rative": 3784,
      "ĠElect": 3785,
      "inson": 3786,
      "can": 3787,
      "Ġrac": 3788,
      "Ġweek": 3789,
      "ĠPLS": 3790,
      "ĠAirport": 3791,
      "Ġ1922": 3792,
      "add": 3793,
      "hess": 3794,
      "ayer": 3795,
      "ĠLeon": 3796,
      "Ġmem": 3797,
      "ĠSpec": 3798,
      "Ġtropical": 3799,
      "ply": 3800,
      "1993": 3801,
      "ĠWindows": 3802,
      "aya": 3803,
      "Ġlonger": 3804,
      "ĠFootballers": 3805,
      "illy": 3806,
      "arg": 3807,
      "ĠAD": 3808,
      "Ġresults": 3809,
      "ĠBiography": 3810,
      "incess": 3811,
      "isions": 3812,
      "ji": 3813,
      "iences": 3814,
      "Ġbreak": 3815,
      "uts": 3816,
      "74": 3817,
      "Ġdig": 3818,
      "ami": 3819,
      "Ġnorthwest": 3820,
      "ras": 3821,
      "inger": 3822,
      "ĠFame": 3823,
      "Ġseasons": 3824,
      "ĠEastern": 3825,
      "ensive": 3826,
      "ĠChief": 3827,
      "Ġgrand": 3828,
      "imb": 3829,
      "lahoma": 3830,
      "Ġshoot": 3831,
      "min": 3832,
      "Ġren": 3833,
      "GBT": 3834,
      "Ġcampaign": 3835,
      "ĠId": 3836,
      "ĠFamily": 3837,
      "79": 3838,
      "uses": 3839,
      "Ġreview": 3840,
      "ailable": 3841,
      "ĠHistor": 3842,
      "yan": 3843,
      "zo": 3844,
      "ĠChild": 3845,
      "Ġpur": 3846,
      "ĠPerson": 3847,
      "hood": 3848,
      "ĠNight": 3849,
      "ify": 3850,
      "Ġlove": 3851,
      "Ġfinished": 3852,
      "ĠOklahoma": 3853,
      "va": 3854,
      "Ġcrick": 3855,
      "ĠMu": 3856,
      "ĠShow": 3857,
      "ĠJeff": 3858,
      "Ġcell": 3859,
      "Ġsize": 3860,
      "Ġ1923": 3861,
      "ila": 3862,
      "umm": 3863,
      "Ġoldest": 3864,
      "orial": 3865,
      "Ġmale": 3866,
      "olitan": 3867,
      "ĠTam": 3868,
      "ĠCub": 3869,
      "Ġdivided": 3870,
      "ĠMajor": 3871,
      "05": 3872,
      "cest": 3873,
      "Ġepisodes": 3874,
      "ĠDet": 3875,
      "idae": 3876,
      "rown": 3877,
      "//": 3878,
      "war": 3879,
      "org": 3880,
      "raine": 3881,
      "Ġ1900": 3882,
      "ĠBoston": 3883,
      "ĠLong": 3884,
      "76": 3885,
      "Ġmiss": 3886,
      "oud": 3887,
      "ĠCharl": 3888,
      "Ġhowever": 3889,
      "ĠArk": 3890,
      "Ġdoc": 3891,
      "ĠAk": 3892,
      "value": 3893,
      "sort": 3894,
      "ĠChile": 3895,
      "present": 3896,
      "ĠWars": 3897,
      "ĠMem": 3898,
      "Ġhospital": 3899,
      "Ġleague": 3900,
      "Ġprob": 3901,
      "ĠNord": 3902,
      "lav": 3903,
      "ĠPacific": 3904,
      "utt": 3905,
      "Ġmedia": 3906,
      "Ġmach": 3907,
      "ĠEliz": 3908,
      "ĠTokyo": 3909,
      "rack": 3910,
      "ĠMatt": 3911,
      "ĠWhile": 3912,
      "Ġbo": 3913,
      "Ġeastern": 3914,
      "Ġconv": 3915,
      "Ġgoals": 3916,
      "ĠLGBT": 3917,
      "Ġer": 3918,
      "://": 3919,
      "Ġcycl": 3920,
      "ĠWWE": 3921,
      "Ġelectric": 3922,
      "Ġwid": 3923,
      "ĠPope": 3924,
      "elle": 3925,
      "Ġpersonal": 3926,
      "Ġchampionship": 3927,
      "Ġnewsp": 3928,
      "enced": 3929,
      "ĠOcean": 3930,
      "ĠBal": 3931,
      "Ġquick": 3932,
      "lers": 3933,
      "ĠNews": 3934,
      "aining": 3935,
      "aches": 3936,
      "umi": 3937,
      "Ġcontinued": 3938,
      "Ġeducation": 3939,
      "ĠRay": 3940,
      "ĠBerlin": 3941,
      "Ġlo": 3942,
      "Ġcases": 3943,
      "Ġpsych": 3944,
      "ĠMaria": 3945,
      "ĠLi": 3946,
      "ĠJohnson": 3947,
      "Ġmethod": 3948,
      "Ġsuper": 3949,
      "ĠGame": 3950,
      ".)": 3951,
      "ela": 3952,
      "Ġacadem": 3953,
      "ĠNick": 3954,
      "Ġstations": 3955,
      "Ġfac": 3956,
      "ĠCa": 3957,
      "Ġ;": 3958,
      "Ġsuff": 3959,
      "ĠSte": 3960,
      "Ġsmaller": 3961,
      "Ġlaws": 3962,
      "06": 3963,
      "ĠRoad": 3964,
      "Ġbelieved": 3965,
      "ito": 3966,
      "writers": 3967,
      "urity": 3968,
      "Ġforms": 3969,
      "ĠPas": 3970,
      "Ġawarded": 3971,
      "icult": 3972,
      "Ġlawyer": 3973,
      "thur": 3974,
      "with": 3975,
      "ĠTa": 3976,
      "uture": 3977,
      "Ġaccident": 3978,
      "Ġfeatures": 3979,
      "chan": 3980,
      "Ġdiscovered": 3981,
      "Ġborder": 3982,
      "Ġcritic": 3983,
      "ĠJun": 3984,
      "ĠIv": 3985,
      "Ġservices": 3986,
      "ĠNations": 3987,
      "ĠGirl": 3988,
      "Ġclos": 3989,
      "gu": 3990,
      "riage": 3991,
      "Ġroad": 3992,
      "Ġnuc": 3993,
      "ĠDef": 3994,
      "ĠPo": 3995,
      "Ġdog": 3996,
      "ĠCop": 3997,
      "Ġlower": 3998,
      "ĠBelgian": 3999,
      "ray": 4000,
      "Ġavailable": 4001,
      "inet": 4002,
      "emic": 4003,
      "ĠSqu": 4004,
      "2011": 4005,
      "ĠCamb": 4006,
      "ĠNa": 4007,
      "ĠJoe": 4008,
      "ĠDaniel": 4009,
      "ĠSouthern": 4010,
      "ĠRegion": 4011,
      "Ġrange": 4012,
      "Ġhapp": 4013,
      "otal": 4014,
      "ĠEnd": 4015,
      "Ġcauses": 4016,
      "ĠAlbert": 4017,
      "ĠStat": 4018,
      "ili": 4019,
      "ĠAlab": 4020,
      "ened": 4021,
      "Ġmatches": 4022,
      "atter": 4023,
      "Ġkilling": 4024,
      "ĠFort": 4025,
      "Ġpoints": 4026,
      "ĠScientists": 4027,
      "ĠLes": 4028,
      "agan": 4029,
      "Ġcover": 4030,
      "ĠEst": 4031,
      "ĠWater": 4032,
      "ropolitan": 4033,
      "Ġdesigned": 4034,
      "ĠDi": 4035,
      "bach": 4036,
      "Ġsoldiers": 4037,
      "Ġbass": 4038,
      "ĠLord": 4039,
      "ĠWall": 4040,
      "ĠBBC": 4041,
      "ĠEUN": 4042,
      "Ġintroduced": 4043,
      "ĠVictoria": 4044,
      "wer": 4045,
      "las": 4046,
      "ĠMen": 4047,
      "ĠSwiss": 4048,
      "obile": 4049,
      "Ġcolon": 4050,
      "ĠWat": 4051,
      "head": 4052,
      "ken": 4053,
      "Ġreligious": 4054,
      "ĠAlabama": 4055,
      "ĠEconom": 4056,
      "Ġwood": 4057,
      "1992": 4058,
      "ournament": 4059,
      "thing": 4060,
      "ĠKong": 4061,
      "ĠMario": 4062,
      "ĠAssembly": 4063,
      "icine": 4064,
      "enna": 4065,
      "ĠMusical": 4066,
      "ĠKob": 4067,
      "ĠCy": 4068,
      "ippi": 4069,
      "oved": 4070,
      "Ġregular": 4071,
      "Ġschools": 4072,
      "ĠOf": 4073,
      "akh": 4074,
      "acter": 4075,
      "ĠElst": 4076,
      "Ġtold": 4077,
      "Ġindivid": 4078,
      "ĠBon": 4079,
      "ĠJones": 4080,
      "oper": 4081,
      "ennis": 4082,
      "Ġsister": 4083,
      "ĠNic": 4084,
      "ĠPu": 4085,
      "lar": 4086,
      "Ġdisestab": 4087,
      "Ġdanc": 4088,
      "ĠMississ": 4089,
      "Ġbusinessman": 4090,
      "ĠEntertainment": 4091,
      "well": 4092,
      "ilies": 4093,
      "Ġhous": 4094,
      "Ġscientists": 4095,
      "ĠRog": 4096,
      "Ġstories": 4097,
      "Fran": 4098,
      "lines": 4099,
      "Ġdate": 4100,
      "ĠProd": 4101,
      "anding": 4102,
      "ĠBavaria": 4103,
      "ĠRom": 4104,
      "Ġpred": 4105,
      "den": 4106,
      "ĠMovie": 4107,
      "ĠMedal": 4108,
      "Ġastron": 4109,
      "ictional": 4110,
      "Ġparticip": 4111,
      "ulture": 4112,
      "ĠBarb": 4113,
      "rik": 4114,
      "Ġtext": 4115,
      "ĠBangl": 4116,
      "ĠUEFA": 4117,
      "Ġbur": 4118,
      "lications": 4119,
      "inals": 4120,
      "BS": 4121,
      "isher": 4122,
      "Ġmiles": 4123,
      "04": 4124,
      "Ġsport": 4125,
      "bit": 4126,
      "ĠTrack": 4127,
      "ĠMir": 4128,
      "Ġyoun": 4129,
      "03": 4130,
      "Ġgas": 4131,
      "ĠVin": 4132,
      "iant": 4133,
      "...": 4134,
      "ĠMot": 4135,
      "itted": 4136,
      "Ġdescribed": 4137,
      "84": 4138,
      "Ġstarring": 4139,
      "Ġblue": 4140,
      "Ġship": 4141,
      "iced": 4142,
      "range": 4143,
      "selves": 4144,
      "omy": 4145,
      "Ġcontains": 4146,
      "ĠNiger": 4147,
      "ĠAlthough": 4148,
      "ĠHarry": 4149,
      "Ġinvest": 4150,
      "Ġthemselves": 4151,
      "Ġobs": 4152,
      "mas": 4153,
      "stitution": 4154,
      "uic": 4155,
      "ĠCorn": 4156,
      "ĠMusicians": 4157,
      "Ġgets": 4158,
      "ĠOx": 4159,
      "Ġgreen": 4160,
      "Ġpresidential": 4161,
      "ĠBre": 4162,
      "ĠKentucky": 4163,
      "Ġmiddle": 4164,
      "inary": 4165,
      "Ġrule": 4166,
      "Ġhappened": 4167,
      "Ġreb": 4168,
      "Ġtried": 4169,
      "Ġ1921": 4170,
      "uge": 4171,
      "Ġteacher": 4172,
      "ĠKen": 4173,
      "Ġshot": 4174,
      "Ġclimate": 4175,
      "ĠBh": 4176,
      "ĠBlue": 4177,
      "Ġcou": 4178,
      "Ġinhabit": 4179,
      "mir": 4180,
      "ĠAmericans": 4181,
      "Ġcur": 4182,
      "ĠIndones": 4183,
      "ĠOnt": 4184,
      "endo": 4185,
      "ĠPhys": 4186,
      "Ġtax": 4187,
      "Ġpen": 4188,
      "ĠValley": 4189,
      "ĠVen": 4190,
      "Ġcollege": 4191,
      "rad": 4192,
      "Ġappoint": 4193,
      "73": 4194,
      "ĠTH": 4195,
      "overs": 4196,
      "Ġegg": 4197,
      "Ġhtt": 4198,
      "ii": 4199,
      "ĠCher": 4200,
      "Ġbank": 4201,
      "essee": 4202,
      "phy": 4203,
      "Ġvocals": 4204,
      "ĠRam": 4205,
      "ĠSanta": 4206,
      "ĠHor": 4207,
      "Ġeas": 4208,
      "ĠAlso": 4209,
      "ĠLar": 4210,
      "ĠElizabeth": 4211,
      "hib": 4212,
      "Ġfoc": 4213,
      "Ġparticular": 4214,
      "83": 4215,
      "ĠWilliams": 4216,
      "ĠPublic": 4217,
      "upt": 4218,
      "Ġconstr": 4219,
      "ĠRevolution": 4220,
      "onto": 4221,
      "iece": 4222,
      "ĠTro": 4223,
      "songwriter": 4224,
      "ĠLem": 4225,
      "ĠMississippi": 4226,
      "anks": 4227,
      "Ġaud": 4228,
      "Ġrad": 4229,
      "ving": 4230,
      "ĠBudd": 4231,
      "elly": 4232,
      "ĠGard": 4233,
      "ĠTennessee": 4234,
      "Ġsch": 4235,
      "oid": 4236,
      "01": 4237,
      "Ġexcept": 4238,
      "Ġmarket": 4239,
      "Ġdistributed": 4240,
      "empt": 4241,
      "Ġhumans": 4242,
      "Ġbeginning": 4243,
      "wide": 4244,
      "Ġcer": 4245,
      "Ġopera": 4246,
      "ĠBet": 4247,
      "Ġcommonly": 4248,
      "ĠLine": 4249,
      "Ġromantic": 4250,
      "ĠJon": 4251,
      "ĠOntario": 4252,
      "oles": 4253,
      "ĠWild": 4254,
      "Ġlarger": 4255,
      "alais": 4256,
      "Ġcitizens": 4257,
      "ĠRod": 4258,
      "1990": 4259,
      "09": 4260,
      "ĠCD": 4261,
      "ĠMore": 4262,
      "ĠInc": 4263,
      "bai": 4264,
      "ĠHy": 4265,
      "Ġspeed": 4266,
      "ĠArgentine": 4267,
      "Ġsurface": 4268,
      "ĠProt": 4269,
      "ĠTechn": 4270,
      "elled": 4271,
      "Ġchampion": 4272,
      "burgh": 4273,
      "ĠAtt": 4274,
      "ourg": 4275,
      "Ġsilver": 4276,
      "phia": 4277,
      "inct": 4278,
      "ĠEach": 4279,
      "Ġhus": 4280,
      "Ġbrought": 4281,
      "throp": 4282,
      "2012": 4283,
      "anned": 4284,
      "ophy": 4285,
      "Ġrain": 4286,
      "ĠGallery": 4287,
      "Ġphilosopher": 4288,
      "aven": 4289,
      "Ġsn": 4290,
      "Ġ1918": 4291,
      "Ġbelong": 4292,
      "Ġcells": 4293,
      "sex": 4294,
      "ava": 4295,
      "istry": 4296,
      "Ġang": 4297,
      "ises": 4298,
      "ĠNorway": 4299,
      "inks": 4300,
      "ĠEll": 4301,
      "ĠSon": 4302,
      "Ġitself": 4303,
      "Ġautom": 4304,
      "ez": 4305,
      "ĠAzer": 4306,
      "osition": 4307,
      "Ġbomb": 4308,
      "Ġdou": 4309,
      "sk": 4310,
      "Ġfact": 4311,
      "Ġgrew": 4312,
      "ĠGlob": 4313,
      "Ġislands": 4314,
      "ĠAlf": 4315,
      "ĠFound": 4316,
      "ĠBus": 4317,
      "ĠBelg": 4318,
      "ĠBack": 4319,
      "Ġcreate": 4320,
      "Ġdifficult": 4321,
      "enty": 4322,
      "ĠTy": 4323,
      "ĠDoug": 4324,
      "ĠAnother": 4325,
      "ĠBat": 4326,
      "Ġowned": 4327,
      "ĠEducation": 4328,
      "Ġnort": 4329,
      "ĠOtt": 4330,
      "1991": 4331,
      "Ġlength": 4332,
      "ĠWinter": 4333,
      "rian": 4334,
      "Ġraised": 4335,
      "ader": 4336,
      "Ġcost": 4337,
      "cow": 4338,
      "Ġfast": 4339,
      "Ġwinner": 4340,
      "Ġtraditional": 4341,
      "ĠDie": 4342,
      "Ġsomeone": 4343,
      "Ġsubject": 4344,
      "Ġrelationship": 4345,
      "ĠBow": 4346,
      "ĠFre": 4347,
      "andy": 4348,
      "aching": 4349,
      "Ġsaw": 4350,
      "itage": 4351,
      "ĠJes": 4352,
      "ĠMain": 4353,
      "ĠOrig": 4354,
      "Ġfollowed": 4355,
      "Ġways": 4356,
      "isa": 4357,
      "Ġofficer": 4358,
      "Ġalthough": 4359,
      "Ġdivision": 4360,
      "arter": 4361,
      "Ġmerg": 4362,
      "ederation": 4363,
      "Ġhere": 4364,
      "ĠColor": 4365,
      "ote": 4366,
      "iment": 4367,
      "ĠHuman": 4368,
      "81": 4369,
      "Ġvote": 4370,
      "ential": 4371,
      "Ġreported": 4372,
      "adelphia": 4373,
      "Ġqual": 4374,
      "Ġweap": 4375,
      "Ġheavy": 4376,
      "ĠTop": 4377,
      "ĠGer": 4378,
      "Ġbelieve": 4379,
      "file": 4380,
      "dess": 4381,
      "icy": 4382,
      "hold": 4383,
      "ĠLiber": 4384,
      "ploy": 4385,
      ",\"": 4386,
      "ĠScience": 4387,
      "ĠToday": 4388,
      "ĠCensus": 4389,
      "ĠAzerbai": 4390,
      "oken": 4391,
      "ĠKim": 4392,
      "Ġmedical": 4393,
      "NS": 4394,
      "ĠUSA": 4395,
      "bre": 4396,
      "Ġtemperature": 4397,
      "intendo": 4398,
      "ĠArthur": 4399,
      "Ġactive": 4400,
      "ĠBell": 4401,
      "ĠIndiana": 4402,
      "orary": 4403,
      "Ġpage": 4404,
      "Ġarrondissement": 4405,
      "Ġnews": 4406,
      "Ġste": 4407,
      "Ġfarm": 4408,
      "mann": 4409,
      "ĠBillboard": 4410,
      "ĠObserv": 4411,
      "ĠSus": 4412,
      "ĠAndrew": 4413,
      "Ġleading": 4414,
      "ĠEth": 4415,
      "Ar": 4416,
      "het": 4417,
      "Ġfeet": 4418,
      "Ġcentre": 4419,
      "Ġentire": 4420,
      "Ġswim": 4421,
      "aval": 4422,
      "ĠAz": 4423,
      "eful": 4424,
      "related": 4425,
      "Ġdu": 4426,
      "Ġdistricts": 4427,
      "uries": 4428,
      "airman": 4429,
      "bury": 4430,
      "Ġclubs": 4431,
      "ĠJane": 4432,
      "ĠFire": 4433,
      "venture": 4434,
      "Ġhigher": 4435,
      "Ġblock": 4436,
      "ais": 4437,
      "Ġ1919": 4438,
      "ĠWel": 4439,
      "ĠForce": 4440,
      "ĠAdd": 4441,
      "Ġenvironment": 4442,
      "des": 4443,
      "hy": 4444,
      "Ġrules": 4445,
      "ĠUt": 4446,
      "ability": 4447,
      "ĠCastle": 4448,
      "etting": 4449,
      "71": 4450,
      "ĠTurkey": 4451,
      "alymp": 4452,
      "ronic": 4453,
      "vey": 4454,
      "una": 4455,
      "Ġanimal": 4456,
      "ĠVi": 4457,
      "Ġolder": 4458,
      "osh": 4459,
      "Ġgenus": 4460,
      "Ġdefeated": 4461,
      "ĠToronto": 4462,
      "ingu": 4463,
      "Ġcompetition": 4464,
      "Ġhyd": 4465,
      "ects": 4466,
      "ĠIsraeli": 4467,
      "Ġdark": 4468,
      "ĠOper": 4469,
      "ĠParalymp": 4470,
      "Ġcour": 4471,
      "ĠCard": 4472,
      "ĠCross": 4473,
      "Ġhusband": 4474,
      "chie": 4475,
      "ĠKir": 4476,
      "Ġbrain": 4477,
      "ero": 4478,
      "ĠNintendo": 4479,
      "merc": 4480,
      "Ġassist": 4481,
      "amin": 4482,
      "Ġ75": 4483,
      "Ġdisestablishments": 4484,
      "ĠAmb": 4485,
      "FL": 4486,
      "ĠChris": 4487,
      "reek": 4488,
      "ĠAh": 4489,
      "ĠPhiladelphia": 4490,
      "Ġsoon": 4491,
      "ĠRaj": 4492,
      "uten": 4493,
      "apore": 4494,
      "Ġmagazine": 4495,
      "Ġcommunes": 4496,
      "ĠRadio": 4497,
      "ĠProfess": 4498,
      "Ġminor": 4499,
      "Ġinhabitants": 4500,
      "lad": 4501,
      "lector": 4502,
      "Ġfounder": 4503,
      "Th": 4504,
      "Ġengineer": 4505,
      "Ġsecret": 4506,
      "Ġcart": 4507,
      "Ġminister": 4508,
      "Ġkil": 4509,
      "ĠSystem": 4510,
      "itude": 4511,
      "Ġfeel": 4512,
      "ĠMoscow": 4513,
      "par": 4514,
      "1989": 4515,
      "igned": 4516,
      "ĠLady": 4517,
      "Ġbiggest": 4518,
      "liga": 4519,
      "2017": 4520,
      "uese": 4521,
      "ĠMid": 4522,
      "ager": 4523,
      "Ġgovernor": 4524,
      "ĠVietnam": 4525,
      "Ġelections": 4526,
      "Ġoil": 4527,
      "iac": 4528,
      "vert": 4529,
      "ĠDirector": 4530,
      "ĠTit": 4531,
      "ĠFour": 4532,
      "icated": 4533,
      "ĠPit": 4534,
      "Ġneeded": 4535,
      "ĠKOR": 4536,
      "nic": 4537,
      "ums": 4538,
      "Ġbirds": 4539,
      "ĠSel": 4540,
      "ĠGre": 4541,
      "ĠChampionships": 4542,
      "ĠNik": 4543,
      "Ġhar": 4544,
      "2013": 4545,
      "ears": 4546,
      "2014": 4547,
      "Ġdirectors": 4548,
      "ned": 4549,
      "yes": 4550,
      "Ġquickly": 4551,
      "rine": 4552,
      "uan": 4553,
      "ĠThree": 4554,
      "wegian": 4555,
      "aga": 4556,
      "ĠBrook": 4557,
      "Ġ35": 4558,
      "ĠConnect": 4559,
      "Ġspread": 4560,
      "ĠBa": 4561,
      "ĠLind": 4562,
      "undes": 4563,
      "ĠVillages": 4564,
      "vin": 4565,
      "Ġideas": 4566,
      "uri": 4567,
      "Ġoccup": 4568,
      "Ġago": 4569,
      "ĠPres": 4570,
      "Ġvo": 4571,
      "kh": 4572,
      "Ġpot": 4573,
      "Ġmagn": 4574,
      "ĠGreece": 4575,
      "Ġsexual": 4576,
      "orders": 4577,
      "Ġawards": 4578,
      "SA": 4579,
      "ĠPen": 4580,
      "Ġfly": 4581,
      "Ġproducers": 4582,
      "ishes": 4583,
      "Ġinfect": 4584,
      "ĠFederal": 4585,
      "ĠNep": 4586,
      "Ġmultiple": 4587,
      "Ġesc": 4588,
      "ucted": 4589,
      "ĠTay": 4590,
      "inem": 4591,
      "ĠLight": 4592,
      "Ġreligion": 4593,
      "zy": 4594,
      "rence": 4595,
      "Ġsuggest": 4596,
      "last": 4597,
      "ĠFinn": 4598,
      "ĠDonald": 4599,
      "Ġcomedian": 4600,
      "cu": 4601,
      "Ġphysic": 4602,
      "Ġgives": 4603,
      "onsin": 4604,
      "ulpt": 4605,
      "Ġregions": 4606,
      "irit": 4607,
      "ĠMembers": 4608,
      "Ġ85": 4609,
      "Ġproblem": 4610,
      "ĠStephen": 4611,
      "Ġthroughout": 4612,
      "roke": 4613,
      "ĠUl": 4614,
      "ĠMarc": 4615,
      "02": 4616,
      "ĠBank": 4617,
      "ĠBelgium": 4618,
      "eda": 4619,
      "ĠColomb": 4620,
      "isconsin": 4621,
      "ĠHard": 4622,
      "emi": 4623,
      "BA": 4624,
      "ĠArkansas": 4625,
      "ients": 4626,
      "Ġscored": 4627,
      "ĠSav": 4628,
      "Ġslow": 4629,
      "ĠPhilippines": 4630,
      "ĠArts": 4631,
      "Ġmyth": 4632,
      "Ġcomposers": 4633,
      "ĠWebsit": 4634,
      "ĠCas": 4635,
      "Ġvon": 4636,
      "ĠCommittee": 4637,
      "ĠNorwegian": 4638,
      "Ġreason": 4639,
      "ĠSlov": 4640,
      "antasy": 4641,
      "Ġprofessor": 4642,
      "ilities": 4643,
      "ĠPost": 4644,
      "ĠWisconsin": 4645,
      "Ġ+": 4646,
      "real": 4647,
      "ĠAut": 4648,
      "anta": 4649,
      "Ġhurricane": 4650,
      "ĠNavy": 4651,
      "Ġcho": 4652,
      "Ġskin": 4653,
      "iti": 4654,
      "ĠVar": 4655,
      "ĠIndepend": 4656,
      "Ġofficially": 4657,
      "Ġsource": 4658,
      "ĠStr": 4659,
      "Calais": 4660,
      "Ġdestroyed": 4661,
      "Ġlegal": 4662,
      "Ġsat": 4663,
      "uation": 4664,
      "ĠPrincess": 4665,
      "Ġrivers": 4666,
      "gn": 4667,
      "teen": 4668,
      "Ġselected": 4669,
      "Ġfamilies": 4670,
      "Ġprivate": 4671,
      "Ġneigh": 4672,
      "ĠLew": 4673,
      "ĠArgentina": 4674,
      "Ġeth": 4675,
      "Ġperformance": 4676,
      "Ġkept": 4677,
      "Ġleave": 4678,
      "ghan": 4679,
      "ĠTony": 4680,
      "ĠBall": 4681,
      "chestra": 4682,
      "Ġcare": 4683,
      "ĠLive": 4684,
      "elop": 4685,
      "Ġorganization": 4686,
      "Ġruns": 4687,
      "Ġlegisl": 4688,
      "Ġcode": 4689,
      "ĠInternet": 4690,
      "iec": 4691,
      "ĠMayor": 4692,
      "kins": 4693,
      "Ġrunning": 4694,
      "Ġguitarist": 4695,
      "Ġfederal": 4696,
      "ĠUkraine": 4697,
      "ĠMilitary": 4698,
      "gress": 4699,
      "Ġbecoming": 4700,
      "Ġtells": 4701,
      "ĠNap": 4702,
      "ĠWik": 4703,
      "ĠTurkish": 4704,
      "Ġdegree": 4705,
      "ĠBol": 4706,
      "outheast": 4707,
      "ĠFa": 4708,
      "undred": 4709,
      "rics": 4710,
      "emy": 4711,
      "Ġflag": 4712,
      "utions": 4713,
      "mad": 4714,
      "ikh": 4715,
      "Ġterms": 4716,
      "hire": 4717,
      "ĠPier": 4718,
      "ayashi": 4719,
      "ĠKhan": 4720,
      "Ġrespons": 4721,
      "Ġhours": 4722,
      "ĠBah": 4723,
      "istic": 4724,
      "Ġassoci": 4725,
      "ĠSyd": 4726,
      "ĠMur": 4727,
      "Al": 4728,
      "ĠAle": 4729,
      "ĠTimes": 4730,
      "Ġ1917": 4731,
      "Ġcontract": 4732,
      "Ġtable": 4733,
      "ĠAncient": 4734,
      "Ġtrue": 4735,
      "Ġappointed": 4736,
      "ĠAsh": 4737,
      "Ġbelow": 4738,
      "Ġwrite": 4739,
      "ĠSab": 4740,
      "ĠSev": 4741,
      "Ġasked": 4742,
      "Ġjazz": 4743,
      "ĠCommission": 4744,
      "Ġbron": 4745,
      "ĠMas": 4746,
      "Ġaccept": 4747,
      "ouch": 4748,
      "ĠTs": 4749,
      "ĠStory": 4750,
      "ĠFestival": 4751,
      "82": 4752,
      "asion": 4753,
      "Ġsurround": 4754,
      "ĠDeb": 4755,
      "leep": 4756,
      "ĠTHM": 4757,
      "Ġbillion": 4758,
      "Ġsyn": 4759,
      "anchester": 4760,
      "ga": 4761,
      "ĠUnder": 4762,
      "ĠPersonal": 4763,
      "Ġ1901": 4764,
      "ication": 4765,
      "Mar": 4766,
      "erve": 4767,
      "Ġ1910": 4768,
      "ĠCommon": 4769,
      "Ġstarting": 4770,
      "Ġsaf": 4771,
      "ĠDou": 4772,
      "ready": 4773,
      "Ġprint": 4774,
      "Ġexecutive": 4775,
      "ĠPortugal": 4776,
      "ĠGrammy": 4777,
      "Ġwhole": 4778,
      "Ġ87": 4779,
      "ĠSometimes": 4780,
      "Ġoccur": 4781,
      "ĠJews": 4782,
      "ĠWinn": 4783,
      "Ġsoftware": 4784,
      "ĠStanley": 4785,
      "ĠSax": 4786,
      "ologists": 4787,
      "Ġfought": 4788,
      "ĠPun": 4789,
      "FC": 4790,
      "ims": 4791,
      "ĠKan": 4792,
      "key": 4793,
      "ĠNatural": 4794,
      "Ġquest": 4795,
      "1987": 4796,
      "ĠSingapore": 4797,
      "Ġtransport": 4798,
      "Ġbehind": 4799,
      "Ġburn": 4800,
      "ĠGreg": 4801,
      "Ġmuseum": 4802,
      "hew": 4803,
      "iang": 4804,
      "2015": 4805,
      "ĠIra": 4806,
      "ĠHong": 4807,
      "Ġlines": 4808,
      "Ġsquare": 4809,
      "onne": 4810,
      "ebec": 4811,
      "ancy": 4812,
      "ĠSerb": 4813,
      "Ġvan": 4814,
      "Ġaccess": 4815,
      "Ġinst": 4816,
      "ĠNetwork": 4817,
      "vention": 4818,
      "Ser": 4819,
      "ĠSn": 4820,
      "Ġspoken": 4821,
      "Ġpil": 4822,
      "ĠKr": 4823,
      "ĠAfghan": 4824,
      "Ġterritory": 4825,
      "ss": 4826,
      "Ġsingles": 4827,
      "ĠRap": 4828,
      "ĠDak": 4829,
      "ipe": 4830,
      "ĠHungarian": 4831,
      "Ġself": 4832,
      "ĠVideo": 4833,
      "Ġtournament": 4834,
      "ĠBuildings": 4835,
      "ĠWeb": 4836,
      "rap": 4837,
      "ĠMike": 4838,
      "Ġweb": 4839,
      "Ġpoor": 4840,
      "ĠMun": 4841,
      "ĠCentury": 4842,
      "ĠConserv": 4843,
      "ctions": 4844,
      "ĠGab": 4845,
      "Ġbehav": 4846,
      "Ġdamage": 4847,
      "Ġindustry": 4848,
      "Ġop": 4849,
      "ails": 4850,
      "ĠIslamic": 4851,
      "ĠHome": 4852,
      "Ġly": 4853,
      "ĠWolf": 4854,
      "Ġinvolved": 4855,
      "died": 4856,
      "ĠPremier": 4857,
      "rated": 4858,
      "Ġreading": 4859,
      "ĠLike": 4860,
      "ĠBoth": 4861,
      "ĠNow": 4862,
      "Ġletter": 4863,
      "Ġmeters": 4864,
      "ĠSingers": 4865,
      "iot": 4866,
      "Ġveh": 4867,
      "anded": 4868,
      "lem": 4869,
      "Ġgenerally": 4870,
      "Ġprobably": 4871,
      "uctor": 4872,
      "ĠVice": 4873,
      "mercial": 4874,
      "ĠSydney": 4875,
      "ĠNHL": 4876,
      "ĠRet": 4877,
      "vis": 4878,
      "endar": 4879,
      "Ġassociation": 4880,
      "Ġ45": 4881,
      "Ġdocument": 4882,
      "alled": 4883,
      "icture": 4884,
      "ĠDomin": 4885,
      "Ġparties": 4886,
      "iplom": 4887,
      "ĠDown": 4888,
      "uv": 4889,
      "Ġoffer": 4890,
      "Ġ500": 4891,
      "ĠWilson": 4892,
      "orter": 4893,
      "Ġtrade": 4894,
      "Ġcelebr": 4895,
      "overy": 4896,
      "Ġ84": 4897,
      "ker": 4898,
      "roit": 4899,
      "ĠSund": 4900,
      "ĠLor": 4901,
      "ĠQueens": 4902,
      "ĠTem": 4903,
      "ĠHart": 4904,
      "Ġaddition": 4905,
      "king": 4906,
      "comp": 4907,
      "iny": 4908,
      "icted": 4909,
      "Ġruled": 4910,
      "reedom": 4911,
      "Ġ77": 4912,
      "Ġ64": 4913,
      "ĠSenator": 4914,
      "ription": 4915,
      "ĠKy": 4916,
      "ĠIranian": 4917,
      "sey": 4918,
      "odies": 4919,
      "Ġhistorical": 4920,
      "Ġcollection": 4921,
      "kin": 4922,
      "Ġplat": 4923,
      "ĠAlbum": 4924,
      "ugg": 4925,
      "An": 4926,
      "Ġfifth": 4927,
      "ĠLen": 4928,
      "neum": 4929,
      "ĠFinland": 4930,
      "uicide": 4931,
      "incip": 4932,
      "Ġtall": 4933,
      "Ġarm": 4934,
      "Ġtaking": 4935,
      "Ġpers": 4936,
      "Ġspent": 4937,
      "Ġmarriage": 4938,
      "ĠRem": 4939,
      "ĠLibrary": 4940,
      "ĠPortuguese": 4941,
      "Ġnewspaper": 4942,
      "ĠJesus": 4943,
      "Ġcovered": 4944,
      "ĠHaut": 4945,
      "Ġsculpt": 4946,
      "ĠChannel": 4947,
      "ĠMicro": 4948,
      "Ġpand": 4949,
      "ĠBalt": 4950,
      "Ġsummer": 4951,
      "aded": 4952,
      "ĠOpen": 4953,
      "Ġbase": 4954,
      "Ġstep": 4955,
      "ĠHeart": 4956,
      "Ġchief": 4957,
      "Ġchannel": 4958,
      "itation": 4959,
      "athan": 4960,
      "ĠBand": 4961,
      "Ġlung": 4962,
      "ĠNar": 4963,
      "Ġneg": 4964,
      "ĠTai": 4965,
      "Ġhop": 4966,
      "Ġlett": 4967,
      "ĠService": 4968,
      "ences": 4969,
      "ĠBerg": 4970,
      "Ġalready": 4971,
      "Ġthriller": 4972,
      "ĠPower": 4973,
      "Ġinterview": 4974,
      "Ġwide": 4975,
      "ĠFil": 4976,
      "Ġ65": 4977,
      "ĠChristmas": 4978,
      "Ġattract": 4979,
      "2019": 4980,
      "1988": 4981,
      "ĠBroad": 4982,
      "ĠJustice": 4983,
      "uay": 4984,
      "ĠCroat": 4985,
      "Ġfru": 4986,
      "Ġdance": 4987,
      "anna": 4988,
      "Ġdeep": 4989,
      "Ġrather": 4990,
      "orporated": 4991,
      "Ġadop": 4992,
      "icut": 4993,
      "ĠNag": 4994,
      "Ġschol": 4995,
      "ĠKaz": 4996,
      "ĠAnth": 4997,
      "ĠWalter": 4998,
      "ilton": 4999,
      "Ġlog": 5000,
      "ello": 5001,
      "ees": 5002,
      "Ġturned": 5003,
      "ao": 5004,
      "hol": 5005,
      "Ġacting": 5006,
      "rang": 5007,
      "Ġpowerful": 5008,
      "ĠOt": 5009,
      "edd": 5010,
      "Ġconstitu": 5011,
      "Ġleaves": 5012,
      "pped": 5013,
      "Ġstopped": 5014,
      "uki": 5015,
      "Ġbegins": 5016,
      "ĠAff": 5017,
      "Total": 5018,
      "water": 5019,
      "ĠFore": 5020,
      "Ġ(),": 5021,
      "ĠDenmark": 5022,
      "Ġsymbol": 5023,
      "Ġmole": 5024,
      "ĠObservatory": 5025,
      "ĠPot": 5026,
      "encies": 5027,
      "ĠHealth": 5028,
      "ifican": 5029,
      "Ġrailway": 5030,
      "ho": 5031,
      "Ġthous": 5032,
      "ĠSteve": 5033,
      "eman": 5034,
      "ika": 5035,
      "lit": 5036,
      "vi": 5037,
      "Ġ1914": 5038,
      "Ġmanagers": 5039,
      "fort": 5040,
      "ĠManchester": 5041,
      "Ġpassed": 5042,
      "Ġfuture": 5043,
      "stan": 5044,
      "ĠAirlines": 5045,
      ");": 5046,
      "ĠStock": 5047,
      "aby": 5048,
      "Ġyellow": 5049,
      "EE": 5050,
      "TA": 5051,
      "ĠRac": 5052,
      "Ġrow": 5053,
      "ĠBangladesh": 5054,
      "Ġtal": 5055,
      "ĠAnne": 5056,
      "Ġattempt": 5057,
      "Ġfore": 5058,
      "ĠClark": 5059,
      "Ġnormal": 5060,
      "Ġdraw": 5061,
      "Ġtrees": 5062,
      "Ġpaper": 5063,
      "Ġnine": 5064,
      "Ġadult": 5065,
      "eral": 5066,
      "align": 5067,
      "Ġfunction": 5068,
      "ĠColl": 5069,
      "Ġins": 5070,
      "ceed": 5071,
      "alia": 5072,
      "Ġpurp": 5073,
      "ĠAbb": 5074,
      "Ġnative": 5075,
      "Ġtroops": 5076,
      "ĠBooks": 5077,
      "ĠLoc": 5078,
      "rice": 5079,
      "aux": 5080,
      "ĠTaylor": 5081,
      "ieces": 5082,
      "Ġpick": 5083,
      "ĠNev": 5084,
      "ĠLoire": 5085,
      "Ġforced": 5086,
      "Ġ86": 5087,
      "Ġunderst": 5088,
      "Ġwhose": 5089,
      "ĠDakota": 5090,
      "amber": 5091,
      "ĠSupreme": 5092,
      "Ġpandemic": 5093,
      "rogen": 5094,
      "Le": 5095,
      "ĠKings": 5096,
      "Ġ32": 5097,
      "ĠTrans": 5098,
      "ls": 5099,
      "ĠMoh": 5100,
      "oses": 5101,
      "eech": 5102,
      "ĠHay": 5103,
      "ables": 5104,
      "Ġbronze": 5105,
      "ĠPlan": 5106,
      "ĠCoast": 5107,
      "ĠOxford": 5108,
      "ĠMaryland": 5109,
      "ĠWebsite": 5110,
      "Ġstarts": 5111,
      "Don": 5112,
      "house": 5113,
      "orship": 5114,
      "ĠEvents": 5115,
      "2016": 5116,
      "aro": 5117,
      "ĠIce": 5118,
      "ĠVienna": 5119,
      "ĠKobayashi": 5120,
      "ĠTransport": 5121,
      "Ġstandard": 5122,
      "ĠAriz": 5123,
      "Ġeditor": 5124,
      "light": 5125,
      "apers": 5126,
      "ĠConnecticut": 5127,
      "ension": 5128,
      "ashion": 5129,
      "||||||||||": 5130,
      "ĠSpecial": 5131,
      "ieuten": 5132,
      "amples": 5133,
      "Ġcontroll": 5134,
      "met": 5135,
      "text": 5136,
      "rim": 5137,
      "Ġtowards": 5138,
      "ĠHan": 5139,
      "Ġaccording": 5140,
      "SC": 5141,
      "Ġstructure": 5142,
      "Ġprimary": 5143,
      "Ġplaced": 5144,
      "ufact": 5145,
      "Ġsupported": 5146,
      "ĠCreek": 5147,
      "Ġdriver": 5148,
      "undesliga": 5149,
      "wick": 5150,
      "Ġelectr": 5151,
      "ĠAbd": 5152,
      "Ġhistorian": 5153,
      "Ġgoddess": 5154,
      "Ġelements": 5155,
      "Ġseparate": 5156,
      "Ġyour": 5157,
      "Ġscreenwriter": 5158,
      "Ġconfir": 5159,
      "Ġcut": 5160,
      "umber": 5161,
      "Ġ78": 5162,
      "hedral": 5163,
      "Ġstudies": 5164,
      "ĠLawrence": 5165,
      "ĠArizona": 5166,
      "ĠLim": 5167,
      "ĠKam": 5168,
      "ĠPolitical": 5169,
      "Ġunits": 5170,
      "rainian": 5171,
      "Ġweak": 5172,
      "Ġenc": 5173,
      "urban": 5174,
      "ĠCurrent": 5175,
      "Ġreviews": 5176,
      "lyn": 5177,
      "lean": 5178,
      "Ġmerged": 5179,
      "Ġwrestler": 5180,
      "ori": 5181,
      "uj": 5182,
      "aters": 5183,
      "ĠCancer": 5184,
      "Ġfeatured": 5185,
      "Ġindependence": 5186,
      "Ġbal": 5187,
      "ĠWhat": 5188,
      "www": 5189,
      "Ġgun": 5190,
      "Ġroy": 5191,
      "Ġdiss": 5192,
      "weight": 5193,
      "alo": 5194,
      "Ġ79": 5195,
      "Sh": 5196,
      "ĠDam": 5197,
      "ĠBridge": 5198,
      "leyball": 5199,
      "Ġsociety": 5200,
      "ados": 5201,
      "ĠHamp": 5202,
      "ĠDetroit": 5203,
      "pro": 5204,
      "Ġcomplex": 5205,
      "Ġmeant": 5206,
      "Ġadministrative": 5207,
      "Ġinsp": 5208,
      "ĠRomania": 5209,
      "olis": 5210,
      "Ġedition": 5211,
      "ĠKat": 5212,
      "ĠMarsh": 5213,
      "ĠColorado": 5214,
      "Ġ1912": 5215,
      "ugby": 5216,
      "perial": 5217,
      "Ġarg": 5218,
      "orning": 5219,
      "Ġeventually": 5220,
      "Ġkilomet": 5221,
      "ĠCur": 5222,
      "Ġcandidate": 5223,
      "Ġattacks": 5224,
      "Ġmedalists": 5225,
      "ĠIraq": 5226,
      "ĠChem": 5227,
      "ĠDream": 5228,
      "Ġcarry": 5229,
      "uy": 5230,
      "ardo": 5231,
      "ĠMunicipality": 5232,
      "neumonia": 5233,
      "Ġemploy": 5234,
      "enez": 5235,
      "ĠKal": 5236,
      "ĠKer": 5237,
      "bl": 5238,
      "Ġkinds": 5239,
      "ĠDun": 5240,
      "Ġminutes": 5241,
      "Ġmic": 5242,
      "Ġmayor": 5243,
      "lan": 5244,
      "ĠShin": 5245,
      "1983": 5246,
      "ĠModern": 5247,
      "Ġlaunched": 5248,
      "oration": 5249,
      "Ġden": 5250,
      "ping": 5251,
      "ĠCost": 5252,
      "ĠAdminist": 5253,
      "Ġairport": 5254,
      "ĠLast": 5255,
      "Ġgetting": 5256,
      "Ġmotor": 5257,
      "Ġnick": 5258,
      "ĠFree": 5259,
      "ĠOd": 5260,
      "ĠJohann": 5261,
      "ĠEgyptian": 5262,
      "Ġrepresented": 5263,
      "uh": 5264,
      "anga": 5265,
      "Ġearlier": 5266,
      "Ġlake": 5267,
      "Ġclear": 5268,
      "Ġtechnology": 5269,
      "ĠDor": 5270,
      "1986": 5271,
      "Ġactivists": 5272,
      "ĠSeason": 5273,
      "Ġvisit": 5274,
      "Ġweeks": 5275,
      "leph": 5276,
      "bourne": 5277,
      "ĠNepal": 5278,
      "ellig": 5279,
      "Ġcomput": 5280,
      "ĠCirc": 5281,
      "ieutenant": 5282,
      "no": 5283,
      "usp": 5284,
      "Ġdeal": 5285,
      "Ġeggs": 5286,
      "isation": 5287,
      "ĠHurricane": 5288,
      "ĠMAS": 5289,
      "Ġlisted": 5290,
      "sect": 5291,
      "Ġcharge": 5292,
      "aped": 5293,
      "izumi": 5294,
      "ĠSher": 5295,
      "usc": 5296,
      "Ġnar": 5297,
      "AF": 5298,
      "ĠRang": 5299,
      "ĠStorm": 5300,
      "coln": 5301,
      "ĠHolly": 5302,
      "Station": 5303,
      "rig": 5304,
      "ares": 5305,
      "Ġmer": 5306,
      "Ġcarbon": 5307,
      "ĠMetropolitan": 5308,
      "Ġhorror": 5309,
      "ties": 5310,
      "ĠBos": 5311,
      "Ġstadium": 5312,
      "box": 5313,
      "Ġpositive": 5314,
      "arters": 5315,
      "Ġdom": 5316,
      "orporation": 5317,
      "ui": 5318,
      "idents": 5319,
      "ternal": 5320,
      "lov": 5321,
      "ĠBull": 5322,
      "Ġfighting": 5323,
      "Ġracing": 5324,
      "ĠCab": 5325,
      "worth": 5326,
      "istance": 5327,
      "Ġorganizations": 5328,
      "ĠLemmon": 5329,
      "Ġdiplom": 5330,
      "igen": 5331,
      "Ġtell": 5332,
      "change": 5333,
      "ĠEag": 5334,
      "ĠPresidents": 5335,
      "ĠAzerbaijan": 5336,
      "ĠWalk": 5337,
      "uther": 5338,
      "engers": 5339,
      "ĠBulg": 5340,
      "1985": 5341,
      "Ġfigure": 5342,
      "inated": 5343,
      "Ġfav": 5344,
      "ĠErn": 5345,
      "ĠEven": 5346,
      "Ġsignifican": 5347,
      "ĠResearch": 5348,
      "Ġeconomic": 5349,
      "Ġbus": 5350,
      "enburg": 5351,
      "Ġelev": 5352,
      "Ġmixed": 5353,
      "Ġshowed": 5354,
      "ĠJord": 5355,
      "ĠFord": 5356,
      "ques": 5357,
      "Ġ95": 5358,
      "ĠTrump": 5359,
      "ĠBeat": 5360,
      "Ġmechan": 5361,
      "ĠTar": 5362,
      "Ġera": 5363,
      "2018": 5364,
      "ĠOffice": 5365,
      "ĠGil": 5366,
      "Ġnortheast": 5367,
      "Ġpneumonia": 5368,
      "ĠHeritage": 5369,
      "Ġcricket": 5370,
      "Ġbridge": 5371,
      "ĠFreder": 5372,
      "Ġcomposed": 5373,
      "Ġnature": 5374,
      "Ġsongwriter": 5375,
      "osen": 5376,
      "soft": 5377,
      "ĠFoundation": 5378,
      "ĠLincoln": 5379,
      "oka": 5380,
      "Ġfoss": 5381,
      "ĠTropical": 5382,
      "Ġprem": 5383,
      "Ġmountains": 5384,
      "Ġfrequ": 5385,
      "ection": 5386,
      "Ġflight": 5387,
      "ĠTan": 5388,
      "Ġarticle": 5389,
      "Ġpressure": 5390,
      "Ġcollect": 5391,
      "Ġ1916": 5392,
      "Ġemb": 5393,
      "Ġ120": 5394,
      "reng": 5395,
      "Ġmoving": 5396,
      "orer": 5397,
      "ista": 5398,
      "Ġabs": 5399,
      "Ġunit": 5400,
      "100": 5401,
      "ĠFlight": 5402,
      "Ġliterature": 5403,
      "ns": 5404,
      "ĠFair": 5405,
      "ĠConstitution": 5406,
      "ĠCentre": 5407,
      "ĠIV": 5408,
      "ĠUkrainian": 5409,
      "Ġpiece": 5410,
      "ĠFormula": 5411,
      "usion": 5412,
      "ogy": 5413,
      "Ġour": 5414,
      "ione": 5415,
      "Ġ74": 5416,
      "Ġhundred": 5417,
      "asters": 5418,
      "Ġuniversities": 5419,
      "ĠDouglas": 5420,
      "ĠRoll": 5421,
      "ĠRailway": 5422,
      "Ġwalk": 5423,
      "Ġpian": 5424,
      "ĠRoss": 5425,
      "'.": 5426,
      "ando": 5427,
      "district": 5428,
      "Ġwear": 5429,
      "Ġcompounds": 5430,
      "ĠTak": 5431,
      "ĠDog": 5432,
      "Ġnuclear": 5433,
      "Ġfurther": 5434,
      "ressed": 5435,
      "ĠYe": 5436,
      "aring": 5437,
      "Ġcomplications": 5438,
      "La": 5439,
      "Ġstroke": 5440,
      "Ġstarred": 5441,
      "Ġcold": 5442,
      "ĠDanish": 5443,
      "Ġcontrib": 5444,
      "ĠPlayStation": 5445,
      "Ġpeak": 5446,
      "ĠFrancis": 5447,
      "more": 5448,
      "anning": 5449,
      "Ġhttp": 5450,
      "Ġforeign": 5451,
      "vo": 5452,
      "ĠMaine": 5453,
      "ĠHans": 5454,
      "vest": 5455,
      "Ġx": 5456,
      "500": 5457,
      "ĠBrian": 5458,
      "regon": 5459,
      "asing": 5460,
      "inosaur": 5461,
      "Ġpri": 5462,
      "Ġmess": 5463,
      "Ġloss": 5464,
      "Ġreign": 5465,
      "At": 5466,
      "ĠAqu": 5467,
      "pson": 5468,
      "Ġ34": 5469,
      "Ġappearance": 5470,
      "isk": 5471,
      "aily": 5472,
      "ĠBaseball": 5473,
      "oa": 5474,
      "ĠExp": 5475,
      "ĠVictor": 5476,
      "Ġ57": 5477,
      "Ġlisting": 5478,
      "Ġnation": 5479,
      "ĠBusinesspeople": 5480,
      "ĠMountains": 5481,
      "Ġfoot": 5482,
      "Ġdro": 5483,
      "Ġface": 5484,
      "Ġdoctor": 5485,
      "ĠBird": 5486,
      "Ġplane": 5487,
      "Ġcrim": 5488,
      "Ġversions": 5489,
      "iance": 5490,
      "ĠYour": 5491,
      "Ġ1915": 5492,
      "Ġnearly": 5493,
      "Ġ1913": 5494,
      "Ġmachine": 5495,
      "VD": 5496,
      "enz": 5497,
      "illed": 5498,
      "ĠMPs": 5499,
      "fall": 5500,
      "Ġap": 5501,
      "Ġanal": 5502,
      "ĠTaiwan": 5503,
      "Ġshape": 5504,
      "ĠCountry": 5505,
      "ĠMarie": 5506,
      "EF": 5507,
      "iform": 5508,
      "Ġrecords": 5509,
      "ĠArm": 5510,
      "astic": 5511,
      "Ġsimply": 5512,
      "Ġ33": 5513,
      "YG": 5514,
      "rator": 5515,
      "Ġweight": 5516,
      "ĠMadrid": 5517,
      "Ġcust": 5518,
      "Ġpun": 5519,
      "Ġletters": 5520,
      "Ġtennis": 5521,
      "Ġclosed": 5522,
      "Ġplanet": 5523,
      "1980": 5524,
      "ĠHoly": 5525,
      "Sp": 5526,
      "ĠNative": 5527,
      "Ġ83": 5528,
      "Ġworldwide": 5529,
      "Ġ76": 5530,
      "ĠOregon": 5531,
      "chen": 5532,
      "Ġexec": 5533,
      "ĠNAS": 5534,
      "ĠTal": 5535,
      "ĠMoon": 5536,
      "itting": 5537,
      "ĠDevelop": 5538,
      "ully": 5539,
      "Ġcommercial": 5540,
      "ĠTerritory": 5541,
      "ĠEvery": 5542,
      "ĠOnly": 5543,
      "Ġetc": 5544,
      "Ġdon": 5545,
      "Ġcompleted": 5546,
      "fore": 5547,
      "found": 5548,
      "Ġdie": 5549,
      "Ġonline": 5550,
      "ogne": 5551,
      "eller": 5552,
      "dam": 5553,
      "Ġachie": 5554,
      "ibb": 5555,
      "Ġdanger": 5556,
      "ĠHug": 5557,
      "ĠDer": 5558,
      "ĠAli": 5559,
      "umni": 5560,
      "uro": 5561,
      "othing": 5562,
      "ĠMinisters": 5563,
      "Ġcharts": 5564,
      "Ġdynasty": 5565,
      "Ġrecording": 5566,
      "Ġ1908": 5567,
      "Ġ1911": 5568,
      "ĠHungary": 5569,
      "ĠMand": 5570,
      "Ġwhy": 5571,
      "LA": 5572,
      "ĠHom": 5573,
      "1979": 5574,
      "road": 5575,
      "1984": 5576,
      "ĠWalt": 5577,
      "Ġ48": 5578,
      "Ġbrown": 5579,
      "iques": 5580,
      "Ġancest": 5581,
      "Ġlikely": 5582,
      "Ġhouses": 5583,
      "Ġ93": 5584,
      "Serie": 5585,
      "Ġord": 5586,
      "Ġmajority": 5587,
      "Ġbring": 5588,
      "Ġpal": 5589,
      "Ġbeaut": 5590,
      "Ġproduce": 5591,
      "Ġphysicist": 5592,
      "Ġvalue": 5593,
      "ĠStone": 5594,
      "Ġcomplete": 5595,
      "sky": 5596,
      "osis": 5597,
      "Ġremoved": 5598,
      "elli": 5599,
      "ĠHYG": 5600,
      "Ġmonarch": 5601,
      "Ġbacter": 5602,
      "ĠGord": 5603,
      "ĠVenez": 5604,
      "ĠChap": 5605,
      "Ġacid": 5606,
      "ĠRen": 5607,
      "uals": 5608,
      "ĠLewis": 5609,
      "heastern": 5610,
      "Ġproducts": 5611,
      "Ġsusp": 5612,
      "Ġ81": 5613,
      "Ġ36": 5614,
      "car": 5615,
      "Ġlay": 5616,
      "Ġships": 5617,
      "ysis": 5618,
      "ĠMichel": 5619,
      "ĠKennedy": 5620,
      "ĠBrother": 5621,
      "ige": 5622,
      "coh": 5623,
      "Ġappears": 5624,
      "Ġrespect": 5625,
      "ĠLiga": 5626,
      "osing": 5627,
      "ype": 5628,
      "Ġtraining": 5629,
      "atures": 5630,
      "upp": 5631,
      "1981": 5632,
      "Ġbranch": 5633,
      "bgcolor": 5634,
      "ĠHills": 5635,
      "weet": 5636,
      "rect": 5637,
      "Ġparliament": 5638,
      "ĠBush": 5639,
      "Ġkid": 5640,
      "ĠStand": 5641,
      "Ġdistance": 5642,
      "pite": 5643,
      "Ġhair": 5644,
      "ĠWin": 5645,
      "Ġess": 5646,
      "Ġstudent": 5647,
      "ĠKl": 5648,
      "Ġdoing": 5649,
      "ĠDeputy": 5650,
      "Ġeffects": 5651,
      "ĠHindu": 5652,
      "ĠPass": 5653,
      "Ġsimple": 5654,
      "Ġheadqu": 5655,
      "da": 5656,
      "Ġthreat": 5657,
      "Ġphysical": 5658,
      "Ġkingdom": 5659,
      "ĠPatrick": 5660,
      "Ġwidely": 5661,
      "ester": 5662,
      "phab": 5663,
      "Ġfactor": 5664,
      "Ġanti": 5665,
      "ĠHead": 5666,
      "Ġreferred": 5667,
      "Ġfolk": 5668,
      "ĠJenn": 5669,
      "Ġunion": 5670,
      "ĠWelsh": 5671,
      "ĠAfghanistan": 5672,
      "Ġpieces": 5673,
      "ĠVlad": 5674,
      "ĠYam": 5675,
      "Ġearthqu": 5676,
      "zburg": 5677,
      "ĠConference": 5678,
      "ĠKelly": 5679,
      "Ġring": 5680,
      "Ġaltern": 5681,
      "Ġends": 5682,
      "ledge": 5683,
      "cha": 5684,
      "ategory": 5685,
      "ĠShar": 5686,
      "Ġnickn": 5687,
      "Ġdial": 5688,
      "ĠKle": 5689,
      "ĠAdam": 5690,
      "ĠExt": 5691,
      "oen": 5692,
      "ĠDark": 5693,
      "Ġimm": 5694,
      "oca": 5695,
      "Ġbeat": 5696,
      "Ġflows": 5697,
      "ĠBeach": 5698,
      "Ġstatus": 5699,
      "ception": 5700,
      "Ġheat": 5701,
      "ĠHawai": 5702,
      "Ġdecl": 5703,
      "Ġmathematician": 5704,
      "ners": 5705,
      "Ġwild": 5706,
      "ingen": 5707,
      "Ġupon": 5708,
      "Ġcopies": 5709,
      "ĠPur": 5710,
      "ĠAlan": 5711,
      "Ġwor": 5712,
      "Ġscientist": 5713,
      "Ġconfl": 5714,
      "Ġconditions": 5715,
      "iful": 5716,
      "izes": 5717,
      "rows": 5718,
      "ĠQuebec": 5719,
      "ĠJam": 5720,
      "Ġcritics": 5721,
      "Ġ91": 5722,
      "Ġprovinces": 5723,
      "based": 5724,
      "Ġtaught": 5725,
      "Ġsuicide": 5726,
      "ĠPic": 5727,
      "aled": 5728,
      "town": 5729,
      "chi": 5730,
      "Ġfilms": 5731,
      "ĠAnthony": 5732,
      "ĠSever": 5733,
      "Ġ89": 5734,
      "ĠBrad": 5735,
      "Ġcars": 5736,
      "Ġfund": 5737,
      "ĠGi": 5738,
      "Ġaccount": 5739,
      "Ġcouncil": 5740,
      "zen": 5741,
      "ĠMicrosoft": 5742,
      "Ġpiano": 5743,
      "ĠInf": 5744,
      "rovers": 5745,
      "exual": 5746,
      "ĠMontreal": 5747,
      "otte": 5748,
      "Ġcommunities": 5749,
      "Ġdrink": 5750,
      "ĠHou": 5751,
      "Ġroom": 5752,
      "ĠBuddh": 5753,
      "ĠBurn": 5754,
      "ĠChristopher": 5755,
      "ĠTag": 5756,
      "book": 5757,
      "ĠBros": 5758,
      "ĠFederation": 5759,
      "Ġweapons": 5760,
      "ĠAndre": 5761,
      "je": 5762,
      "Ġchampions": 5763,
      "ammals": 5764,
      "ĠDesert": 5765,
      "Ġhol": 5766,
      "Rhin": 5767,
      "Ġbott": 5768,
      "Ġactually": 5769,
      "bi": 5770,
      "lets": 5771,
      "ĠRad": 5772,
      "igg": 5773,
      "Ġsal": 5774,
      "Ġremains": 5775,
      "Ġreach": 5776,
      "Ġreve": 5777,
      "Ġmeasure": 5778,
      "leveland": 5779,
      "celona": 5780,
      "dy": 5781,
      "Ġmission": 5782,
      "ĠKor": 5783,
      "Ġpersonality": 5784,
      "Ġdivor": 5785,
      "ĠChampions": 5786,
      "onde": 5787,
      "ĠZh": 5788,
      "Ġcontest": 5789,
      "ĠCra": 5790,
      "Ġprogramming": 5791,
      "ĠMedia": 5792,
      "feld": 5793,
      "onic": 5794,
      "ĠSri": 5795,
      "aver": 5796,
      "ĠEmmy": 5797,
      "ĠOlympians": 5798,
      "Ġburied": 5799,
      "itter": 5800,
      "Ġlabel": 5801,
      "een": 5802,
      "cycl": 5803,
      "1982": 5804,
      "Ġindividual": 5805,
      "eek": 5806,
      "ĠWho": 5807,
      "Ġgreatest": 5808,
      "arus": 5809,
      "Ġdisp": 5810,
      "ĠFinnish": 5811,
      "ĠBoard": 5812,
      "ĠGir": 5813,
      "ĠMountain": 5814,
      "ĠHo": 5815,
      "ĠFrog": 5816,
      "tha": 5817,
      "ĠParish": 5818,
      "ĠBeng": 5819,
      "ĠNat": 5820,
      "ĠStra": 5821,
      "Ġobjects": 5822,
      "ĠCambridge": 5823,
      "ĠJordan": 5824,
      "iat": 5825,
      "ĠFr": 5826,
      "iab": 5827,
      "ĠAnna": 5828,
      "dorf": 5829,
      "onom": 5830,
      "Ġentertain": 5831,
      "jab": 5832,
      "wright": 5833,
      "ĠLower": 5834,
      "ĠKash": 5835,
      "rison": 5836,
      "ĠBruce": 5837,
      "Ġ38": 5838,
      "Ġmanufact": 5839,
      "ĠTun": 5840,
      "Ġprevent": 5841,
      "ĠAlfred": 5842,
      "Ġbought": 5843,
      "Ġeyes": 5844,
      "ĠVik": 5845,
      "ĠRio": 5846,
      "Ġcomune": 5847,
      "onds": 5848,
      "Ġ92": 5849,
      "Ġyounger": 5850,
      "ĠDa": 5851,
      "ĠOizumi": 5852,
      "ĠAlexand": 5853,
      "enger": 5854,
      "Ġ82": 5855,
      "Ġtemp": 5856,
      "IA": 5857,
      "ĠRa": 5858,
      "Ġconfirmed": 5859,
      "uly": 5860,
      "Ġstreng": 5861,
      "Ġentered": 5862,
      "Ġattacked": 5863,
      "ounter": 5864,
      "Ġ55": 5865,
      "ĠEarl": 5866,
      "Ġfle": 5867,
      "imated": 5868,
      "resh": 5869,
      "Ġ37": 5870,
      "orney": 5871,
      "Ġnearby": 5872,
      "esh": 5873,
      "nel": 5874,
      "ĠDom": 5875,
      "ĠAth": 5876,
      "Ġmythology": 5877,
      "ivity": 5878,
      "Ġcomic": 5879,
      "erto": 5880,
      "Ġsun": 5881,
      "Ġflood": 5882,
      "gal": 5883,
      "igr": 5884,
      "Ġsupp": 5885,
      "Ġinsect": 5886,
      "Ġpoll": 5887,
      "ĠTreat": 5888,
      "stone": 5889,
      "leges": 5890,
      "ĠPap": 5891,
      "ultural": 5892,
      "Ġsolo": 5893,
      "Ġdry": 5894,
      "icks": 5895,
      "ĠMalays": 5896,
      "ĠDal": 5897,
      "ĠStation": 5898,
      "ygen": 5899,
      "ĠVenezuel": 5900,
      "Ġfictional": 5901,
      "allas": 5902,
      "Ġelement": 5903,
      "Ġsection": 5904,
      "ĠIc": 5905,
      "ĠJuan": 5906,
      "ĠPhilip": 5907,
      "ĠMaur": 5908,
      "Ġnob": 5909,
      "Ġissues": 5910,
      "ographic": 5911,
      "Ġcalendar": 5912,
      "Ġinfluence": 5913,
      "rier": 5914,
      "Ġ94": 5915,
      "Ġneeds": 5916,
      "ĠYouT": 5917,
      "ĠAntonio": 5918,
      "ĠTamil": 5919,
      "ĠKarl": 5920,
      "iva": 5921,
      "ĠDoctor": 5922,
      "Ġgraduated": 5923,
      "Ġliqu": 5924,
      "ĠPolice": 5925,
      "former": 5926,
      "Ġcerem": 5927,
      "Ġunknown": 5928,
      "Ġweather": 5929,
      "ĠParalympics": 5930,
      "Ġtwice": 5931,
      "Ġhelps": 5932,
      "Ġcultural": 5933,
      "Ġinvestig": 5934,
      "acc": 5935,
      "Alp": 5936,
      "Ġwhether": 5937,
      "ĠMaster": 5938,
      "Ġallows": 5939,
      "Ġfeature": 5940,
      "ĠHoward": 5941,
      "uins": 5942,
      "ĠIndonesia": 5943,
      "Ġfr": 5944,
      "inth": 5945,
      "olas": 5946,
      "ĠBible": 5947,
      "ĠWarner": 5948,
      "ĠKey": 5949,
      "ensity": 5950,
      "ading": 5951,
      "Ġconserv": 5952,
      "Ġeconomy": 5953,
      "ĠOak": 5954,
      "ĠChart": 5955,
      "--": 5956,
      "Bl": 5957,
      "Ġcras": 5958,
      "anced": 5959,
      "ancial": 5960,
      "ĠLiter": 5961,
      "ĠDevelopment": 5962,
      "ĠEngine": 5963,
      "ek": 5964,
      "Ġteen": 5965,
      "ĠArn": 5966,
      "Ġhunt": 5967,
      "oslav": 5968,
      "ĠAge": 5969,
      "Ġdies": 5970,
      "Ġ66": 5971,
      "Ġfantasy": 5972,
      "Ġchosen": 5973,
      "ĠIl": 5974,
      "Ġ44": 5975,
      "ĠLabour": 5976,
      "ault": 5977,
      "Ġda": 5978,
      "Ġcred": 5979,
      "ĠRivers": 5980,
      "Ġrefers": 5981,
      "ĠUtah": 5982,
      "olved": 5983,
      "ĠFinal": 5984,
      "1977": 5985,
      "ĠRose": 5986,
      "ĠVers": 5987,
      "ĠAlaska": 5988,
      "Ġconsist": 5989,
      "uctions": 5990,
      "Ġevolution": 5991,
      "ĠArea": 5992,
      "ĠPy": 5993,
      "ĠDise": 5994,
      "emen": 5995,
      "ache": 5996,
      "eget": 5997,
      "ĠDavis": 5998,
      "since": 5999,
      "ĠIS": 6000,
      "Ġgal": 6001,
      "Ġaired": 6002,
      "ĠIvan": 6003,
      "Ġsignificant": 6004,
      "itals": 6005,
      "Ġ67": 6006,
      "ographical": 6007,
      "Ġtrying": 6008,
      "ĠSiding": 6009,
      "Ġhero": 6010,
      "ĠDC": 6011,
      "Ġrat": 6012,
      "ĠTest": 6013,
      "onder": 6014,
      "Ġpolitics": 6015,
      "Ġsaying": 6016,
      "Ġranked": 6017,
      "Ġcook": 6018,
      "ĠVo": 6019,
      "Ġrate": 6020,
      "Ġ68": 6021,
      "Ġagre": 6022,
      "Ġsequel": 6023,
      "enh": 6024,
      "Ġcomment": 6025,
      "ĠPalace": 6026,
      "Ġones": 6027,
      "Ġemerg": 6028,
      "Ġmention": 6029,
      "ĠCart": 6030,
      "eline": 6031,
      "Ġcontain": 6032,
      "Ġhappens": 6033,
      "ĠForeign": 6034,
      "ĠCE": 6035,
      "Ġscore": 6036,
      "Ġgraph": 6037,
      "onse": 6038,
      "medi": 6039,
      "Com": 6040,
      "Ġ69": 6041,
      "Ġtradition": 6042,
      "Ġarrested": 6043,
      "long": 6044,
      "erved": 6045,
      "ĠField": 6046,
      "Ġsides": 6047,
      "Ġadventure": 6048,
      "Ġevidence": 6049,
      "Ġlif": 6050,
      "Ġ73": 6051,
      "Ġflu": 6052,
      "ĠProfessor": 6053,
      "ety": 6054,
      "ĠReal": 6055,
      "\").": 6056,
      "rupt": 6057,
      "Ġsail": 6058,
      "Ġcrew": 6059,
      "Ġbelief": 6060,
      "ega": 6061,
      "Ġprime": 6062,
      "Ġtrains": 6063,
      "Ġbuy": 6064,
      "ĠConfeder": 6065,
      "ĠKev": 6066,
      "Ġeasily": 6067,
      "iop": 6068,
      "ipur": 6069,
      "ĠAllen": 6070,
      "ĠAis": 6071,
      "ĠTheatre": 6072,
      "cont": 6073,
      "Ġappl": 6074,
      "lectoral": 6075,
      "ĠHit": 6076,
      "Ġearned": 6077,
      "iya": 6078,
      "ĠWy": 6079,
      "Ġrob": 6080,
      "which": 6081,
      "gor": 6082,
      "ĠLux": 6083,
      "Ġemperor": 6084,
      "ĠRonald": 6085,
      "ĠChildren": 6086,
      "oli": 6087,
      "othes": 6088,
      "Ġimpro": 6089,
      "Ġillust": 6090,
      "Ġpainting": 6091,
      "Ġsurg": 6092,
      "die": 6093,
      "IS": 6094,
      "ĠFurther": 6095,
      "pa": 6096,
      "ĠCorporation": 6097,
      "oons": 6098,
      "ĠSix": 6099,
      "imore": 6100,
      "Ġwinter": 6101,
      "Ġforest": 6102,
      "rong": 6103,
      "ĠJay": 6104,
      "Ġrecent": 6105,
      "Ġregard": 6106,
      "alty": 6107,
      "Ġactivities": 6108,
      "ecess": 6109,
      "ĠPuerto": 6110,
      "ĠCre": 6111,
      "ĠLeb": 6112,
      "ĠEsp": 6113,
      "ĠHun": 6114,
      "ignated": 6115,
      "ĠLabor": 6116,
      "ĠJournal": 6117,
      "ĠAdams": 6118,
      "ĠRoger": 6119,
      "Ġmill": 6120,
      "phabet": 6121,
      "CD": 6122,
      "ĠProject": 6123,
      "ĠSimon": 6124,
      "ĠDiscography": 6125,
      "Ġathlet": 6126,
      "Ġequal": 6127,
      "Ġroyal": 6128,
      "Ġstream": 6129,
      "Ġdeterm": 6130,
      "Ġdouble": 6131,
      "Alpes": 6132,
      "Ġcovers": 6133,
      "iki": 6134,
      "Ġgiving": 6135,
      "Ġprote": 6136,
      "Ġremained": 6137,
      "ĠNazi": 6138,
      "ĠCook": 6139,
      "Ġconsists": 6140,
      "ĠMilan": 6141,
      "pool": 6142,
      "Ġlink": 6143,
      "abad": 6144,
      "Ġsplit": 6145,
      "Ġemp": 6146,
      "Ġproperty": 6147,
      "Ġpeace": 6148,
      "ĠPitts": 6149,
      "Ġcam": 6150,
      "ĠTel": 6151,
      "ĠPalest": 6152,
      "Ġspecific": 6153,
      "ĠArd": 6154,
      "Ġ1909": 6155,
      "ĠMargar": 6156,
      "Ġspeech": 6157,
      "ĠArmenian": 6158,
      "ante": 6159,
      "Ġ47": 6160,
      "arks": 6161,
      "ocks": 6162,
      "Ġdefeat": 6163,
      "ĠLank": 6164,
      "ĠMars": 6165,
      "Ġconstruction": 6166,
      "''": 6167,
      "IT": 6168,
      "isms": 6169,
      "ĠFern": 6170,
      "imately": 6171,
      "Ġplatform": 6172,
      "Ġ39": 6173,
      "izing": 6174,
      "Ġconcert": 6175,
      "gers": 6176,
      "ĠIndust": 6177,
      "ĠBart": 6178,
      "Ġworkers": 6179,
      "Ġathlete": 6180,
      "Ġ1907": 6181,
      "ĠUpper": 6182,
      "down": 6183,
      "ĠSud": 6184,
      "ucks": 6185,
      "cules": 6186,
      "Ġ96": 6187,
      "Ġdrugs": 6188,
      "mont": 6189,
      "Ġbatt": 6190,
      "osaurus": 6191,
      "Ġassociated": 6192,
      "mpt": 6193,
      "ĠPunjab": 6194,
      "Ġcaptured": 6195,
      "ĠTen": 6196,
      "III": 6197,
      "Ġfashion": 6198,
      "ĠBilly": 6199,
      "Ġdeclared": 6200,
      "oir": 6201,
      "oring": 6202,
      "ĠGuard": 6203,
      "chers": 6204,
      "rac": 6205,
      "bo": 6206,
      "Ġconqu": 6207,
      "ĠBarcelona": 6208,
      "iko": 6209,
      "Ġfeed": 6210,
      "ĠRey": 6211,
      "ĠRomanian": 6212,
      "Ġlegs": 6213,
      "Ġconductor": 6214,
      "ĠCaptain": 6215,
      "Ġfrogs": 6216,
      "ĠSources": 6217,
      "ĠAst": 6218,
      "Ġupper": 6219,
      "Atl": 6220,
      "ĠMap": 6221,
      "ĠKon": 6222,
      "Ġcrash": 6223,
      "cano": 6224,
      "ingham": 6225,
      "Ġthing": 6226,
      "ni": 6227,
      "ĠSite": 6228,
      "Ġscientific": 6229,
      "Ġreasons": 6230,
      "Ġrecognized": 6231,
      "ications": 6232,
      "ocol": 6233,
      "Ġbird": 6234,
      "ĠRub": 6235,
      "ĠPrix": 6236,
      "alem": 6237,
      "ĠDead": 6238,
      "ĠMelbourne": 6239,
      "Ġpractice": 6240,
      "ĠBishop": 6241,
      "imir": 6242,
      "1974": 6243,
      "Ġopt": 6244,
      "rief": 6245,
      "ĠShah": 6246,
      "Ġwants": 6247,
      "ĠVas": 6248,
      "Ġserving": 6249,
      "ER": 6250,
      "zh": 6251,
      "Ġlevels": 6252,
      "vard": 6253,
      "urches": 6254,
      "ĠGuine": 6255,
      "Ġconnected": 6256,
      "ĠHampshire": 6257,
      "Ġresponsible": 6258,
      "Ġtheatre": 6259,
      "Ġbodies": 6260,
      "Ġcenturies": 6261,
      "Man": 6262,
      "oes": 6263,
      "arily": 6264,
      "Ġrich": 6265,
      "ryst": 6266,
      "Ġsoutheast": 6267,
      "Ġexact": 6268,
      "cyclop": 6269,
      "atar": 6270,
      "ĠEcu": 6271,
      "ĠAisne": 6272,
      "roduction": 6273,
      "Ġacademic": 6274,
      "Ġrapper": 6275,
      "atin": 6276,
      "Ġinstrument": 6277,
      "Ġassistant": 6278,
      "ĠDynasty": 6279,
      "Ġvs": 6280,
      "ĠCommunity": 6281,
      "rm": 6282,
      "Ġmetres": 6283,
      "onent": 6284,
      "ĠNon": 6285,
      "ĠEric": 6286,
      "osa": 6287,
      "Ġlooks": 6288,
      "ĠAy": 6289,
      "ĠTurn": 6290,
      "Ġflow": 6291,
      "iology": 6292,
      "ĠDick": 6293,
      "awn": 6294,
      "ĠLaur": 6295,
      "Ġtreatment": 6296,
      "ĠKevin": 6297,
      "ĠPeace": 6298,
      "1973": 6299,
      "Ġterrit": 6300,
      "Ġjudge": 6301,
      "ĠKit": 6302,
      "Ġ1906": 6303,
      "ĠMemorial": 6304,
      "designated": 6305,
      "Ġvotes": 6306,
      "ĠOp": 6307,
      "Ġowner": 6308,
      "Ġvalley": 6309,
      "oshi": 6310,
      "insula": 6311,
      "Ġalcoh": 6312,
      "keep": 6313,
      "Ġopening": 6314,
      "Ġdiagn": 6315,
      "ĠMill": 6316,
      "idel": 6317,
      "Ġfort": 6318,
      "rell": 6319,
      "Ġprofile": 6320,
      "Ġparish": 6321,
      "Ġinstruments": 6322,
      "sa": 6323,
      "ĠExamples": 6324,
      "Ġlocation": 6325,
      "ĠHouston": 6326,
      "net": 6327,
      "ĠHu": 6328,
      "Ġpercent": 6329,
      "Ġlongest": 6330,
      "1976": 6331,
      "ĠJimmy": 6332,
      "erground": 6333,
      "ĠHamilton": 6334,
      "ĠFranklin": 6335,
      "Ġpreviously": 6336,
      "Ġjump": 6337,
      "ĠMuham": 6338,
      "anny": 6339,
      "Ġpaintings": 6340,
      "ĠDh": 6341,
      "hatt": 6342,
      "ĠDig": 6343,
      "ĠVerm": 6344,
      "ĠPersian": 6345,
      "Ġvictory": 6346,
      "Ġ121": 6347,
      "Ġcreation": 6348,
      "Ġdirectly": 6349,
      "ĠCleveland": 6350,
      "ĠSciences": 6351,
      "ĠAffairs": 6352,
      "Ġnumer": 6353,
      "mes": 6354,
      "Ġleaving": 6355,
      "Ġ150": 6356,
      "Ġprec": 6357,
      "ĠBib": 6358,
      "Ġoperating": 6359,
      "Ġglob": 6360,
      "ĠMAR": 6361,
      "Ġreally": 6362,
      "Ġengineering": 6363,
      "Ġ300": 6364,
      "Ġsevent": 6365,
      "ĠDNA": 6366,
      "Ġalt": 6367,
      "ynam": 6368,
      "Ġurban": 6369,
      "ebraska": 6370,
      "Ġbasic": 6371,
      "mouth": 6372,
      "mission": 6373,
      "km": 6374,
      "lay": 6375,
      "ĠHarris": 6376,
      "ĠNich": 6377,
      "||||||": 6378,
      "ĠApple": 6379,
      "ĠRick": 6380,
      "Ġ1890": 6381,
      "Ġgods": 6382,
      "get": 6383,
      "Ġmissing": 6384,
      "Ġfruit": 6385,
      "Ġque": 6386,
      "ĠFall": 6387,
      "ĠShort": 6388,
      "ĠBrand": 6389,
      "ĠCer": 6390,
      "Ġ97": 6391,
      "1978": 6392,
      "Ġcab": 6393,
      "cht": 6394,
      "Ġstra": 6395,
      "ublish": 6396,
      "ĠFle": 6397,
      "Ġ1905": 6398,
      "ĠIceland": 6399,
      "Ġ54": 6400,
      "iba": 6401,
      "Ġlimited": 6402,
      "put": 6403,
      "ifer": 6404,
      "eva": 6405,
      "Ġstore": 6406,
      "ĠBry": 6407,
      "Ġquite": 6408,
      "2020": 6409,
      "hens": 6410,
      "Ġ1903": 6411,
      "fish": 6412,
      "Ġsucceed": 6413,
      "Ġflat": 6414,
      "sequ": 6415,
      "Ġ98": 6416,
      "ĠCape": 6417,
      "ĠAtlanta": 6418,
      "Ġiron": 6419,
      "Ġkeyboard": 6420,
      "ĠTeh": 6421,
      "ĠGordon": 6422,
      "New": 6423,
      "ĠBaltimore": 6424,
      "ĠSid": 6425,
      "Ġfix": 6426,
      "ĠNam": 6427,
      "ĠNorm": 6428,
      "ĠCamer": 6429,
      "hat": 6430,
      "jo": 6431,
      "Ġpaid": 6432,
      "Ġmaster": 6433,
      "ĠImp": 6434,
      "Ġtransfer": 6435,
      "Ġadopted": 6436,
      "bed": 6437,
      "ĠSound": 6438,
      "ĠRot": 6439,
      "ĠSquare": 6440,
      "ĠEcuador": 6441,
      "ĠFriend": 6442,
      "agen": 6443,
      "Ġexc": 6444,
      "oyd": 6445,
      "ĠMember": 6446,
      "Ġbackground": 6447,
      "Ġrestaur": 6448,
      "iden": 6449,
      "Ġwrestling": 6450,
      "elligence": 6451,
      "ĠHi": 6452,
      "Ġterror": 6453,
      "ĠLow": 6454,
      "akers": 6455,
      "ĠCalv": 6456,
      "Ġprovide": 6457,
      "ĠGlobe": 6458,
      "Ġfestival": 6459,
      "ĠBoe": 6460,
      "under": 6461,
      "kov": 6462,
      "Ġjournalists": 6463,
      "ĠFrederick": 6464,
      "MA": 6465,
      "icate": 6466,
      "ĠHeavy": 6467,
      "Ġdesigner": 6468,
      "olt": 6469,
      "ĠKa": 6470,
      "rav": 6471,
      "Ġroll": 6472,
      "Ġcorn": 6473,
      "ĠINS": 6474,
      "ĠDu": 6475,
      "rin": 6476,
      "ĠElection": 6477,
      "oba": 6478,
      "Ġcolumn": 6479,
      "Ġbroke": 6480,
      "bro": 6481,
      "Ġholds": 6482,
      "Ġillness": 6483,
      "Ġneighbor": 6484,
      "West": 6485,
      "Ġpowers": 6486,
      "Ġatom": 6487,
      "nia": 6488,
      "ĠGers": 6489,
      "Ġmanaged": 6490,
      "Ġille": 6491,
      "atab": 6492,
      "1972": 6493,
      "ĠChampion": 6494,
      "ĠGuy": 6495,
      "Ġocean": 6496,
      "Ġfir": 6497,
      "ĠMach": 6498,
      "ĠPed": 6499,
      "aku": 6500,
      "rict": 6501,
      "ĠReagan": 6502,
      "Ġwins": 6503,
      "Ġplanned": 6504,
      "Ġspirit": 6505,
      "Ġattended": 6506,
      "Ġsixth": 6507,
      "Ġcompletely": 6508,
      "ĠDiego": 6509,
      "ĠMiller": 6510,
      "Ġserious": 6511,
      "Ġlands": 6512,
      "pre": 6513,
      "ĠFried": 6514,
      "low": 6515,
      "hard": 6516,
      "Ġpath": 6517,
      "ĠGulf": 6518,
      "Ġ72": 6519,
      "ĠBetween": 6520,
      "ĠTechnology": 6521,
      "oro": 6522,
      "Ġexhib": 6523,
      "iami": 6524,
      "Ġcomputers": 6525,
      "ĠSky": 6526,
      "ĠPa": 6527,
      "Ġdebuts": 6528,
      "Ġarms": 6529,
      "ibility": 6530,
      "1975": 6531,
      "osphere": 6532,
      "Ġrenamed": 6533,
      "ĠSee": 6534,
      "ĠRangers": 6535,
      "Ġindustrial": 6536,
      "elson": 6537,
      "life": 6538,
      "ĠDallas": 6539,
      "partement": 6540,
      "ĠEston": 6541,
      "France": 6542,
      "Ġhy": 6543,
      "ĠNebraska": 6544,
      "ĠOrth": 6545,
      "ĠJerry": 6546,
      "Ġmm": 6547,
      ")\"": 6548,
      "Ġwhom": 6549,
      "Ġclaimed": 6550,
      "ĠDVD": 6551,
      "ĠClin": 6552,
      "uma": 6553,
      "ĠCour": 6554,
      "irty": 6555,
      "ĠGon": 6556,
      "ĠSongs": 6557,
      "ĠAmbass": 6558,
      "imum": 6559,
      "Ġgeneration": 6560,
      "ĠSomme": 6561,
      "EN": 6562,
      "Ġinit": 6563,
      "ĠLas": 6564,
      "odox": 6565,
      "ĠForest": 6566,
      "ĠMerc": 6567,
      "Ġtrial": 6568,
      "ĠFel": 6569,
      "ĠFem": 6570,
      "axy": 6571,
      "Ġpassengers": 6572,
      "ĠImperial": 6573,
      "Ġhosted": 6574,
      "ĠLith": 6575,
      "ĠEagle": 6576,
      "ĠPittsburgh": 6577,
      "May": 6578,
      "onstr": 6579,
      "Ġ46": 6580,
      "Ġimage": 6581,
      "Ġheadquarters": 6582,
      "ĠYug": 6583,
      "law": 6584,
      "ĠLyn": 6585,
      "ĠYouTube": 6586,
      "Ġmodels": 6587,
      "Ġsecurity": 6588,
      "Ġethnic": 6589,
      "Ġcontrovers": 6590,
      "Ġeff": 6591,
      "esc": 6592,
      "Ġsac": 6593,
      "Ġded": 6594,
      "Ġnotable": 6595,
      "Ġexamples": 6596,
      "wald": 6597,
      "Ġfair": 6598,
      "ĠCru": 6599,
      "Ġvariety": 6600,
      "Ġsleep": 6601,
      "Ġinte": 6602,
      "olph": 6603,
      "Ġ400": 6604,
      "ĠJacob": 6605,
      "Ġpilot": 6606,
      "ĠMuhammad": 6607,
      "Ġenter": 6608,
      "ĠVis": 6609,
      "Ġconcent": 6610,
      "Ġoxygen": 6611,
      "rh": 6612,
      "ĠSu": 6613,
      "lease": 6614,
      "Ġ43": 6615,
      "ulty": 6616,
      "||||||||||||||||": 6617,
      "Ġgrowth": 6618,
      "ĠBlues": 6619,
      "ĠStatistics": 6620,
      "Ġcouple": 6621,
      "ĠLuxemb": 6622,
      "ĠBurg": 6623,
      "Ġstated": 6624,
      "Ġearthquake": 6625,
      "ĠRy": 6626,
      "Ġforests": 6627,
      "Ġfile": 6628,
      "ĠCall": 6629,
      "ĠCrit": 6630,
      "Ġability": 6631,
      "Ġcarried": 6632,
      "Ġvocal": 6633,
      "ĠUniversal": 6634,
      "ĠINSEE": 6635,
      "estic": 6636,
      "uda": 6637,
      "aceous": 6638,
      "ĠWhit": 6639,
      "ĠTemple": 6640,
      "illes": 6641,
      "olo": 6642,
      "Ġmaterials": 6643,
      "ĠJohnny": 6644,
      "ĠMedicine": 6645,
      "Ġcondition": 6646,
      "ĠBure": 6647,
      "Ġbound": 6648,
      "ĠHollywood": 6649,
      "ĠSS": 6650,
      "ĠOcc": 6651,
      "orps": 6652,
      "ĠStudio": 6653,
      "sm": 6654,
      "ĠCuba": 6655,
      "ĠSaud": 6656,
      "adi": 6657,
      "achi": 6658,
      "ogen": 6659,
      "Dec": 6660,
      "center": 6661,
      "ĠMuslims": 6662,
      "ĠNFL": 6663,
      "aph": 6664,
      "ici": 6665,
      "iled": 6666,
      "ĠSingh": 6667,
      "Ġdigital": 6668,
      "Ġbul": 6669,
      "Ġmoon": 6670,
      "Ġarts": 6671,
      "Ġtwenty": 6672,
      "Ġdefin": 6673,
      "Ġfinish": 6674,
      "ging": 6675,
      "Ġsources": 6676,
      "ĠRussell": 6677,
      "otic": 6678,
      "ĠSalv": 6679,
      "mptoms": 6680,
      "Ġplaywright": 6681,
      "Ġ1904": 6682,
      "Ġactivity": 6683,
      "iner": 6684,
      "Ġtheor": 6685,
      "see": 6686,
      "Ġpoets": 6687,
      "ĠGuinea": 6688,
      "ĠPrim": 6689,
      "ĠRab": 6690,
      "ĠSerge": 6691,
      "IV": 6692,
      "Ġborders": 6693,
      "Ġdancer": 6694,
      "ban": 6695,
      "ĠLam": 6696,
      "oster": 6697,
      "ĠFrogs": 6698,
      "Ġrugby": 6699,
      "Ġsymbols": 6700,
      "ĠMargaret": 6701,
      "Jan": 6702,
      "div": 6703,
      "ĠProgram": 6704,
      "ĠCarlos": 6705,
      "ĠRights": 6706,
      "oda": 6707,
      "Ġquarter": 6708,
      "Ġwall": 6709,
      "ĠMong": 6710,
      "Ġchall": 6711,
      "Ġincreased": 6712,
      "avel": 6713,
      "Ġcoming": 6714,
      "track": 6715,
      "alle": 6716,
      "Ġbright": 6717,
      "ĠRain": 6718,
      "Ġfinally": 6719,
      "Ġdpartement": 6720,
      "ĠMit": 6721,
      "ĠPlot": 6722,
      "ĠWorks": 6723,
      "ĠCarter": 6724,
      "Ġwatch": 6725,
      "elve": 6726,
      "Ġdisplay": 6727,
      "Ġprisoners": 6728,
      "Ġsearch": 6729,
      "ĠPok": 6730,
      "ĠLev": 6731,
      "Ġmedicine": 6732,
      "usalem": 6733,
      "ĠStadium": 6734,
      "Ġmatter": 6735,
      "mat": 6736,
      "Ġstone": 6737,
      "Ġincrease": 6738,
      "Ġinvented": 6739,
      "ĠMix": 6740,
      "CC": 6741,
      "Ġpack": 6742,
      "ĠZe": 6743,
      "Ġpron": 6744,
      "Ġlasted": 6745,
      "Ġ42": 6746,
      "iley": 6747,
      "1970": 6748,
      "Ġdevice": 6749,
      "hattan": 6750,
      "Ġ51": 6751,
      "aho": 6752,
      "Ġdebuted": 6753,
      "ĠRud": 6754,
      "oves": 6755,
      "ĠSamuel": 6756,
      "Ġmouth": 6757,
      "Ġdirection": 6758,
      "1971": 6759,
      "ailand": 6760,
      "Ġdiscuss": 6761,
      "Ġserve": 6762,
      "ourney": 6763,
      "Ġsolid": 6764,
      "ĠSurvey": 6765,
      "ĠHawaii": 6766,
      "orough": 6767,
      "Ġdepart": 6768,
      "ĠHonor": 6769,
      "ĠColombia": 6770,
      "orph": 6771,
      "ĠCalvados": 6772,
      "Ġdecision": 6773,
      "Ġextra": 6774,
      "Ġwave": 6775,
      "ĠFive": 6776,
      "assic": 6777,
      "Ġtribut": 6778,
      "Ġsouthwestern": 6779,
      "ĠHeb": 6780,
      "Ġ1800": 6781,
      "father": 6782,
      "Ġcontrolled": 6783,
      "Ġgard": 6784,
      "utional": 6785,
      "uguay": 6786,
      "pan": 6787,
      "ĠToy": 6788,
      "Ġsilent": 6789,
      "orig": 6790,
      "ĠRic": 6791,
      "Ġeye": 6792,
      "uman": 6793,
      "Ġpet": 6794,
      "ĠOm": 6795,
      "osite": 6796,
      "ventures": 6797,
      "ĠTri": 6798,
      "Ġtries": 6799,
      "Ġhousehold": 6800,
      "Ġofficers": 6801,
      "ĠTower": 6802,
      "ĠMiami": 6803,
      "ideos": 6804,
      "Ġ63": 6805,
      "ĠPhill": 6806,
      "Ġgirls": 6807,
      "Ġcolour": 6808,
      "Ġchess": 6809,
      "boy": 6810,
      "ĠCass": 6811,
      "ĠLib": 6812,
      "Ġlic": 6813,
      "Ġalphabet": 6814,
      "atsu": 6815,
      "Ġphysics": 6816,
      "din": 6817,
      "ĠMunich": 6818,
      "ĠGovernors": 6819,
      "ĠPierre": 6820,
      "ĠTrib": 6821,
      "WA": 6822,
      "ĠJerusalem": 6823,
      "Ġagreed": 6824,
      "hips": 6825,
      "Ġappearances": 6826,
      "holm": 6827,
      "ĠPhoen": 6828,
      "ĠCommunist": 6829,
      "ighth": 6830,
      "Ġben": 6831,
      "ĠFront": 6832,
      "ĠOsc": 6833,
      "apes": 6834,
      "Ġkills": 6835,
      "Ġvolleyball": 6836,
      "Ġnovelist": 6837,
      "ĠBud": 6838,
      "ĠDave": 6839,
      "ĠDance": 6840,
      "racy": 6841,
      "1969": 6842,
      "ĠCompanies": 6843,
      "Ġpattern": 6844,
      "ĠOw": 6845,
      "Ġ56": 6846,
      "Ġpianist": 6847,
      "Ġclassical": 6848,
      "ĠVladimir": 6849,
      "ĠRun": 6850,
      "ĠLet": 6851,
      "Ġshare": 6852,
      "ĠManhattan": 6853,
      "Ġnormally": 6854,
      "anthrop": 6855,
      "sters": 6856,
      "Ġsinging": 6857,
      "ĠMoore": 6858,
      "inent": 6859,
      "enge": 6860,
      "Ġyet": 6861,
      "Ġ59": 6862,
      "ĠColon": 6863,
      "bar": 6864,
      "ĠScreen": 6865,
      "Ġfollows": 6866,
      "Ġnovels": 6867,
      "German": 6868,
      "imal": 6869,
      "abe": 6870,
      "ĠMedical": 6871,
      "Ġraces": 6872,
      "Ġcolors": 6873,
      "ĠPakistani": 6874,
      "Ġdescribe": 6875,
      "ĠMatthew": 6876,
      "ĠFal": 6877,
      "ĠBan": 6878,
      "ĠPeters": 6879,
      "Ġbacteria": 6880,
      "Ġlists": 6881,
      "Ġmeeting": 6882,
      "ĠJunior": 6883,
      "ening": 6884,
      "Ġsites": 6885,
      "Ġver": 6886,
      "Ġveget": 6887,
      "Ġconcept": 6888,
      "isters": 6889,
      "Ġprincip": 6890,
      "Ġcourse": 6891,
      "Ġunderstand": 6892,
      "Ġenemy": 6893,
      "ĠBureau": 6894,
      "ĠLad": 6895,
      "ĠOttoman": 6896,
      "obi": 6897,
      "Ġorganized": 6898,
      "ĠLiberal": 6899,
      "ĠMagn": 6900,
      "anted": 6901,
      "ĠBuff": 6902,
      "ĠAud": 6903,
      "wealth": 6904,
      "Ġapprox": 6905,
      "asa": 6906,
      "ĠBou": 6907,
      "RA": 6908,
      "ĠUruguay": 6909,
      "ĠMess": 6910,
      "ĠMeg": 6911,
      "Ġarticles": 6912,
      "ĠCosta": 6913,
      "ĠYugoslav": 6914,
      "wich": 6915,
      "ĠThird": 6916,
      "ooth": 6917,
      "Ġacts": 6918,
      "ĠLang": 6919,
      "active": 6920,
      "Ġmemory": 6921,
      "ci": 6922,
      "ĠNash": 6923,
      "Ġexperience": 6924,
      ";\"": 6925,
      "Ġsons": 6926,
      "Ġcant": 6927,
      "Ġfell": 6928,
      "Ġ1902": 6929,
      "Ġchairman": 6930,
      "Ġtitles": 6931,
      "Ġfailed": 6932,
      "Ġforward": 6933,
      "ĠPeru": 6934,
      "Ġbrothers": 6935,
      "Ġarchitecture": 6936,
      "Ġcool": 6937,
      "Ġgained": 6938,
      "Ġoverall": 6939,
      "Ġ49": 6940,
      "ĠHarvard": 6941,
      "ĠMoroc": 6942,
      "ĠSalzburg": 6943,
      "Ġcalcul": 6944,
      "Ġ71": 6945,
      "Ġwrestlers": 6946,
      "ĠLieutenant": 6947,
      "Ġalumni": 6948,
      "Ġexplos": 6949,
      "ĠFilip": 6950,
      "haw": 6951,
      "ipment": 6952,
      "atherine": 6953,
      "ĠChristians": 6954,
      "incorporated": 6955,
      "Ġdefend": 6956,
      "Ġgrowing": 6957,
      "July": 6958,
      "Ġwrong": 6959,
      "Ġsand": 6960,
      "ĠNorman": 6961,
      "mph": 6962,
      "Ġdinosaur": 6963,
      "ĠGran": 6964,
      "ĠComputer": 6965,
      "cott": 6966,
      "iser": 6967,
      "ĠSin": 6968,
      "Ġmom": 6969,
      "ĠCong": 6970,
      "Ġunc": 6971,
      "Ġtheme": 6972,
      "umbent": 6973,
      "Ġcoin": 6974,
      "ĠDur": 6975,
      "ĠKo": 6976,
      "ĠBron": 6977,
      "1968": 6978,
      "Ġordered": 6979,
      "nie": 6980,
      "ilia": 6981,
      "irt": 6982,
      "rops": 6983,
      "ĠAdv": 6984,
      "Ġtarg": 6985,
      "ugs": 6986,
      "Ġglass": 6987,
      "ĠNigeria": 6988,
      "ĠBoeing": 6989,
      "ĠSuff": 6990,
      "ĠMol": 6991,
      "ĠJama": 6992,
      "ĠTrin": 6993,
      "Ġprotest": 6994,
      "Ġsemi": 6995,
      "Nov": 6996,
      "Ġapart": 6997,
      "Ġissue": 6998,
      "ying": 6999,
      "thm": 7000,
      "Ġcrimes": 7001,
      "ymn": 7002,
      "Ġquestion": 7003,
      "rak": 7004,
      "Ġheight": 7005,
      "April": 7006,
      "Ġreaction": 7007,
      "agh": 7008,
      "ogle": 7009,
      "ibbean": 7010,
      "from": 7011,
      "rast": 7012,
      "Ġcm": 7013,
      "ĠBenj": 7014,
      "Ġans": 7015,
      "Ġyouth": 7016,
      "Ġvillages": 7017,
      "Ġrevolution": 7018,
      "pur": 7019,
      "tic": 7020,
      "ĠBundesliga": 7021,
      "adt": 7022,
      "Ġ1880": 7023,
      "Ġrecip": 7024,
      "joy": 7025,
      "ĠRelig": 7026,
      "fit": 7027,
      "aware": 7028,
      "iens": 7029,
      "itan": 7030,
      "Ġcontinue": 7031,
      "Ġlyrics": 7032,
      "Ġperman": 7033,
      "Ġ140": 7034,
      "etty": 7035,
      "heimer": 7036,
      "ĠCret": 7037,
      "ĠAlger": 7038,
      "Ġbigger": 7039,
      "ente": 7040,
      "ĠStew": 7041,
      "Ġshr": 7042,
      "Ġeasy": 7043,
      "ĠRobinson": 7044,
      "ĠThailand": 7045,
      "Ġacted": 7046,
      "Ph": 7047,
      "Ġgre": 7048,
      "ĠRyan": 7049,
      "irement": 7050,
      "Ġmap": 7051,
      "ancell": 7052,
      "ĠGriff": 7053,
      "ĠMcG": 7054,
      "Ġbreed": 7055,
      "Ġhonor": 7056,
      "ĠPoint": 7057,
      "Ġstaff": 7058,
      "ĠOrthodox": 7059,
      "uces": 7060,
      "Ġsnow": 7061,
      "Ġpicture": 7062,
      "Ġhands": 7063,
      "ĠWard": 7064,
      "Ġmoves": 7065,
      "Ġpresented": 7066,
      "Ġconstituency": 7067,
      "ĠBasketball": 7068,
      "ĠHunt": 7069,
      "Ġvice": 7070,
      "Ġgrass": 7071,
      "ĠPlayer": 7072,
      "Ġbrand": 7073,
      "Ġhuge": 7074,
      "ĠFuk": 7075,
      "ĠNav": 7076,
      "Ġwarm": 7077,
      "Ġfocus": 7078,
      "aging": 7079,
      "Ġplans": 7080,
      "Ġcompared": 7081,
      "rees": 7082,
      "Ġ99": 7083,
      "Ġcontent": 7084,
      "September": 7085,
      "ĠOrange": 7086,
      "igenous": 7087,
      "Ġir": 7088,
      "ĠConstant": 7089,
      "ĠGirls": 7090,
      "ĠIron": 7091,
      "ĠHem": 7092,
      "ĠVI": 7093,
      "ĠAgain": 7094,
      "Ġrepresentatives": 7095,
      "Ġvert": 7096,
      "wig": 7097,
      "ĠMick": 7098,
      "ĠHospital": 7099,
      "ĠWhe": 7100,
      "Ġrare": 7101,
      "Ġconcern": 7102,
      "Ġsumm": 7103,
      "Ġbaby": 7104,
      "ĠActor": 7105,
      "ods": 7106,
      "ogue": 7107,
      "Cl": 7108,
      "ĠKashmir": 7109,
      "ĠRoc": 7110,
      "ective": 7111,
      "Ġdrive": 7112,
      "Ġpolicy": 7113,
      "Ġphotographer": 7114,
      "ĠComics": 7115,
      "background": 7116,
      "Ġpictures": 7117,
      "ĠBelarus": 7118,
      "ĠHolland": 7119,
      "Ġinjured": 7120,
      "ĠCommonwealth": 7121,
      "ĠSaxony": 7122,
      "January": 7123,
      "ĠOber": 7124,
      "Ġusers": 7125,
      "mund": 7126,
      "Ġwa": 7127,
      "irates": 7128,
      "Ġscript": 7129,
      "Ġestimated": 7130,
      "Ġsounds": 7131,
      "ĠWayne": 7132,
      "Ġobserv": 7133,
      "ovich": 7134,
      "Ġreform": 7135,
      "ĠBorough": 7136,
      "enos": 7137,
      "Ġcongress": 7138,
      "ouver": 7139,
      "ocracy": 7140,
      "Ġdrums": 7141,
      "umin": 7142,
      "rene": 7143,
      "March": 7144,
      "action": 7145,
      "Ġprovided": 7146,
      "ĠPin": 7147,
      "Ġvia": 7148,
      "Ġ53": 7149,
      "Ġroute": 7150,
      "Ġattention": 7151,
      "ĠOliver": 7152,
      "Ġstayed": 7153,
      "ĠAlt": 7154,
      "ĠArmenia": 7155,
      "roc": 7156,
      "ĠEP": 7157,
      "Ġpriest": 7158,
      "ĠCooper": 7159,
      "Ġeveryone": 7160,
      "mingham": 7161,
      "ĠConc": 7162,
      "asia": 7163,
      "gressive": 7164,
      "\"),": 7165,
      "asp": 7166,
      "Ġrank": 7167,
      "Ġfemales": 7168,
      "ĠChamber": 7169,
      "AT": 7170,
      "uls": 7171,
      "Ġpolo": 7172,
      "Ġearliest": 7173,
      "Ġfans": 7174,
      "ĠGor": 7175,
      "angel": 7176,
      "ĠCaribbean": 7177,
      "October": 7178,
      "Ġsense": 7179,
      "illo": 7180,
      "ĠBarry": 7181,
      "verse": 7182,
      "ĠStars": 7183,
      "Ġliquid": 7184,
      "Ġresponse": 7185,
      "Ġlearned": 7186,
      "August": 7187,
      "aire": 7188,
      "friend": 7189,
      "Ġmind": 7190,
      "ĠInformation": 7191,
      "ĠSpr": 7192,
      "ĠIndependence": 7193,
      "ĠKu": 7194,
      "ĠFlorence": 7195,
      "Ġcorrect": 7196,
      "Ġaccepted": 7197,
      "ĠHighway": 7198,
      "ĠPopulation": 7199,
      "Ġimages": 7200,
      "Ġtraff": 7201,
      "ĠSarah": 7202,
      "ession": 7203,
      "Ġuniverse": 7204,
      "mus": 7205,
      "ĠDistricts": 7206,
      "resp": 7207,
      "Ġ1870": 7208,
      "Ġliked": 7209,
      "Ġstreet": 7210,
      "Ġamb": 7211,
      "Ġopposite": 7212,
      "Ġshooting": 7213,
      "ĠWikip": 7214,
      "ivia": 7215,
      "ĠCos": 7216,
      "ĠMak": 7217,
      "ĠHere": 7218,
      "ĠJur": 7219,
      "Ġregional": 7220,
      "ĠDisease": 7221,
      "mitted": 7222,
      "Ġpit": 7223,
      "ĠNort": 7224,
      "ussia": 7225,
      "ĠAlice": 7226,
      "Ġinfluenced": 7227,
      "Ġsure": 7228,
      "ĠWeek": 7229,
      "rypt": 7230,
      "Ġthrone": 7231,
      "ĠEpis": 7232,
      "Ġcartoon": 7233,
      "dale": 7234,
      "ĠGian": 7235,
      "ĠQueensland": 7236,
      "ĠNelson": 7237,
      "bishop": 7238,
      "zz": 7239,
      "ĠTog": 7240,
      "omot": 7241,
      "oku": 7242,
      "Ġhorse": 7243,
      "Ġscale": 7244,
      "Ġmentioned": 7245,
      "Ġtri": 7246,
      "oni": 7247,
      "1967": 7248,
      "ailed": 7249,
      "Ġsenior": 7250,
      "Ġconflict": 7251,
      "Ġalcohol": 7252,
      "leans": 7253,
      "ĠHell": 7254,
      "Ġhighly": 7255,
      "Ġthousands": 7256,
      "pop": 7257,
      "char": 7258,
      "ĠJason": 7259,
      "Ġelectronic": 7260,
      "Ġfranch": 7261,
      "Ġpan": 7262,
      "idency": 7263,
      "Ġlots": 7264,
      "riculture": 7265,
      "Ġhip": 7266,
      "Ġcaptain": 7267,
      "ĠSingles": 7268,
      "ĠIdaho": 7269,
      "yers": 7270,
      "ĠSecurity": 7271,
      "Ġmathematics": 7272,
      "Ġcert": 7273,
      "ĠCulture": 7274,
      "ĠLanc": 7275,
      "ivor": 7276,
      "oven": 7277,
      "Ġ1899": 7278,
      "Ġvirus": 7279,
      "Ġpurpose": 7280,
      "RS": 7281,
      "ĠSoul": 7282,
      "Ġcreating": 7283,
      "set": 7284,
      "isch": 7285,
      "ĠLiver": 7286,
      "Ġalone": 7287,
      "fe": 7288,
      "Ġmaint": 7289,
      "ĠCBS": 7290,
      "Ġdensity": 7291,
      "ĠDominican": 7292,
      "akia": 7293,
      "ultan": 7294,
      "ĠPercy": 7295,
      "Ġmorning": 7296,
      "Ġ1860": 7297,
      "Ġpartner": 7298,
      "ĠAthlet": 7299,
      "Can": 7300,
      "Ġbishop": 7301,
      "Ġclean": 7302,
      "Ġpull": 7303,
      "Ġliber": 7304,
      "Ġengines": 7305,
      "organ": 7306,
      "ĠConservative": 7307,
      "itors": 7308,
      "ĠProtest": 7309,
      "itei": 7310,
      "aders": 7311,
      "ĠSoccer": 7312,
      "Ġ107": 7313,
      "Ġsoccer": 7314,
      "ĠSilver": 7315,
      "He": 7316,
      "Ġmales": 7317,
      "ĠCold": 7318,
      "Ġagent": 7319,
      "December": 7320,
      "ĠBenjamin": 7321,
      "isp": 7322,
      "lying": 7323,
      "apolis": 7324,
      "Ġsoul": 7325,
      "Ġfinancial": 7326,
      "ĠBass": 7327,
      "Ġlack": 7328,
      "ĠAndr": 7329,
      "ĠLuxembourg": 7330,
      "ĠLeban": 7331,
      "cription": 7332,
      "ĠEug": 7333,
      "ĠOsaka": 7334,
      "Is": 7335,
      "ĠChristianity": 7336,
      "Ġrequired": 7337,
      "yg": 7338,
      "Ġbit": 7339,
      "ĠLog": 7340,
      "Ġresigned": 7341,
      "ĠOnce": 7342,
      "ĠBaron": 7343,
      "Ġsubst": 7344,
      "Ġaffected": 7345,
      "Ġphilosophy": 7346,
      "Ġbottom": 7347,
      "Ġadditional": 7348,
      "ĠSaudi": 7349,
      "Ġhabit": 7350,
      "ĠBed": 7351,
      "Ġshell": 7352,
      "ĠMontana": 7353,
      "Ġtribes": 7354,
      "iday": 7355,
      "atabase": 7356,
      "ĠGEF": 7357,
      "Ġanthem": 7358,
      "Ġpersonalities": 7359,
      "ĠSeveral": 7360,
      "Ġdomin": 7361,
      "aza": 7362,
      "Ġdangerous": 7363,
      "wo": 7364,
      "Ġruler": 7365,
      "Ġcastle": 7366,
      "ĠClinton": 7367,
      "Ġhits": 7368,
      "ctic": 7369,
      "Ġ41": 7370,
      "ĠArabic": 7371,
      "Ġlabor": 7372,
      "oom": 7373,
      "Ġcrown": 7374,
      "ĠRaw": 7375,
      "2021": 7376,
      "ĠAmaz": 7377,
      "ĠKnight": 7378,
      "Ġpromoted": 7379,
      "inian": 7380,
      "ĠSr": 7381,
      "Ġfalls": 7382,
      "ĠStaff": 7383,
      "Ġpresenter": 7384,
      "ĠJefferson": 7385,
      "Ġtail": 7386,
      "aints": 7387,
      "Ġuser": 7388,
      "Ġcoal": 7389,
      "Eng": 7390,
      "Ġmart": 7391,
      "ĠCaus": 7392,
      "ĠGam": 7393,
      "ample": 7394,
      "idden": 7395,
      "ublishing": 7396,
      "venue": 7397,
      "ĠCretaceous": 7398,
      "Ġmel": 7399,
      "Ġtemple": 7400,
      "300": 7401,
      "rand": 7402,
      "yles": 7403,
      "izu": 7404,
      "Ġdifference": 7405,
      "ĠMalaysia": 7406,
      "wall": 7407,
      "Ġtranslated": 7408,
      "arp": 7409,
      "ancouver": 7410,
      "Ġlooking": 7411,
      "Ġmethods": 7412,
      "Ġnegative": 7413,
      "Ġassass": 7414,
      "ĠBour": 7415,
      "Ġlibrary": 7416,
      "Ġsched": 7417,
      "ĠLibert": 7418,
      "ĠAlbums": 7419,
      "Ġcriminal": 7420,
      "mit": 7421,
      "ĠLl": 7422,
      "Ġitems": 7423,
      "ĠAires": 7424,
      "Ġannual": 7425,
      "Ġequipment": 7426,
      "ĠEssex": 7427,
      "Ġbehavior": 7428,
      "ĠHand": 7429,
      "ĠLud": 7430,
      "ĠNBC": 7431,
      "ĠCapital": 7432,
      "ĠYears": 7433,
      "ĠHistorical": 7434,
      "ĠBrooklyn": 7435,
      "Ġfat": 7436,
      "ĠMonte": 7437,
      "Ġinspired": 7438,
      "itness": 7439,
      "ĠAld": 7440,
      "ĠPays": 7441,
      "Ġdisapp": 7442,
      "atively": 7443,
      "ĠBenn": 7444,
      "iders": 7445,
      "uble": 7446,
      "ĠPaulo": 7447,
      "ĠCharlie": 7448,
      "ĠEthiop": 7449,
      "ĠSpeak": 7450,
      "ĠLeader": 7451,
      "TC": 7452,
      "ĠVa": 7453,
      "Ġacqu": 7454,
      "Ġcombined": 7455,
      "Ġworship": 7456,
      "ĠKath": 7457,
      "ranean": 7458,
      "'m": 7459,
      "Ġfuel": 7460,
      "Ġextrem": 7461,
      "Ġoccurs": 7462,
      "Ġbow": 7463,
      "Ġcontact": 7464,
      "Ġrocks": 7465,
      "agues": 7466,
      "ĠOrchestra": 7467,
      "Ġremain": 7468,
      "ĠGabri": 7469,
      "ĠFrances": 7470,
      "ĠClimate": 7471,
      "Ġcommand": 7472,
      "SP": 7473,
      "rome": 7474,
      "Ġ1896": 7475,
      "ĠYouth": 7476,
      "Ġspring": 7477,
      "Ġdidn": 7478,
      "Ġinvasion": 7479,
      "AC": 7480,
      "ĠkW": 7481,
      "Ġmovements": 7482,
      "obiles": 7483,
      "ĠTunis": 7484,
      "called": 7485,
      "Ġbrief": 7486,
      "eless": 7487,
      "ĠGener": 7488,
      "ichi": 7489,
      "ĠBernard": 7490,
      "pes": 7491,
      "ĠPul": 7492,
      "resents": 7493,
      "Ġnotes": 7494,
      "ĠSunday": 7495,
      "November": 7496,
      "ĠAM": 7497,
      "Ġclothing": 7498,
      "Ġdogs": 7499,
      "HO": 7500,
      "Ġinsects": 7501,
      "ĠRout": 7502,
      "Ġadapt": 7503,
      "ĠStudios": 7504,
      "drama": 7505,
      "ĠMetro": 7506,
      "Ġarrondissements": 7507,
      "Ġterritories": 7508,
      "wing": 7509,
      "inder": 7510,
      "Ġdiplomat": 7511,
      "Ġthick": 7512,
      "eoples": 7513,
      "ĠOblast": 7514,
      "ĠRena": 7515,
      "Ġfloor": 7516,
      "ĠBlood": 7517,
      "Ġsitcom": 7518,
      "icer": 7519,
      "Ġsoldier": 7520,
      "ĠOrigin": 7521,
      "June": 7522,
      "Premier": 7523,
      "ĠMans": 7524,
      "urer": 7525,
      "Ġnoted": 7526,
      "ausen": 7527,
      "Ġseparated": 7528,
      "Ġsell": 7529,
      "Ġimmedi": 7530,
      "Ġrepresents": 7531,
      "ĠPhoenix": 7532,
      "Ġhyp": 7533,
      "Ġbegin": 7534,
      "Ġactions": 7535,
      "ĠTyp": 7536,
      "rah": 7537,
      "ĠMorgan": 7538,
      "Ġwing": 7539,
      "songwriters": 7540,
      "Ġtracks": 7541,
      "ĠNi": 7542,
      "Ġformerly": 7543,
      "ĠMinistry": 7544,
      "Ġvehicles": 7545,
      "rot": 7546,
      "Ġhang": 7547,
      "ĠXbox": 7548,
      "ĠEnt": 7549,
      "ĠSyria": 7550,
      "ĠDragon": 7551,
      "Ġfeaturing": 7552,
      "ĠActress": 7553,
      "ĠSuffolk": 7554,
      "emet": 7555,
      "ĠGoogle": 7556,
      "ĠBuck": 7557,
      "ĠParam": 7558,
      "ĠMovement": 7559,
      "iji": 7560,
      "Ġeconomist": 7561,
      "US": 7562,
      "rett": 7563,
      "Ġhistorians": 7564,
      "Ġvideos": 7565,
      "Ġdivorced": 7566,
      "don": 7567,
      "hero": 7568,
      "ĠChilean": 7569,
      "ĠBarbara": 7570,
      "ĠWright": 7571,
      "ĠMrs": 7572,
      "where": 7573,
      "ĠPradesh": 7574,
      "ĠBirths": 7575,
      "Ġjobs": 7576,
      "orus": 7577,
      "Ġdraft": 7578,
      "Ġ1895": 7579,
      "Ġbirthday": 7580,
      "ĠGary": 7581,
      "ĠMinor": 7582,
      "ĠSeven": 7583,
      "ĠHop": 7584,
      "ĠRoberts": 7585,
      "ĠDelaware": 7586,
      "Ġproposed": 7587,
      "Ġmist": 7588,
      "owski": 7589,
      "ĠMeitei": 7590,
      "Ġsettlement": 7591,
      "ĠLuther": 7592,
      "raham": 7593,
      "ĠVancouver": 7594,
      "Ġspin": 7595,
      "iterranean": 7596,
      "Ġnomination": 7597,
      "Ġknowledge": 7598,
      "Ġhp": 7599,
      "ete": 7600,
      "Ġunique": 7601,
      "Ġpositions": 7602,
      "ĠPlayers": 7603,
      "room": 7604,
      "agg": 7605,
      "uka": 7606,
      "ĠFilmography": 7607,
      "ĠVermont": 7608,
      "February": 7609,
      "Ġonto": 7610,
      "etta": 7611,
      "Ġtouch": 7612,
      "enne": 7613,
      "Ġguard": 7614,
      "Ġviolence": 7615,
      "ĠCharlotte": 7616,
      "ĠUlt": 7617,
      "Ġcodes": 7618,
      "stery": 7619,
      "ĠVinjan": 7620,
      "aug": 7621,
      "ĠRal": 7622,
      "aked": 7623,
      "onym": 7624,
      "Ġpra": 7625,
      "Ġrepresentative": 7626,
      "ĠAustin": 7627,
      "Ġsurgery": 7628,
      "ĠTol": 7629,
      "Ġdiam": 7630,
      "unes": 7631,
      "Ġprovides": 7632,
      "Ġcatch": 7633,
      "ĠTob": 7634,
      "ivals": 7635,
      "Ġorchestra": 7636,
      "aste": 7637,
      "urray": 7638,
      "ĠDoubs": 7639,
      "ĠMarshall": 7640,
      "ĠMother": 7641,
      "agement": 7642,
      "Ġescape": 7643,
      "Ġrevealed": 7644,
      "anne": 7645,
      "Ġinstit": 7646,
      "Ġtitled": 7647,
      "Ġending": 7648,
      "ĠManipur": 7649,
      "ĠEncyclop": 7650,
      "Ġagreement": 7651,
      "omers": 7652,
      "ĠPhot": 7653,
      "Ġpersonnel": 7654,
      "Ġelectricity": 7655,
      "Ġmax": 7656,
      "ĠRand": 7657,
      "Ġstrip": 7658,
      "ĠSeattle": 7659,
      "ĠBoys": 7660,
      "ĠSaf": 7661,
      "Ġoperations": 7662,
      "Srie": 7663,
      "roph": 7664,
      "Ġ104": 7665,
      "Ġillegal": 7666,
      "',": 7667,
      "ĠLiterature": 7668,
      "asaki": 7669,
      "Ġmut": 7670,
      "ĠBac": 7671,
      "ĠReed": 7672,
      "Ġfields": 7673,
      "ĠRat": 7674,
      "ĠOnline": 7675,
      "ĠSupport": 7676,
      "emporary": 7677,
      "uties": 7678,
      "General": 7679,
      "hing": 7680,
      "unc": 7681,
      "ellite": 7682,
      "ĠCathedral": 7683,
      "ĠCole": 7684,
      "ĠGay": 7685,
      "othy": 7686,
      "ĠLawyers": 7687,
      "ĠSah": 7688,
      "etime": 7689,
      "ĠDays": 7690,
      "ĠWa": 7691,
      "Ġpoetry": 7692,
      "ĠLegisl": 7693,
      "mers": 7694,
      "Ġstraight": 7695,
      "fam": 7696,
      "Ġsymptoms": 7697,
      "Ġlegend": 7698,
      "bal": 7699,
      "idi": 7700,
      "Ġdocumentary": 7701,
      "eler": 7702,
      "ĠJess": 7703,
      "Ġ52": 7704,
      "Ġclassification": 7705,
      "ĠStewart": 7706,
      "Ġdoll": 7707,
      "Ġchain": 7708,
      "Ġchurches": 7709,
      "Ġteeth": 7710,
      "ieval": 7711,
      "Ġtribe": 7712,
      "Ġwheel": 7713,
      "Ġsuffered": 7714,
      "Ġevil": 7715,
      "ĠGrant": 7716,
      "ĠPolitics": 7717,
      "Ġsalt": 7718,
      "ĠTib": 7719,
      "ĠPont": 7720,
      "adow": 7721,
      "Ġteach": 7722,
      "ielder": 7723,
      "ĠAdministration": 7724,
      "ĠCow": 7725,
      "ĠNBA": 7726,
      "Ġshop": 7727,
      "Ġdisorder": 7728,
      "ĠMediterranean": 7729,
      "uster": 7730,
      "Ġrecently": 7731,
      "eor": 7732,
      "Ġsav": 7733,
      "Ġorbit": 7734,
      "kar": 7735,
      "oming": 7736,
      "ĠFather": 7737,
      "uto": 7738,
      "Ġheard": 7739,
      "ĠHas": 7740,
      "ikov": 7741,
      "Ġremember": 7742,
      "FFFF": 7743,
      "emetery": 7744,
      "ĠMoz": 7745,
      "ĠIan": 7746,
      "inner": 7747,
      "ĠBrid": 7748,
      "Ġquant": 7749,
      "Ġparticularly": 7750,
      "ĠTreaty": 7751,
      "avery": 7752,
      "1966": 7753,
      "ĠKnow": 7754,
      "RI": 7755,
      "eta": 7756,
      "ĠWoman": 7757,
      "Ġreality": 7758,
      "erne": 7759,
      "Ġenjoy": 7760,
      "Ġanything": 7761,
      "Ġsick": 7762,
      "ĠBox": 7763,
      "rix": 7764,
      "Ġconvicted": 7765,
      "Ġdedicated": 7766,
      "ĠSard": 7767,
      "ĠSocialist": 7768,
      "ĠWikipedia": 7769,
      "ĠWell": 7770,
      "Ġpregn": 7771,
      "Ġfinds": 7772,
      "Ġdates": 7773,
      "ĠRound": 7774,
      "Ġarrived": 7775,
      "Ġadministration": 7776,
      "Ġdefined": 7777,
      "Ġphysician": 7778,
      "Ġinfection": 7779,
      "MS": 7780,
      "Ġsugar": 7781,
      "ĠNevada": 7782,
      "onomous": 7783,
      "ector": 7784,
      "omm": 7785,
      "Ġchlor": 7786,
      "Ġrhy": 7787,
      "Ġsales": 7788,
      "Ġteaching": 7789,
      "ĠExpl": 7790,
      "Ġcontinu": 7791,
      "top": 7792,
      "Ġsave": 7793,
      "Ġpair": 7794,
      "Ġhall": 7795,
      "ĠFictional": 7796,
      "ussian": 7797,
      "Ġestablish": 7798,
      "bell": 7799,
      "caster": 7800,
      "do": 7801,
      "oral": 7802,
      "Ġgiant": 7803,
      "ĠKos": 7804,
      "aba": 7805,
      "Ġmanagement": 7806,
      "Ġneut": 7807,
      "ĠSC": 7808,
      "ĠArtist": 7809,
      "enes": 7810,
      "Ġelectron": 7811,
      "incial": 7812,
      "ĠRecord": 7813,
      "unny": 7814,
      "ĠUN": 7815,
      "Ġdiseases": 7816,
      "olia": 7817,
      "ĠFrid": 7818,
      "anner": 7819,
      "Ġdepression": 7820,
      "ĠBrothers": 7821,
      "isin": 7822,
      "Ġgenetic": 7823,
      "itis": 7824,
      "aceae": 7825,
      "Ġresign": 7826,
      "ĠNotable": 7827,
      "Ġyoungest": 7828,
      "UK": 7829,
      "igi": 7830,
      "Ġflower": 7831,
      "Ġwars": 7832,
      "ĠAlz": 7833,
      "ĠForces": 7834,
      "rep": 7835,
      "Ġmilk": 7836,
      "Ġcausing": 7837,
      "ĠGreater": 7838,
      "Ġexecuted": 7839,
      "ĠChairman": 7840,
      "ĠBeg": 7841,
      "ĠDigital": 7842,
      "iling": 7843,
      "umes": 7844,
      "ĠVenezuela": 7845,
      "ĠSem": 7846,
      "Atlant": 7847,
      "tes": 7848,
      "1964": 7849,
      "Ġslight": 7850,
      "Star": 7851,
      "ifying": 7852,
      "Ġparticipated": 7853,
      "ĠKid": 7854,
      "Ġspect": 7855,
      "Ġscene": 7856,
      "It": 7857,
      "ĠSum": 7858,
      "ĠNet": 7859,
      "Ġcycle": 7860,
      "Ġdistribution": 7861,
      "Ġ1893": 7862,
      "Ġshared": 7863,
      "ĠBirmingham": 7864,
      "ĠGironde": 7865,
      "ĠLiverpool": 7866,
      "enberg": 7867,
      "rec": 7868,
      "ĠFood": 7869,
      "Ġjun": 7870,
      "Ġvisited": 7871,
      "arians": 7872,
      "ĠHend": 7873,
      "ĠGot": 7874,
      "Ġreplac": 7875,
      "ĠBatman": 7876,
      "ĠBorn": 7877,
      "ĠAnat": 7878,
      "Ġdiagnosed": 7879,
      "Ġax": 7880,
      "Ġhors": 7881,
      "ĠHorn": 7882,
      "Ġoperation": 7883,
      "Ġ<": 7884,
      "ĠPad": 7885,
      "ĠUniverse": 7886,
      "BE": 7887,
      "ĠLanguage": 7888,
      "ĠGust": 7889,
      "Ġextinct": 7890,
      "8072": 7891,
      "ĠSaturn": 7892,
      "Ġpremier": 7893,
      "Ġlies": 7894,
      "amese": 7895,
      "ĠIsa": 7896,
      "Ġshowing": 7897,
      "Ġtreated": 7898,
      "ĠPsych": 7899,
      "Ġatm": 7900,
      "rum": 7901,
      "asure": 7902,
      "Ġremaining": 7903,
      "Ġcopy": 7904,
      "ĠLanka": 7905,
      "ĠSuz": 7906,
      "Ġscholar": 7907,
      "ĠFu": 7908,
      "ĠJe": 7909,
      "Ġseg": 7910,
      "ĠBaby": 7911,
      "ĠGa": 7912,
      "Ġ1898": 7913,
      "Ġuns": 7914,
      "Ġautomobiles": 7915,
      "ĠCroatia": 7916,
      "We": 7917,
      "ĠKum": 7918,
      "Ġgrown": 7919,
      "ĠOrleans": 7920,
      "Ġincome": 7921,
      "erc": 7922,
      "ĠKur": 7923,
      "Ġrepe": 7924,
      "ĠBuenos": 7925,
      "icts": 7926,
      "Ġfresh": 7927,
      "Ġblues": 7928,
      "ancellor": 7929,
      "Ġborough": 7930,
      "Ġ1000": 7931,
      "Ġhour": 7932,
      "Ġphr": 7933,
      "ĠYeung": 7934,
      "cles": 7935,
      "ĠAra": 7936,
      "Ġcricketer": 7937,
      "ĠSi": 7938,
      "otes": 7939,
      "Ġ1897": 7940,
      "Ġcommander": 7941,
      "Ġfranchise": 7942,
      "Ġoperated": 7943,
      "ĠStockholm": 7944,
      "Ġanalysis": 7945,
      "ĠOscar": 7946,
      "ĠEsc": 7947,
      "ĠEuro": 7948,
      "Ġslaves": 7949,
      "Ġprotection": 7950,
      "ĠFilipino": 7951,
      "AD": 7952,
      "Ġelse": 7953,
      "ĠStudies": 7954,
      "Ġmolec": 7955,
      "Ġfreedom": 7956,
      "ĠDub": 7957,
      "ĠEqu": 7958,
      "aco": 7959,
      "Ġcandidates": 7960,
      "Ġcrashes": 7961,
      "ĠOur": 7962,
      "anes": 7963,
      "clus": 7964,
      "inned": 7965,
      "ĠNapole": 7966,
      "'re": 7967,
      "Ġmammals": 7968,
      "ĠName": 7969,
      "Ġnom": 7970,
      "standing": 7971,
      "ĠIng": 7972,
      "Ġcalls": 7973,
      "ĠWalker": 7974,
      "Ġtools": 7975,
      "appy": 7976,
      "Ġfavor": 7977,
      "PS": 7978,
      "ĠTrain": 7979,
      "rike": 7980,
      "ĠGarden": 7981,
      "Ġbeautiful": 7982,
      "ĠSnow": 7983,
      "ĠShim": 7984,
      "Ġaddress": 7985,
      "ĠABC": 7986,
      "Ġstrength": 7987,
      "di": 7988,
      "ĠMort": 7989,
      "ĠKap": 7990,
      "ĠPlace": 7991,
      "ĠMcK": 7992,
      "Ġpainters": 7993,
      "sch": 7994,
      "agu": 7995,
      "Ġdamaged": 7996,
      "ĠMathemat": 7997,
      "ĠKaw": 7998,
      "Ġadults": 7999,
      "Ġresidents": 8000,
      "lication": 8001,
      "Ġpanc": 8002,
      "epp": 8003,
      "ĠInstead": 8004,
      "ĠChang": 8005,
      "ĠPhysics": 8006,
      "ĠNASA": 8007,
      "helm": 8008,
      "ĠLegend": 8009,
      "Ġlearning": 8010,
      "Rh": 8011,
      "Ġrot": 8012,
      "place": 8013,
      "Ġmedals": 8014,
      "ĠIndonesian": 8015,
      "Ġsets": 8016,
      "ĠLost": 8017,
      "rance": 8018,
      "Ġvoted": 8019,
      "ining": 8020,
      "ĠCorps": 8021,
      "ĠHonours": 8022,
      "ĠEconomic": 8023,
      "lie": 8024,
      "Ġ110": 8025,
      "Ġconsider": 8026,
      "Ġprize": 8027,
      "ski": 8028,
      "leton": 8029,
      "Ġphilanthrop": 8030,
      "berto": 8031,
      "Ġseem": 8032,
      "commun": 8033,
      "ĠVincent": 8034,
      "ĠFollow": 8035,
      "ously": 8036,
      "Ġguest": 8037,
      "ĠFriends": 8038,
      "Or": 8039,
      "Ġ1850": 8040,
      "Ġadvert": 8041,
      "ĠNikol": 8042,
      "Ġfossil": 8043,
      "ĠPear": 8044,
      "Ġpoison": 8045,
      "Ġconstant": 8046,
      "Ġcommitted": 8047,
      "bu": 8048,
      "Ġens": 8049,
      "Ġcounter": 8050,
      "nij": 8051,
      "ĠAbraham": 8052,
      "xide": 8053,
      "ĠBach": 8054,
      "ĠDiam": 8055,
      "ĠClar": 8056,
      "Ġboys": 8057,
      "Ġhomes": 8058,
      "400": 8059,
      "ĠRav": 8060,
      "ende": 8061,
      "Ġfunctions": 8062,
      "mel": 8063,
      "ĠRing": 8064,
      "Ġgall": 8065,
      "ĠLarry": 8066,
      "ĠHebrew": 8067,
      "Ġinn": 8068,
      "ĠSor": 8069,
      "Ġparticles": 8070,
      "ĠNauch": 8071,
      "Ġindividuals": 8072,
      "ĠMi": 8073,
      "Ġpainted": 8074,
      "ĠCrime": 8075,
      "Ġidentity": 8076,
      "Ġsculptor": 8077,
      "opes": 8078,
      "berry": 8079,
      "Ġplate": 8080,
      "Ġcolony": 8081,
      "chell": 8082,
      "Ġalternative": 8083,
      "Ġtrav": 8084,
      "oly": 8085,
      "Ġorb": 8086,
      "Ġimpact": 8087,
      "All": 8088,
      "Ġhurt": 8089,
      "Ġ1861": 8090,
      "Ġquality": 8091,
      "ĠSerbia": 8092,
      "Ġchose": 8093,
      "Ġdrummer": 8094,
      "cia": 8095,
      "inental": 8096,
      "Ġfully": 8097,
      "ĠChen": 8098,
      "Ġham": 8099,
      "ĠReb": 8100,
      "opter": 8101,
      "1965": 8102,
      "Ġ1889": 8103,
      "Ġbusinesspeople": 8104,
      "ĠThompson": 8105,
      "ĠDJ": 8106,
      "Ġlooked": 8107,
      "ĠLuis": 8108,
      "ĠHitler": 8109,
      "]]": 8110,
      "Ġwalls": 8111,
      "ĠMarvel": 8112,
      "Ġdevices": 8113,
      "ĠBibli": 8114,
      "inch": 8115,
      "Ġwithd": 8116,
      "Ġhydrogen": 8117,
      "ĠNauchnij": 8118,
      "Ġliver": 8119,
      "Ġnecess": 8120,
      "Ġthrow": 8121,
      "acre": 8122,
      "Ġclimb": 8123,
      "Ġresear": 8124,
      "Ġmeat": 8125,
      "ocard": 8126,
      "Ġrisk": 8127,
      "Ġreplace": 8128,
      "Ġsettled": 8129,
      "Ġoccurred": 8130,
      "ĠSerbian": 8131,
      "iago": 8132,
      "ĠAround": 8133,
      "inia": 8134,
      "ĠWarren": 8135,
      "Ġcoup": 8136,
      "hr": 8137,
      "ĠAu": 8138,
      "ĠMurray": 8139,
      "Ġherb": 8140,
      "Ġvictims": 8141,
      "ĠSelena": 8142,
      "ranches": 8143,
      "Ġdivisions": 8144,
      "Ġsubt": 8145,
      "ĠDod": 8146,
      "iper": 8147,
      "Ġconcer": 8148,
      "levi": 8149,
      "issance": 8150,
      "cluding": 8151,
      "Ġski": 8152,
      "Hex": 8153,
      "Ġmental": 8154,
      "ĠCant": 8155,
      "ĠLion": 8156,
      "ĠGib": 8157,
      "egas": 8158,
      "Ġeverything": 8159,
      "ĠRow": 8160,
      "Ġbiography": 8161,
      "Ġeducator": 8162,
      "Ġfelt": 8163,
      "ĠConvention": 8164,
      "ĠUsually": 8165,
      "Ġnumerous": 8166,
      "Ġbatter": 8167,
      "ĠInn": 8168,
      "Ġ1888": 8169,
      "Ġvolcano": 8170,
      "ĠOpera": 8171,
      "Con": 8172,
      "ĠLangu": 8173,
      "ĠOpp": 8174,
      "ĠWor": 8175,
      "ibly": 8176,
      "Ġhistoric": 8177,
      "ĠLatv": 8178,
      "ienne": 8179,
      "Ġglobal": 8180,
      "Ġapproximately": 8181,
      "Ġbra": 8182,
      "Ġ*": 8183,
      "Ġstores": 8184,
      "Ġflowers": 8185,
      "ĠPeninsula": 8186,
      "maker": 8187,
      "Ġ().": 8188,
      "ĠWonder": 8189,
      "Ġclasses": 8190,
      "ĠBoris": 8191,
      "ĠOrganization": 8192,
      "zi": 8193,
      "ĠBond": 8194,
      "ĠRan": 8195,
      "ocked": 8196,
      "Ġextended": 8197,
      "Ġpasses": 8198,
      "ĠBulgaria": 8199,
      "lon": 8200,
      "Ġuseful": 8201,
      "orrow": 8202,
      "ĠPlat": 8203,
      "Ġtypically": 8204,
      "ĠJosh": 8205,
      "ĠJonathan": 8206,
      "Ġenvironmental": 8207,
      "Ġfaster": 8208,
      "ĠLenn": 8209,
      "ĠGun": 8210,
      "ĠReview": 8211,
      "Ġdegrees": 8212,
      "ĠBeatles": 8213,
      "Ġple": 8214,
      "ĠFight": 8215,
      "ules": 8216,
      "ĠChand": 8217,
      "sea": 8218,
      "ĠMarine": 8219,
      "Ġ62": 8220,
      "Ġcompetitions": 8221,
      "Ġceremony": 8222,
      "ĠFun": 8223,
      "Ġheav": 8224,
      "Ġproperties": 8225,
      "ĠTheod": 8226,
      "ĠRhine": 8227,
      "ĠBaker": 8228,
      "iments": 8229,
      "Ġstrik": 8230,
      "Ġ58": 8231,
      "Ġ61": 8232,
      "Ġrespir": 8233,
      "Ġclosely": 8234,
      "ĠEmer": 8235,
      "ĠYorkshire": 8236,
      "Ġissued": 8237,
      "Ġchoose": 8238,
      "wise": 8239,
      "ĠSide": 8240,
      "Ġft": 8241,
      "ĠMaced": 8242,
      "ĠDiet": 8243,
      "Ġ165": 8244,
      "Ġalongside": 8245,
      "Ġvoiced": 8246,
      "du": 8247,
      "ĠDist": 8248,
      "isha": 8249,
      "Ġconver": 8250,
      "Ġsoil": 8251,
      "ĠPlaces": 8252,
      "ĠInterview": 8253,
      "Ġministers": 8254,
      "Ġinventor": 8255,
      "aman": 8256,
      "omon": 8257,
      "ĠGraham": 8258,
      "ĠSloven": 8259,
      "igo": 8260,
      "Ġsolar": 8261,
      "Ġvehicle": 8262,
      "Ġ119": 8263,
      "ĠBatt": 8264,
      "ĠOriginal": 8265,
      "oj": 8266,
      "omp": 8267,
      "Ġinfar": 8268,
      "Ġeasier": 8269,
      "thes": 8270,
      "otan": 8271,
      "ĠDespite": 8272,
      "ĠCrown": 8273,
      "ĠWien": 8274,
      "ĠHerz": 8275,
      "ĠSteven": 8276,
      "Ġscholars": 8277,
      "Ġinfarction": 8278,
      "bes": 8279,
      "ĠFreedom": 8280,
      "Ġherself": 8281,
      "ĠResults": 8282,
      "ĠHistoric": 8283,
      "First": 8284,
      "ulu": 8285,
      "Ġowners": 8286,
      "Ġbenef": 8287,
      "Ġrunner": 8288,
      "RGB": 8289,
      "esar": 8290,
      "ĠAFC": 8291,
      "Ġnations": 8292,
      "Ġsynd": 8293,
      "ĠRou": 8294,
      "ĠWag": 8295,
      "Ġthus": 8296,
      "Ġ1892": 8297,
      "ĠEnergy": 8298,
      "ĠAlzheimer": 8299,
      "Ġdaily": 8300,
      "Ġgang": 8301,
      "Ġelectoral": 8302,
      "ĠStu": 8303,
      "ĠUnlike": 8304,
      "Ġpoem": 8305,
      "Ġcous": 8306,
      "ivan": 8307,
      "Ġwinds": 8308,
      "encer": 8309,
      "Ġrough": 8310,
      "Ġpoems": 8311,
      "Ġflying": 8312,
      "rane": 8313,
      "ĠCuban": 8314,
      "1960": 8315,
      "Ġaccomp": 8316,
      "Ġturns": 8317,
      "Ġnucle": 8318,
      "ĠBirds": 8319,
      "Ġgreater": 8320,
      "Ġsend": 8321,
      "Ġsulf": 8322,
      "Ġcategory": 8323,
      "ĠSak": 8324,
      "ĠLav": 8325,
      "iph": 8326,
      "speak": 8327,
      "ĠDean": 8328,
      "Ġoffered": 8329,
      "ĠOg": 8330,
      "Ġguilt": 8331,
      "Ġseventh": 8332,
      "alta": 8333,
      "Ġdiscover": 8334,
      "ĠDesign": 8335,
      "ĠAuthor": 8336,
      "ĠTon": 8337,
      "ĠHein": 8338,
      "ĠVic": 8339,
      "ĠJacques": 8340,
      "ĠLis": 8341,
      "ido": 8342,
      "ĠFish": 8343,
      "Ġofficials": 8344,
      "ĠArabia": 8345,
      "ĠCroatian": 8346,
      "Ġsucceeded": 8347,
      "winning": 8348,
      "ĠIb": 8349,
      "amba": 8350,
      "aughters": 8351,
      "Ġexpected": 8352,
      "Ġbill": 8353,
      "aming": 8354,
      "Ġbreast": 8355,
      "ĠMagazine": 8356,
      "Ġtarget": 8357,
      "ES": 8358,
      "Ġwaters": 8359,
      "ĠAges": 8360,
      "Ġgay": 8361,
      "ĠSoft": 8362,
      "ĠSic": 8363,
      "omi": 8364,
      "ĠVel": 8365,
      "Ġnote": 8366,
      "ĠGray": 8367,
      "ĠBobby": 8368,
      "ĠNigerian": 8369,
      "Ġkilometers": 8370,
      "ĠExpress": 8371,
      "Ġroads": 8372,
      "Ġmyocard": 8373,
      "Ġavoid": 8374,
      "Ġmotion": 8375,
      "lia": 8376,
      "sterdam": 8377,
      "Ġzone": 8378,
      "Ġcheck": 8379,
      "vement": 8380,
      "Ġmobile": 8381,
      "ornado": 8382,
      "Ġretirement": 8383,
      "Ġmoment": 8384,
      "Ġprep": 8385,
      "ĠPresidential": 8386,
      "Ġaudience": 8387,
      "Ġsteel": 8388,
      "TS": 8389,
      "mo": 8390,
      "ĠPage": 8391,
      "Ġknew": 8392,
      "Ġbehavi": 8393,
      "apted": 8394,
      "Ġ114": 8395,
      "ĠDelhi": 8396,
      "aling": 8397,
      "ĠSoph": 8398,
      "ĠMig": 8399,
      "ĠPC": 8400,
      "irk": 8401,
      "ĠDol": 8402,
      "Ġ1894": 8403,
      "Ġresc": 8404,
      "Ġqueen": 8405,
      "Ind": 8406,
      "ĠMind": 8407,
      "ushed": 8408,
      "Ġ1891": 8409,
      "Ġchemistry": 8410,
      "ĠBuilding": 8411,
      "Ġradiation": 8412,
      "night": 8413,
      "Ġcinem": 8414,
      "ĠHond": 8415,
      "Ġtwelve": 8416,
      "Ġresources": 8417,
      "aurus": 8418,
      "Ġsupposed": 8419,
      "ĠCond": 8420,
      "ĠGuide": 8421,
      "furt": 8422,
      "ĠSign": 8423,
      "Ġven": 8424,
      "antine": 8425,
      "ensis": 8426,
      "Ġreceive": 8427,
      "gom": 8428,
      "ĠTu": 8429,
      "ĠDeep": 8430,
      "Ġsafety": 8431,
      "ting": 8432,
      "ĠBert": 8433,
      "ĠBald": 8434,
      "rovision": 8435,
      "ĠJoan": 8436,
      "ieg": 8437,
      "Ġbroken": 8438,
      "Ġpunish": 8439,
      "Ġpp": 8440,
      "uno": 8441,
      "Ġserves": 8442,
      "Ġdiscovery": 8443,
      "ĠKorlevi": 8444,
      "Ġapplied": 8445,
      "ĠSac": 8446,
      "Ġatoms": 8447,
      "Ġtherefore": 8448,
      "ĠLomb": 8449,
      "ĠOri": 8450,
      "imens": 8451,
      "Ġdescribes": 8452,
      "Ġinterested": 8453,
      "Ġceleb": 8454,
      "ĠElectric": 8455,
      "Ġmyocardial": 8456,
      "ilo": 8457,
      "Ġstock": 8458,
      "Ġagree": 8459,
      "rams": 8460,
      "Ġmarry": 8461,
      "offs": 8462,
      "ĠIndependent": 8463,
      "ĠAin": 8464,
      "ĠJose": 8465,
      "ordin": 8466,
      "Ġdescent": 8467,
      "Ġperforming": 8468,
      "ĠLag": 8469,
      "Ġprofession": 8470,
      "ĠAdditional": 8471,
      "hu": 8472,
      "atur": 8473,
      "Ġprey": 8474,
      "Ġ...": 8475,
      "eno": 8476,
      "Ġguns": 8477,
      "iable": 8478,
      "Ġclothes": 8479,
      "!\"": 8480,
      "ĠFull": 8481,
      "Ġinvolving": 8482,
      "onian": 8483,
      "Ġimmun": 8484,
      "Ġbiology": 8485,
      "Ġelectrical": 8486,
      "ĠTas": 8487,
      "ĠLeo": 8488,
      "Ġgoods": 8489,
      "ĠHenri": 8490,
      "ĠNickel": 8491,
      "ĠProm": 8492,
      "Ġchrom": 8493,
      "Ġendings": 8494,
      "Ġsituation": 8495,
      "ĠNak": 8496,
      "odium": 8497,
      "Ġrapid": 8498,
      "ĠWinners": 8499,
      "Ġasp": 8500,
      "claim": 8501,
      "ĠArnold": 8502,
      "onents": 8503,
      "ĠDuc": 8504,
      "ĠBaden": 8505,
      "pret": 8506,
      "such": 8507,
      "ĠAar": 8508,
      "ĠPied": 8509,
      "Ġrear": 8510,
      "allow": 8511,
      "ĠAgency": 8512,
      "Ġfigures": 8513,
      "Ġsurrounded": 8514,
      "Ġprotests": 8515,
      "udden": 8516,
      "ĠStein": 8517,
      "Ġnarrow": 8518,
      "ĠPerry": 8519,
      "ĠIP": 8520,
      "ĠSha": 8521,
      "prise": 8522,
      "ĠSug": 8523,
      "ĠMikh": 8524,
      "iring": 8525,
      "etes": 8526,
      "Ġchanging": 8527,
      "Ġdistinct": 8528,
      "ĠContest": 8529,
      "Ġacademics": 8530,
      "ĠNicholas": 8531,
      "EC": 8532,
      "ĠPink": 8533,
      "ebra": 8534,
      "ubb": 8535,
      "away": 8536,
      "Ġempire": 8537,
      "mi": 8538,
      "ĠMond": 8539,
      "ema": 8540,
      "ĠWii": 8541,
      "ĠThrough": 8542,
      "uchi": 8543,
      "Ġrefused": 8544,
      "Ġhotel": 8545,
      "Ġcongressional": 8546,
      "uru": 8547,
      "uccess": 8548,
      "arl": 8549,
      "Ġemot": 8550,
      "Ġguitarists": 8551,
      "Ġdomestic": 8552,
      "Ġrural": 8553,
      "uclear": 8554,
      "ĠBackground": 8555,
      "ĠParker": 8556,
      "Ġobtain": 8557,
      "Ġrequire": 8558,
      "GN": 8559,
      "SR": 8560,
      "Ġreject": 8561,
      "endment": 8562,
      "Ġentertainment": 8563,
      "ĠTibet": 8564,
      "arth": 8565,
      "ĠSeb": 8566,
      "unch": 8567,
      "akov": 8568,
      "Ġeaten": 8569,
      "CAP": 8570,
      "ĠLanguages": 8571,
      "burn": 8572,
      "Ġfear": 8573,
      "ĠLot": 8574,
      "ĠHarrison": 8575,
      "ĠRobin": 8576,
      "ĠPil": 8577,
      "ĠAC": 8578,
      "stream": 8579,
      "Ġsigns": 8580,
      "ĠRepresentative": 8581,
      "Ġpunk": 8582,
      "ĠLov": 8583,
      "ĠDS": 8584,
      "uled": 8585,
      "Ġserial": 8586,
      "ĠAmsterdam": 8587,
      "Ġpublisher": 8588,
      "bat": 8589,
      "bul": 8590,
      "ĠMult": 8591,
      "ĠKill": 8592,
      "seud": 8593,
      "Ġexchange": 8594,
      "ĠComedy": 8595,
      "ansion": 8596,
      "annels": 8597,
      "Ġtransit": 8598,
      "Ġprotected": 8599,
      "ĠKazakh": 8600,
      "Ġinternet": 8601,
      "ĠGang": 8602,
      "1963": 8603,
      "Ġcompete": 8604,
      "Ġgender": 8605,
      "enses": 8606,
      "ĠTrade": 8607,
      "eton": 8608,
      "Ġvoices": 8609,
      "Aust": 8610,
      "amoto": 8611,
      "Ġseconds": 8612,
      "Ġ1887": 8613,
      "Ġcong": 8614,
      "Ġstre": 8615,
      "Ġdecide": 8616,
      "Ġtox": 8617,
      "Ġconst": 8618,
      "Ġsupply": 8619,
      "Ġphone": 8620,
      "Ġviews": 8621,
      "Ġtraffic": 8622,
      "ĠPrague": 8623,
      "Ġunus": 8624,
      "Ġboat": 8625,
      "Ġneighborhood": 8626,
      "You": 8627,
      "abor": 8628,
      "yler": 8629,
      "Ġsurvived": 8630,
      "icient": 8631,
      "ĠLisa": 8632,
      "otten": 8633,
      "emia": 8634,
      "ĠStandard": 8635,
      "Ġcantons": 8636,
      "Ġmedium": 8637,
      "mor": 8638,
      "non": 8639,
      "Ġnose": 8640,
      "istol": 8641,
      "outheastern": 8642,
      "Ġchemist": 8643,
      "Ġselling": 8644,
      "Ġchance": 8645,
      "Ġfounding": 8646,
      "urname": 8647,
      "Ġsky": 8648,
      "ĠPokmon": 8649,
      "Ġvalues": 8650,
      "Ġcapac": 8651,
      "ĠSmall": 8652,
      "Ġarchae": 8653,
      "Ġdropped": 8654,
      "Ġgovernments": 8655,
      "ĠRapid": 8656,
      "League": 8657,
      "ĠChemistry": 8658,
      "English": 8659,
      "oi": 8660,
      "Ġgar": 8661,
      "ĠObama": 8662,
      "Ġastronomer": 8663,
      "ĠBey": 8664,
      "iri": 8665,
      "ĠEurovision": 8666,
      "Ġbasis": 8667,
      "ĠByz": 8668,
      "Ġworth": 8669,
      "ĠPyr": 8670,
      "ĠKids": 8671,
      "Ġhydro": 8672,
      "Ġemergency": 8673,
      "Ġwound": 8674,
      "ixon": 8675,
      "load": 8676,
      "ĠApoll": 8677,
      "ĠParamount": 8678,
      "ĠVoice": 8679,
      "ĠHarold": 8680,
      "Ġslowly": 8681,
      "emies": 8682,
      "istical": 8683,
      "Ġgather": 8684,
      "ĠDefense": 8685,
      "Ġpermanent": 8686,
      "IC": 8687,
      "ĠNy": 8688,
      "Ġmeets": 8689,
      "Ġlaunch": 8690,
      "gomery": 8691,
      "Ġlat": 8692,
      "eto": 8693,
      "ĠDennis": 8694,
      "oga": 8695,
      "oki": 8696,
      "ĠMarin": 8697,
      "Ġdisab": 8698,
      "ĠValent": 8699,
      "ictionary": 8700,
      "Ġelim": 8701,
      "ĠJulian": 8702,
      "ocaust": 8703,
      ":#": 8704,
      "Se": 8705,
      "Ġaccused": 8706,
      "Ġclaims": 8707,
      "ĠAnimation": 8708,
      "Ġopin": 8709,
      "roid": 8710,
      "ĠHann": 8711,
      "ĠNote": 8712,
      "Ġleadership": 8713,
      "adian": 8714,
      "ereign": 8715,
      "Ġcompound": 8716,
      "amps": 8717,
      "iversary": 8718,
      "ĠAdventures": 8719,
      "ĠNaturalized": 8720,
      "ĠBroadcast": 8721,
      "Pr": 8722,
      "fielder": 8723,
      "ĠDra": 8724,
      "ublin": 8725,
      "Ġconduct": 8726,
      "ĠTrophy": 8727,
      "ĠHunter": 8728,
      "ĠHiros": 8729,
      "ĠTat": 8730,
      "ĠMend": 8731,
      "Ġdesert": 8732,
      "Ġformula": 8733,
      "Ġreference": 8734,
      "Ġauthority": 8735,
      "Ġsuggested": 8736,
      "RT": 8737,
      "agne": 8738,
      "Ġslightly": 8739,
      "ĠBourg": 8740,
      "ĠSatur": 8741,
      "Ġcelebrated": 8742,
      "ĠConfederate": 8743,
      "Ġpurch": 8744,
      "ĠFat": 8745,
      "enson": 8746,
      "ĠFranz": 8747,
      "ĠXing": 8748,
      "Ġpolic": 8749,
      "ĠGlobal": 8750,
      "ĠSay": 8751,
      "Ġfired": 8752,
      "ĠCand": 8753,
      "star": 8754,
      "Ġrepresenting": 8755,
      "ture": 8756,
      "ĠTurin": 8757,
      "Ġbattles": 8758,
      "ĠHeavyweight": 8759,
      "ĠRoute": 8760,
      "ĠCatherine": 8761,
      "ĠRight": 8762,
      "ĠJar": 8763,
      "ierra": 8764,
      "Ġstrugg": 8765,
      "ĠSantiago": 8766,
      "ĠGrace": 8767,
      "ĠFamous": 8768,
      "Ġperformances": 8769,
      "point": 8770,
      "ti": 8771,
      "Ġ1865": 8772,
      "Ġparishes": 8773,
      "ĠEddie": 8774,
      "ipped": 8775,
      "Ġparks": 8776,
      "ĠBuffalo": 8777,
      "Rhne": 8778,
      "kes": 8779,
      "ĠMik": 8780,
      "ivore": 8781,
      "Ġgrav": 8782,
      "Ġcapture": 8783,
      "idelberg": 8784,
      "gie": 8785,
      "then": 8786,
      "Ġdra": 8787,
      "Ġalive": 8788,
      "Ġrise": 8789,
      "ĠZoo": 8790,
      "mphony": 8791,
      "ĠTig": 8792,
      "cep": 8793,
      "eston": 8794,
      "Ġedge": 8795,
      "iformes": 8796,
      "OT": 8797,
      "cop": 8798,
      "zle": 8799,
      "orage": 8800,
      "Ġfur": 8801,
      "Ġ130": 8802,
      "Ġsentenced": 8803,
      "ĠTed": 8804,
      "agi": 8805,
      "ĠComed": 8806,
      "Ġexisted": 8807,
      "Ġwaves": 8808,
      "Ġneck": 8809,
      "ĠProfile": 8810,
      "ĠLouise": 8811,
      "ĠBengal": 8812,
      "ĠFriedrich": 8813,
      "Ġkings": 8814,
      "ĠNewton": 8815,
      "ĠAmong": 8816,
      "ĠMadison": 8817,
      "Ġarran": 8818,
      "Ġconstitution": 8819,
      "ĠMaz": 8820,
      "ĠNation": 8821,
      "uez": 8822,
      "ĠGhost": 8823,
      "sil": 8824,
      "Ġtiss": 8825,
      "Ġstands": 8826,
      "Ġextremely": 8827,
      "upiter": 8828,
      "anni": 8829,
      "ĠWilhelm": 8830,
      "ĠOrganizations": 8831,
      "Ġchampionships": 8832,
      "ĠAthens": 8833,
      "ridges": 8834,
      "Ġmolecules": 8835,
      "SCO": 8836,
      "Saint": 8837,
      "Ġvolume": 8838,
      "Ġdoub": 8839,
      "original": 8840,
      "ĠFollowing": 8841,
      "nell": 8842,
      "ilation": 8843,
      "ĠNumber": 8844,
      "ithm": 8845,
      "Ġ1863": 8846,
      "ĠHotel": 8847,
      "Ġoccupied": 8848,
      "left": 8849,
      "ĠHold": 8850,
      "Ġ101": 8851,
      "Ġresistance": 8852,
      "ĠClay": 8853,
      "Ġnominations": 8854,
      "Ġsafe": 8855,
      "ĠDue": 8856,
      "igny": 8857,
      "ĠBeaut": 8858,
      "ĠHolocaust": 8859,
      "Ġsurvive": 8860,
      "Ġballet": 8861,
      "ĠCrick": 8862,
      "ĠHerman": 8863,
      "stic": 8864,
      "ĠProduction": 8865,
      "Ġexactly": 8866,
      "ĠMorocco": 8867,
      "body": 8868,
      "host": 8869,
      "omes": 8870,
      "Ġstyles": 8871,
      "iev": 8872,
      "ieties": 8873,
      "Ġsuppl": 8874,
      "Ġcardiac": 8875,
      "Ġult": 8876,
      "ĠSv": 8877,
      "ĠSultan": 8878,
      "ĠMn": 8879,
      "ĠSpeed": 8880,
      "ĠColleges": 8881,
      "ĠAndy": 8882,
      "ĠBasic": 8883,
      "Ġreports": 8884,
      "Ġorange": 8885,
      "Ġ1864": 8886,
      "Ġaffect": 8887,
      "ĠHud": 8888,
      "ĠWald": 8889,
      "ĠPedro": 8890,
      "ĠStuart": 8891,
      "ters": 8892,
      "ĠEdin": 8893,
      "Ġcharged": 8894,
      "Ġdrivers": 8895,
      "Ġcamps": 8896,
      "urders": 8897,
      "aks": 8898,
      "ĠStef": 8899,
      "ffee": 8900,
      "ahn": 8901,
      "ĠPhilos": 8902,
      "Ġpopularity": 8903,
      "Ġkidney": 8904,
      "bow": 8905,
      "umer": 8906,
      "Ġtrained": 8907,
      "Ġmicro": 8908,
      "Ġanime": 8909,
      "orms": 8910,
      "Ġprinted": 8911,
      "Ġencour": 8912,
      "ĠMitchell": 8913,
      "ĠRalph": 8914,
      "ĠDanny": 8915,
      "Ġ1840": 8916,
      "ĠShir": 8917,
      "Ġentry": 8918,
      "Ġmurdered": 8919,
      "Ġsang": 8920,
      "olves": 8921,
      "allel": 8922,
      "ĠSyn": 8923,
      "Ġplus": 8924,
      "Ġpartners": 8925,
      "Ġcontaining": 8926,
      "Ġportray": 8927,
      "late": 8928,
      "aran": 8929,
      "ĠRico": 8930,
      "Ġleads": 8931,
      "ĠEnvironment": 8932,
      "Ġanyone": 8933,
      "Ġintelligence": 8934,
      "formance": 8935,
      "Ġorders": 8936,
      "elia": 8937,
      "Ġguilty": 8938,
      "oned": 8939,
      "ĠOD": 8940,
      "ĠArchbishop": 8941,
      "cious": 8942,
      "Ġrif": 8943,
      "Ġsmallest": 8944,
      "ĠHerbert": 8945,
      "Ġdepartments": 8946,
      "hawks": 8947,
      "Ġlayer": 8948,
      "Ġformat": 8949,
      "Ġdeliver": 8950,
      "ĠWallace": 8951,
      "Ġfirm": 8952,
      "Ġcos": 8953,
      "Ġsurrounding": 8954,
      "SL": 8955,
      "ĠMaj": 8956,
      "ĠTele": 8957,
      "Ġwealth": 8958,
      "Ġliterary": 8959,
      "ĠBibliography": 8960,
      "rate": 8961,
      "Ġcup": 8962,
      "Ġslave": 8963,
      "Ġprojects": 8964,
      "ĠAleks": 8965,
      "ruct": 8966,
      "itaine": 8967,
      "hte": 8968,
      "ĠShinto": 8969,
      "core": 8970,
      "Ġmig": 8971,
      "ĠJa": 8972,
      "ĠTerry": 8973,
      "erstate": 8974,
      "Ġtreaty": 8975,
      "ĠSprings": 8976,
      "ĠSaturday": 8977,
      "ĠNext": 8978,
      "Ġ1862": 8979,
      "Ġviolin": 8980,
      "RC": 8981,
      "Ġban": 8982,
      "ĠKab": 8983,
      "geon": 8984,
      "Ġjur": 8985,
      "ĠPicture": 8986,
      "ateur": 8987,
      "ĠArchitect": 8988,
      "ĠAmbassador": 8989,
      "ĠMickey": 8990,
      "atra": 8991,
      "ĠCob": 8992,
      "ĠMack": 8993,
      "Ġspons": 8994,
      "ĠCommander": 8995,
      "borough": 8996,
      "ĠMotor": 8997,
      "PD": 8998,
      "Ġalg": 8999,
      "ĠJoy": 9000,
      "ĠHeidelberg": 9001,
      "antry": 9002,
      "very": 9003,
      "spec": 9004,
      "Ġformation": 9005,
      "Ġstring": 9006,
      "Ġexpensive": 9007,
      "ĠHelen": 9008,
      "Ġtranslation": 9009,
      "east": 9010,
      "Ġur": 9011,
      "ĠAction": 9012,
      "ĠGoth": 9013,
      "ĠAlliance": 9014,
      "Ġslavery": 9015,
      "ĠBened": 9016,
      "ĠFerr": 9017,
      "uin": 9018,
      "Ġcaught": 9019,
      "Ġcards": 9020,
      "igs": 9021,
      "ĠDivisin": 9022,
      "Ġdifferences": 9023,
      "ĠErnest": 9024,
      "No": 9025,
      "pear": 9026,
      "ĠSad": 9027,
      "ĠBog": 9028,
      "ĠLt": 9029,
      "raph": 9030,
      "haps": 9031,
      "olics": 9032,
      "ĠLuke": 9033,
      "Ġspr": 9034,
      "ĠPotter": 9035,
      "come": 9036,
      "Ġdram": 9037,
      "ĠLists": 9038,
      "ifferent": 9039,
      "ĠYonne": 9040,
      "Ġmos": 9041,
      "ĠFerdin": 9042,
      "ĠRaymond": 9043,
      "ĠLocal": 9044,
      "itol": 9045,
      "ĠPeng": 9046,
      "auer": 9047,
      "Ġlimit": 9048,
      "Ġmartial": 9049,
      "world": 9050,
      "ĠYellow": 9051,
      "Ġconducted": 9052,
      "Ġhappy": 9053,
      "ĠRomans": 9054,
      "ĠPiedmont": 9055,
      "inus": 9056,
      "Ġbones": 9057,
      "Ġselection": 9058,
      "Ġadapted": 9059,
      "Ġorganisms": 9060,
      "Ġcritical": 9061,
      "rical": 9062,
      "Ġeating": 9063,
      "Ġ1885": 9064,
      "ĠAttorney": 9065,
      "Ġdaughters": 9066,
      "Ġ1882": 9067,
      "Ġcyclist": 9068,
      "Ġconcerts": 9069,
      "ML": 9070,
      "ĠBear": 9071,
      "Ġtrip": 9072,
      "ĠXinglong": 9073,
      "OC": 9074,
      "bb": 9075,
      "fare": 9076,
      "Ġswimmer": 9077,
      "ĠMikhail": 9078,
      "HA": 9079,
      "Ġaster": 9080,
      "Ġfal": 9081,
      "iler": 9082,
      "ĠFac": 9083,
      "Ġshrine": 9084,
      "ĠConstit": 9085,
      "ĠAviation": 9086,
      "Ġmachines": 9087,
      "Ġpersons": 9088,
      "ĠRah": 9089,
      "isted": 9090,
      "ĠUNE": 9091,
      "bus": 9092,
      "Ġlose": 9093,
      "ĠJupiter": 9094,
      "Ġperfect": 9095,
      "Ġoperas": 9096,
      "ĠPatri": 9097,
      "Ġexperiment": 9098,
      "ĠSCAP": 9099,
      "ifications": 9100,
      "Ġshortly": 9101,
      "uis": 9102,
      "onna": 9103,
      "istant": 9104,
      "ificial": 9105,
      "Ġtex": 9106,
      "asha": 9107,
      "incinn": 9108,
      "Ġexpress": 9109,
      "Ġ1883": 9110,
      "rystal": 9111,
      "Ġpancreat": 9112,
      "ĠSart": 9113,
      "Ġfan": 9114,
      "Ġharm": 9115,
      "Ġplanets": 9116,
      "ĠKeith": 9117,
      "Ġlosing": 9118,
      "ishi": 9119,
      "lington": 9120,
      "ĠMagic": 9121,
      "ocal": 9122,
      "helor": 9123,
      "ĠEdinburgh": 9124,
      "otton": 9125,
      "Ġlawyers": 9126,
      "minster": 9127,
      "Ġnickname": 9128,
      "rn": 9129,
      "ĠSylv": 9130,
      "ĠPrem": 9131,
      "ĠFab": 9132,
      "ĠProvinces": 9133,
      "Ġbranches": 9134,
      "ĠPHO": 9135,
      "ĠRace": 9136,
      "ĠKush": 9137,
      "ĠExecutive": 9138,
      "Ġelectrons": 9139,
      "incinnati": 9140,
      "Football": 9141,
      "person": 9142,
      "Ġpeoples": 9143,
      "ortun": 9144,
      "pha": 9145,
      "Ġlocomot": 9146,
      "ĠSchools": 9147,
      "Ġimprov": 9148,
      "Ġthousand": 9149,
      "ĠFace": 9150,
      "Ġnit": 9151,
      "osev": 9152,
      "ĠShel": 9153,
      "Ġinjury": 9154,
      "ĠBroadway": 9155,
      "EP": 9156,
      "ĠKun": 9157,
      "oya": 9158,
      "Ġ1873": 9159,
[...]
