{
  "version": "1.0",
  "truncation": null,
  "padding": null,
  "added_tokens": [
    {
      "id": 0,
      "content": "[PAD]",
      "single_word": false,
      "lstrip": false,
      "rstrip": false,
      "normalized": false,
      "special": true
    },
    {
      "id": 1,
      "content": "[EOT]",
      "single_word": false,
      "lstrip": false,
      "rstrip": false,
      "normalized": false,
      "special": true
    },
    {
      "id": 2,
      "content": "[UNK]",
      "single_word": false,
      "lstrip": false,
      "rstrip": false,
      "normalized": false,
      "special": true
    },
    {
      "id": 3,
      "content": "[Res0]",
      "single_word": false,
      "lstrip": false,
      "rstrip": false,
      "normalized": false,
      "special": true
    },
    {
      "id": 4,
      "content": "[Res1]",
      "single_word": false,
      "lstrip": false,
      "rstrip": false,
      "normalized": false,
      "special": true
    },
    {
      "id": 5,
      "content": "[Res2]",
      "single_word": false,
      "lstrip": false,
      "rstrip": false,
      "normalized": false,
      "special": true
    },
    {
      "id": 6,
      "content": "[Res3]",
      "single_word": false,
      "lstrip": false,
      "rstrip": false,
      "normalized": false,
      "special": true
    },
    {
      "id": 7,
      "content": "[Res4]",
      "single_word": false,
      "lstrip": false,
      "rstrip": false,
      "normalized": false,
      "special": true
    },
    {
      "id": 8,
      "content": "[Res5]",
      "single_word": false,
      "lstrip": false,
      "rstrip": false,
      "normalized": false,
      "special": true
    },
    {
      "id": 9,
      "content": "[Res6]",
      "single_word": false,
      "lstrip": false,
      "rstrip": false,
      "normalized": false,
      "special": true
    },
    {
      "id": 10,
      "content": "[Res7]",
      "single_word": false,
      "lstrip": false,
      "rstrip": false,
      "normalized": false,
      "special": true
    },
    {
      "id": 11,
      "content": "[Res8]",
      "single_word": false,
      "lstrip": false,
      "rstrip": false,
      "normalized": false,
      "special": true
    },
    {
      "id": 12,
      "content": "[Res9]",
      "single_word": false,
      "lstrip": false,
      "rstrip": false,
      "normalized": false,
      "special": true
    },
    {
      "id": 13,
      "content": "[Res10]",
      "single_word": false,
      "lstrip": false,
      "rstrip": false,
      "normalized": false,
      "special": true
    },
    {
      "id": 14,
      "content": "[Res11]",
      "single_word": false,
      "lstrip": false,
      "rstrip": false,
      "normalized": false,
      "special": true
    },
    {
      "id": 15,
      "content": "[Res12]",
      "single_word": false,
      "lstrip": false,
      "rstrip": false,
      "normalized": false,
      "special": true
    },
    {
      "id": 16,
      "content": "[Res13]",
      "single_word": false,
      "lstrip": false,
      "rstrip": false,
      "normalized": false,
      "special": true
    },
    {
      "id": 17,
      "content": "[Res14]",
      "single_word": false,
      "lstrip": false,
      "rstrip": false,
      "normalized": false,
      "special": true
    },
    {
      "id": 18,
      "content": "[Res15]",
      "single_word": false,
      "lstrip": false,
      "rstrip": false,
      "normalized": false,
      "special": true
    },
    {
      "id": 19,
      "content": "[Res16]",
      "single_word": false,
      "lstrip": false,
      "rstrip": false,
      "normalized": false,
      "special": true
    },
    {
      "id": 20,
      "content": "[Res17]",
      "single_word": false,
      "lstrip": false,
      "rstrip": false,
      "normalized": false,
      "special": true
    },
    {
      "id": 21,
      "content": "[Res18]",
      "single_word": false,
      "lstrip": false,
      "rstrip": false,
      "normalized": false,
      "special": true
    },
    {
      "id": 22,
      "content": "[Res19]",
      "single_word": false,
      "lstrip": false,
      "rstrip": false,
      "normalized": false,
      "special": true
    }
  ],
  "normalizer": {
    "type": "Sequence",
    "normalizers": [
      {
        "type": "NFD"
      },
      {
        "type": "StripAccents"
      },
      {
        "type": "Replace",
        "pattern": {
          "String": "[^a-zA-Z0-9\\s!\"\\#\\$%\\&'\\(\\)\\*\\+,\\-\\./:;<=>\\?@\\[\\\\\\]\\^_`\\{\\|\\}\\~]"
        },
        "content": ""
      }
    ]
  },
  "pre_tokenizer": {
    "type": "Sequence",
    "pretokenizers": [
      {
        "type": "WhitespaceSplit"
      },
      {
        "type": "Split",
        "pattern": {
          "String": "\\d"
        },
        "behavior": "Isolated",
        "invert": false
      },
      {
        "type": "ByteLevel",
        "add_prefix_space": true,
        "trim_offsets": true,
        "use_regex": true
      }
    ]
  },
  "post_processor": null,
  "decoder": {
    "type": "ByteLevel",
    "add_prefix_space": true,
    "trim_offsets": true,
    "use_regex": true
  },
  "model": {
    "type": "BPE",
    "dropout": 0.1,
    "unk_token": "[UNK]",
    "continuing_subword_prefix": null,
    "end_of_word_suffix": null,
    "fuse_unk": false,
    "byte_fallback": false,
    "ignore_merges": false,
    "vocab": {
      "[PAD]": 0,
      "[EOT]": 1,
      "[UNK]": 2,
      "[Res0]": 3,
      "[Res1]": 4,
      "[Res2]": 5,
      "[Res3]": 6,
      "[Res4]": 7,
      "[Res5]": 8,
      "[Res6]": 9,
      "[Res7]": 10,
      "[Res8]": 11,
      "[Res9]": 12,
      "[Res10]": 13,
      "[Res11]": 14,
      "[Res12]": 15,
      "[Res13]": 16,
      "[Res14]": 17,
      "[Res15]": 18,
      "[Res16]": 19,
      "[Res17]": 20,
      "[Res18]": 21,
      "[Res19]": 22,
      "\t": 23,
      "\n": 24,
      " ": 25,
      "!": 26,
      "\"": 27,
      "#": 28,
      "$": 29,
      "%": 30,
      "&": 31,
      "'": 32,
      "(": 33,
      ")": 34,
      "*": 35,
      "+": 36,
      ",": 37,
      "-": 38,
      ".": 39,
      "/": 40,
      "0": 41,
      "1": 42,
      "2": 43,
      "3": 44,
      "4": 45,
      "5": 46,
      "6": 47,
      "7": 48,
      "8": 49,
      "9": 50,
      ":": 51,
      ";": 52,
      "<": 53,
      "=": 54,
      ">": 55,
      "?": 56,
      "@": 57,
      "A": 58,
      "B": 59,
      "C": 60,
      "D": 61,
      "E": 62,
      "F": 63,
      "G": 64,
      "H": 65,
      "I": 66,
      "J": 67,
      "K": 68,
      "L": 69,
      "M": 70,
      "N": 71,
      "O": 72,
      "P": 73,
      "Q": 74,
      "R": 75,
      "S": 76,
      "T": 77,
      "U": 78,
      "V": 79,
      "W": 80,
      "X": 81,
      "Y": 82,
      "Z": 83,
      "[": 84,
      "\\": 85,
      "]": 86,
      "^": 87,
      "_": 88,
      "`": 89,
      "a": 90,
      "b": 91,
      "c": 92,
      "d": 93,
      "e": 94,
      "f": 95,
      "g": 96,
      "h": 97,
      "i": 98,
      "j": 99,
      "k": 100,
      "l": 101,
      "m": 102,
      "n": 103,
      "o": 104,
      "p": 105,
      "q": 106,
      "r": 107,
      "s": 108,
      "t": 109,
      "u": 110,
      "v": 111,
      "w": 112,
      "x": 113,
      "y": 114,
      "z": 115,
      "{": 116,
      "|": 117,
      "}": 118,
      "~": 119,
      "Ġ": 120,
      "Ġt": 121,
      "he": 122,
      "in": 123,
      "Ġa": 124,
      "er": 125,
      "on": 126,
      "Ġthe": 127,
      "re": 128,
      "an": 129,
      "or": 130,
      "en": 131,
      "at": 132,
      "ed": 133,
      "Ġo": 134,
      "st": 135,
      "al": 136,
      "Ġw": 137,
      "ar": 138,
      "it": 139,
      "Ġof": 140,
      "nd": 141,
      "Ġin": 142,
      "Ġs": 143,
      "Ġf": 144,
      "es": 145,
      "Ġc": 146,
      "is": 147,
      "Ġb": 148,
      "ic": 149,
      "Ġp": 150,
      "ing": 151,
      "Ġand": 152,
      "as": 153,
      "ion": 154,
      "ĠS": 155,
      "ro": 156,
      "le": 157,
      "ĠC": 158,
      "ĠA": 159,
      "ĠT": 160,
      "Ġto": 161,
      "Ġm": 162,
      "Ġd": 163,
      "Ġ1": 164,
      "ou": 165,
      "il": 166,
      "ĠM": 167,
      "ent": 168,
      "Ġh": 169,
      "am": 170,
      "om": 171,
      "ol": 172,
      "ĠB": 173,
      "el": 174,
      "ĠP": 175,
      "Ġre": 176,
      "Ġ(": 177,
      "ĠR": 178,
      "ct": 179,
      "Ġ2": 180,
      "ĠI": 181,
      "Ġl": 182,
      "ĠH": 183,
      "ad": 184,
      "ur": 185,
      "et": 186,
      "ch": 187,
      "iv": 188,
      "ers": 189,
      "Ġwas": 190,
      "ĠThe": 191,
      "ation": 192,
      "ĠD": 193,
      "ĠL": 194,
      "Ġn": 195,
      "Ġe": 196,
      "ig": 197,
      "ĠF": 198,
      "Ġ19": 199,
      "ir": 200,
      "ot": 201,
      "id": 202,
      "Ġth": 203,
      "ce": 204,
      "us": 205,
      "Ġfor": 206,
      "ay": 207,
      "Ġon": 208,
      "ly": 209,
      "ĠG": 210,
      "im": 211,
      "ist": 212,
      "ĠN": 213,
      "Ġ20": 214,
      "ĠE": 215,
      "ut": 216,
      "ĠW": 217,
      "ra": 218,
      "Ġg": 219,
      "Ġis": 220,
      "Ġas": 221,
      "em": 222,
      "ow": 223,
      "un": 224,
      "th": 225,
      "ith": 226,
      "ĠJ": 227,
      "Ġbe": 228,
      "Ġst": 229,
      "and": 230,
      "her": 231,
      "ter": 232,
      "ul": 233,
      "Ġwith": 234,
      "Ġby": 235,
      "ag": 236,
      "ĠO": 237,
      "Ġal": 238,
      "um": 239,
      "os": 240,
      "rom": 241,
      "'s": 242,
      "op": 243,
      "ac": 244,
      "Ġat": 245,
      "ver": 246,
      "ri": 247,
      "ĠK": 248,
      "Ġwh": 249,
      "Ġan": 250,
      "oc": 251,
      "Ġ|": 252,
      "Ġde": 253,
      "ian": 254,
      "ĠIn": 255,
      "Ġfrom": 256,
      "Ġcon": 257,
      "ĠU": 258,
      "Ġhe": 259,
      "Ġ\"": 260,
      "ia": 261,
      "Ġv": 262,
      "ain": 263,
      "ber": 264,
      "all": 265,
      "Ġthat": 266,
      "ity": 267,
      "res": 268,
      "od": 269,
      "ies": 270,
      "est": 271,
      "art": 272,
      "av": 273,
      "Ġcom": 274,
      "ab": 275,
      "ate": 276,
      "if": 277,
      "ill": 278,
      "Ġpro": 279,
      "ĠSt": 280,
      "up": 281,
      "Ġse": 282,
      "ort": 283,
      "ew": 284,
      "ard": 285,
      "ud": 286,
      "pe": 287,
      "ĠRe": 288,
      "Ġpl": 289,
      "ces": 290,
      "ub": 291,
      "Ġit": 292,
      "ak": 293,
      "igh": 294,
      "ip": 295,
      "ĠCh": 296,
      "Ġ201": 297,
      "Ġhis": 298,
      "se": 299,
      "ore": 300,
      "ich": 301,
      "ĠV": 302,
      "ov": 303,
      "ast": 304,
      "ld": 305,
      "ated": 306,
      "ary": 307,
      "ap": 308,
      "ant": 309,
      "Ġor": 310,
      "qu": 311,
      "ment": 312,
      "nt": 313,
      "ish": 314,
      "fer": 315,
      "ge": 316,
      "mer": 317,
      "ive": 318,
      "Ġr": 319,
      "Ġ200": 320,
      "ong": 321,
      "our": 322,
      "ug": 323,
      "og": 324,
      "ial": 325,
      "Ġch": 326,
      "end": 327,
      "und": 328,
      "ine": 329,
      "Ġare": 330,
      "ere": 331,
      "Ġex": 332,
      "ks": 333,
      "ell": 334,
      "ust": 335,
      "ear": 336,
      "ĠHe": 337,
      "00": 338,
      "ction": 339,
      "ame": 340,
      "so": 341,
      "ord": 342,
      "ire": 343,
      "Ġwere": 344,
      "ran": 345,
      "uc": 346,
      "ure": 347,
      "ĠUn": 348,
      "ical": 349,
      "ight": 350,
      "Ġle": 351,
      "ue": 352,
      "Ġ||": 353,
      "ie": 354,
      "ost": 355,
      "),": 356,
      "ign": 357,
      "Ġ18": 358,
      "19": 359,
      "Ġalso": 360,
      "Ġwhich": 361,
      "pt": 362,
      "ric": 363,
      "are": 364,
      "ess": 365,
      "Ġplay": 366,
      "Ġcomp": 367,
      "Ġk": 368,
      "cl": 369,
      "rit": 370,
      "Ġsh": 371,
      "ther": 372,
      "Ġy": 373,
      "ff": 374,
      "ĠSe": 375,
      "ry": 376,
      "ass": 377,
      "age": 378,
      "port": 379,
      "irst": 380,
      "ĠY": 381,
      "Ġ3": 382,
      "ĠIt": 383,
      "feren": 384,
      "man": 385,
      "ition": 386,
      "ount": 387,
      "ous": 388,
      "Ġun": 389,
      "ĠAl": 390,
      "ork": 391,
      "ack": 392,
      "Ġar": 393,
      "erv": 394,
      "iz": 395,
      "te": 396,
      "Ġhad": 397,
      "Ġcl": 398,
      "ond": 399,
      "ational": 400,
      "per": 401,
      "hed": 402,
      "Ġte": 403,
      "ide": 404,
      "ok": 405,
      "ĠTh": 406,
      "ang": 407,
      "ican": 408,
      "land": 409,
      "tern": 410,
      "orn": 411,
      "ory": 412,
      "ice": 413,
      "ations": 414,
      "ult": 415,
      "pl": 416,
      "ph": 417,
      "Ġfirst": 418,
      "Ġ199": 419,
      "Ġnot": 420,
      "fter": 421,
      "own": 422,
      "Ġhas": 423,
      "ng": 424,
      "ferences": 425,
      "ave": 426,
      "ĠAr": 427,
      "ome": 428,
      "ĠDe": 429,
      "Ġro": 430,
      "Ġwhe": 431,
      "ater": 432,
      "ib": 433,
      "ne": 434,
      "ĠReferences": 435,
      "ens": 436,
      "Ġcont": 437,
      "wo": 438,
      "ach": 439,
      "ĠAmer": 440,
      "ĠMar": 441,
      "amp": 442,
      "ions": 443,
      "ilm": 444,
      "ree": 445,
      "ite": 446,
      "Ġad": 447,
      "Ġus": 448,
      "ates": 449,
      "Ġpart": 450,
      "ople": 451,
      "Ġwho": 452,
      "ĠLe": 453,
      "ime": 454,
      "ited": 455,
      "Ġj": 456,
      "Ġtheir": 457,
      "ru": 458,
      "Ġres": 459,
      "Ġher": 460,
      "Ġint": 461,
      "ember": 462,
      "Ġap": 463,
      "Ġits": 464,
      "aw": 465,
      "ound": 466,
      "ke": 467,
      "ubl": 468,
      "ath": 469,
      "out": 470,
      "ivers": 471,
      "ool": 472,
      "20": 473,
      "over": 474,
      "ild": 475,
      "ball": 476,
      "ors": 477,
      ").": 478,
      "ace": 479,
      "Ġab": 480,
      "oll": 481,
      "iss": 482,
      "ĠNew": 483,
      "Ġ4": 484,
      "clud": 485,
      "Ġbut": 486,
      "ts": 487,
      "Ġac": 488,
      "eople": 489,
      "inal": 490,
      "ĠCom": 491,
      "Ġyear": 492,
      "ĠAmerican": 493,
      "Ġone": 494,
      "ugh": 495,
      "ile": 496,
      "ĠAs": 497,
      "oot": 498,
      "old": 499,
      "Ġ198": 500,
      "ould": 501,
      "Ġag": 502,
      "ĠEx": 503,
      "ade": 504,
      "Ġrec": 505,
      "hip": 506,
      "Ġper": 507,
      "ress": 508,
      "ual": 509,
      "uring": 510,
      "for": 511,
      "Ġsc": 512,
      "ents": 513,
      "ence": 514,
      "oin": 515,
      "ward": 516,
      "wn": 517,
      "les": 518,
      "Ġman": 519,
      "Ġtwo": 520,
      "oy": 521,
      "Ġinclud": 522,
      "act": 523,
      "ons": 524,
      "ased": 525,
      "Ġdes": 526,
      "Ġbec": 527,
      "io": 528,
      "chool": 529,
      "Ġhave": 530,
      "we": 531,
      "Ġ-": 532,
      "ied": 533,
      "Ġen": 534,
      "cted": 535,
      "ob": 536,
      "Ġthis": 537,
      "ern": 538,
      "ings": 539,
      "vel": 540,
      "Ġall": 541,
      "one": 542,
      "Ġ5": 543,
      "ail": 544,
      "Ġfilm": 545,
      "urn": 546,
      "ase": 547,
      "Ġcomm": 548,
      "ark": 549,
      "Ġbeen": 550,
      "ind": 551,
      "Ġ197": 552,
      "gh": 553,
      "outh": 554,
      "Ġother": 555,
      "ics": 556,
      "ted": 557,
      "Ġafter": 558,
      "Ġdis": 559,
      "ury": 560,
      "uch": 561,
      "Ġim": 562,
      "ely": 563,
      "gan": 564,
      "ral": 565,
      "ished": 566,
      "ft": 567,
      "ect": 568,
      "Ġoff": 569,
      "ren": 570,
      "ah": 571,
      "iversity": 572,
      "red": 573,
      "oh": 574,
      "able": 575,
      "Ġsp": 576,
      "ose": 577,
      "ision": 578,
      "ĠSh": 579,
      "ance": 580,
      "Ġserv": 581,
      "Ġlin": 582,
      "Ġout": 583,
      "Ġup": 584,
      "ont": 585,
      "Ġpeople": 586,
      "orld": 587,
      "ood": 588,
      "Ġra": 589,
      "Ġshe": 590,
      "Ġover": 591,
      "pec": 592,
      "cent": 593,
      "Ġne": 594,
      "rib": 595,
      "Ġ196": 596,
      "ames": 597,
      "ĠPro": 598,
      "ĠOn": 599,
      "way": 600,
      "Ġev": 601,
      "Ġnew": 602,
      "ton": 603,
      "ason": 604,
      "Ġund": 605,
      "olog": 606,
      "ale": 607,
      "Ġ6": 608,
      "ans": 609,
      "ĠUnited": 610,
      "ram": 611,
      "Ġloc": 612,
      "Ġele": 613,
      "ootball": 614,
      "ĠInd": 615,
      "du": 616,
      "Ġthey": 617,
      "Ġwork": 618,
      "ists": 619,
      "olle": 620,
      "eb": 621,
      "Ġinto": 622,
      "che": 623,
      "Ġtra": 624,
      "cess": 625,
      "ĠZ": 626,
      "Ġpre": 627,
      "Ġgro": 628,
      "orth": 629,
      "ĠUniversity": 630,
      "eral": 631,
      "ough": 632,
      "Ġact": 633,
      "Ġatt": 634,
      "ck": 635,
      "ternal": 636,
      "ep": 637,
      "ict": 638,
      "ake": 639,
      "Ġsec": 640,
      "ĠAn": 641,
      "Ġtime": 642,
      "Ġbu": 643,
      "az": 644,
      "ik": 645,
      "Ġcan": 646,
      "ily": 647,
      "rans": 648,
      "Ġunder": 649,
      "ĠCl": 650,
      "rough": 651,
      "iel": 652,
      "ix": 653,
      "ick": 654,
      "vi": 655,
      "Ġpol": 656,
      "duc": 657,
      "pr": 658,
      "ĠEng": 659,
      "ĠSc": 660,
      "ince": 661,
      "ve": 662,
      "als": 663,
      "oun": 664,
      "ife": 665,
      "Ġteam": 666,
      "Ġlinks": 667,
      "Ġplayers": 668,
      "oci": 669,
      "rad": 670,
      "Ġreg": 671,
      "Ġpubl": 672,
      "oth": 673,
      "Ġ194": 674,
      "Ġkn": 675,
      "ident": 676,
      "ĠExternal": 677,
      "form": 678,
      "Ġhim": 679,
      "Ġbet": 680,
      "att": 681,
      "Ġass": 682,
      "ins": 683,
      "ĠShe": 684,
      "inn": 685,
      "Ġ7": 686,
      "ative": 687,
      "ier": 688,
      "aj": 689,
      "18": 690,
      "ouse": 691,
      "Ġpr": 692,
      "emb": 693,
      "ities": 694,
      "use": 695,
      "ollow": 696,
      "ina": 697,
      "Ġ195": 698,
      "Ġwould": 699,
      "Ġco": 700,
      "ann": 701,
      "ĠTe": 702,
      "ober": 703,
      "Ġest": 704,
      "ars": 705,
      "Ġwhen": 706,
      "usic": 707,
      "Ġagain": 708,
      "ll": 709,
      "Ġcent": 710,
      "Ġop": 711,
      "Ġyears": 712,
      "ween": 713,
      "eries": 714,
      "ced": 715,
      "Ġcons": 716,
      "resent": 717,
      "round": 718,
      "overn": 719,
      "ating": 720,
      "Ġwhere": 721,
      "Ġduring": 722,
      "Ġret": 723,
      "Ġmore": 724,
      "Ġ17": 725,
      "Ġind": 726,
      "abl": 727,
      "Ġbo": 728,
      "raph": 729,
      "iving": 730,
      "bum": 731,
      "arly": 732,
      "der": 733,
      "ĠJoh": 734,
      "Ġsub": 735,
      "air": 736,
      "Ġstud": 737,
      "any": 738,
      "Ġform": 739,
      "Ġsup": 740,
      "Ġ202": 741,
      "ĠThis": 742,
      "Ġgen": 743,
      "Ġme": 744,
      "Ġqu": 745,
      "ĠPl": 746,
      "ĠCount": 747,
      "ĠStates": 748,
      "Ġfootball": 749,
      "Ġ8": 750,
      "Ġfound": 751,
      "ional": 752,
      "ock": 753,
      "arl": 754,
      "Ġrele": 755,
      "Ġfl": 756,
      "cc": 757,
      "Ġspec": 758,
      "enn": 759,
      "Ġonly": 760,
      "ash": 761,
      "Ġbetween": 762,
      "iam": 763,
      "ague": 764,
      "Ġfam": 765,
      "ĠIs": 766,
      "Ġbir": 767,
      "Ġrel": 768,
      "reat": 769,
      "ĠFor": 770,
      "Ġseason": 771,
      "pro": 772,
      "ĠQ": 773,
      "eat": 774,
      "istric": 775,
      "ĠAt": 776,
      "Ġsy": 777,
      "opul": 778,
      "ĠNational": 779,
      "Ġed": 780,
      "istory": 781,
      "Ġart": 782,
      "ific": 783,
      "ĠSp": 784,
      "ĠComm": 785,
      "erman": 786,
      "Ġabout": 787,
      "ĠAust": 788,
      "Ġthree": 789,
      "ĠJohn": 790,
      "\".": 791,
      "Ġinter": 792,
      "Ġmost": 793,
      "fore": 794,
      "ctor": 795,
      "ĠWorld": 796,
      "ley": 797,
      "ĠFran": 798,
      "ths": 799,
      "ĠPh": 800,
      "son": 801,
      "Ġrem": 802,
      "ĠCon": 803,
      "Ġfollow": 804,
      "Ġ9": 805,
      "Ġalbum": 806,
      "Ġmade": 807,
      "Ġlater": 808,
      "Ġsing": 809,
      "Ġthrough": 810,
      "inist": 811,
      "ield": 812,
      "ros": 813,
      "une": 814,
      "omen": 815,
      "Ġend": 816,
      "Ġ10": 817,
      "iver": 818,
      "ived": 819,
      "ĠBe": 820,
      "erson": 821,
      "ron": 822,
      "Ġsecond": 823,
      "Ġthem": 824,
      "ĠBl": 825,
      "ĠBrit": 826,
      "ograph": 827,
      "Ġwrit": 828,
      "ĠMay": 829,
      "Ġnum": 830,
      "uss": 831,
      "ank": 832,
      "Ġmov": 833,
      "Ġthere": 834,
      "Ġthen": 835,
      "Ġ193": 836,
      "Ġdire": 837,
      "ĠCan": 838,
      "mp": 839,
      "ĠWar": 840,
      "Ġdef": 841,
      "Ġused": 842,
      ".\"": 843,
      "ĠJan": 844,
      "erm": 845,
      "ower": 846,
      "ese": 847,
      "velop": 848,
      "ures": 849,
      "hen": 850,
      "ys": 851,
      "Ġrecord": 852,
      "arg": 853,
      "Ġinv": 854,
      "oss": 855,
      "ement": 856,
      "Ġtrans": 857,
      "istrict": 858,
      "ten": 859,
      "Ġso": 860,
      "Ġmed": 861,
      "ee": 862,
      "ert": 863,
      "ari": 864,
      "Ġ16": 865,
      "Ġschool": 866,
      "Ġset": 867,
      "Ġknown": 868,
      "ai": 869,
      "ĠCounty": 870,
      "\",": 871,
      "ĠAd": 872,
      "Ġent": 873,
      "Ġbecame": 874,
      "200": 875,
      "Ġsuch": 876,
      "stit": 877,
      "Ġestabl": 878,
      "ĠOr": 879,
      "Ġ15": 880,
      "Ġam": 881,
      "ĠSouth": 882,
      "ism": 883,
      "ĠGe": 884,
      "cy": 885,
      "its": 886,
      "Ġprov": 887,
      "ural": 888,
      "Ġph": 889,
      "Ġinc": 890,
      "ments": 891,
      "Ġthan": 892,
      "ĠSchool": 893,
      "ternational": 894,
      "uro": 895,
      "ĠGerman": 896,
      "ĠMe": 897,
      "ax": 898,
      "Ġ&": 899,
      "ise": 900,
      "Ġfour": 901,
      "pos": 902,
      "Ġseries": 903,
      "ĠNov": 904,
      "ĠJu": 905,
      "Ġbeing": 906,
      "Ġsome": 907,
      "urch": 908,
      "Ġlead": 909,
      "ampions": 910,
      "Ġbl": 911,
      "Ġ|-": 912,
      "Ġ.": 913,
      "Ġpopul": 914,
      "els": 915,
      "ever": 916,
      "ĠWest": 917,
      "ute": 918,
      "ays": 919,
      "Ġcall": 920,
      "Ġsong": 921,
      "Ġincluding": 922,
      "other": 923,
      "ject": 924,
      "let": 925,
      "eth": 926,
      "Ġgroup": 927,
      "Ġagainst": 928,
      "ae": 929,
      "areer": 930,
      "Ġwell": 931,
      "Ġdo": 932,
      "ike": 933,
      "Ġappe": 934,
      "ĠPol": 935,
      "ĠAfter": 936,
      "born": 937,
      "Ġdeath": 938,
      "ians": 939,
      "ugust": 940,
      "Ġacc": 941,
      "arri": 942,
      "Ġcount": 943,
      "Ġcre": 944,
      "ctions": 945,
      "ty": 946,
      "uary": 947,
      "ĠPr": 948,
      "amed": 949,
      "ptember": 950,
      "ĠAustral": 951,
      "ven": 952,
      "ather": 953,
      "stem": 954,
      "ĠWh": 955,
      "til": 956,
      "ĠYork": 957,
      "arn": 958,
      "ired": 959,
      "my": 960,
      "ull": 961,
      "ered": 962,
      "rid": 963,
      "very": 964,
      "ution": 965,
      "ĠAugust": 966,
      "ey": 967,
      "Ġbefore": 968,
      "ĠBritish": 969,
      "=\"": 970,
      "Ġrece": 971,
      "ĠOct": 972,
      "Ġ12": 973,
      "Ġadd": 974,
      "Ġwhile": 975,
      "rist": 976,
      "by": 977,
      "Ġsur": 978,
      "ĠSeptember": 979,
      "ives": 980,
      "Ġsign": 981,
      "Ġpolit": 982,
      "ĠMarch": 983,
      "overnment": 984,
      "000": 985,
      "Ġbro": 986,
      "Ġdec": 987,
      "Ġshow": 988,
      "ĠCent": 989,
      "aid": 990,
      "Ġoffic": 991,
      "Ġbuild": 992,
      "Ġoper": 993,
      "Ġdevelop": 994,
      "ĠOctober": 995,
      "ology": 996,
      "Ġgo": 997,
      "elf": 998,
      "Ġfamily": 999,
      "Ġuntil": 1000,
      "Ġcap": 1001,
      "lev": 1002,
      "xt": 1003,
      "Ġmusic": 1004,
      "ĠMan": 1005,
      "ized": 1006,
      "Ġmay": 1007,
      "pril": 1008,
      "ĠJune": 1009,
      "owever": 1010,
      "rand": 1011,
      "Ġown": 1012,
      "au": 1013,
      "fess": 1014,
      "Ġno": 1015,
      "Ġrep": 1016,
      "ĠJanuary": 1017,
      "Ġorig": 1018,
      "ica": 1019,
      "Ġmain": 1020,
      "ery": 1021,
      "Ġmod": 1022,
      "mber": 1023,
      "ĠAss": 1024,
      "10": 1025,
      "Ġhigh": 1026,
      "ĠJuly": 1027,
      "eng": 1028,
      "ĠAll": 1029,
      "embers": 1030,
      "Ġbirths": 1031,
      "lish": 1032,
      "Ġchar": 1033,
      "istor": 1034,
      "Ġboth": 1035,
      "ets": 1036,
      "Ġmany": 1037,
      "ollege": 1038,
      "Ġnumber": 1039,
      "Ġplayed": 1040,
      "Ġmon": 1041,
      "ĠNorth": 1042,
      "ott": 1043,
      "ĠCo": 1044,
      "ĠLeague": 1045,
      "Ġexp": 1046,
      "Ġname": 1047,
      "oman": 1048,
      "uth": 1049,
      "ampionship": 1050,
      "ĠApril": 1051,
      "century": 1052,
      "wards": 1053,
      "ĠCar": 1054,
      "ants": 1055,
      "Ġback": 1056,
      "Ġ192": 1057,
      "ved": 1058,
      "ient": 1059,
      "ĠCanad": 1060,
      "hes": 1061,
      "ĠEuro": 1062,
      "itt": 1063,
      "ĠSee": 1064,
      "Ġreleased": 1065,
      "cember": 1066,
      "Ġem": 1067,
      "stru": 1068,
      "ĠGu": 1069,
      "ained": 1070,
      "ĠBo": 1071,
      "ene": 1072,
      "ior": 1073,
      "ple": 1074,
      "gram": 1075,
      "Ġgu": 1076,
      "17": 1077,
      "ĠEd": 1078,
      "ĠCol": 1079,
      "isc": 1080,
      "Ġformer": 1081,
      "ĠNovember": 1082,
      "ital": 1083,
      "Ġsever": 1084,
      "ission": 1085,
      "ĠAm": 1086,
      "ĠEnglish": 1087,
      "Ġann": 1088,
      "ium": 1089,
      "ec": 1090,
      "Ġwon": 1091,
      "ines": 1092,
      "ports": 1093,
      "Ġdesign": 1094,
      "por": 1095,
      "icip": 1096,
      "cept": 1097,
      "ĠWill": 1098,
      "ĠReg": 1099,
      "ĠDecember": 1100,
      "Ġmat": 1101,
      "ĠCity": 1102,
      "Ġ14": 1103,
      "ĠFl": 1104,
      "ract": 1105,
      "ross": 1106,
      "ajor": 1107,
      "Ġdesc": 1108,
      "yl": 1109,
      "Ġ13": 1110,
      "Ġarea": 1111,
      "Ġlife": 1112,
      "imes": 1113,
      "ird": 1114,
      "Ġstart": 1115,
      "ĠCal": 1116,
      "ĠAf": 1117,
      "ris": 1118,
      "Ġorgan": 1119,
      "duced": 1120,
      "Ġopen": 1121,
      "Ġfeat": 1122,
      "ared": 1123,
      "ret": 1124,
      "ĠState": 1125,
      "fl": 1126,
      "Ġgame": 1127,
      "ages": 1128,
      "Ġdif": 1129,
      "vent": 1130,
      "resident": 1131,
      "Ġrun": 1132,
      "ket": 1133,
      "ues": 1134,
      "rop": 1135,
      "led": 1136,
      "Ġfilms": 1137,
      "part": 1138,
      "Ġprodu": 1139,
      "Ġ11": 1140,
      "sh": 1141,
      "arm": 1142,
      "ety": 1143,
      "Ġmen": 1144,
      "Ġ2010": 1145,
      "Ġclass": 1146,
      "ography": 1147,
      "Ġ21": 1148,
      "yle": 1149,
      "Ġext": 1150,
      "apan": 1151,
      "Ġsm": 1152,
      "ebru": 1153,
      "ebruary": 1154,
      "Ġpublic": 1155,
      "ung": 1156,
      "levision": 1157,
      "ĠII": 1158,
      "Ġstate": 1159,
      "ĠKing": 1160,
      "Ġsystem": 1161,
      "Ġob": 1162,
      "Ġlong": 1163,
      "ually": 1164,
      "Ġdr": 1165,
      "ĠPar": 1166,
      "ilt": 1167,
      "arch": 1168,
      "ĠBro": 1169,
      "ful": 1170,
      "Ġfinal": 1171,
      "Ġcareer": 1172,
      "ilit": 1173,
      "Ġsame": 1174,
      "ular": 1175,
      "ner": 1176,
      "ĠHis": 1177,
      "anc": 1178,
      "ause": 1179,
      "Ġcalled": 1180,
      "amb": 1181,
      "view": 1182,
      "Ġfollowing": 1183,
      "inc": 1184,
      "ĠFebruary": 1185,
      "yn": 1186,
      "ove": 1187,
      "ze": 1188,
      "Ġreturn": 1189,
      "Ġfin": 1190,
      "Ġcity": 1191,
      "Ġwill": 1192,
      "ony": 1193,
      "ĠEurope": 1194,
      "ĠSw": 1195,
      "af": 1196,
      "Ġchild": 1197,
      "rat": 1198,
      "ales": 1199,
      "aking": 1200,
      "Ġseveral": 1201,
      "Ġcommun": 1202,
      "rench": 1203,
      "ility": 1204,
      "Ġwomen": 1205,
      "rent": 1206,
      "oint": 1207,
      "ĠMed": 1208,
      "orks": 1209,
      "ĠJapan": 1210,
      "sp": 1211,
      "chn": 1212,
      "ange": 1213,
      "com": 1214,
      "ially": 1215,
      "ured": 1216,
      "con": 1217,
      "Ġlist": 1218,
      "ĠGeor": 1219,
      "Ġsuc": 1220,
      "ham": 1221,
      "ped": 1222,
      "Ġearly": 1223,
      "Ġair": 1224,
      "Ġ'": 1225,
      "Ġcontin": 1226,
      "ĠBar": 1227,
      "Ġtown": 1228,
      "Ġcompet": 1229,
      "Ġmin": 1230,
      "ĠEl": 1231,
      "12": 1232,
      "Ġclub": 1233,
      "ible": 1234,
      "Ġresult": 1235,
      "ĠAnd": 1236,
      "ĠHistory": 1237,
      "ally": 1238,
      "ised": 1239,
      "ices": 1240,
      "Ġsince": 1241,
      "ains": 1242,
      "ĠHar": 1243,
      "bo": 1244,
      "ster": 1245,
      "199": 1246,
      "ĠThey": 1247,
      "ĠPart": 1248,
      "ring": 1249,
      "angu": 1250,
      "Ġnear": 1251,
      "Ġnamed": 1252,
      "Ġoriginal": 1253,
      "ended": 1254,
      "ĠChrist": 1255,
      "ued": 1256,
      "Ġhead": 1257,
      "ata": 1258,
      "16": 1259,
      "ĠAb": 1260,
      "Ġbel": 1261,
      "Ġdisc": 1262,
      "Ġplace": 1263,
      "ided": 1264,
      "ĠFrench": 1265,
      "Ġ2011": 1266,
      "ience": 1267,
      "ĠRep": 1268,
      "Ġcur": 1269,
      "ille": 1270,
      "Ġbegan": 1271,
      "Ġtit": 1272,
      "Ġuse": 1273,
      "ival": 1274,
      "ane": 1275,
      "reen": 1276,
      "Ġprogram": 1277,
      "ĠUS": 1278,
      "Ġvill": 1279,
      "Ġmember": 1280,
      "15": 1281,
      "Ġmembers": 1282,
      "Ġprom": 1283,
      "Ġany": 1284,
      "Ġheld": 1285,
      "Ġland": 1286,
      "ĠComp": 1287,
      "ĠRes": 1288,
      "Ġbased": 1289,
      "aint": 1290,
      "ĠMc": 1291,
      "Ġthese": 1292,
      "Ġcomple": 1293,
      "ble": 1294,
      "Ġapp": 1295,
      "me": 1296,
      "ounc": 1297,
      "Ġsupport": 1298,
      "Ġwe": 1299,
      "ĠAfric": 1300,
      "ality": 1301,
      "Ġgovernment": 1302,
      "Ġmet": 1303,
      "ĠRuss": 1304,
      "right": 1305,
      "Ġ2008": 1306,
      "Ġ2012": 1307,
      "augh": 1308,
      "ĠRo": 1309,
      "ĠAir": 1310,
      "Ġ190": 1311,
      "Ġestablished": 1312,
      "ious": 1313,
      "the": 1314,
      "Ġ,": 1315,
      "Ġalong": 1316,
      "Ġeff": 1317,
      "ivision": 1318,
      "ĠChampionship": 1319,
      "The": 1320,
      "Ġdescrib": 1321,
      "ĠEast": 1322,
      "iness": 1323,
      "Ġeng": 1324,
      "itions": 1325,
      "ĠCollege": 1326,
      "ĠWilliam": 1327,
      "Ġpass": 1328,
      "ĠGen": 1329,
      "ana": 1330,
      "ode": 1331,
      "..": 1332,
      "Ġdist": 1333,
      "pect": 1334,
      "alth": 1335,
      "urg": 1336,
      "adem": 1337,
      "Ġ2009": 1338,
      "Ġlocated": 1339,
      "ĠThere": 1340,
      "uk": 1341,
      "ically": 1342,
      "ĠHer": 1343,
      "orm": 1344,
      "aced": 1345,
      "Ġdid": 1346,
      "Ġlaw": 1347,
      "ino": 1348,
      "Ġocc": 1349,
      "Ġcharact": 1350,
      "ches": 1351,
      "Ġcol": 1352,
      "ford": 1353,
      "ĠArt": 1354,
      "ats": 1355,
      "ien": 1356,
      "Ġpos": 1357,
      "ublic": 1358,
      "ĠPeople": 1359,
      "ator": 1360,
      "Ġyou": 1361,
      "col": 1362,
      "Ġ2013": 1363,
      "ĠNe": 1364,
      "ondon": 1365,
      "ociation": 1366,
      "Ġ2006": 1367,
      "ĠItal": 1368,
      "Ġ2007": 1369,
      "Ġeach": 1370,
      "Ġhouse": 1371,
      "to": 1372,
      "row": 1373,
      "ored": 1374,
      "ĠHigh": 1375,
      "Ġ2014": 1376,
      "ington": 1377,
      "Ġ2016": 1378,
      "ĠFilm": 1379,
      "Ġserved": 1380,
      "14": 1381,
      "Ġsim": 1382,
      "que": 1383,
      "Ġtook": 1384,
      "ĠX": 1385,
      "ĠRec": 1386,
      "Ġband": 1387,
      "ky": 1388,
      "Ġ$": 1389,
      "Ġtr": 1390,
      "ourt": 1391,
      "Ġhome": 1392,
      "Ġstation": 1393,
      "ĠDistrict": 1394,
      "Ġbus": 1395,
      "aving": 1396,
      "ĠSy": 1397,
      "ĠInternational": 1398,
      "Ġborn": 1399,
      "Ġgames": 1400,
      "Ġnational": 1401,
      "med": 1402,
      "lymp": 1403,
      "iet": 1404,
      "ĠAc": 1405,
      "Ġinst": 1406,
      "rew": 1407,
      "Ġ2015": 1408,
      "erg": 1409,
      "Ġprofess": 1410,
      "ights": 1411,
      "ined": 1412,
      "Ġ2018": 1413,
      "ps": 1414,
      "ards": 1415,
      "Ġline": 1416,
      "13": 1417,
      "Ġcompany": 1418,
      "Ġperson": 1419,
      "ĠOlymp": 1420,
      "Ġpopulation": 1421,
      "Ġmajor": 1422,
      "Ġ189": 1423,
      "aces": 1424,
      "ourn": 1425,
      "ĠDav": 1426,
      "Ġ2020": 1427,
      "illion": 1428,
      "ĠLiving": 1429,
      "ĠLondon": 1430,
      "ĠSec": 1431,
      "Ġ2017": 1432,
      "Ġsl": 1433,
      "Ġbas": 1434,
      "Ġjoin": 1435,
      "Ġsmall": 1436,
      "Ġleg": 1437,
      "Ġlocal": 1438,
      "ĠIndian": 1439,
      "ĠLa": 1440,
      "Ġvari": 1441,
      "Ġreceived": 1442,
      "Ġdeb": 1443,
      "Ġmanag": 1444,
      "Ġevent": 1445,
      "Ġgeneral": 1446,
      "Ġ25": 1447,
      "Ġpublished": 1448,
      "ĠCup": 1449,
      "ett": 1450,
      "Ġtelevision": 1451,
      "ĠNot": 1452,
      "Ġcentury": 1453,
      "ilitary": 1454,
      "side": 1455,
      "eter": 1456,
      "Ġ30": 1457,
      "ature": 1458,
      "ĠSup": 1459,
      "Ġ2019": 1460,
      "Ġsingle": 1461,
      "Ġbuilt": 1462,
      "Ġvi": 1463,
      "ĠPhil": 1464,
      "aul": 1465,
      "Ġdue": 1466,
      "Ġcould": 1467,
      "Ġvers": 1468,
      "ĠHowever": 1469,
      "Ġappro": 1470,
      "arge": 1471,
      "Ġspecies": 1472,
      "Ġworld": 1473,
      "ara": 1474,
      "Ġcolle": 1475,
      "umn": 1476,
      "ief": 1477,
      "ouncil": 1478,
      "Ġsuccess": 1479,
      "Ġpo": 1480,
      "vers": 1481,
      "Ġstr": 1482,
      "Ġaround": 1483,
      "int": 1484,
      "ified": 1485,
      "ording": 1486,
      "ĠAng": 1487,
      "ides": 1488,
      "ately": 1489,
      "omin": 1490,
      "ĠGl": 1491,
      "Ġold": 1492,
      "ĠTr": 1493,
      "Ġeduc": 1494,
      "arried": 1495,
      "Ġterm": 1496,
      "ĠList": 1497,
      "ows": 1498,
      "ĠNo": 1499,
      "ison": 1500,
      "rol": 1501,
      "ffic": 1502,
      "ĠCor": 1503,
      "ummer": 1504,
      "Ġage": 1505,
      "ords": 1506,
      "uthor": 1507,
      "ĠHouse": 1508,
      "ĠTra": 1509,
      "Ġhel": 1510,
      "ling": 1511,
      "Ġep": 1512,
      "Ġalign": 1513,
      "ĠPark": 1514,
      "ocial": 1515,
      "ration": 1516,
      "Ġpresent": 1517,
      "Ġleft": 1518,
      "ĠPre": 1519,
      "ef": 1520,
      "Ġlast": 1521,
      "Ġsix": 1522,
      "Ġhistory": 1523,
      "ĠEn": 1524,
      "Ġnow": 1525,
      "iod": 1526,
      "aim": 1527,
      "Ġsaid": 1528,
      "Ġty": 1529,
      "Ġ0": 1530,
      "Ġ2000": 1531,
      "Ġrepresent": 1532,
      "ĠSan": 1533,
      "reet": 1534,
      "aus": 1535,
      "11": 1536,
      "raft": 1537,
      "tt": 1538,
      "Ġdied": 1539,
      "idd": 1540,
      "Ġplayer": 1541,
      "Ġrest": 1542,
      "oph": 1543,
      "Ġcamp": 1544,
      "ization": 1545,
      "ĠDuring": 1546,
      "Ġla": 1547,
      "Ġcar": 1548,
      "umb": 1549,
      "anguage": 1550,
      "Ġtop": 1551,
      "ney": 1552,
      "Ġpar": 1553,
      "ĠBr": 1554,
      "ones": 1555,
      "Ġvillage": 1556,
      "Ġwithin": 1557,
      "Ġtri": 1558,
      "iven": 1559,
      "ĠMich": 1560,
      "Ġdet": 1561,
      "Ġstyle": 1562,
      "Ġ2005": 1563,
      "Ġfive": 1564,
      "Ġ24": 1565,
      "Ġshort": 1566,
      "Ġnorth": 1567,
      "ĠRoy": 1568,
      "Ġorder": 1569,
      "ideo": 1570,
      "van": 1571,
      "Ġ188": 1572,
      "ĠDes": 1573,
      "ink": 1574,
      "Ġday": 1575,
      "oks": 1576,
      "ether": 1577,
      "uf": 1578,
      "Ġdescribed": 1579,
      "akes": 1580,
      "sc": 1581,
      "urther": 1582,
      "198": 1583,
      "ently": 1584,
      "Ġthird": 1585,
      "Ġbuilding": 1586,
      "alk": 1587,
      "Ġinclude": 1588,
      "urs": 1589,
      "ĠRiver": 1590,
      "Ġincluded": 1591,
      "ument": 1592,
      "Ġpost": 1593,
      "Ġdown": 1594,
      "aster": 1595,
      "iforn": 1596,
      "ĠPer": 1597,
      "Ġdiffer": 1598,
      "day": 1599,
      "ĠAg": 1600,
      "hem": 1601,
      "Ġchildren": 1602,
      "Ġreport": 1603,
      "ĠEngland": 1604,
      "co": 1605,
      "ĠChar": 1606,
      "Ġ2021": 1607,
      "Ġrequ": 1608,
      "Ġref": 1609,
      "attle": 1610,
      "vious": 1611,
      "ĠAct": 1612,
      "ĠSch": 1613,
      "na": 1614,
      "era": 1615,
      "key": 1616,
      "ference": 1617,
      "Ġbecause": 1618,
      "tain": 1619,
      "ifornia": 1620,
      "ĠBy": 1621,
      "Ġadm": 1622,
      "Ġannoun": 1623,
      "though": 1624,
      "ively": 1625,
      "Ġlarge": 1626,
      "Ġconsid": 1627,
      "reg": 1628,
      "ĠMal": 1629,
      "ĠGro": 1630,
      "Ġsouth": 1631,
      "ground": 1632,
      "Ġson": 1633,
      "ico": 1634,
      "ĠAustralia": 1635,
      "Ġdem": 1636,
      "Ġ2004": 1637,
      "riend": 1638,
      "ridge": 1639,
      "ĠCalifornia": 1640,
      "Ġdistrict": 1641,
      "ler": 1642,
      "ĠPort": 1643,
      "Ġstand": 1644,
      "ĠBra": 1645,
      "osp": 1646,
      "Ġmark": 1647,
      "ĠMon": 1648,
      "useum": 1649,
      ".,": 1650,
      "color": 1651,
      "cture": 1652,
      "Ġpower": 1653,
      "Ġarch": 1654,
      "inning": 1655,
      "Ġstat": 1656,
      "uck": 1657,
      "Ġbook": 1658,
      "ĠYou": 1659,
      "ody": 1660,
      "ency": 1661,
      "ĠParty": 1662,
      "Ġlo": 1663,
      "Ġdeaths": 1664,
      "ript": 1665,
      "Ġ2022": 1666,
      "Ġcrit": 1667,
      "adio": 1668,
      "iter": 1669,
      "partment": 1670,
      "lands": 1671,
      "ining": 1672,
      "conom": 1673,
      "uman": 1674,
      "Ġcor": 1675,
      "Ġappear": 1676,
      "ĠDem": 1677,
      "Ġmale": 1678,
      "Ġlarg": 1679,
      "ka": 1680,
      "Ġiss": 1681,
      "rest": 1682,
      "Ġ186": 1683,
      "Ġjust": 1684,
      "ĠRoman": 1685,
      "ister": 1686,
      "Ġ22": 1687,
      "cer": 1688,
      "Ġrepl": 1689,
      "ald": 1690,
      "ĠBel": 1691,
      "alf": 1692,
      "Ġservice": 1693,
      "Ġwater": 1694,
      "Ġvis": 1695,
      "ged": 1696,
      "Ġperiod": 1697,
      "Ġnon": 1698,
      "Ġperform": 1699,
      "Ġaddition": 1700,
      "ness": 1701,
      "Ġresp": 1702,
      "ves": 1703,
      "Ġkill": 1704,
      "ament": 1705,
      "ĠAnt": 1706,
      "eek": 1707,
      "hel": 1708,
      "Ġdep": 1709,
      "ociety": 1710,
      "ours": 1711,
      "ele": 1712,
      "Ġrefer": 1713,
      "aff": 1714,
      "Ġwar": 1715,
      "ĠSm": 1716,
      "ering": 1717,
      "ĠOne": 1718,
      "Ġmoved": 1719,
      "ize": 1720,
      "Ġcr": 1721,
      "ĠAward": 1722,
      "ense": 1723,
      "Ġdifferent": 1724,
      "ĠEm": 1725,
      "Ġcurrent": 1726,
      "ĠAustralian": 1727,
      "Ġround": 1728,
      "Ġlike": 1729,
      "ote": 1730,
      "50": 1731,
      "ĠArmy": 1732,
      "Ġ23": 1733,
      "ribut": 1734,
      "Ġincre": 1735,
      "line": 1736,
      "Ġmillion": 1737,
      "omb": 1738,
      "ki": 1739,
      "Ġled": 1740,
      "ĠNor": 1741,
      "par": 1742,
      "Ġtrad": 1743,
      "Ġbusiness": 1744,
      "ama": 1745,
      "tal": 1746,
      "avy": 1747,
      "ĠAcc": 1748,
      "ĠMinist": 1749,
      "ops": 1750,
      "hern": 1751,
      "Ġequ": 1752,
      "Ġanother": 1753,
      "ĠRober": 1754,
      "Ġthose": 1755,
      "Ġhistor": 1756,
      "of": 1757,
      "Ġif": 1758,
      "Ġship": 1759,
      "Ġ187": 1760,
      "Ġstill": 1761,
      "ander": 1762,
      "oon": 1763,
      "Ġfather": 1764,
      "Ġel": 1765,
      "ĠJames": 1766,
      "Ġdel": 1767,
      "Ġfield": 1768,
      "Ġwest": 1769,
      "ĠIndia": 1770,
      "Ġexper": 1771,
      "iber": 1772,
      "ĠSte": 1773,
      "ĠMor": 1774,
      "de": 1775,
      "Ġfac": 1776,
      "epend": 1777,
      "ivil": 1778,
      "ched": 1779,
      "Ġactiv": 1780,
      "ĠChurch": 1781,
      "Ġhand": 1782,
      "Ġcompos": 1783,
      "ĠMusic": 1784,
      "Ġbest": 1785,
      "ĠGeneral": 1786,
      "ĠFrance": 1787,
      "Ġport": 1788,
      "ox": 1789,
      "Ġauthor": 1790,
      "Ġannounced": 1791,
      "Ġinternational": 1792,
      "struction": 1793,
      "Ġdebut": 1794,
      "Ġtitle": 1795,
      "Ġcountry": 1796,
      "dom": 1797,
      "ĠQu": 1798,
      "Ġsold": 1799,
      "ĠThom": 1800,
      "Ġfem": 1801,
      "Ġwin": 1802,
      "Ġkm": 1803,
      "ases": 1804,
      "Ġ2003": 1805,
      "ville": 1806,
      "Ġ()": 1807,
      "Ġestablish": 1808,
      "ĠYear": 1809,
      "197": 1810,
      "uel": 1811,
      "Ġcharacter": 1812,
      "Ġpolitic": 1813,
      "ĠGeorge": 1814,
      "Ġdra": 1815,
      "Ġeast": 1816,
      "field": 1817,
      "be": 1818,
      "unicip": 1819,
      "Ġside": 1820,
      "ush": 1821,
      "cast": 1822,
      "Ġpat": 1823,
      "ĠRoyal": 1824,
      "ournal": 1825,
      "Ġcult": 1826,
      "ĠAp": 1827,
      "anish": 1828,
      "gin": 1829,
      "Ġnov": 1830,
      "read": 1831,
      "Ġav": 1832,
      "Ġprevious": 1833,
      "Ġmake": 1834,
      "ĠMount": 1835,
      "ĠEuropean": 1836,
      "Ġvery": 1837,
      "ael": 1838,
      "gcolor": 1839,
      "ĠQue": 1840,
      "ries": 1841,
      "orthern": 1842,
      "ĠPe": 1843,
      "Ġaward": 1844,
      "ĠCanadian": 1845,
      "ĠClub": 1846,
      "ugg": 1847,
      "Ġsett": 1848,
      "Ġproject": 1849,
      "Ġelection": 1850,
      "ĠAcadem": 1851,
      "lin": 1852,
      "ĠDivision": 1853,
      "lex": 1854,
      "ĠPal": 1855,
      "ms": 1856,
      "Ġamong": 1857,
      "app": 1858,
      "align": 1859,
      "Ġworks": 1860,
      "ĠGr": 1861,
      "ĠVal": 1862,
      "abor": 1863,
      "ĠCanada": 1864,
      "Ġ26": 1865,
      "Ġ2002": 1866,
      "ius": 1867,
      "ĠRich": 1868,
      "ĠEle": 1869,
      "Ġfr": 1870,
      "ĠWhen": 1871,
      "Ġrole": 1872,
      "ges": 1873,
      "Ġproduced": 1874,
      "ĠPaul": 1875,
      "Ġfe": 1876,
      "work": 1877,
      "ploy": 1878,
      "forman": 1879,
      "Ġlevel": 1880,
      "Ġmag": 1881,
      "ĠBu": 1882,
      "off": 1883,
      "olution": 1884,
      "Ġoften": 1885,
      "Ġaff": 1886,
      "Ġlate": 1887,
      "Ġspe": 1888,
      "Ġread": 1889,
      "Ġweb": 1890,
      "ĠCouncil": 1891,
      "ape": 1892,
      "ĠDavid": 1893,
      "Ġthough": 1894,
      "Ġinvol": 1895,
      "Ġrese": 1896,
      "ĠFootball": 1897,
      "Ġpe": 1898,
      "itar": 1899,
      "Ġ1990": 1900,
      "ston": 1901,
      "Ġwritten": 1902,
      "Ġ28": 1903,
      "iment": 1904,
      "ories": 1905,
      "Ġexpl": 1906,
      "Ġ27": 1907,
      "atch": 1908,
      "ĠLou": 1909,
      "Ġbgcolor": 1910,
      "ipp": 1911,
      "Ġengine": 1912,
      "Ġfore": 1913,
      "ĠHol": 1914,
      "Ġepis": 1915,
      "ĠAssociation": 1916,
      "Ġes": 1917,
      "stitute": 1918,
      "Ġadv": 1919,
      "Ġtechn": 1920,
      "back": 1921,
      "Ġ2001": 1922,
      "acks": 1923,
      "ĠWith": 1924,
      "ban": 1925,
      "ĠRed": 1926,
      "Ġstarted": 1927,
      "Ġeven": 1928,
      "ĠDr": 1929,
      "Ġposs": 1930,
      "umni": 1931,
      "Ġyoung": 1932,
      "Ġallow": 1933,
      "empt": 1934,
      "ivid": 1935,
      "Ġclos": 1936,
      "rote": 1937,
      "oe": 1938,
      "ole": 1939,
      "ĠRail": 1940,
      "Ġmarried": 1941,
      "Ġgrad": 1942,
      "val": 1943,
      "Ġcame": 1944,
      "Ġofficial": 1945,
      "Ġinit": 1946,
      "Ġcover": 1947,
      "ĠPresident": 1948,
      "Ġimport": 1949,
      "irc": 1950,
      "itor": 1951,
      "Ġcreated": 1952,
      "ĠAmerica": 1953,
      "outher": 1954,
      "formation": 1955,
      "Ġwent": 1956,
      "Ġgiven": 1957,
      "Ġtotal": 1958,
      "Ġsite": 1959,
      "olic": 1960,
      "gy": 1961,
      "ĠStreet": 1962,
      "alt": 1963,
      "Ġevery": 1964,
      "ĠFirst": 1965,
      "Ġstru": 1966,
      "Ġturn": 1967,
      "Ġcommunity": 1968,
      "outhern": 1969,
      "ĠFrom": 1970,
      "ya": 1971,
      "ĠSing": 1972,
      "eration": 1973,
      "west": 1974,
      "Ġval": 1975,
      "ĠStud": 1976,
      "ointed": 1977,
      "30": 1978,
      "Ġjoined": 1979,
      "omet": 1980,
      "rap": 1981,
      "ĠHistor": 1982,
      "Ġeffect": 1983,
      "itte": 1984,
      "ots": 1985,
      "Ġrail": 1986,
      "ĠKh": 1987,
      "Ġpolitical": 1988,
      "Ġwhat": 1989,
      "Ġchang": 1990,
      "Ġworked": 1991,
      "Ġpres": 1992,
      "Ġconc": 1993,
      "ij": 1994,
      "Ġvarious": 1995,
      "iron": 1996,
      "Ġfre": 1997,
      "Ġdevelopment": 1998,
      "ago": 1999,
      "bert": 2000,
      "ĠSen": 2001,
      "ĠTown": 2002,
      "reek": 2003,
      "ĠTrans": 2004,
      "Ġconf": 2005,
      "posed": 2006,
      "ha": 2007,
      "site": 2008,
      "irl": 2009,
      "bor": 2010,
      "Ġ100": 2011,
      "Ġprocess": 2012,
      "ma": 2013,
      "Ġtw": 2014,
      "Ġvideo": 2015,
      "eal": 2016,
      "atri": 2017,
      "Ġelect": 2018,
      "Ġfact": 2019,
      "Ġprofessional": 2020,
      "ĠSl": 2021,
      "hers": 2022,
      "Ġmilitary": 2023,
      "'t": 2024,
      "ached": 2025,
      "atic": 2026,
      "ĠUnion": 2027,
      "Ġversion": 2028,
      "ope": 2029,
      "ological": 2030,
      "ĠGermany": 2031,
      "ĠGroup": 2032,
      "ream": 2033,
      "self": 2034,
      "Ġmuch": 2035,
      "Ġprote": 2036,
      "Ġhaving": 2037,
      "Ġproduction": 2038,
      "Ġnext": 2039,
      "Ġcommon": 2040,
      "Ġclaim": 2041,
      "Ġspecial": 2042,
      "Ġbecome": 2043,
      "Ġbre": 2044,
      "hold": 2045,
      "Ġgr": 2046,
      "ĠMart": 2047,
      "ĠHen": 2048,
      "Ġsent": 2049,
      "Ġmiss": 2050,
      "Ġhost": 2051,
      "hib": 2052,
      "ĠBer": 2053,
      "ogn": 2054,
      "ĠJe": 2055,
      "Ġsw": 2056,
      "ĠVir": 2057,
      "ĠMary": 2058,
      "ĠWe": 2059,
      "ĠSer": 2060,
      "ĠMag": 2061,
      "Ġ1980": 2062,
      "Ġ[": 2063,
      "oor": 2064,
      "Ġdirect": 2065,
      "Ġusing": 2066,
      "ĠRoad": 2067,
      "Ġpri": 2068,
      "ĠBlack": 2069,
      "ĠArch": 2070,
      "Ġreturned": 2071,
      "ĠMex": 2072,
      "Ġwrote": 2073,
      "196": 2074,
      "Ġsit": 2075,
      "ĠPri": 2076,
      "Ġpresident": 2077,
      "Ġintro": 2078,
      "Ġtem": 2079,
      "Ġprim": 2080,
      "men": 2081,
      "ĠItalian": 2082,
      "ĠJapanese": 2083,
      "Ġ1999": 2084,
      "ĠMy": 2085,
      "ests": 2086,
      "Ġgl": 2087,
      "Ġ29": 2088,
      "ĠAfrican": 2089,
      "ination": 2090,
      "Ġmatch": 2091,
      "ĠTur": 2092,
      "Ġposition": 2093,
      "ĠLaw": 2094,
      "iction": 2095,
      "ĠHall": 2096,
      "oints": 2097,
      "Ġant": 2098,
      "iography": 2099,
      "ming": 2100,
      "Ġtake": 2101,
      "Ġmult": 2102,
      "Ġteams": 2103,
      "ĠWomen": 2104,
      "BC": 2105,
      "Ġchurch": 2106,
      "Ġdirector": 2107,
      "Ġsongs": 2108,
      "flu": 2109,
      "ĠThese": 2110,
      "Ġopened": 2111,
      "cts": 2112,
      "Ġperforman": 2113,
      "ilar": 2114,
      "ĠCommun": 2115,
      "ĠProv": 2116,
      "ĠWash": 2117,
      "ividual": 2118,
      "Ġfew": 2119,
      "Ġevents": 2120,
      "Ġfun": 2121,
      "ida": 2122,
      "ĠGames": 2123,
      "sequ": 2124,
      "Ġbeh": 2125,
      "ĠSam": 2126,
      "ĠRobert": 2127,
      "Ġvol": 2128,
      "arliam": 2129,
      "aken": 2130,
      "ger": 2131,
      "ittle": 2132,
      "ibr": 2133,
      "ĠRussian": 2134,
      "ani": 2135,
      "ention": 2136,
      "ead": 2137,
      "ĠChina": 2138,
      "ĠBest": 2139,
      "ule": 2140,
      "ocrat": 2141,
      "lo": 2142,
      "arliament": 2143,
      "ĠLeg": 2144,
      "CA": 2145,
      "21": 2146,
      "ĠScott": 2147,
      "Ġtimes": 2148,
      "arian": 2149,
      "Ġsol": 2150,
      "tra": 2151,
      "Ġstory": 2152,
      "ĠOther": 2153,
      "ecut": 2154,
      "Ġway": 2155,
      "Ġparticip": 2156,
      "Ġvoc": 2157,
      "Ġfootballers": 2158,
      "ying": 2159,
      "Ġalbums": 2160,
      "rian": 2161,
      "ĠAccording": 2162,
      "aughter": 2163,
      "Ġbeg": 2164,
      "Ġhig": 2165,
      "ested": 2166,
      "ĠMad": 2167,
      "ĠCap": 2168,
      "ĠPlay": 2169,
      "unt": 2170,
      "Ġfriend": 2171,
      "Ġ1998": 2172,
      "ĠWashington": 2173,
      "itz": 2174,
      "ning": 2175,
      "ĠCourt": 2176,
      "icle": 2177,
      "ketball": 2178,
      "ĠMiss": 2179,
      "stitut": 2180,
      "Ġattack": 2181,
      "iles": 2182,
      "ittee": 2183,
      "Ġroad": 2184,
      "ources": 2185,
      "anies": 2186,
      "Ġimp": 2187,
      "ĠCast": 2188,
      "Ġadminist": 2189,
      "Ġpopular": 2190,
      "Ġbrother": 2191,
      "Ġneed": 2192,
      "Ġwithout": 2193,
      "ĠCompany": 2194,
      "isl": 2195,
      "Ġservices": 2196,
      "ators": 2197,
      "ĠCont": 2198,
      "ĠThomas": 2199,
      "atter": 2200,
      "aur": 2201,
      "rag": 2202,
      "Ġregion": 2203,
      "ances": 2204,
      "ĠServ": 2205,
      "Ġstudents": 2206,
      "ending": 2207,
      "Ġpract": 2208,
      "odes": 2209,
      "ĠMen": 2210,
      "ĠCath": 2211,
      "Ġsocial": 2212,
      "iddle": 2213,
      "Ġsk": 2214,
      "Ġter": 2215,
      "ership": 2216,
      "ex": 2217,
      "ĠSal": 2218,
      "wood": 2219,
      "ĠKn": 2220,
      "22": 2221,
      "Ġhalf": 2222,
      "Ġbroad": 2223,
      "aign": 2224,
      "Ġgreat": 2225,
      "year": 2226,
      "Ġfull": 2227,
      "Ġcontinued": 2228,
      "rated": 2229,
      "Ġlost": 2230,
      "ĠAwards": 2231,
      "Ġ1970": 2232,
      "ĠKingdom": 2233,
      "ship": 2234,
      "aining": 2235,
      "ĠCentral": 2236,
      "craft": 2237,
      "ym": 2238,
      "ĠSociety": 2239,
      "acy": 2240,
      "Ġcoach": 2241,
      "ĠOp": 2242,
      "ĠMont": 2243,
      "Ġmid": 2244,
      "Ġalumni": 2245,
      "ĠGrand": 2246,
      "used": 2247,
      "Ġeducation": 2248,
      "rab": 2249,
      "Ġsqu": 2250,
      "arent": 2251,
      "Ġresearch": 2252,
      "Ġattempt": 2253,
      "Ġ1996": 2254,
      "Ġdays": 2255,
      "ĠIr": 2256,
      "Ġsee": 2257,
      "burg": 2258,
      "Ġhowever": 2259,
      "ĠChin": 2260,
      "ising": 2261,
      "ensus": 2262,
      "40": 2263,
      "ĠRecords": 2264,
      "ĠMuseum": 2265,
      "Ġpromot": 2266,
      "aper": 2267,
      "Ġcompleted": 2268,
      "ona": 2269,
      "Ġproduc": 2270,
      "Ġelected": 2271,
      "Ġappointed": 2272,
      "ĠAlex": 2273,
      "ĠCharles": 2274,
      "ĠIsland": 2275,
      "ĠFlor": 2276,
      "ills": 2277,
      "Ġcomb": 2278,
      "Ġinvest": 2279,
      "center": 2280,
      "Ġinf": 2281,
      "Ġindust": 2282,
      "estival": 2283,
      "Ġident": 2284,
      "ini": 2285,
      "ĠDon": 2286,
      "Ġparty": 2287,
      "ĠEduc": 2288,
      "Ġfounded": 2289,
      "Ġcontrol": 2290,
      "ĠMet": 2291,
      "ĠCenter": 2292,
      "Ġdirected": 2293,
      "Ġrecorded": 2294,
      "Ġlim": 2295,
      "Ġaver": 2296,
      "ĠTex": 2297,
      "Ġright": 2298,
      "ification": 2299,
      "uit": 2300,
      "ĠIm": 2301,
      "rd": 2302,
      "Ġ1997": 2303,
      "Ġsigned": 2304,
      "ĠEarly": 2305,
      "Ġwife": 2306,
      "Ġpoints": 2307,
      "ample": 2308,
      "Ġeconom": 2309,
      "less": 2310,
      "ĠSummer": 2311,
      "berg": 2312,
      "Ġproper": 2313,
      "wh": 2314,
      "Ġleague": 2315,
      "asons": 2316,
      "23": 2317,
      "Ġgroups": 2318,
      "Ġareas": 2319,
      "Ġreview": 2320,
      "Ġbase": 2321,
      "ĠDepartment": 2322,
      "Ġ185": 2323,
      "ĠSim": 2324,
      "nel": 2325,
      "Ġ/": 2326,
      "Ġconsidered": 2327,
      "ishing": 2328,
      "ray": 2329,
      "ĠAngel": 2330,
      "ĠOffic": 2331,
      "Ġconne": 2332,
      "Ġ2023": 2333,
      "Ġrace": 2334,
      "Ġpoint": 2335,
      "ĠWestern": 2336,
      "ĠJew": 2337,
      "play": 2338,
      "Ġhon": 2339,
      "Ġfind": 2340,
      "Ġsele": 2341,
      "Ġpartic": 2342,
      "atural": 2343,
      "ĠFranc": 2344,
      "Ġren": 2345,
      "ĠVict": 2346,
      "je": 2347,
      "Ġfurther": 2348,
      "ĠTo": 2349,
      "Ġcoll": 2350,
      "ellow": 2351,
      "Ġrelations": 2352,
      "Ġcaus": 2353,
      "ĠInstitute": 2354,
      "aries": 2355,
      "ĠTV": 2356,
      "ĠGold": 2357,
      "Ġvict": 2358,
      "ĠLouis": 2359,
      "Ġsimilar": 2360,
      "ĠAcademy": 2361,
      "ells": 2362,
      "Ġdeg": 2363,
      "Ġreal": 2364,
      "ĠOlympics": 2365,
      "=#": 2366,
      "thlet": 2367,
      "ili": 2368,
      "Ġhold": 2369,
      "ĠMichael": 2370,
      "Ġindividual": 2371,
      "ways": 2372,
      "ĠBay": 2373,
      "Ġtog": 2374,
      "Ġz": 2375,
      "Ġpriv": 2376,
      "Ġview": 2377,
      "ĠGreat": 2378,
      "ĠMac": 2379,
      "Ġwebsite": 2380,
      "ĠZeal": 2381,
      "idence": 2382,
      "ĠPress": 2383,
      "Ġten": 2384,
      "Ġtogether": 2385,
      "uation": 2386,
      "Ġ1995": 2387,
      "ump": 2388,
      "Ġrelease": 2389,
      "ĠPat": 2390,
      "rain": 2391,
      "ĠZealand": 2392,
      "ĠCong": 2393,
      "rick": 2394,
      "ĠVirgin": 2395,
      "Ġ1992": 2396,
      "ĠVol": 2397,
      "Ġinflu": 2398,
      "ota": 2399,
      "Ġreported": 2400,
      "Ġcase": 2401,
      "ĠChristian": 2402,
      "Ġappeared": 2403,
      "ĠMer": 2404,
      "ĠRepublic": 2405,
      "ĠMus": 2406,
      "Ġ1994": 2407,
      "etwork": 2408,
      "ĠUK": 2409,
      "arter": 2410,
      "Ġsports": 2411,
      "arth": 2412,
      "Ġ=": 2413,
      "hi": 2414,
      "Ġoffice": 2415,
      "||": 2416,
      "ĠSpanish": 2417,
      "ĠChinese": 2418,
      "Ġmother": 2419,
      "oul": 2420,
      "ederal": 2421,
      "25": 2422,
      "Ġtrack": 2423,
      "ĠAfrica": 2424,
      "Ġ31": 2425,
      "Ġweek": 2426,
      "ĠKore": 2427,
      "cks": 2428,
      "ĠTom": 2429,
      "Ġ50": 2430,
      "Ġmy": 2431,
      "Ġke": 2432,
      "ique": 2433,
      "Ġmeet": 2434,
      "Ġnovel": 2435,
      "Ġcond": 2436,
      "itive": 2437,
      "Ġbirth": 2438,
      "yd": 2439,
      "Ġformed": 2440,
      "Ġdeveloped": 2441,
      "ĠBen": 2442,
      "Ġins": 2443,
      "Ġhous": 2444,
      "aker": 2445,
      "Ġ1960": 2446,
      "iting": 2447,
      "Ġdiv": 2448,
      "ĠCarol": 2449,
      "Ġhelp": 2450,
      "Ġmedal": 2451,
      "ĠBur": 2452,
      "Ġguitar": 2453,
      "Ġassist": 2454,
      "Ġlaun": 2455,
      "ades": 2456,
      "enc": 2457,
      "mar": 2458,
      "Ġaut": 2459,
      "Ġphot": 2460,
      "ĠInter": 2461,
      "ĠTer": 2462,
      "ĠKe": 2463,
      "ula": 2464,
      "kn": 2465,
      "apt": 2466,
      "Ġworking": 2467,
      "ĠDan": 2468,
      "duction": 2469,
      "Ġdoc": 2470,
      "Ġarr": 2471,
      "Ġmaking": 2472,
      "cle": 2473,
      "Ġimportant": 2474,
      "ĠChe": 2475,
      "ude": 2476,
      "Ġtourn": 2477,
      "iers": 2478,
      "ĠGreen": 2479,
      "Ġarchite": 2480,
      "ĠHam": 2481,
      "ĠTexas": 2482,
      "ailed": 2483,
      "reland": 2484,
      "Ġcast": 2485,
      "Ġartist": 2486,
      "ĠPet": 2487,
      "ĠWhite": 2488,
      "Ġgrow": 2489,
      "edy": 2490,
      "Ġmunicip": 2491,
      "ĠWil": 2492,
      "Ġappl": 2493,
      "Ġmar": 2494,
      "Ġgood": 2495,
      "ta": 2496,
      "itted": 2497,
      "imately": 2498,
      "ĠWhile": 2499,
      "ĠDel": 2500,
      "band": 2501,
      "ĠPublic": 2502,
      "Ġvot": 2503,
      "Ġoffer": 2504,
      "iding": 2505,
      "ĠBas": 2506,
      "Ġless": 2507,
      "go": 2508,
      "ĠSports": 2509,
      "cial": 2510,
      "icles": 2511,
      "Ġschools": 2512,
      "Ġtradition": 2513,
      "ertain": 2514,
      "ĠJose": 2515,
      "ĠMinister": 2516,
      "ras": 2517,
      "Ġlive": 2518,
      "ĠCons": 2519,
      "eh": 2520,
      "mon": 2521,
      "idae": 2522,
      "ala": 2523,
      "Ġdata": 2524,
      "roll": 2525,
      "ither": 2526,
      "oney": 2527,
      "Ġphys": 2528,
      "Ġfund": 2529,
      "Ġ1993": 2530,
      "Ġtyp": 2531,
      "ola": 2532,
      "ĠDemocrat": 2533,
      "Ġothers": 2534,
      "Ġshould": 2535,
      "Ġhuman": 2536,
      "Ġdaughter": 2537,
      "ensive": 2538,
      "ĠTor": 2539,
      "ably": 2540,
      "Ġdi": 2541,
      "ependent": 2542,
      "atives": 2543,
      "Ġrock": 2544,
      "Ġemploy": 2545,
      "ospital": 2546,
      "Ġground": 2547,
      "ĠPeter": 2548,
      "ĠFrank": 2549,
      "alls": 2550,
      "Ġrecogn": 2551,
      "Ġhimself": 2552,
      "Ġrev": 2553,
      "viron": 2554,
      "Ġmater": 2555,
      "Ġbuildings": 2556,
      "Ġdecl": 2557,
      "ĠCatholic": 2558,
      "rey": 2559,
      "ĠMel": 2560,
      "ĠRichard": 2561,
      "ĠSong": 2562,
      "uty": 2563,
      "Ġrul": 2564,
      "leg": 2565,
      "):": 2566,
      "Ġstar": 2567,
      "gen": 2568,
      "azine": 2569,
      "Ġacross": 2570,
      "Ġavail": 2571,
      "Ġcompanies": 2572,
      "Ġfire": 2573,
      "ĠSur": 2574,
      "ĠSwed": 2575,
      "ication": 2576,
      "pite": 2577,
      "ĠBill": 2578,
      "Ġbody": 2579,
      "195": 2580,
      "ena": 2581,
      "sy": 2582,
      "ateg": 2583,
      "Ġanim": 2584,
      "aly": 2585,
      "olf": 2586,
      "anted": 2587,
      "anding": 2588,
      "Ġlanguage": 2589,
      "Ġstations": 2590,
      "Ġcampaign": 2591,
      "atre": 2592,
      "most": 2593,
      "ume": 2594,
      "overnor": 2595,
      "Ġeight": 2596,
      "ria": 2597,
      "Ġdoes": 2598,
      "194": 2599,
      "Ġaverage": 2600,
      "bour": 2601,
      "ĠMass": 2602,
      "ĠLu": 2603,
      "ĠUp": 2604,
      "ĠFore": 2605,
      "Ġmot": 2606,
      "Ġ1991": 2607,
      "ceed": 2608,
      "Ġblack": 2609,
      "Ġqual": 2610,
      "Ġbecom": 2611,
      "Ġexist": 2612,
      "ĠParis": 2613,
      "ĠSecond": 2614,
      "Ġplaying": 2615,
      "utes": 2616,
      "ricket": 2617,
      "Ġtro": 2618,
      "oice": 2619,
      "ĠLat": 2620,
      "rael": 2621,
      "ĠHenry": 2622,
      "gress": 2623,
      "Ġmodern": 2624,
      "Ġlow": 2625,
      "emor": 2626,
      "Ġdefe": 2627,
      "ĠSuper": 2628,
      "ĠVictor": 2629,
      "heast": 2630,
      "Ġhow": 2631,
      "193": 2632,
      "Ġepisode": 2633,
      "ĠSant": 2634,
      "Ġ184": 2635,
      "stro": 2636,
      "Ġet": 2637,
      "Ġpaint": 2638,
      "Ġcle": 2639,
      "Ġgradu": 2640,
      "ores": 2641,
      "St": 2642,
      "zil": 2643,
      "Ġstage": 2644,
      "ĠCro": 2645,
      "Ġdram": 2646,
      "Ġcross": 2647,
      "Ġexample": 2648,
      "ĠGeorg": 2649,
      "Ġder": 2650,
      "Ġ40": 2651,
      "ements": 2652,
      "writ": 2653,
      "Ġradio": 2654,
      "udd": 2655,
      "airs": 2656,
      "Ġnever": 2657,
      "ada": 2658,
      "Ġliving": 2659,
      "ĠLos": 2660,
      "hood": 2661,
      "ĠDire": 2662,
      "Ġperformed": 2663,
      "Ġfoc": 2664,
      "ockey": 2665,
      "Ġfemale": 2666,
      "embly": 2667,
      "Ġwinn": 2668,
      "chie": 2669,
      "andid": 2670,
      "ethod": 2671,
      "ĠSome": 2672,
      "Ġsepar": 2673,
      "ĠRev": 2674,
      "Ġbelie": 2675,
      "Ġfree": 2676,
      "Ġlight": 2677,
      "Ġartists": 2678,
      "ware": 2679,
      "Ġpolitician": 2680,
      "Ġacqu": 2681,
      "ĠSmith": 2682,
      "ĠPenn": 2683,
      "Ġassoci": 2684,
      "ĠOrder": 2685,
      "ura": 2686,
      "Ġfight": 2687,
      "time": 2688,
      "24": 2689,
      "ĠCamp": 2690,
      "ential": 2691,
      "Ġcontract": 2692,
      "ĠChampionships": 2693,
      "ĠHon": 2694,
      "oviet": 2695,
      "ĠLake": 2696,
      "ĠBut": 2697,
      "ibrary": 2698,
      "ought": 2699,
      "Ġstrong": 2700,
      "Ġmonths": 2701,
      "ĠFC": 2702,
      "igned": 2703,
      "Ġred": 2704,
      "Ġsuccessful": 2705,
      "atory": 2706,
      "ĠEducation": 2707,
      "imate": 2708,
      "Ġkilled": 2709,
      "Ġfinished": 2710,
      "aval": 2711,
      "Ġplaces": 2712,
      "idents": 2713,
      "Ġconstruction": 2714,
      "ĠChic": 2715,
      "people": 2716,
      "head": 2717,
      "ĠIreland": 2718,
      "ĠOl": 2719,
      "ked": 2720,
      "Ġgave": 2721,
      "Ġestablishments": 2722,
      "Ġ1988": 2723,
      "Ġmus": 2724,
      "aves": 2725,
      "ĠGo": 2726,
      "Ġavailable": 2727,
      "ĠDef": 2728,
      "Ġcondu": 2729,
      "Ġaway": 2730,
      "Ġ1989": 2731,
      "va": 2732,
      "Ġgoal": 2733,
      "iff": 2734,
      "Ġperformance": 2735,
      "ĠSaint": 2736,
      "ĠOb": 2737,
      "Ġtre": 2738,
      "elling": 2739,
      "Ġalthough": 2740,
      "ids": 2741,
      "asc": 2742,
      "ishop": 2743,
      "ilities": 2744,
      "Ġprot": 2745,
      "ranch": 2746,
      "Ġbooks": 2747,
      "ĠPan": 2748,
      "ita": 2749,
      "vironment": 2750,
      "left": 2751,
      "ĠSpec": 2752,
      "Ġinformation": 2753,
      "ano": 2754,
      "Ġjournal": 2755,
      "ado": 2756,
      "Ġide": 2757,
      "ĠDay": 2758,
      "inals": 2759,
      "here": 2760,
      "za": 2761,
      "icated": 2762,
      "ĠFilms": 2763,
      "ĠOlympic": 2764,
      "Ġdam": 2765,
      "ĠCur": 2766,
      "Ġtaken": 2767,
      "ella": 2768,
      "ĠNotes": 2769,
      "ĠVill": 2770,
      "Ġcapt": 2771,
      "ĠWin": 2772,
      "iqu": 2773,
      "itch": 2774,
      "ĠBrazil": 2775,
      "ĠDu": 2776,
      "Ġshows": 2777,
      "Ġfollowed": 2778,
      "ĠIsrael": 2779,
      "ificant": 2780,
      ",\"": 2781,
      "Ġcour": 2782,
      "ĠRob": 2783,
      "oo": 2784,
      "Ġagre": 2785,
      "Ġrank": 2786,
      "Ġcost": 2787,
      "Ġtour": 2788,
      "ĠCareer": 2789,
      "ugby": 2790,
      "ĠVirginia": 2791,
      "Ġmix": 2792,
      "Ġfront": 2793,
      "Ġhealth": 2794,
      "\"|": 2795,
      "Ġcirc": 2796,
      "oma": 2797,
      "Ġjud": 2798,
      "ĠGovernment": 2799,
      "Ġincludes": 2800,
      "Ġawarded": 2801,
      "ĠMa": 2802,
      "utch": 2803,
      "Ġtournament": 2804,
      "Ġ:": 2805,
      "ĠLife": 2806,
      "Ġfeatures": 2807,
      "ĠMin": 2808,
      "II": 2809,
      "Ġlab": 2810,
      "ĠJust": 2811,
      "Ġviol": 2812,
      "Ġdesigned": 2813,
      "serv": 2814,
      "Ġoriginally": 2815,
      "igan": 2816,
      "ĠTour": 2817,
      "ĠHill": 2818,
      "Ġhousehold": 2819,
      "nder": 2820,
      "ĠAtl": 2821,
      "aged": 2822,
      "ny": 2823,
      "ios": 2824,
      "Ġaccess": 2825,
      "ĠTeam": 2826,
      "Ġseven": 2827,
      "sec": 2828,
      "Ġmaterial": 2829,
      "Ġsen": 2830,
      "ĠMr": 2831,
      "ĠCarl": 2832,
      "ĠIts": 2833,
      "ĠEmp": 2834,
      "Ġput": 2835,
      "vey": 2836,
      "Ġimpro": 2837,
      "26": 2838,
      "eg": 2839,
      "Ġcivil": 2840,
      "oms": 2841,
      "Ġrelig": 2842,
      "Ġremained": 2843,
      "ĠPerson": 2844,
      "ĠArts": 2845,
      "Ġsound": 2846,
      "ĠHistoric": 2847,
      "Ġsil": 2848,
      "istan": 2849,
      "Ġstudy": 2850,
      "ĠRock": 2851,
      "ened": 2852,
      "27": 2853,
      "ĠGra": 2854,
      "ĠGall": 2855,
      "Ġonce": 2856,
      "Ġfeatured": 2857,
      "Ġinj": 2858,
      "Ġdou": 2859,
      "erous": 2860,
      "ĠRailway": 2861,
      "ĠSqu": 2862,
      "Ġforces": 2863,
      "Ġcourt": 2864,
      "aria": 2865,
      "atriate": 2866,
      "Ġscored": 2867,
      "urity": 2868,
      "Ġ#": 2869,
      "ĠLand": 2870,
      "Ġill": 2871,
      "Ġcy": 2872,
      "ĠMo": 2873,
      "aches": 2874,
      "omm": 2875,
      "Ġtest": 2876,
      "Ġpress": 2877,
      "28": 2878,
      "Ġbar": 2879,
      "olk": 2880,
      "iple": 2881,
      "Ġ1987": 2882,
      "ĠChicago": 2883,
      "Ġbasketball": 2884,
      "ites": 2885,
      "hest": 2886,
      "Ġmarket": 2887,
      "Ġdev": 2888,
      "Ġsinger": 2889,
      "Ġreb": 2890,
      "Ġplan": 2891,
      "ilies": 2892,
      "aps": 2893,
      "aching": 2894,
      "Ġsignificant": 2895,
      "ender": 2896,
      "Ġexecut": 2897,
      "ror": 2898,
      "rel": 2899,
      "ications": 2900,
      "ĠSoviet": 2901,
      "Ġleading": 2902,
      "ĠForce": 2903,
      "Ġtraining": 2904,
      "ĠSub": 2905,
      "Ġpolice": 2906,
      "vert": 2907,
      "vin": 2908,
      "ĠScot": 2909,
      "Ġmedia": 2910,
      "ems": 2911,
      "Ġearn": 2912,
      "ye": 2913,
      "icy": 2914,
      "Ch": 2915,
      "ĠMil": 2916,
      "Ġ1950": 2917,
      "Ġlargest": 2918,
      "Ġmount": 2919,
      "earch": 2920,
      "Ġrights": 2921,
      "ĠSir": 2922,
      "ĠSo": 2923,
      "ĠCommission": 2924,
      "ĠTwo": 2925,
      "Ġmust": 2926,
      "aught": 2927,
      "Amer": 2928,
      "hire": 2929,
      "ĠItaly": 2930,
      "ĠProfess": 2931,
      "Ġ1986": 2932,
      "mier": 2933,
      "ource": 2934,
      "Ġaircraft": 2935,
      "ĠMod": 2936,
      "Ġstri": 2937,
      "Ġmodel": 2938,
      "uter": 2939,
      "ĠMexico": 2940,
      "Ġ1984": 2941,
      "Ġenc": 2942,
      "yp": 2943,
      "Ġchart": 2944,
      "Ġsem": 2945,
      "ĠClass": 2946,
      "ĠIll": 2947,
      "ĠSince": 2948,
      "Ġthroughout": 2949,
      "istics": 2950,
      "Ġliter": 2951,
      "ĠPolit": 2952,
      "ving": 2953,
      "ĠParliament": 2954,
      "Ġgold": 2955,
      "Ġtransfer": 2956,
      "Ġconsist": 2957,
      "ĠMark": 2958,
      "Ġinvolved": 2959,
      "Ġcou": 2960,
      "ĠCat": 2961,
      "Ġlisted": 2962,
      "Ġsubsequ": 2963,
      "iences": 2964,
      "Ġstated": 2965,
      "Ġwhite": 2966,
      "ĠOff": 2967,
      "order": 2968,
      "ĠAnn": 2969,
      "Ġwid": 2970,
      "unk": 2971,
      "Ġboard": 2972,
      "sel": 2973,
      "ĠIrish": 2974,
      "Ġreplaced": 2975,
      "Ġsugg": 2976,
      "Ġearl": 2977,
      "Ġintroduced": 2978,
      "annel": 2979,
      "Ġseen": 2980,
      "Ġcompetition": 2981,
      "Ġbi": 2982,
      "ĠEr": 2983,
      "Ġ183": 2984,
      "uns": 2985,
      "ĠProvince": 2986,
      "60": 2987,
      "ĠFlorida": 2988,
      "Ġcandid": 2989,
      "ift": 2990,
      "29": 2991,
      "ĠNavy": 2992,
      "ĠMur": 2993,
      "Ġtransl": 2994,
      "Ġ1985": 2995,
      "Ġwriter": 2996,
      "Ġeventually": 2997,
      "Ġprivate": 2998,
      "Ġvia": 2999,
      "Ġrespons": 3000,
      "text": 3001,
      "ĠTechn": 3002,
      "uture": 3003,
      "ribution": 3004,
      "Ġresults": 3005,
      "Ġentire": 3006,
      "Ġcritic": 3007,
      "uff": 3008,
      "cher": 3009,
      "Ġvocals": 3010,
      "Ġable": 3011,
      "ĠDo": 3012,
      "umm": 3013,
      "retary": 3014,
      "uz": 3015,
      "Ġran": 3016,
      "ĠDen": 3017,
      "Ġproble": 3018,
      "Ġcollege": 3019,
      "Ġadded": 3020,
      "ĠAlthough": 3021,
      "ĠOper": 3022,
      "ĠFestival": 3023,
      "ĠCommittee": 3024,
      "Ġfourth": 3025,
      "ĠSil": 3026,
      "Ġpast": 3027,
      "och": 3028,
      "ĠFin": 3029,
      "Ġcountries": 3030,
      "ask": 3031,
      "AS": 3032,
      ");": 3033,
      "ĠBus": 3034,
      "road": 3035,
      "elt": 3036,
      "ĠWales": 3037,
      "ĠAngeles": 3038,
      "Ġwind": 3039,
      "cript": 3040,
      "yr": 3041,
      "ĠOver": 3042,
      "Ġcentral": 3043,
      "Ġactress": 3044,
      "mb": 3045,
      "Ġste": 3046,
      "ufact": 3047,
      "Ġaud": 3048,
      "Ġsurv": 3049,
      "asing": 3050,
      "ularly": 3051,
      "iano": 3052,
      "Ġleast": 3053,
      "ua": 3054,
      "Ġwriters": 3055,
      "Ġcommand": 3056,
      "min": 3057,
      "Ġassociation": 3058,
      "Ġrespect": 3059,
      "ĠBrown": 3060,
      "ires": 3061,
      "ĠEv": 3062,
      "ylvan": 3063,
      "American": 3064,
      "Ġspace": 3065,
      "Ġloss": 3066,
      "Ġunits": 3067,
      "porary": 3068,
      "Ġser": 3069,
      "ability": 3070,
      "ĠScience": 3071,
      "ĠOut": 3072,
      "mercial": 3073,
      "80": 3074,
      "ĠNorthern": 3075,
      "ĠMost": 3076,
      "AR": 3077,
      "fic": 3078,
      "ĠFound": 3079,
      "ĠRh": 3080,
      "Ġnomin": 3081,
      "ĠUk": 3082,
      "ĠRussia": 3083,
      "oke": 3084,
      "Ġminist": 3085,
      "Ġdegree": 3086,
      "Ġsch": 3087,
      "ĠGod": 3088,
      "rup": 3089,
      "ĠCarolina": 3090,
      "bb": 3091,
      "ĠCongress": 3092,
      "Ġstaff": 3093,
      "Ġ1983": 3094,
      "Ġrange": 3095,
      "Ġdiscover": 3096,
      "ibl": 3097,
      "Ġstates": 3098,
      "ĠArg": 3099,
      "rial": 3100,
      "ĠRos": 3101,
      "Ġclose": 3102,
      "Ġdocument": 3103,
      "raw": 3104,
      "Ġabove": 3105,
      "Ġbroadcast": 3106,
      "ĠJun": 3107,
      "now": 3108,
      "Ġfig": 3109,
      "medi": 3110,
      "ples": 3111,
      "gian": 3112,
      "Ġreached": 3113,
      "ĠService": 3114,
      "Ġcensus": 3115,
      "ste": 3116,
      "lor": 3117,
      "antic": 3118,
      "ĠStar": 3119,
      "ĠColumb": 3120,
      "ĠLiber": 3121,
      "Ġplant": 3122,
      "ĠCr": 3123,
      "erve": 3124,
      "Ġchange": 3125,
      "ĠEs": 3126,
      "ĠJoseph": 3127,
      "ĠOh": 3128,
      "Ġprovided": 3129,
      "Ġget": 3130,
      "Ġcurrently": 3131,
      "Ġseasons": 3132,
      "Ġtreat": 3133,
      "TV": 3134,
      "ients": 3135,
      "oys": 3136,
      "Ġexhib": 3137,
      "ĠOld": 3138,
      "Ġexpress": 3139,
      "bur": 3140,
      "rought": 3141,
      "face": 3142,
      "Ġcontribut": 3143,
      "ylvania": 3144,
      "Ġeither": 3145,
      "Ġpur": 3146,
      "Ġfav": 3147,
      "lim": 3148,
      "Ġchampionship": 3149,
      "rative": 3150,
      "Ġ(\"": 3151,
      "ĠSa": 3152,
      "orpor": 3153,
      "Ġtravel": 3154,
      "Ġaccept": 3155,
      "ux": 3156,
      "sych": 3157,
      "Ġplaced": 3158,
      "Ġmissing": 3159,
      "Ġupon": 3160,
      "aled": 3161,
      "ĠFre": 3162,
      "Ġrailway": 3163,
      "FA": 3164,
      "ĠSeries": 3165,
      "adium": 3166,
      "Ġsaw": 3167,
      "stant": 3168,
      "Ġinterest": 3169,
      "board": 3170,
      "Ġstruct": 3171,
      "ĠCam": 3172,
      "iana": 3173,
      "ĠPac": 3174,
      "ping": 3175,
      "abit": 3176,
      "istic": 3177,
      "Ġcenter": 3178,
      "FL": 3179,
      "Ġ1982": 3180,
      "well": 3181,
      "han": 3182,
      "Ġmur": 3183,
      "Ġaction": 3184,
      "Ġkey": 3185,
      "ĠAssembly": 3186,
      "aut": 3187,
      "Ġ!": 3188,
      "ĠDou": 3189,
      "ipl": 3190,
      "ĠFort": 3191,
      "Ġoccur": 3192,
      "ĠMic": 3193,
      "Ġtype": 3194,
      "Ġpot": 3195,
      "ply": 3196,
      "ises": 3197,
      "ĠMos": 3198,
      "ception": 3199,
      "eds": 3200,
      "known": 3201,
      "Ġcop": 3202,
      "ĠFurther": 3203,
      "Ġnight": 3204,
      "ĠFollow": 3205,
      "Ġachie": 3206,
      "Ġdraw": 3207,
      "iger": 3208,
      "Ġdu": 3209,
      "gl": 3210,
      "ĠSk": 3211,
      "ĠRam": 3212,
      "Ġattended": 3213,
      "Ġ1979": 3214,
      "stitution": 3215,
      "Ġlearn": 3216,
      "ĠMill": 3217,
      "ĠArab": 3218,
      "ĠBre": 3219,
      "Ġcharacters": 3220,
      "language": 3221,
      "ĠBattle": 3222,
      "Ġsex": 3223,
      "ĠMat": 3224,
      "aying": 3225,
      "press": 3226,
      "ublican": 3227,
      "azz": 3228,
      "Ġmeas": 3229,
      "Ġcapital": 3230,
      "ĠMajor": 3231,
      "ĠPopul": 3232,
      "ette": 3233,
      "Ġdecided": 3234,
      "ĠMain": 3235,
      "ĠWood": 3236,
      "Ġfif": 3237,
      "lam": 3238,
      "ength": 3239,
      "ĠTro": 3240,
      "Ġarg": 3241,
      "eleb": 3242,
      ".)": 3243,
      "ĠResearch": 3244,
      "ultural": 3245,
      "Ġpreviously": 3246,
      "arily": 3247,
      "ĠEmpire": 3248,
      "ĠFred": 3249,
      "ulture": 3250,
      "ca": 3251,
      "ĠGreek": 3252,
      "Ġdestro": 3253,
      "Ġstre": 3254,
      "den": 3255,
      "Ġdivision": 3256,
      "Ġhom": 3257,
      "Ġneigh": 3258,
      "Ġ1972": 3259,
      "Ġleader": 3260,
      "ĠDemocratic": 3261,
      "ero": 3262,
      "amily": 3263,
      "gr": 3264,
      "Ġstudio": 3265,
      "ĠSol": 3266,
      "Ġapprox": 3267,
      "Ġsection": 3268,
      "ĠPenns": 3269,
      "Ġusually": 3270,
      "Ġmean": 3271,
      "Ġmass": 3272,
      "oring": 3273,
      "Ġ1976": 3274,
      "Ġdefeated": 3275,
      "anda": 3276,
      "ĠOfficial": 3277,
      "Ġsingles": 3278,
      "ĠHa": 3279,
      "Ġedition": 3280,
      "ĠMartin": 3281,
      "Ġoccup": 3282,
      "Ġreve": 3283,
      "Ġknow": 3284,
      "stra": 3285,
      "ĠDutch": 3286,
      "reme": 3287,
      "ĠSun": 3288,
      "owers": 3289,
      "iro": 3290,
      "ĠCle": 3291,
      "ĠFollowing": 3292,
      "uan": 3293,
      "Ġnatural": 3294,
      "Ġgrand": 3295,
      "Ġinstead": 3296,
      "ĠJim": 3297,
      "ĠMedal": 3298,
      "Ġactor": 3299,
      "Ġeffort": 3300,
      "Ġpain": 3301,
      "ĠScottish": 3302,
      "Ġparent": 3303,
      "Ġpoet": 3304,
      "Ġriver": 3305,
      "ĠSpain": 3306,
      "chan": 3307,
      "Ġaccount": 3308,
      "Ġfarm": 3309,
      "ĠSocial": 3310,
      "ils": 3311,
      "iga": 3312,
      "BA": 3313,
      "ĠPennsylvania": 3314,
      "Ġbur": 3315,
      "ora": 3316,
      "cel": 3317,
      "str": 3318,
      "cell": 3319,
      "Ġsubject": 3320,
      "ampion": 3321,
      "incip": 3322,
      "Ġwinning": 3323,
      "Ġ1981": 3324,
      "Ġproducer": 3325,
      "Ġwhose": 3326,
      "ansas": 3327,
      "ĠMembers": 3328,
      "Ġinvestig": 3329,
      "ulty": 3330,
      "Ġmethod": 3331,
      "uments": 3332,
      "ults": 3333,
      "Ġplann": 3334,
      "ĠLove": 3335,
      "Ġparts": 3336,
      "Ġ1978": 3337,
      "Ġactive": 3338,
      "ĠInc": 3339,
      "ĠGar": 3340,
      "Ġ1974": 3341,
      "inent": 3342,
      "Ġrepresented": 3343,
      "ĠMilitary": 3344,
      "ĠHow": 3345,
      "ato": 3346,
      "Ġmovement": 3347,
      "Ġge": 3348,
      "Ġprovide": 3349,
      "ĠAsian": 3350,
      "Ġfamilies": 3351,
      "Ġrelationship": 3352,
      "Ġpark": 3353,
      "90": 3354,
      "Ġprimary": 3355,
      "ĠPak": 3356,
      "Ġculture": 3357,
      "Ġ1968": 3358,
      "Ġplays": 3359,
      "wan": 3360,
      "ĠLater": 3361,
      "ĠRadio": 3362,
      "Ġfar": 3363,
      "based": 3364,
      "ĠFinal": 3365,
      "Ġorganiz": 3366,
      "Ġi": 3367,
      "Ġscient": 3368,
      "ption": 3369,
      "Ġprison": 3370,
      "ĠJud": 3371,
      "Ġdeal": 3372,
      "ĠLee": 3373,
      "Ġpred": 3374,
      "Ġpurch": 3375,
      "Ġnorthern": 3376,
      "position": 3377,
      "Ġbehind": 3378,
      "Ġ1940": 3379,
      "rig": 3380,
      "ĠEp": 3381,
      "Ġsouthern": 3382,
      "shire": 3383,
      "ĠCross": 3384,
      "clus": 3385,
      "Ġtax": 3386,
      "ĠHot": 3387,
      "ĠTw": 3388,
      "ario": 3389,
      "ugu": 3390,
      "Ġ1975": 3391,
      "la": 3392,
      "ĠYoung": 3393,
      "ĠIran": 3394,
      "ĠChief": 3395,
      "ĠCivil": 3396,
      "Ġsize": 3397,
      "ĠBuild": 3398,
      "igital": 3399,
      "Ġmusical": 3400,
      "wer": 3401,
      "ension": 3402,
      "yer": 3403,
      "ady": 3404,
      "Ġbank": 3405,
      "70": 3406,
      "ali": 3407,
      "Ġlik": 3408,
      "ĠBoard": 3409,
      "ometimes": 3410,
      "see": 3411,
      "ingu": 3412,
      "Ġ1977": 3413,
      "ĠBul": 3414,
      "rie": 3415,
      "Ġlower": 3416,
      "ĠBet": 3417,
      "...": 3418,
      "isco": 3419,
      "Ġgoals": 3420,
      "Ġbrought": 3421,
      "ĠPost": 3422,
      "Ġreading": 3423,
      "ĠSar": 3424,
      "Ġcoast": 3425,
      "ergy": 3426,
      "Ġnewsp": 3427,
      "ĠLoc": 3428,
      "Ġoutside": 3429,
      "ĠBase": 3430,
      "ĠSpace": 3431,
      "ĠHel": 3432,
      "ĠBig": 3433,
      "ĠSouthern": 3434,
      "Ġacadem": 3435,
      "Ġsus": 3436,
      "ĠRegister": 3437,
      "Ġpers": 3438,
      "sk": 3439,
      "\")": 3440,
      "not": 3441,
      "imb": 3442,
      "aring": 3443,
      "Ġcollection": 3444,
      "Ġorganization": 3445,
      "ĠCD": 3446,
      "Ġcut": 3447,
      "ati": 3448,
      "ends": 3449,
      "Ġrather": 3450,
      "alled": 3451,
      "ĠBack": 3452,
      "ĠHaw": 3453,
      "Ġwriting": 3454,
      "mark": 3455,
      "Ġfall": 3456,
      "Ġclosed": 3457,
      "ersey": 3458,
      "Ġruns": 3459,
      "Ġ1973": 3460,
      "Ġindustry": 3461,
      "Ġnetwork": 3462,
      "ao": 3463,
      "Ġgirl": 3464,
      "Ġended": 3465,
      "Ġcare": 3466,
      "ĠLuc": 3467,
      "Ġcricket": 3468,
      "ĠJack": 3469,
      "Ġmanufact": 3470,
      "NA": 3471,
      "orse": 3472,
      "Ġdrama": 3473,
      "Ġshot": 3474,
      "irm": 3475,
      "Ġforce": 3476,
      "Ġfootballer": 3477,
      "ĠAdm": 3478,
      "Ġ1930": 3479,
      "itan": 3480,
      "Ġsystems": 3481,
      "ancial": 3482,
      "Ġpossible": 3483,
      "ĠEdward": 3484,
      "itors": 3485,
      "pan": 3486,
      "ID": 3487,
      "awa": 3488,
      "pecially": 3489,
      "ĠEngine": 3490,
      "het": 3491,
      "ĠOx": 3492,
      "ctive": 3493,
      "Ġhit": 3494,
      "ĠLong": 3495,
      "Ġesc": 3496,
      "ulation": 3497,
      "ounter": 3498,
      "Ġwood": 3499,
      "ĠValley": 3500,
      "Ġimm": 3501,
      "ĠUnder": 3502,
      "ĠRel": 3503,
      "Ġregard": 3504,
      "ĠTri": 3505,
      "mond": 3506,
      "Ġking": 3507,
      "Ġ1945": 3508,
      "Ġmatches": 3509,
      "Ġallowed": 3510,
      "Ġstudies": 3511,
      "ĠSpr": 3512,
      "ĠVer": 3513,
      "ĠUr": 3514,
      "ĠTimes": 3515,
      "Ġneg": 3516,
      "Ġalmost": 3517,
      "Ġregular": 3518,
      "venue": 3519,
      "ider": 3520,
      "ĠRepublican": 3521,
      "Ġ1969": 3522,
      "Ġstop": 3523,
      "Ġstructure": 3524,
      "inary": 3525,
      "Ġ1971": 3526,
      "ih": 3527,
      "ĠJewish": 3528,
      "Ġmagazine": 3529,
      "Ġchanged": 3530,
      "urb": 3531,
      "ĠBob": 3532,
      "Ġcommission": 3533,
      "ennis": 3534,
      "emic": 3535,
      "Ġfrequ": 3536,
      "Ġcat": 3537,
      "ĠJul": 3538,
      "enth": 3539,
      "inated": 3540,
      "like": 3541,
      "ĠTelevision": 3542,
      "cient": 3543,
      "Ġden": 3544,
      "ĠPo": 3545,
      "isions": 3546,
      "ĠBank": 3547,
      "background": 3548,
      "Ġhard": 3549,
      "Ġisland": 3550,
      "cing": 3551,
      "Ġplat": 3552,
      "ĠMichigan": 3553,
      "ĠDisc": 3554,
      "Ġschol": 3555,
      "Ġlaunched": 3556,
      "Ġsettle": 3557,
      "airman": 3558,
      "Ġball": 3559,
      "Ġoperations": 3560,
      "overs": 3561,
      "itiz": 3562,
      "ĠCamb": 3563,
      "ĠPlaces": 3564,
      "Ġwoman": 3565,
      "velopment": 3566,
      "ĠJer": 3567,
      "Ġpersonal": 3568,
      "acing": 3569,
      "ĠMah": 3570,
      "Ġbeginning": 3571,
      "ĠOs": 3572,
      "35": 3573,
      "Ġterrit": 3574,
      "onn": 3575,
      "ĠMcC": 3576,
      "Ġtowards": 3577,
      "ko": 3578,
      "ias": 3579,
      "ĠAthlet": 3580,
      "Ġtext": 3581,
      "Ġgenus": 3582,
      "Ġtransport": 3583,
      "Ġdeterm": 3584,
      "ĠOpen": 3585,
      "Ġtaking": 3586,
      "Ġowned": 3587,
      "Ġnar": 3588,
      "Ġmanager": 3589,
      "etts": 3590,
      "ees": 3591,
      "Ġfood": 3592,
      "Ġaccording": 3593,
      "Ġcases": 3594,
      "Ġ1967": 3595,
      "Ġmer": 3596,
      "ĠHung": 3597,
      "ĠTim": 3598,
      "ĠHealth": 3599,
      "Ġnames": 3600,
      "aka": 3601,
      "Ġindependent": 3602,
      "Ġconstru": 3603,
      "Ġwhom": 3604,
      "lying": 3605,
      "usband": 3606,
      "Ġpay": 3607,
      "ĠVi": 3608,
      "yan": 3609,
      "Ġ1964": 3610,
      "ols": 3611,
      "Ġscience": 3612,
      "Ġremov": 3613,
      "Ġfa": 3614,
      "ĠOhio": 3615,
      "ĠPhilipp": 3616,
      "Ġcred": 3617,
      "Ġ)": 3618,
      "Ġofficer": 3619,
      "state": 3620,
      "ĠKent": 3621,
      "Ġscore": 3622,
      "Ġapproximately": 3623,
      "ĠBh": 3624,
      "ĠInf": 3625,
      "Ġminor": 3626,
      "75": 3627,
      "Ġveh": 3628,
      "ĠTop": 3629,
      "ĠLine": 3630,
      "Ġobserv": 3631,
      "ĠFr": 3632,
      "Ġbreak": 3633,
      "Ġcomplet": 3634,
      "Ġfunction": 3635,
      "ĠUnivers": 3636,
      "ima": 3637,
      "ibility": 3638,
      "bury": 3639,
      "ĠPoland": 3640,
      "inois": 3641,
      "ĠJo": 3642,
      "Ġever": 3643,
      "cting": 3644,
      "bon": 3645,
      "ga": 3646,
      "Ġscreen": 3647,
      "Ġspent": 3648,
      "Ġconcern": 3649,
      "Ġadditional": 3650,
      "ĠGal": 3651,
      "Ġarmy": 3652,
      "ĠArgent": 3653,
      "pected": 3654,
      "ĠRou": 3655,
      "Ġsquad": 3656,
      "Ġphil": 3657,
      "oid": 3658,
      "ĠDis": 3659,
      "oir": 3660,
      "ĠIII": 3661,
      "inet": 3662,
      "ĠGh": 3663,
      "ĠAre": 3664,
      "Ġnoted": 3665,
      "Ġcomplex": 3666,
      "ĠMot": 3667,
      "Ġself": 3668,
      "ĠScotland": 3669,
      "Ġ60": 3670,
      "Ġobject": 3671,
      "enced": 3672,
      "Ġbox": 3673,
      "ira": 3674,
      "ĠTre": 3675,
      "ww": 3676,
      "ify": 3677,
      "Ġceleb": 3678,
      "achus": 3679,
      "Ġcounty": 3680,
      "Ġ1920": 3681,
      "Ġissues": 3682,
      "ĠPolish": 3683,
      "osh": 3684,
      "ences": 3685,
      "iled": 3686,
      "Ġchief": 3687,
      "Ġsenior": 3688,
      "ĠBor": 3689,
      "king": 3690,
      "Ġche": 3691,
      "Ġmonth": 3692,
      "ĠQueen": 3693,
      "oston": 3694,
      ":#": 3695,
      "Ġbattle": 3696,
      "45": 3697,
      "Ġcommercial": 3698,
      "Ġelections": 3699,
      "Ġlived": 3700,
      "Ġmultiple": 3701,
      "Ġsummer": 3702,
      "Ġitself": 3703,
      "Ġdate": 3704,
      "Ġsat": 3705,
      "Ġrelated": 3706,
      "ĠPacific": 3707,
      "uffer": 3708,
      "ready": 3709,
      "Ġpoliticians": 3710,
      "Ġfocus": 3711,
      "Ġhighest": 3712,
      "ĠMatt": 3713,
      "Ġsoon": 3714,
      "ĠNews": 3715,
      "ĠJr": 3716,
      "ĠIllinois": 3717,
      "Ġtraditional": 3718,
      "Ġroute": 3719,
      "Ġlet": 3720,
      "down": 3721,
      "Ġtoo": 3722,
      "Ġlittle": 3723,
      "ĠLord": 3724,
      "Ġfuture": 3725,
      "ĠWal": 3726,
      "Ġquest": 3727,
      "Ġespecially": 3728,
      "Ġopening": 3729,
      "ĠDirector": 3730,
      "Ġhigher": 3731,
      "Ġlook": 3732,
      "aya": 3733,
      "Ġsuper": 3734,
      "arden": 3735,
      "ums": 3736,
      "Ġ1965": 3737,
      "ĠEnd": 3738,
      "acher": 3739,
      "Ġcal": 3740,
      "Ġmoney": 3741,
      "Ġrequired": 3742,
      "fect": 3743,
      "ĠBritain": 3744,
      "ĠRepresent": 3745,
      "ĠOk": 3746,
      "achusetts": 3747,
      "ĠDi": 3748,
      "esh": 3749,
      "Ġinterview": 3750,
      "ĠConference": 3751,
      "Ġunion": 3752,
      "ĠJersey": 3753,
      "burgh": 3754,
      "ĠSand": 3755,
      "Ġ1966": 3756,
      "emporary": 3757,
      "Ġenvironment": 3758,
      "ĠGeorgia": 3759,
      "rich": 3760,
      "ctic": 3761,
      "Ġcontains": 3762,
      "obal": 3763,
      "Ġappearance": 3764,
      "Ġ180": 3765,
      "Ġbelow": 3766,
      "kins": 3767,
      "ador": 3768,
      "ĠAsia": 3769,
      "ĠCy": 3770,
      "Ġproperty": 3771,
      "Ġprior": 3772,
      "ĠAz": 3773,
      "190": 3774,
      "ĠColle": 3775,
      "ĠLab": 3776,
      "ĠMassachusetts": 3777,
      "Ġmeans": 3778,
      "house": 3779,
      "Ġvictory": 3780,
      "Ġselected": 3781,
      "Ġentered": 3782,
      "ĠFer": 3783,
      "ĠGovernor": 3784,
      "ĠBoston": 3785,
      "onse": 3786,
      "change": 3787,
      "Ġdecision": 3788,
      "Ġstudied": 3789,
      "alys": 3790,
      "Ġprof": 3791,
      "ds": 3792,
      "Ġeditor": 3793,
      "uten": 3794,
      "Ġhusband": 3795,
      "put": 3796,
      "igr": 3797,
      "ĠLo": 3798,
      "ĠBook": 3799,
      "SA": 3800,
      "Ġemer": 3801,
      "Ġsurround": 3802,
      "Ġpractice": 3803,
      "ĠEastern": 3804,
      "Ġlocation": 3805,
      "Ġexam": 3806,
      "standing": 3807,
      "ĠCO": 3808,
      "emorial": 3809,
      "ĠJournal": 3810,
      "Ġrad": 3811,
      "Ġassociated": 3812,
      "vention": 3813,
      "Ġunit": 3814,
      "ĠThat": 3815,
      "ĠHead": 3816,
      "Ġmission": 3817,
      "Ġbass": 3818,
      "Ġstructures": 3819,
      "Ġmurder": 3820,
      "Ġ35": 3821,
      "ja": 3822,
      "wa": 3823,
      "Ġtrade": 3824,
      "Ġdon": 3825,
      "ĠLibrary": 3826,
      "ĠColumbia": 3827,
      "ĠBang": 3828,
      "Ġcertain": 3829,
      "Ġstandard": 3830,
      "ĠJac": 3831,
      "ĠGre": 3832,
      "Ġcentre": 3833,
      "Ġretired": 3834,
      "FC": 3835,
      "Ġships": 3836,
      "oper": 3837,
      "Ġseat": 3838,
      "33": 3839,
      "Ġarran": 3840,
      "Ġearlier": 3841,
      "Ġadop": 3842,
      "Ġens": 3843,
      "Ġer": 3844,
      "Ġmanagement": 3845,
      "ĠPrince": 3846,
      "with": 3847,
      "Ġrunning": 3848,
      "ĠJean": 3849,
      "Ġdom": 3850,
      "Ġdepartment": 3851,
      "Ġbecoming": 3852,
      "ĠMore": 3853,
      "ĠGame": 3854,
      "ĠField": 3855,
      "rying": 3856,
      "Ġsoft": 3857,
      "Ġ1944": 3858,
      "Ġlength": 3859,
      "Ġstudent": 3860,
      "tained": 3861,
      "ĠMP": 3862,
      "Ġactivities": 3863,
      "ĠWilliams": 3864,
      "Ġtrib": 3865,
      "ĠJones": 3866,
      "ĠTheatre": 3867,
      "alle": 3868,
      "Ġclubs": 3869,
      "Ġcome": 3870,
      "Ġlegal": 3871,
      "ila": 3872,
      "Ġemb": 3873,
      "Ġmunicipality": 3874,
      "anks": 3875,
      "anded": 3876,
      "ails": 3877,
      "ĠStan": 3878,
      "Ġcollabor": 3879,
      "igg": 3880,
      "Ġmedical": 3881,
      "ĠDevelopment": 3882,
      "iy": 3883,
      "Ġsuffer": 3884,
      "arriage": 3885,
      "Ġactors": 3886,
      "Ġcomedy": 3887,
      "99": 3888,
      "NE": 3889,
      "inem": 3890,
      "gypt": 3891,
      "Ġlegisl": 3892,
      "Ġquarter": 3893,
      "Ġinitially": 3894,
      "ĠWeb": 3895,
      "ĠMiddle": 3896,
      "iance": 3897,
      "Ġcaused": 3898,
      "adel": 3899,
      "omy": 3900,
      "ĠMany": 3901,
      "Ġalready": 3902,
      "ii": 3903,
      "Ġsometimes": 3904,
      "sen": 3905,
      "ĠIf": 3906,
      "Ġpie": 3907,
      "Ġpen": 3908,
      "ĠSoc": 3909,
      "bre": 3910,
      "Ġthus": 3911,
      "Ġtrain": 3912,
      "ĠFrancisco": 3913,
      "ĠCoast": 3914,
      "Ġoperated": 3915,
      "ĠEconom": 3916,
      "Ġmove": 3917,
      "Ġdestroy": 3918,
      "ĠHong": 3919,
      "Ġfeature": 3920,
      "etic": 3921,
      "ĠVan": 3922,
      "ĠKong": 3923,
      "ĠStep": 3924,
      "Ġarrest": 3925,
      "Ġequip": 3926,
      "Ġforest": 3927,
      "ĠBow": 3928,
      "Ġgenerally": 3929,
      "ĠSat": 3930,
      "ĠDet": 3931,
      "Ġincreased": 3932,
      "Ġhockey": 3933,
      "Ġolder": 3934,
      "antry": 3935,
      "Ġlove": 3936,
      "track": 3937,
      "span": 3938,
      "ĠWater": 3939,
      "ĠOrgan": 3940,
      "Ġcourse": 3941,
      "Ġwide": 3942,
      "Ġprofessor": 3943,
      "ĠMu": 3944,
      "Ġwestern": 3945,
      "Ġnumerous": 3946,
      "ĠWind": 3947,
      "ĠAlbert": 3948,
      "amm": 3949,
      "ĠBlue": 3950,
      "ĠManag": 3951,
      "no": 3952,
      "Ġconv": 3953,
      "Ġcouncil": 3954,
      "Ġuses": 3955,
      "Ġcompeted": 3956,
      "Ġnews": 3957,
      "Ġrap": 3958,
      "Ġannual": 3959,
      "ĠKar": 3960,
      "Ġdiffic": 3961,
      "Ġgra": 3962,
      "ares": 3963,
      "ĠFed": 3964,
      "eeks": 3965,
      "ĠPres": 3966,
      "isation": 3967,
      "Ġsaf": 3968,
      "Ġ1963": 3969,
      "Ġchanges": 3970,
      "ĠEll": 3971,
      "ĠJohnson": 3972,
      "erb": 3973,
      "ands": 3974,
      "ĠConserv": 3975,
      "ĠDie": 3976,
      "ken": 3977,
      "ĠChild": 3978,
      "Ġvir": 3979,
      "ĠSystem": 3980,
      "ĠMid": 3981,
      "ĠPersonal": 3982,
      "ela": 3983,
      "Ġterms": 3984,
      "onia": 3985,
      "Ġmajority": 3986,
      "ograp": 3987,
      "Ġsu": 3988,
      "ĠCentre": 3989,
      "ĠDeath": 3990,
      "Ġserving": 3991,
      "illa": 3992,
      "ĠBC": 3993,
      "Ġfederal": 3994,
      "ulpt": 3995,
      "rief": 3996,
      "Ġissue": 3997,
      "attal": 3998,
      "ĠAk": 3999,
      "Ġabs": 4000,
      "ĠBiography": 4001,
      "stitu": 4002,
      "Ġanti": 4003,
      "Ġindic": 4004,
      "add": 4005,
      "Ġpersonnel": 4006,
      "plement": 4007,
      "Ġbetter": 4008,
      "ulf": 4009,
      "abeth": 4010,
      "Ġ1962": 4011,
      "elle": 4012,
      "Ġuniversity": 4013,
      "ĠBroad": 4014,
      "asy": 4015,
      "Ġthreat": 4016,
      "ĠAri": 4017,
      "ĠSerb": 4018,
      "Ġcolon": 4019,
      "pre": 4020,
      "Ġsea": 4021,
      "Ġcust": 4022,
      "Ġreligious": 4023,
      "In": 4024,
      "ĠTime": 4025,
      "Ġsister": 4026,
      "ĠEgypt": 4027,
      "itation": 4028,
      "Ġprob": 4029,
      "Ġkeep": 4030,
      "ĠOxford": 4031,
      "AC": 4032,
      "ĠBir": 4033,
      "akh": 4034,
      "ĠBal": 4035,
      "ĠOffice": 4036,
      "ĠStation": 4037,
      "ĠGood": 4038,
      "Ġlines": 4039,
      "ĠWrit": 4040,
      "ĠTem": 4041,
      "Ġdrop": 4042,
      "ĠTransport": 4043,
      "ĠHome": 4044,
      "ĠInt": 4045,
      "ĠSpe": 4046,
      "ĠAdam": 4047,
      "Ġpassed": 4048,
      "ĠSpecial": 4049,
      "Ġded": 4050,
      "Ġlack": 4051,
      "ĠTam": 4052,
      "ĠLittle": 4053,
      "Ġhot": 4054,
      "ĠWild": 4055,
      "ieuten": 4056,
      "ĠIslam": 4057,
      "ĠTrack": 4058,
      "Ġord": 4059,
      "Ġaccom": 4060,
      "ties": 4061,
      "Ġexpatriate": 4062,
      "ĠAlexander": 4063,
      "chen": 4064,
      "Ġthought": 4065,
      "ĠSwedish": 4066,
      "ĠCommon": 4067,
      "arters": 4068,
      "mann": 4069,
      "ĠFour": 4070,
      "Ġofficers": 4071,
      "irit": 4072,
      "isher": 4073,
      "cean": 4074,
      "Ġrecording": 4075,
      "ĠLy": 4076,
      "urban": 4077,
      "Ġclaimed": 4078,
      "Ġhum": 4079,
      "Ġforced": 4080,
      "ĠUl": 4081,
      "Ġ45": 4082,
      "Ġdiscuss": 4083,
      "Ġprograms": 4084,
      "95": 4085,
      "ĠFoundation": 4086,
      "ĠMax": 4087,
      "Ġeconomic": 4088,
      "Ġstatus": 4089,
      "Ġinstr": 4090,
      "Ġnine": 4091,
      "ĠKen": 4092,
      "unn": 4093,
      "Ġlimited": 4094,
      "war": 4095,
      ";\"": 4096,
      "orporated": 4097,
      "action": 4098,
      "Ġsupported": 4099,
      "Ġmuseum": 4100,
      "Ġimmedi": 4101,
      "ĠSenate": 4102,
      "ĠBern": 4103,
      "Ġminutes": 4104,
      "ube": 4105,
      "Ġ1942": 4106,
      "Ġcomplete": 4107,
      "Ġpil": 4108,
      "itage": 4109,
      "ackson": 4110,
      "ĠCorps": 4111,
      "Ġcreate": 4112,
      "Ġgener": 4113,
      "Ġhours": 4114,
      "Ġoverall": 4115,
      "Ġsubsequently": 4116,
      "Ġshoot": 4117,
      "ĠTheir": 4118,
      "Ġmeeting": 4119,
      "Ġpresented": 4120,
      "88": 4121,
      "ĠLatin": 4122,
      "phy": 4123,
      "Ġbene": 4124,
      "ĠEnter": 4125,
      "Ġremains": 4126,
      "bl": 4127,
      "ĠGallery": 4128,
      "ĠCard": 4129,
      "ctors": 4130,
      "ĠRay": 4131,
      "Ġ1948": 4132,
      "Ġice": 4133,
      "rown": 4134,
      "ĠAndrew": 4135,
      "ĠAdd": 4136,
      "Ġdescent": 4137,
      "vis": 4138,
      "Ġraised": 4139,
      "Ġinstitut": 4140,
      "ĠFar": 4141,
      "iginal": 4142,
      "Ġearned": 4143,
      "ĠBibl": 4144,
      "Ġbelong": 4145,
      "ucle": 4146,
      "AT": 4147,
      "Ġoccas": 4148,
      "Ġlic": 4149,
      "Ġevidence": 4150,
      "nam": 4151,
      "ĠVictoria": 4152,
      "Ġcommunities": 4153,
      "Ġchall": 4154,
      "Ġgoing": 4155,
      "36": 4156,
      "ĠFI": 4157,
      "ĠOf": 4158,
      "Ġ1943": 4159,
      "izing": 4160,
      "Ġjob": 4161,
      "una": 4162,
      "Ġplatform": 4163,
      "ĠSea": 4164,
      "Ġmostly": 4165,
      "ĠCreek": 4166,
      "Ġ1956": 4167,
      "apers": 4168,
      "Ġ1961": 4169,
      "Ġhistorical": 4170,
      "isk": 4171,
      "inger": 4172,
      "umber": 4173,
      "Ġsequ": 4174,
      "Ġweeks": 4175,
      "ĠEliz": 4176,
      "mi": 4177,
      "Ġfle": 4178,
      "uge": 4179,
      "aters": 4180,
      "wide": 4181,
      "Ġaltern": 4182,
      "ĠSyd": 4183,
      "Ġappearances": 4184,
      "ĠBerlin": 4185,
      "Ġ65": 4186,
      "aily": 4187,
      "ĠDev": 4188,
      "ĠMinn": 4189,
      "ĠCorpor": 4190,
      "Ġresponse": 4191,
      "ĠSund": 4192,
      "ieutenant": 4193,
      "AF": 4194,
      "urt": 4195,
      "Ġgovern": 4196,
      "Ġgive": 4197,
      "47": 4198,
      "ĠJackson": 4199,
      "Ġsom": 4200,
      "zech": 4201,
      "Ġpercent": 4202,
      "ĠTy": 4203,
      "ĠCorn": 4204,
      "Ġshown": 4205,
      "Ġprop": 4206,
      "ĠKorean": 4207,
      "Ġbound": 4208,
      "ĠCop": 4209,
      "Ġarm": 4210,
      "Ġinsp": 4211,
      "win": 4212,
      "ims": 4213,
      "Ġopt": 4214,
      "Ġconcept": 4215,
      "iring": 4216,
      "Ġ1958": 4217,
      "ĠDaniel": 4218,
      "Ġincome": 4219,
      "Ġparticularly": 4220,
      "ĠAlbum": 4221,
      "ĠSecretary": 4222,
      "ĠWeek": 4223,
      "Ġparents": 4224,
      "BS": 4225,
      "Ġregional": 4226,
      "gu": 4227,
      "Ġacquired": 4228,
      "ĠRaj": 4229,
      "ĠElect": 4230,
      "Ġforeign": 4231,
      "imum": 4232,
      "ĠIslands": 4233,
      "onto": 4234,
      "ĠNight": 4235,
      "Ġmention": 4236,
      "Ġpolicy": 4237,
      "Ġbomb": 4238,
      "Ġyouth": 4239,
      "Ġcell": 4240,
      "alysis": 4241,
      "stein": 4242,
      "Ġ1959": 4243,
      "Ġmiddle": 4244,
      "encies": 4245,
      "Ġinte": 4246,
      "Ġdise": 4247,
      "ĠPolice": 4248,
      "Ġrecords": 4249,
      "chester": 4250,
      "38": 4251,
      "48": 4252,
      "Ġtakes": 4253,
      "ĠBBC": 4254,
      "ips": 4255,
      "rem": 4256,
      "enty": 4257,
      "Ġinn": 4258,
      "osoph": 4259,
      "Ġlonger": 4260,
      "Ġlos": 4261,
      "Ġver": 4262,
      "Ġgot": 4263,
      "Ġhelped": 4264,
      "Ġparticular": 4265,
      "elled": 4266,
      "Ġappears": 4267,
      "ried": 4268,
      "Ġfailed": 4269,
      "Ġprincip": 4270,
      "ĠDespite": 4271,
      "Ġstep": 4272,
      "ĠGirl": 4273,
      "Ġpromoted": 4274,
      "Ġawards": 4275,
      "ĠThree": 4276,
      "Ġremain": 4277,
      "onic": 4278,
      "Ġ1946": 4279,
      "omer": 4280,
      "stone": 4281,
      "Ġfamous": 4282,
      "ental": 4283,
      "Ġblock": 4284,
      "ĠAsh": 4285,
      "outheast": 4286,
      "Ġtheory": 4287,
      "ĠRod": 4288,
      "ologist": 4289,
      "ĠKorea": 4290,
      "agn": 4291,
      "Ġvote": 4292,
      "akers": 4293,
      "Ġfinancial": 4294,
      "Ġtracks": 4295,
      "ledge": 4296,
      "ĠMov": 4297,
      "Ġorganizations": 4298,
      "ĠRog": 4299,
      "Ġleaving": 4300,
      "bers": 4301,
      "Ġbaseball": 4302,
      "ĠAtt": 4303,
      "Ġeastern": 4304,
      "ĠBi": 4305,
      "oz": 4306,
      "Ġpsych": 4307,
      "ĠWork": 4308,
      "Ġmem": 4309,
      "Ġenergy": 4310,
      "Ġtechnology": 4311,
      "Ġ1941": 4312,
      "Ġ32": 4313,
      "ifying": 4314,
      "vement": 4315,
      "class": 4316,
      "Ġsched": 4317,
      "ĠRegiment": 4318,
      "yo": 4319,
      "Ġvon": 4320,
      "Ġmach": 4321,
      "Ġcomposed": 4322,
      "46": 4323,
      "Ġhapp": 4324,
      "Ġreferred": 4325,
      "ĠWall": 4326,
      "ronze": 4327,
      "ĠTax": 4328,
      "Ġcrew": 4329,
      "ĠFamily": 4330,
      "Ġspecific": 4331,
      "ĠHospital": 4332,
      "ĠSydney": 4333,
      "37": 4334,
      "Ġquick": 4335,
      "emet": 4336,
      "Ġtroops": 4337,
      "cul": 4338,
      "ĠKenn": 4339,
      "Ġincrease": 4340,
      "ĠMunicip": 4341,
      "Ġremaining": 4342,
      "Ġbelieved": 4343,
      "Ġword": 4344,
      "ĠColl": 4345,
      "Ġcitiz": 4346,
      "Ġ+": 4347,
      "ĠCharl": 4348,
      "ĠJoe": 4349,
      "ĠShow": 4350,
      "Ġprovince": 4351,
      "Ġhospital": 4352,
      "Ġlarger": 4353,
      "ropol": 4354,
      "can": 4355,
      "ĠViet": 4356,
      "Ġcateg": 4357,
      "Ġhouses": 4358,
      "teen": 4359,
      "ĠCzech": 4360,
      "Th": 4361,
      "ĠOtt": 4362,
      "vest": 4363,
      "Ġcarried": 4364,
      "ĠLim": 4365,
      "Ġeth": 4366,
      "rice": 4367,
      "ĠVen": 4368,
      "illy": 4369,
      "ĠBusiness": 4370,
      "Ġamount": 4371,
      "ouri": 4372,
      "ĠHy": 4373,
      "Ġ(),": 4374,
      "thur": 4375,
      "Ġlatter": 4376,
      "ĠWay": 4377,
      "ĠFederal": 4378,
      "istricts": 4379,
      "Ġ1957": 4380,
      "Ġdiss": 4381,
      "Ġ1939": 4382,
      "CC": 4383,
      "ĠTurk": 4384,
      "Ġstarting": 4385,
      "ĠArm": 4386,
      "ĠPen": 4387,
      "Ġarchitect": 4388,
      "96": 4389,
      "Ġ1947": 4390,
      "selves": 4391,
      "imated": 4392,
      "Ġbrand": 4393,
      "ova": 4394,
      "Ġthemselves": 4395,
      "mentary": 4396,
      "ĠQueens": 4397,
      "Ġlay": 4398,
      "98": 4399,
      "rupt": 4400,
      "Ġproposed": 4401,
      "lav": 4402,
      "Ġcharg": 4403,
      "Ġnorm": 4404,
      "Ġfort": 4405,
      "Ġroom": 4406,
      "Ġtarg": 4407,
      "uts": 4408,
      "Ġepisodes": 4409,
      "Ġbring": 4410,
      "ĠRet": 4411,
      "Ġrate": 4412,
      "Ġnative": 4413,
      "Ġ1952": 4414,
      "ĠForm": 4415,
      "Ġindividuals": 4416,
      "Ġcer": 4417,
      "ĠOnt": 4418,
      "ĠWorks": 4419,
      "ĠBoth": 4420,
      "Ġ36": 4421,
      "ĠBand": 4422,
      "Ġgraduated": 4423,
      "enger": 4424,
      "Ġassistant": 4425,
      "utt": 4426,
      "more": 4427,
      "ech": 4428,
      "pose": 4429,
      "Ġwinner": 4430,
      "uries": 4431,
      "Ġlog": 4432,
      "Ġpra": 4433,
      "Ġforms": 4434,
      "ĠPrize": 4435,
      "Ġdepart": 4436,
      "Ġsurface": 4437,
      "ĠBab": 4438,
      "Ġcultural": 4439,
      "Ġcities": 4440,
      "itting": 4441,
      "Ġ1955": 4442,
      "hew": 4443,
      "Ġlabel": 4444,
      "ji": 4445,
      "ĠPrime": 4446,
      "Ġchem": 4447,
      "Ġoffered": 4448,
      "Ġdeliver": 4449,
      "ĠJon": 4450,
      "ĠEarth": 4451,
      "ĠColor": 4452,
      "ais": 4453,
      "phia": 4454,
      "Ġven": 4455,
      "hy": 4456,
      "Ġmerg": 4457,
      "Ġheavy": 4458,
      "ĠTownship": 4459,
      "ĠBoy": 4460,
      "ously": 4461,
      "Ġexecutive": 4462,
      "Ar": 4463,
      "ĠTod": 4464,
      "edd": 4465,
      "esota": 4466,
      "Ġonline": 4467,
      "97": 4468,
      "ĠJeff": 4469,
      "ĠTay": 4470,
      "Ġprevent": 4471,
      "Ġmarriage": 4472,
      "Ġspl": 4473,
      "ĠBooks": 4474,
      "//": 4475,
      "Ġadj": 4476,
      "anguages": 4477,
      "Ġmeaning": 4478,
      "Ġtable": 4479,
      "ĠPremier": 4480,
      "ĠLes": 4481,
      "ennes": 4482,
      "ĠMinistry": 4483,
      "Ġnewspaper": 4484,
      "ĠNether": 4485,
      "ĠMir": 4486,
      "Ġseparate": 4487,
      "ĠBell": 4488,
      "Ġdyn": 4489,
      "Ġsociety": 4490,
      "Ġconsists": 4491,
      "verse": 4492,
      "ĠDist": 4493,
      "ione": 4494,
      "Ġfifth": 4495,
      "ci": 4496,
      "ellig": 4497,
      "ounds": 4498,
      "ĠElizabeth": 4499,
      "oura": 4500,
      "ĠSem": 4501,
      "ĠNotable": 4502,
      "ĠJes": 4503,
      "Ġpeak": 4504,
      "ĠRoute": 4505,
      "IS": 4506,
      "Ġbridge": 4507,
      "icted": 4508,
      "ĠEst": 4509,
      "peror": 4510,
      "ĠAnton": 4511,
      "Ġtoday": 4512,
      "rovers": 4513,
      "ĠMinnesota": 4514,
      "adelphia": 4515,
      "Ġsucceed": 4516,
      "ĠBol": 4517,
      "Ġess": 4518,
      "ĠToronto": 4519,
      "Ġfail": 4520,
      "ĠBaseball": 4521,
      "Ġexperience": 4522,
      "rane": 4523,
      "Ġconditions": 4524,
      "Ġcompl": 4525,
      "Ġserve": 4526,
      "ĠPubl": 4527,
      "fit": 4528,
      "Ġvariety": 4529,
      "ĠJustice": 4530,
      "ker": 4531,
      "Ġfoot": 4532,
      "itude": 4533,
      "Ġbrief": 4534,
      "uated": 4535,
      "Ġtemper": 4536,
      "Ġtransferred": 4537,
      "34": 4538,
      "ession": 4539,
      "resp": 4540,
      "icine": 4541,
      "ronic": 4542,
      "Ġcandidate": 4543,
      "mas": 4544,
      "ĠHuman": 4545,
      "Ġborder": 4546,
      "Ġsource": 4547,
      "Ġhouseholds": 4548,
      "ĠSquad": 4549,
      "ĠOntario": 4550,
      "rance": 4551,
      "ĠSupreme": 4552,
      "Ġmovie": 4553,
      "Ġpartn": 4554,
      "Ġmainly": 4555,
      "alog": 4556,
      "Ġalongside": 4557,
      "zy": 4558,
      "://": 4559,
      "ĠMike": 4560,
      "ĠHind": 4561,
      "ĠChap": 4562,
      "Ġdespite": 4563,
      "Ġrequire": 4564,
      "ĠAut": 4565,
      "Ġsculpt": 4566,
      "ault": 4567,
      "inct": 4568,
      "ĠSom": 4569,
      "Ġalways": 4570,
      "ĠBad": 4571,
      "ĠNations": 4572,
      "ĠRegion": 4573,
      "ĠBa": 4574,
      "ĠLew": 4575,
      "ĠBorn": 4576,
      "Ġparties": 4577,
      "ĠTok": 4578,
      "ĠSongs": 4579,
      "icks": 4580,
      "rics": 4581,
      "Ġoperation": 4582,
      "Ġissued": 4583,
      "weight": 4584,
      "Ġ1949": 4585,
      "uing": 4586,
      "Ġ1954": 4587,
      "ev": 4588,
      "ĠProgram": 4589,
      "Ġdouble": 4590,
      "Ġ(,": 4591,
      "ĠLight": 4592,
      "attalion": 4593,
      "31": 4594,
      "anth": 4595,
      "bit": 4596,
      "nes": 4597,
      "secut": 4598,
      "ĠId": 4599,
      "Ġpoor": 4600,
      "ĠLem": 4601,
      "ĠAnother": 4602,
      "ĠAnth": 4603,
      "Ġbr": 4604,
      "Ġrow": 4605,
      "Ġdemon": 4606,
      "ĠDun": 4607,
      "Ġextended": 4608,
      "Ġmechan": 4609,
      "ortheast": 4610,
      "Ġface": 4611,
      "Ġplans": 4612,
      "Ġprovides": 4613,
      "Ġ80": 4614,
      "Ġmakes": 4615,
      "Ġarticle": 4616,
      "ĠCE": 4617,
      "Ġsoldiers": 4618,
      "RA": 4619,
      "ĠAff": 4620,
      "Ġdefeat": 4621,
      "Ġturned": 4622,
      "Ġinfluence": 4623,
      "Ġresponsible": 4624,
      "Ġdone": 4625,
      "bourne": 4626,
      "Ġjun": 4627,
      "Ġsilver": 4628,
      "Ġsn": 4629,
      "ĠHarris": 4630,
      "raine": 4631,
      "ĠAh": 4632,
      "erland": 4633,
      "ĠPhiladelphia": 4634,
      "Ġarrived": 4635,
      "ĠStephen": 4636,
      "Ġ1953": 4637,
      "ĠBrad": 4638,
      "Ġfeaturing": 4639,
      "illed": 4640,
      "ĠMexican": 4641,
      "Ġdifficult": 4642,
      "ĠStadium": 4643,
      "85": 4644,
      "worth": 4645,
      "chestra": 4646,
      "Ġstories": 4647,
      "Ġrugby": 4648,
      "Ġnearby": 4649,
      "osa": 4650,
      "Ġmaster": 4651,
      "Ġspeed": 4652,
      "Ġexcept": 4653,
      "Ġathlet": 4654,
      "onsin": 4655,
      "ĠStat": 4656,
      "ĠAirport": 4657,
      "Ġunivers": 4658,
      "Ġcapac": 4659,
      "ĠAv": 4660,
      "ĠChart": 4661,
      "Ġcorn": 4662,
      "ĠPakistan": 4663,
      "agon": 4664,
      "Ġhonor": 4665,
      "rif": 4666,
      "omot": 4667,
      "aven": 4668,
      "lers": 4669,
      "ĠTai": 4670,
      "bass": 4671,
      "isconsin": 4672,
      "writer": 4673,
      "ĠSanta": 4674,
      "ĠNetherlands": 4675,
      "Ġoil": 4676,
      "Ġparticipated": 4677,
      "Ġresidents": 4678,
      "atively": 4679,
      "Ġsaying": 4680,
      "ĠCrit": 4681,
      "Ġ70": 4682,
      "Ġwinners": 4683,
      "mission": 4684,
      "Ġmanaged": 4685,
      "Ġstay": 4686,
      "ĠDam": 4687,
      "Ġmusicians": 4688,
      "ection": 4689,
      "ĠKir": 4690,
      "ava": 4691,
      "light": 4692,
      "Ġadministrative": 4693,
      "ropical": 4694,
      "Ġelectric": 4695,
      "obile": 4696,
      "Ġorigin": 4697,
      "pon": 4698,
      "ĠMedia": 4699,
      "Ġmight": 4700,
      "Ġdiscovered": 4701,
      "ba": 4702,
      "Ġconstitu": 4703,
      "ĠRevolution": 4704,
      "undred": 4705,
      "ĠBrig": 4706,
      "Ġcovered": 4707,
      "umed": 4708,
      "Ġrenamed": 4709,
      "org": 4710,
      "Ġsurn": 4711,
      "ĠIndones": 4712,
      "Ġbackground": 4713,
      "Ġmunicipal": 4714,
      "ĠHo": 4715,
      "ns": 4716,
      "ĠChris": 4717,
      "86": 4718,
      "Ġlikely": 4719,
      "Ġcontra": 4720,
      "dis": 4721,
      "ĠWisconsin": 4722,
      "ĠGuard": 4723,
      "ĠAvenue": 4724,
      "Ġrecent": 4725,
      "Ġinh": 4726,
      "44": 4727,
      "ĠRome": 4728,
      "Ġ1951": 4729,
      "Ġparish": 4730,
      "ĠCub": 4731,
      "Ġtold": 4732,
      "Ġelements": 4733,
      "range": 4734,
      "quarters": 4735,
      "achel": 4736,
      "igen": 4737,
      "Ġvan": 4738,
      "Ġasked": 4739,
      "Ġproblems": 4740,
      "ĠPeak": 4741,
      "ancy": 4742,
      "ĠTechnology": 4743,
      "ighter": 4744,
      "ĠKim": 4745,
      "Ġgun": 4746,
      "Ġconfl": 4747,
      "Ġour": 4748,
      "Ġconstructed": 4749,
      "eld": 4750,
      "Ġult": 4751,
      "Ġheart": 4752,
      "Ġfinally": 4753,
      "ĠSus": 4754,
      "76": 4755,
      "owa": 4756,
      "ĠSher": 4757,
      "ĠPrim": 4758,
      "Ġleave": 4759,
      "Ġnature": 4760,
      "establ": 4761,
      "ocks": 4762,
      "emetery": 4763,
      "Ġpick": 4764,
      "Ġneighbor": 4765,
      "ĠPers": 4766,
      "irmed": 4767,
      "kee": 4768,
      "ĠLi": 4769,
      "Ġprogress": 4770,
      "Ġproducts": 4771,
      "oto": 4772,
      "wegian": 4773,
      "ĠCambridge": 4774,
      "Ġhere": 4775,
      "Ġthr": 4776,
      "ĠIndust": 4777,
      "Ġpaper": 4778,
      "oration": 4779,
      "Ġimpact": 4780,
      "Ġnearly": 4781,
      "ĠForest": 4782,
      "ĠMuslim": 4783,
      "ĠProfessor": 4784,
      "ĠDuke": 4785,
      "Ġpage": 4786,
      "ctoral": 4787,
      "55": 4788,
      "ĠBishop": 4789,
      "Ġdrug": 4790,
      "Ġpath": 4791,
      "Ġcause": 4792,
      "ging": 4793,
      "Ġwanted": 4794,
      "Ġenough": 4795,
      "met": 4796,
      "Ġsubs": 4797,
      "ĠSlov": 4798,
      "amber": 4799,
      "ĠLady": 4800,
      "Ġdead": 4801,
      "wick": 4802,
      "ĠLegisl": 4803,
      "ĠExp": 4804,
      "Ġmedalists": 4805,
      "perial": 4806,
      "ĠPu": 4807,
      "Ġarchitecture": 4808,
      "rim": 4809,
      "Ġraces": 4810,
      "Ġrevealed": 4811,
      "Ġsecurity": 4812,
      "aped": 4813,
      "rict": 4814,
      "ĠCa": 4815,
      "nic": 4816,
      "Ġchampion": 4817,
      "Ġnecess": 4818,
      "ĠCommunity": 4819,
      "ss": 4820,
      "istance": 4821,
      "Ġdirectly": 4822,
      "ensity": 4823,
      "32": 4824,
      "Ġsolo": 4825,
      "ĠStr": 4826,
      "Ġvoice": 4827,
      "get": 4828,
      "Ġpit": 4829,
      "ĠProject": 4830,
      "ependence": 4831,
      "inson": 4832,
      "Ġlives": 4833,
      "Ġsusp": 4834,
      "ĠAdminist": 4835,
      "orship": 4836,
      "Ġaddress": 4837,
      "ĠColon": 4838,
      "ĠPower": 4839,
      "orning": 4840,
      "ĠWilson": 4841,
      "ĠSab": 4842,
      "ĠCorporation": 4843,
      "Ġ1936": 4844,
      "Ġleaders": 4845,
      "Ġpositive": 4846,
      "Ġcycl": 4847,
      "ĠMedical": 4848,
      "Ġancient": 4849,
      "Ġofficially": 4850,
      "Ġminister": 4851,
      "Ġprojects": 4852,
      "Ġincreasing": 4853,
      "ĠMarg": 4854,
      "Le": 4855,
      "ĠBarb": 4856,
      "living": 4857,
      "Ġdisplay": 4858,
      "enge": 4859,
      "Ġprimarily": 4860,
      "Ġrural": 4861,
      "94": 4862,
      "Ġadministration": 4863,
      "vanced": 4864,
      "ading": 4865,
      "oud": 4866,
      "Ġconducted": 4867,
      "ĠHay": 4868,
      "Ġfriends": 4869,
      "Ġiniti": 4870,
      "Ġlevels": 4871,
      "rolled": 4872,
      "arp": 4873,
      "anga": 4874,
      "Ġmountain": 4875,
      "ening": 4876,
      "Ġsport": 4877,
      "ydro": 4878,
      "ected": 4879,
      "ĠNorwegian": 4880,
      "SS": 4881,
      "Ġchap": 4882,
      "ĠFair": 4883,
      "Ġcard": 4884,
      "ensis": 4885,
      "ĠSweden": 4886,
      "iat": 4887,
      "inity": 4888,
      "ĠFire": 4889,
      "Ġly": 4890,
      "ĠIra": 4891,
      "ĠShort": 4892,
      "ĠVideo": 4893,
      "ĠMoh": 4894,
      "Ġinitial": 4895,
      "Ġnumbers": 4896,
      "Ġ90": 4897,
      "ully": 4898,
      "Ġpan": 4899,
      "ĠGolden": 4900,
      "ucky": 4901,
      "Ġacademic": 4902,
      "ĠIndiana": 4903,
      "Ġvalue": 4904,
      "ĠFle": 4905,
      "een": 4906,
      "Ġfirm": 4907,
      "ĠWinn": 4908,
      "aki": 4909,
      "Ġpp": 4910,
      "ĠMountain": 4911,
      "ĠMun": 4912,
      "ĠWinter": 4913,
      "ĠBibliography": 4914,
      "Ġwhole": 4915,
      "ĠArthur": 4916,
      "Ġsources": 4917,
      "book": 4918,
      "Ġchannel": 4919,
      "Ġdisp": 4920,
      "Ġreplace": 4921,
      "Ġletter": 4922,
      "Ġlisting": 4923,
      "Ġ1938": 4924,
      "ĠSciences": 4925,
      "cription": 4926,
      "Ġworkers": 4927,
      "ĠRad": 4928,
      "ĠAlf": 4929,
      "Ġfell": 4930,
      "ributed": 4931,
      "ĠLt": 4932,
      "Ġconsider": 4933,
      "ĠDesign": 4934,
      "ĠPlace": 4935,
      "Ġstars": 4936,
      "ĠNiger": 4937,
      "ĠDer": 4938,
      "ĠReview": 4939,
      "ĠHu": 4940,
      "ĠSu": 4941,
      "Ġmic": 4942,
      "ĠDar": 4943,
      "ĠBudd": 4944,
      "Ġdeep": 4945,
      "Ġlaws": 4946,
      "LA": 4947,
      "edom": 4948,
      "ĠAlso": 4949,
      "urches": 4950,
      "thing": 4951,
      "Ġwhether": 4952,
      "Ġliterature": 4953,
      "anta": 4954,
      "Ġremoved": 4955,
      "Ġ1918": 4956,
      "gal": 4957,
      "ĠLive": 4958,
      "ĠKansas": 4959,
      "pton": 4960,
      "ĠDiv": 4961,
      "emy": 4962,
      "Ġsal": 4963,
      "heim": 4964,
      "ĠMaria": 4965,
      "Al": 4966,
      "Ġdedicated": 4967,
      "iest": 4968,
      "ĠCaptain": 4969,
      "ĠGeography": 4970,
      "Ġwithd": 4971,
      "ĠUs": 4972,
      "onym": 4973,
      "erto": 4974,
      "Ġsyn": 4975,
      "Ġgrew": 4976,
      "portun": 4977,
      "ĠDep": 4978,
      "Ġwords": 4979,
      "ĠBaron": 4980,
      "Ġdomin": 4981,
      "Ġplanned": 4982,
      "ĠUSA": 4983,
      "rical": 4984,
      "ĠPopulated": 4985,
      "ĠPolitical": 4986,
      "ĠJunior": 4987,
      "77": 4988,
      "Ġnotable": 4989,
      "Ġshare": 4990,
      "ĠResults": 4991,
      "Ġeffects": 4992,
      "Ġkind": 4993,
      "jected": 4994,
      "itter": 4995,
      "EC": 4996,
      "Ġrule": 4997,
      "ez": 4998,
      "Ġdark": 4999,
      "Ġcomputer": 5000,
      "FF": 5001,
      "Ġpiano": 5002,
      "ĠUt": 5003,
      "present": 5004,
      "iced": 5005,
      "Ġordered": 5006,
      "ĠMissouri": 5007,
      "ishes": 5008,
      "respond": 5009,
      "Ġregist": 5010,
      "ĠTaylor": 5011,
      "ĠColorado": 5012,
      "ĠMaster": 5013,
      "Ġsettlement": 5014,
      "Ġprominent": 5015,
      "Ġcontinue": 5016,
      "ĠPit": 5017,
      "MA": 5018,
      "athan": 5019,
      "Ġspread": 5020,
      "ĠRugby": 5021,
      "restling": 5022,
      "ĠBridge": 5023,
      "ika": 5024,
      "regon": 5025,
      "ĠFrancis": 5026,
      "Ġrefle": 5027,
      "yal": 5028,
      "hu": 5029,
      "Ġrecover": 5030,
      "eller": 5031,
      "sex": 5032,
      "resh": 5033,
      "Ġfollows": 5034,
      "aging": 5035,
      "Ġuns": 5036,
      "ĠEP": 5037,
      "Ġ34": 5038,
      "Ġvac": 5039,
      "ables": 5040,
      "ilton": 5041,
      "Ġscene": 5042,
      "ĠWars": 5043,
      "greg": 5044,
      "force": 5045,
      "66": 5046,
      "Ġdirection": 5047,
      "ĠSteve": 5048,
      "ĠRem": 5049,
      "Ġvotes": 5050,
      "ternet": 5051,
      "isted": 5052,
      "Ġweap": 5053,
      "Ġbranch": 5054,
      "OS": 5055,
      "Ġmixed": 5056,
      "Ġtouch": 5057,
      "Ġhosted": 5058,
      "Ġgas": 5059,
      "Ġang": 5060,
      "Ġextra": 5061,
      "ĠConne": 5062,
      "Ġdigital": 5063,
      "Ġreform": 5064,
      "Ġgreen": 5065,
      "ĠWalk": 5066,
      "Ġarticles": 5067,
      "Ġ1937": 5068,
      "Ġlanguages": 5069,
      "Ġrules": 5070,
      "Ġpotential": 5071,
      "Ġreason": 5072,
      "Ġimplement": 5073,
      "Ġpurs": 5074,
      "Ġconserv": 5075,
      "ĠStudies": 5076,
      "Ġillust": 5077,
      "Ġintended": 5078,
      "zona": 5079,
      "hemat": 5080,
      "hens": 5081,
      "Ġnation": 5082,
      "enes": 5083,
      "ĠCastle": 5084,
      "gn": 5085,
      "enna": 5086,
      "ĠRepresentatives": 5087,
      "Ġhistoric": 5088,
      "Ġdivided": 5089,
      "39": 5090,
      "yard": 5091,
      "Ġera": 5092,
      "ĠMember": 5093,
      "ĠLind": 5094,
      "ĠCirc": 5095,
      "Ġcapacity": 5096,
      "ĠHan": 5097,
      "Ġtrial": 5098,
      "ĠEarl": 5099,
      "ĠNaz": 5100,
      "Ġidea": 5101,
      "Ġcolor": 5102,
      "ĠRom": 5103,
      "ulated": 5104,
      "Ġut": 5105,
      "grad": 5106,
      "ropolitan": 5107,
      "Ġforward": 5108,
      "ĠGree": 5109,
      "nce": 5110,
      "ographic": 5111,
      "Ġtal": 5112,
      "Ġrespectively": 5113,
      "Ġtitled": 5114,
      "Ġsoc": 5115,
      "Ġfloor": 5116,
      "Ġdestroyed": 5117,
      "Ġtitles": 5118,
      "ĠOregon": 5119,
      "ĠJos": 5120,
      "Ġengineer": 5121,
      "78": 5122,
      "Ġassigned": 5123,
      "2010": 5124,
      "Ġtreatment": 5125,
      "Ġ64": 5126,
      "oles": 5127,
      "ĠMarsh": 5128,
      "ĠFe": 5129,
      "itled": 5130,
      "ĠTurkey": 5131,
      "urd": 5132,
      "Ġtowns": 5133,
      "ĠKal": 5134,
      "ĠKel": 5135,
      "illery": 5136,
      "gg": 5137,
      "ĠPier": 5138,
      "ĠMalays": 5139,
      "Ġinside": 5140,
      "Ġparliament": 5141,
      "ĠFreder": 5142,
      "apore": 5143,
      "oral": 5144,
      "lyn": 5145,
      "Ġscholars": 5146,
      "Ġfellow": 5147,
      "ixed": 5148,
      "ĠHal": 5149,
      "Ġagric": 5150,
      "Ġbasis": 5151,
      "Ġdance": 5152,
      "65": 5153,
      "%)": 5154,
      "Ġactivity": 5155,
      "Ġnovels": 5156,
      "ĠEth": 5157,
      "andon": 5158,
      "Ġsemi": 5159,
      "Ġreviews": 5160,
      "Ġrepe": 5161,
      "2007": 5162,
      "real": 5163,
      "Ġunknown": 5164,
      "ek": 5165,
      "Ġcomposer": 5166,
      "ĠBrazilian": 5167,
      "Ġbehav": 5168,
      "Ġ...": 5169,
      "Ġsites": 5170,
      "ĠCommand": 5171,
      "bec": 5172,
      "Ġcounter": 5173,
      "cow": 5174,
      "Ġstreet": 5175,
      "Ġgrowth": 5176,
      "ivity": 5177,
      "Ġmetal": 5178,
      "ĠDavis": 5179,
      "Ġclear": 5180,
      "Ġcontrovers": 5181,
      "Ġbecomes": 5182,
      "ĠPass": 5183,
      "bell": 5184,
      "Ġplants": 5185,
      "bu": 5186,
      "Ġfemales": 5187,
      "MS": 5188,
      "Ġpurchased": 5189,
      "Ġefforts": 5190,
      "ennessee": 5191,
      "Ġpal": 5192,
      "ĠConf": 5193,
      "ĠConc": 5194,
      "Ġpet": 5195,
      "Ġupper": 5196,
      "Ġmoving": 5197,
      "ĠAtlantic": 5198,
      "ĠBrook": 5199,
      "Ġfeel": 5200,
      "izes": 5201,
      "ears": 5202,
      "Ġproduce": 5203,
      "ĠStand": 5204,
      "ĠCountry": 5205,
      "Ġfacilities": 5206,
      "Ġcontest": 5207,
      "ĠBeach": 5208,
      "Ġproduct": 5209,
      "asty": 5210,
      "ĠCre": 5211,
      "ĠArizona": 5212,
      "Ġlies": 5213,
      "ĠBall": 5214,
      "ĠGreg": 5215,
      "ĠTal": 5216,
      "2009": 5217,
      "aud": 5218,
      "Ġquestion": 5219,
      "unct": 5220,
      "ĠPhilippines": 5221,
      "aded": 5222,
      "ĠTa": 5223,
      "Ġcerem": 5224,
      "iant": 5225,
      "ito": 5226,
      "ĠNic": 5227,
      "Ġtypes": 5228,
      "Ġequipment": 5229,
      "Ġsmaller": 5230,
      "Ġattend": 5231,
      "ĠKr": 5232,
      "Ġstore": 5233,
      "estic": 5234,
      "IA": 5235,
      "Ġcaptured": 5236,
      "ĠForeign": 5237,
      "2000": 5238,
      "Ġquickly": 5239,
      "fort": 5240,
      "water": 5241,
      "Ġyet": 5242,
      "bro": 5243,
      "Ġhighly": 5244,
      "Ġleaves": 5245,
      "ĠFree": 5246,
      "ĠSever": 5247,
      "Ġcontact": 5248,
      "ounded": 5249,
      "bles": 5250,
      "Ġcitizens": 5251,
      "Ġ500": 5252,
      "ĠSon": 5253,
      "eman": 5254,
      "Ġformat": 5255,
      "Ġdocumentary": 5256,
      "style": 5257,
      "rence": 5258,
      "Ġ44": 5259,
      "Ġimmediately": 5260,
      "ĠTennessee": 5261,
      "Ġestate": 5262,
      "Ġorganized": 5263,
      "ĠLeon": 5264,
      "astic": 5265,
      "Ġgre": 5266,
      "Ġ(;": 5267,
      "edia": 5268,
      "Ġsumm": 5269,
      "Ġaccepted": 5270,
      "gers": 5271,
      "Ġrat": 5272,
      "ĠMarc": 5273,
      "Ġconver": 5274,
      "Ġmax": 5275,
      "bed": 5276,
      "iform": 5277,
      "ĠNorway": 5278,
      "iplom": 5279,
      "2011": 5280,
      "jan": 5281,
      "Ġopportun": 5282,
      "ĠMas": 5283,
      "Ġflight": 5284,
      "ĠCas": 5285,
      "uled": 5286,
      "Ġowner": 5287,
      "kin": 5288,
      "aug": 5289,
      "Ġconference": 5290,
      "ĠNetwork": 5291,
      "urer": 5292,
      "Ġ1919": 5293,
      "Ġ1935": 5294,
      "iang": 5295,
      "ĠSri": 5296,
      "2006": 5297,
      "Ġfavor": 5298,
      "Ġphysical": 5299,
      "Ġx": 5300,
      "sky": 5301,
      "Ġfaculty": 5302,
      "2008": 5303,
      "Ġroles": 5304,
      "kh": 5305,
      "Ġsoftware": 5306,
      "sey": 5307,
      "Ġstra": 5308,
      "ois": 5309,
      "Ġsymb": 5310,
      "erc": 5311,
      "ĠSav": 5312,
      "ĠMaryland": 5313,
      "ambig": 5314,
      "Ġbronze": 5315,
      "ĠUkraine": 5316,
      "Ġdeclared": 5317,
      "Ġconfirmed": 5318,
      "ĠCra": 5319,
      "oln": 5320,
      "watch": 5321,
      "Ġautom": 5322,
      "Ġteacher": 5323,
      "efe": 5324,
      "Ġcharge": 5325,
      "ami": 5326,
      "Ġreach": 5327,
      "Ġpositions": 5328,
      "Ġ1914": 5329,
      "anna": 5330,
      "Ġcommonly": 5331,
      "Ġmotor": 5332,
      "Ġoperating": 5333,
      "imal": 5334,
      "Ġhousing": 5335,
      "Ġvs": 5336,
      "ĠBefore": 5337,
      "Ġhtt": 5338,
      "eather": 5339,
      "Ġaffili": 5340,
      "Ġprogramming": 5341,
      "Ġbeat": 5342,
      "ĠOd": 5343,
      "Ġ33": 5344,
      "Ġperman": 5345,
      "Ġelev": 5346,
      "Un": 5347,
      "ĠBat": 5348,
      "hat": 5349,
      "ĠHighway": 5350,
      "ĠSources": 5351,
      "ĠIraq": 5352,
      "Ġstreng": 5353,
      "Ġcompared": 5354,
      "cest": 5355,
      "ĠFormer": 5356,
      "rate": 5357,
      "Ġcomes": 5358,
      "ĠBackground": 5359,
      "bs": 5360,
      "amin": 5361,
      "ĠSingapore": 5362,
      "ĠFederation": 5363,
      "Ġterritory": 5364,
      "aret": 5365,
      "Ġagreement": 5366,
      "ĠModern": 5367,
      "Ġcomment": 5368,
      "Ġdistricts": 5369,
      "Ġability": 5370,
      "ĠRoss": 5371,
      "CAA": 5372,
      "ĠKl": 5373,
      "Ġstone": 5374,
      "ĠMemorial": 5375,
      "Ġpop": 5376,
      "Ġfounder": 5377,
      "Ġ1910": 5378,
      "ĠLiter": 5379,
      "Ġtarget": 5380,
      "Ġwa": 5381,
      "ĠDec": 5382,
      "elligence": 5383,
      "Ġswim": 5384,
      "Ġgiving": 5385,
      "Ġ1917": 5386,
      "aga": 5387,
      "58": 5388,
      "Ġattention": 5389,
      "Ġagreed": 5390,
      "ĠDor": 5391,
      "ĠFox": 5392,
      "Ġengineering": 5393,
      "arc": 5394,
      "Ġapproach": 5395,
      "93": 5396,
      "Ġmodels": 5397,
      "ĠChile": 5398,
      "incial": 5399,
      "venth": 5400,
      "ĠOcean": 5401,
      "ĠEach": 5402,
      "Ġnucle": 5403,
      "Ġcampus": 5404,
      "Ġleadership": 5405,
      "ighth": 5406,
      "Ġinstitutions": 5407,
      "Ġcars": 5408,
      "duce": 5409,
      "Ġpeace": 5410,
      "Ġwalk": 5411,
      "ĠSound": 5412,
      "mad": 5413,
      "SP": 5414,
      "western": 5415,
      "Ġattra": 5416,
      "Ġlif": 5417,
      "Ġyards": 5418,
      "SC": 5419,
      "ĠBru": 5420,
      "Ġapart": 5421,
      "ription": 5422,
      "Ġestimated": 5423,
      "odies": 5424,
      "Ġthink": 5425,
      "zo": 5426,
      "aph": 5427,
      "Ġ1928": 5428,
      "Ġelim": 5429,
      "unte": 5430,
      "Ġseats": 5431,
      "igrants": 5432,
      "oli": 5433,
      "ĠRen": 5434,
      "Ġoccurred": 5435,
      "ader": 5436,
      "Ġwing": 5437,
      "opher": 5438,
      "ambiguation": 5439,
      "ĠWat": 5440,
      "ĠHart": 5441,
      "2005": 5442,
      "Ġchairman": 5443,
      "ĠEntertain": 5444,
      "Ġgained": 5445,
      "ĠSport": 5446,
      "oti": 5447,
      "Ġmedian": 5448,
      "Ġblood": 5449,
      "Ġneeded": 5450,
      "ĠPhilip": 5451,
      "inus": 5452,
      "Ġacting": 5453,
      "ĠLewis": 5454,
      "Ġfigure": 5455,
      "Ġflag": 5456,
      "Ġrecon": 5457,
      "Ġdisease": 5458,
      "Ġsuffered": 5459,
      "Ġconclud": 5460,
      "Ġbad": 5461,
      "ĠFa": 5462,
      "Ġadopted": 5463,
      "ĠMelbourne": 5464,
      "Ġ1929": 5465,
      "Ġsens": 5466,
      "ĠBos": 5467,
      "Ġcoin": 5468,
      "Ġcrime": 5469,
      "wealth": 5470,
      "ĠTs": 5471,
      "500": 5472,
      "Ġpoll": 5473,
      "Ġserves": 5474,
      "eder": 5475,
      "ĠMoscow": 5476,
      "itness": 5477,
      "ĠTen": 5478,
      "Ġstream": 5479,
      "Ġdistribution": 5480,
      "Ġenter": 5481,
      "HL": 5482,
      "rainian": 5483,
      "spe": 5484,
      "Ġanalysis": 5485,
      "Ġcorrespond": 5486,
      "',": 5487,
      "Ġcombined": 5488,
      "uls": 5489,
      "iminal": 5490,
      "ĠProduction": 5491,
      "Ġjournalist": 5492,
      "lah": 5493,
      "Ġcommittee": 5494,
      "Ġcontent": 5495,
      "Ġ38": 5496,
      "orter": 5497,
      "ĠTest": 5498,
      "ansion": 5499,
      "Ġjoint": 5500,
      "TA": 5501,
      "ĠSeason": 5502,
      "ĠAbb": 5503,
      "Ġcancer": 5504,
      "Ġquality": 5505,
      "Ġprec": 5506,
      "2012": 5507,
      "Ġvess": 5508,
      "ĠHor": 5509,
      "Ġpolitics": 5510,
      "Ġresident": 5511,
      "Ġ1933": 5512,
      "orph": 5513,
      "Ġ1934": 5514,
      "ingham": 5515,
      "ĠStock": 5516,
      "ĠEngineering": 5517,
      "yes": 5518,
      "ĠSpring": 5519,
      "Ġproblem": 5520,
      "oster": 5521,
      "Ġrare": 5522,
      "2004": 5523,
      "Ġurban": 5524,
      "ancing": 5525,
      "ĠAbd": 5526,
      "asters": 5527,
      "Ġcontemporary": 5528,
      "Ġgovernor": 5529,
      "uguese": 5530,
      "Ġhabit": 5531,
      "olid": 5532,
      "An": 5533,
      "kes": 5534,
      "Ġtypically": 5535,
      "Ġperformances": 5536,
      "yond": 5537,
      "ĠCroat": 5538,
      "Ġretire": 5539,
      "place": 5540,
      "alo": 5541,
      "pet": 5542,
      "ething": 5543,
      "ĠRound": 5544,
      "Ġmentioned": 5545,
      "Ġofficials": 5546,
      "Ġbig": 5547,
      "Ġnominated": 5548,
      "91": 5549,
      "ĠHeart": 5550,
      "Ġcoming": 5551,
      "law": 5552,
      "Ġunc": 5553,
      "idi": 5554,
      "Ġindustrial": 5555,
      "ashion": 5556,
      "ibly": 5557,
      "ĠHard": 5558,
      "Ġhundred": 5559,
      "Ġfiction": 5560,
      "works": 5561,
      "ĠTurkish": 5562,
      "Ġpresence": 5563,
      "ĠBon": 5564,
      "Ġblue": 5565,
      "ĠVo": 5566,
      "Ġlabor": 5567,
      "gar": 5568,
      "ĠQueensland": 5569,
      "Ġhor": 5570,
      "2013": 5571,
      "ovi": 5572,
      "92": 5573,
      "Sh": 5574,
      "Ġeducated": 5575,
      "pass": 5576,
      "ĠJews": 5577,
      "ante": 5578,
      "ĠKhan": 5579,
      "Ġexc": 5580,
      "iti": 5581,
      "olved": 5582,
      "wing": 5583,
      "li": 5584,
      "iral": 5585,
      "VID": 5586,
      "iders": 5587,
      "ĠHou": 5588,
      "Ġfast": 5589,
      "vard": 5590,
      "ician": 5591,
      "isa": 5592,
      "iling": 5593,
      "ĠAddition": 5594,
      "Ġprin": 5595,
      "hedral": 5596,
      "Ġcolumn": 5597,
      "Ġcoal": 5598,
      "disambiguation": 5599,
      "Ġresulted": 5600,
      "ĠBalt": 5601,
      "gi": 5602,
      "Ġlargely": 5603,
      "osophy": 5604,
      "Ġprobably": 5605,
      "Ġrecognized": 5606,
      "mouth": 5607,
      "ĠIowa": 5608,
      "oted": 5609,
      "ĠAustria": 5610,
      "Ġir": 5611,
      "Ġec": 5612,
      "pson": 5613,
      "aks": 5614,
      "Ġabandon": 5615,
      "Ġreserv": 5616,
      "ĠArk": 5617,
      "ĠCommonwealth": 5618,
      "former": 5619,
      "Ġ1924": 5620,
      "da": 5621,
      "Ġdamage": 5622,
      "Ġboy": 5623,
      "ĠGil": 5624,
      "Ġmiles": 5625,
      "ĠBrother": 5626,
      "Ġconcent": 5627,
      "ĠKentucky": 5628,
      "uate": 5629,
      "Ġhop": 5630,
      "ĠEc": 5631,
      "Ġcab": 5632,
      "ĠOt": 5633,
      "ĠRang": 5634,
      "ĠDown": 5635,
      "osen": 5636,
      "ĠCab": 5637,
      "Ġpainting": 5638,
      "Ġburied": 5639,
      "ĠBah": 5640,
      "vo": 5641,
      "ĠSportspeople": 5642,
      "Ġcam": 5643,
      "GB": 5644,
      "Ġwidely": 5645,
      "acter": 5646,
      "Ġscoring": 5647,
      "56": 5648,
      "Ġcode": 5649,
      "Ġexpanded": 5650,
      "olis": 5651,
      "Ġexpected": 5652,
      "Ġsexual": 5653,
      "Ġ37": 5654,
      "Ġvillages": 5655,
      "Ġarts": 5656,
      "ĠShip": 5657,
      "Ġ1932": 5658,
      "Ġ1900": 5659,
      "Ġranked": 5660,
      "ĠSquadron": 5661,
      "Ġsportspeople": 5662,
      "Ġclassical": 5663,
      "Ġbra": 5664,
      "ĠEntertainment": 5665,
      "Ġsquare": 5666,
      "Ġnewly": 5667,
      "ĠHarry": 5668,
      "Ġrecomm": 5669,
      "agh": 5670,
      "Ġidentified": 5671,
      "Ġcritical": 5672,
      "Ġfelt": 5673,
      "Ġhar": 5674,
      "Ġdefend": 5675,
      "aro": 5676,
      "ocese": 5677,
      "Ġgranted": 5678,
      "iques": 5679,
      "Ġmm": 5680,
      "ĠArea": 5681,
      "Ġmill": 5682,
      "cles": 5683,
      "Ġsearch": 5684,
      "ĠBelg": 5685,
      "ĠCape": 5686,
      "ĠWalter": 5687,
      "ĠHur": 5688,
      "Ġpict": 5689,
      "formed": 5690,
      "bi": 5691,
      "ĠKitt": 5692,
      "aine": 5693,
      "Ġrom": 5694,
      "Ġfish": 5695,
      "Ġsecondary": 5696,
      "Ġadapt": 5697,
      "ĠTony": 5698,
      "ĠManagement": 5699,
      "ho": 5700,
      "Ġdrums": 5701,
      "Ġstarring": 5702,
      "Ġalle": 5703,
      "mitted": 5704,
      "Ġcouple": 5705,
      "ĠDanish": 5706,
      "rog": 5707,
      "ĠGi": 5708,
      "Ġlosing": 5709,
      "usion": 5710,
      "ĠLike": 5711,
      "Ġbillion": 5712,
      "Ġweight": 5713,
      "2014": 5714,
      "ĠSwiss": 5715,
      "season": 5716,
      "Ġconcert": 5717,
      "last": 5718,
      "etting": 5719,
      "Ġdistance": 5720,
      "Ġtaught": 5721,
      "Ġcondition": 5722,
      "ting": 5723,
      "ilation": 5724,
      "Ġcoaches": 5725,
      "Ġsales": 5726,
      "Ġcreation": 5727,
      "ĠHans": 5728,
      "ĠVietnam": 5729,
      "Ġmess": 5730,
      "ĠNick": 5731,
      "Ġreduced": 5732,
      "viation": 5733,
      "Ġcommander": 5734,
      "Ġtheatre": 5735,
      "Ġresulting": 5736,
      "ĠCOVID": 5737,
      "Ġpressure": 5738,
      "Ġwild": 5739,
      "Ġ1927": 5740,
      "Ġtherefore": 5741,
      "Ġbal": 5742,
      "Ġoffers": 5743,
      "ĠRon": 5744,
      "05": 5745,
      "87": 5746,
      "Ġpremier": 5747,
      "ĠInfantry": 5748,
      "itzerland": 5749,
      "ĠPortuguese": 5750,
      "ĠProfessional": 5751,
      "2003": 5752,
      "ĠSix": 5753,
      "Ġcaptain": 5754,
      "ĠGord": 5755,
      "claim": 5756,
      "ĠRecord": 5757,
      "ĠRegional": 5758,
      "Ġinstrument": 5759,
      "Ġ1912": 5760,
      "ĠSimon": 5761,
      "41": 5762,
      "ĠAst": 5763,
      "ocated": 5764,
      "Ġsecret": 5765,
      "2015": 5766,
      "Ġspons": 5767,
      "ĠUkrainian": 5768,
      "pur": 5769,
      "ĠThrough": 5770,
      "ĠTan": 5771,
      "ĠAmong": 5772,
      "ĠSele": 5773,
      "Ġtwice": 5774,
      "ĠTreat": 5775,
      "Ġloan": 5776,
      "ĠHand": 5777,
      "Ġtim": 5778,
      "Ġrecently": 5779,
      "Ġauthorities": 5780,
      "aling": 5781,
      "Ġarrested": 5782,
      "mes": 5783,
      "ĠBeng": 5784,
      "42": 5785,
      "Ġsurname": 5786,
      "ST": 5787,
      "VD": 5788,
      "ĠFinn": 5789,
      "Ġ1931": 5790,
      "ictional": 5791,
      "Ġstrugg": 5792,
      "ads": 5793,
      "ordin": 5794,
      "orney": 5795,
      "ĠNik": 5796,
      "Ġyounger": 5797,
      "Ġformation": 5798,
      "ĠNCAA": 5799,
      "IC": 5800,
      "Ġprep": 5801,
      "Ġinjury": 5802,
      "Ġgraph": 5803,
      "Ġbegins": 5804,
      "pa": 5805,
      "Ġformerly": 5806,
      "umes": 5807,
      "ipe": 5808,
      "Ġ1922": 5809,
      "Ġracing": 5810,
      "ĠBulg": 5811,
      "ymn": 5812,
      "ĠLabor": 5813,
      "iot": 5814,
      "ĠArmen": 5815,
      "07": 5816,
      "Ġattacks": 5817,
      "ĠDrag": 5818,
      "ĠStaff": 5819,
      "ĠAlb": 5820,
      "Ġversions": 5821,
      "ĠGreece": 5822,
      "Ġwall": 5823,
      "miss": 5824,
      "06": 5825,
      "ĠIl": 5826,
      "Ġsurrounding": 5827,
      "lahoma": 5828,
      "ĠIsraeli": 5829,
      "Ġfinish": 5830,
      "Ġthous": 5831,
      "Ġcritics": 5832,
      "ĠPlan": 5833,
      "Ġproviding": 5834,
      "ĠArchite": 5835,
      "ĠAffairs": 5836,
      "bra": 5837,
      "ĠAnne": 5838,
      "ĠGer": 5839,
      "Ġrestaur": 5840,
      "ayer": 5841,
      "ĠAud": 5842,
      "Ġdisestabl": 5843,
      "2001": 5844,
      "Ġknowledge": 5845,
      "osis": 5846,
      "Ġce": 5847,
      "ĠPhys": 5848,
      "ĠReal": 5849,
      "mont": 5850,
      "Ġserious": 5851,
      "08": 5852,
      "ĠAli": 5853,
      "rell": 5854,
      "Ġtree": 5855,
      "ĠTokyo": 5856,
      "ĠMiller": 5857,
      "asion": 5858,
      "TC": 5859,
      "Ġvocal": 5860,
      "Ġ1921": 5861,
      "Ġpattern": 5862,
      "ĠBec": 5863,
      "Ġ1925": 5864,
      "ĠBillboard": 5865,
      "Ġshowed": 5866,
      "Ġobtained": 5867,
      "pool": 5868,
      "ĠTrust": 5869,
      "Ġcarri": 5870,
      "Ġstatistics": 5871,
      "ĠJacob": 5872,
      "anning": 5873,
      "ogue": 5874,
      "Ġsplit": 5875,
      "Ġinteg": 5876,
      "ĠNap": 5877,
      "Ġregions": 5878,
      "ĠSpacewatch": 5879,
      "ĠBetween": 5880,
      "ĠGab": 5881,
      "Ġtrains": 5882,
      "Ġ1926": 5883,
      "aints": 5884,
      "ĠDomin": 5885,
      "ĠSwitzerland": 5886,
      "incoln": 5887,
      "Ġreceive": 5888,
      "ĠOriginal": 5889,
      "ĠKat": 5890,
      "Ġpaid": 5891,
      "ivals": 5892,
      "ĠPict": 5893,
      "Ġlibrary": 5894,
      "ĠAlab": 5895,
      "ĠJane": 5896,
      "ĠThird": 5897,
      "ographer": 5898,
      "ĠHoly": 5899,
      "Ġbow": 5900,
      "ori": 5901,
      "ĠSenior": 5902,
      "Ġfestival": 5903,
      "ĠManchester": 5904,
      "gro": 5905,
      "Ġpropos": 5906,
      "pri": 5907,
      "ruit": 5908,
      "ĠChristmas": 5909,
      "ugal": 5910,
      "Ġnotes": 5911,
      "ĠAnderson": 5912,
      "ĠServices": 5913,
      "ĠEmperor": 5914,
      "Ġpack": 5915,
      "ĠBuildings": 5916,
      "Ġnet": 5917,
      "zh": 5918,
      "ĠOklahoma": 5919,
      "lines": 5920,
      "Ġcells": 5921,
      "Ġdesignated": 5922,
      "iny": 5923,
      "ogs": 5924,
      "Ġsuppl": 5925,
      "Ġspring": 5926,
      "ĠRa": 5927,
      "Ġliber": 5928,
      "ĠChampions": 5929,
      "ĠFac": 5930,
      "eline": 5931,
      "iller": 5932,
      "Ġimage": 5933,
      "Ġmayor": 5934,
      "Ġsuggested": 5935,
      "2016": 5936,
      "ĠBrian": 5937,
      "Ġkept": 5938,
      "Ġmarked": 5939,
      "mun": 5940,
      "Ġclaims": 5941,
      "Ġtrue": 5942,
      "Ġlaunch": 5943,
      "Ġdial": 5944,
      "ifications": 5945,
      "Ġhy": 5946,
      "ouses": 5947,
      "Ġmanagers": 5948,
      "Ġtwenty": 5949,
      "ĠKam": 5950,
      "Ġregul": 5951,
      "ĠProte": 5952,
      "icians": 5953,
      "ĠBarn": 5954,
      "ĠTurn": 5955,
      "Ġvehicles": 5956,
      "Ġconflict": 5957,
      "Ġentry": 5958,
      "ĠChildren": 5959,
      "Ġinspired": 5960,
      "Ġpainter": 5961,
      "ĠAle": 5962,
      "2002": 5963,
      "Ġfigures": 5964,
      "100": 5965,
      "Ġ1923": 5966,
      "ĠPoint": 5967,
      "Ġreports": 5968,
      "49": 5969,
      "Ġhall": 5970,
      "Ġexperiment": 5971,
      "Ġspirit": 5972,
      "Ġgives": 5973,
      "Ġ1916": 5974,
      "ĠNaval": 5975,
      "ateur": 5976,
      "Ġheadquarters": 5977,
      "Ġsixth": 5978,
      "Ġsupply": 5979,
      "ĠDue": 5980,
      "fef": 5981,
      "ĠZh": 5982,
      "Ġmales": 5983,
      "Ġbott": 5984,
      "ĠFront": 5985,
      "ĠReception": 5986,
      "ĠMcG": 5987,
      "andy": 5988,
      "ĠPop": 5989,
      "room": 5990,
      "Ġroyal": 5991,
      "Ġconnected": 5992,
      "Ġcontinues": 5993,
      "Ġwins": 5994,
      "43": 5995,
      "89": 5996,
      "Ġshop": 5997,
      "Ġdensity": 5998,
      "Ġtraffic": 5999,
      "Ġportray": 6000,
      "ĠRun": 6001,
      "ĠFord": 6002,
      "ublin": 6003,
      "Ġ1915": 6004,
      "ques": 6005,
      "New": 6006,
      "ĠFil": 6007,
      "ĠLemmon": 6008,
      "ER": 6009,
      "Ġslight": 6010,
      "Ġactually": 6011,
      "Ġjudge": 6012,
      "ĠPrin": 6013,
      "cha": 6014,
      "2017": 6015,
      "Ġ75": 6016,
      ";\"|": 6017,
      "lywood": 6018,
      "Ġaim": 6019,
      "oking": 6020,
      "Ġtheme": 6021,
      "rip": 6022,
      "also": 6023,
      "Ġmaterials": 6024,
      "Ġpartner": 6025,
      "Ġnortheast": 6026,
      "rator": 6027,
      "Ġopposition": 6028,
      "ooth": 6029,
      "oths": 6030,
      "Ġcompon": 6031,
      "ĠAlabama": 6032,
      "ĠLieutenant": 6033,
      "ĠHoward": 6034,
      "Ġpurpose": 6035,
      "ĠAlbums": 6036,
      "Ġpromotion": 6037,
      "Ġsucceeded": 6038,
      "ĠLabour": 6039,
      "ĠBasketball": 6040,
      "olished": 6041,
      "Ġclimate": 6042,
      "ĠLow": 6043,
      "enez": 6044,
      "uous": 6045,
      "ĠLincoln": 6046,
      "ĠRose": 6047,
      "fefefe": 6048,
      "Ġgreater": 6049,
      "rin": 6050,
      "Ġteaching": 6051,
      "ĠFame": 6052,
      "ĠHamilton": 6053,
      "roit": 6054,
      "ĠNative": 6055,
      "vens": 6056,
      "Ġetc": 6057,
      "ĠEric": 6058,
      "lan": 6059,
      "ĠIV": 6060,
      "67": 6061,
      "Ġcompetitions": 6062,
      "ĠSingles": 6063,
      "Ġfacility": 6064,
      "ĠBattalion": 6065,
      "Ġtried": 6066,
      "agu": 6067,
      "AA": 6068,
      "ĠTel": 6069,
      "ĠPlot": 6070,
      "Ġallowing": 6071,
      "ionally": 6072,
      "life": 6073,
      "Ġsays": 6074,
      "ĠBurn": 6075,
      "Ġtalk": 6076,
      "ĠMississ": 6077,
      "bot": 6078,
      "ĠAustrian": 6079,
      "Ġbatt": 6080,
      "ecutive": 6081,
      "ĠDougl": 6082,
      "Ġpreserv": 6083,
      "01": 6084,
      "ĠSn": 6085,
      "Ġpair": 6086,
      "ĠKy": 6087,
      "offs": 6088,
      "rac": 6089,
      "ĠNich": 6090,
      "ĠKaz": 6091,
      "ĠForces": 6092,
      "ĠYouth": 6093,
      "which": 6094,
      "Ġ42": 6095,
      "Ġaccident": 6096,
      "Ġtells": 6097,
      "ikh": 6098,
      "ĠMarine": 6099,
      "Ġvisit": 6100,
      "Ġtower": 6101,
      "Ġhistorian": 6102,
      "Ġscript": 6103,
      "Ġ@": 6104,
      "Ġpublication": 6105,
      "hess": 6106,
      "ippi": 6107,
      "Ġcert": 6108,
      "Ġsingers": 6109,
      "ĠChannel": 6110,
      "eding": 6111,
      "ĠSurvey": 6112,
      "Ġscientific": 6113,
      "Ġcannot": 6114,
      "east": 6115,
      "urance": 6116,
      "ĠDescription": 6117,
      "ĠMountains": 6118,
      "ordan": 6119,
      "Ġreturning": 6120,
      "Ġgrowing": 6121,
      "ĠExpatriate": 6122,
      "ĠLocal": 6123,
      "achelor": 6124,
      "Ġfully": 6125,
      "Ġexisting": 6126,
      "cticut": 6127,
      "ĠBuilding": 6128,
      "ĠHarvard": 6129,
      "ĠArgentina": 6130,
      "Ġapplied": 6131,
      "Ġlett": 6132,
      "Ġple": 6133,
      "Ġalone": 6134,
      "ureau": 6135,
      "Ġsituation": 6136,
      "ĠHonor": 6137,
      "Ġslow": 6138,
      "ĠCurrent": 6139,
      "Ġmom": 6140,
      "ĠNow": 6141,
      "Ġallows": 6142,
      "adi": 6143,
      "related": 6144,
      "2018": 6145,
      "uther": 6146,
      "box": 6147,
      "stic": 6148,
      "Ġaired": 6149,
      "idge": 6150,
      "ologists": 6151,
      "Ġoppos": 6152,
      "inth": 6153,
      "ĠCost": 6154,
      "Ġdraft": 6155,
      "Ġmetres": 6156,
      "ĠTemple": 6157,
      "dam": 6158,
      "Ġspot": 6159,
      "ĠWolf": 6160,
      "Ġmusician": 6161,
      "stan": 6162,
      "Ġfighting": 6163,
      "ĠDom": 6164,
      "ĠRoll": 6165,
      "Ġmagn": 6166,
      "finals": 6167,
      "ĠMit": 6168,
      "Ġyellow": 6169,
      "Ġmeasure": 6170,
      "istry": 6171,
      "hol": 6172,
      "57": 6173,
      "ĠPrix": 6174,
      "ĠProt": 6175,
      "ĠGram": 6176,
      "Ġcart": 6177,
      "Ġmut": 6178,
      "'.": 6179,
      "Ġmap": 6180,
      "hr": 6181,
      "Ġsituated": 6182,
      "ĠMorris": 6183,
      "Ġdiplom": 6184,
      "iser": 6185,
      "ardo": 6186,
      "Ġsuit": 6187,
      "ials": 6188,
      "Ġ1913": 6189,
      "Ġunique": 6190,
      "uv": 6191,
      "Don": 6192,
      "Ġwant": 6193,
      "wich": 6194,
      "Ġsons": 6195,
      "ĠJam": 6196,
      "ĠConnecticut": 6197,
      "2019": 6198,
      "ĠStone": 6199,
      "Ġbrothers": 6200,
      "ĠAnthony": 6201,
      "Ġsafety": 6202,
      "Ġadvanced": 6203,
      "Ġprint": 6204,
      "ĠLas": 6205,
      "aste": 6206,
      "Ġmaintain": 6207,
      "ĠHistorical": 6208,
      "Ġheav": 6209,
      "Ġearth": 6210,
      "Ġfeet": 6211,
      "ĠNag": 6212,
      "Ġguest": 6213,
      "inguished": 6214,
      "olas": 6215,
      "cluding": 6216,
      "organ": 6217,
      "ĠSecurity": 6218,
      "Ġsides": 6219,
      "ĠPatrick": 6220,
      "ĠBrand": 6221,
      "Ġagent": 6222,
      "erald": 6223,
      "ĠColomb": 6224,
      "Ġoldest": 6225,
      "ĠLank": 6226,
      "ĠQuebec": 6227,
      "ĠTaiwan": 6228,
      "Ġclasses": 6229,
      "igenous": 6230,
      "Ġhands": 6231,
      "onom": 6232,
      "ĠStory": 6233,
      "chi": 6234,
      "outs": 6235,
      "ĠSilver": 6236,
      "atal": 6237,
      "ester": 6238,
      "Ġflood": 6239,
      "Ġbill": 6240,
      "ello": 6241,
      "ĠAuthor": 6242,
      "Ġlyrics": 6243,
      "ĠKarl": 6244,
      "ĠDur": 6245,
      "ĠKu": 6246,
      "ĠJay": 6247,
      "ĠWell": 6248,
      "ĠSunday": 6249,
      "Ġcharts": 6250,
      "ĠNFL": 6251,
      "Ġgoes": 6252,
      "cont": 6253,
      "Ġthings": 6254,
      "Ġlot": 6255,
      "ĠErn": 6256,
      "Ġvice": 6257,
      "Ġhorse": 6258,
      "ĠCulture": 6259,
      "ĠMagazine": 6260,
      "anton": 6261,
      "Ġnarrow": 6262,
      "Ġpun": 6263,
      "elsh": 6264,
      "ĠJuan": 6265,
      "Ġchosen": 6266,
      "sort": 6267,
      "ĠNa": 6268,
      "ĠRural": 6269,
      "Ġsets": 6270,
      "ĠPot": 6271,
      "joy": 6272,
      "Ġarms": 6273,
      "inema": 6274,
      "ĠCensus": 6275,
      "ĠLin": 6276,
      "Ġgall": 6277,
      "imens": 6278,
      "68": 6279,
      "ĠBecause": 6280,
      "Ġlocomot": 6281,
      "Ġexchange": 6282,
      "ĠNon": 6283,
      "atus": 6284,
      "Ġtemple": 6285,
      "Ġmeant": 6286,
      "ression": 6287,
      "oslav": 6288,
      "ĠVis": 6289,
      "ĠWy": 6290,
      "ĠHun": 6291,
      "ĠHouston": 6292,
      "Ġcorpor": 6293,
      "died": 6294,
      "Ġeas": 6295,
      "Ġrisk": 6296,
      "ĠTar": 6297,
      "ĠBrigade": 6298,
      "Ġthir": 6299,
      "Ġsail": 6300,
      "Ġportion": 6301,
      "ĠLouisiana": 6302,
      "Ġalt": 6303,
      "Ġcommissioned": 6304,
      "ĠHamp": 6305,
      "Ġproceed": 6306,
      "ĠDiego": 6307,
      "zz": 6308,
      "yers": 6309,
      "Ġsuggest": 6310,
      "ĠLiberal": 6311,
      "ĠLar": 6312,
      "ĠNY": 6313,
      "zen": 6314,
      "Ġchalleng": 6315,
      "Ġroll": 6316,
      "Ġbought": 6317,
      "Ġauthority": 6318,
      "Ġ1911": 6319,
      "Ġprincipal": 6320,
      "rait": 6321,
      "ĠTun": 6322,
      "lades": 6323,
      "Ġnob": 6324,
      "igration": 6325,
      "Ġcompletely": 6326,
      "Ġfolk": 6327,
      "ĠLtd": 6328,
      "ĠAllen": 6329,
      "Ġneighborhood": 6330,
      "Ġachieved": 6331,
      "Ġholds": 6332,
      "Ġanimals": 6333,
      "ĠBelgium": 6334,
      "Ġcustom": 6335,
      "Ġreference": 6336,
      "Ġsoutheast": 6337,
      "ĠHockey": 6338,
      "ĠChall": 6339,
      "ĠCemetery": 6340,
      "ĠDream": 6341,
      "1999": 6342,
      "elve": 6343,
      "ĠSeveral": 6344,
      "value": 6345,
      "ĠAbout": 6346,
      "Ġglobal": 6347,
      "pects": 6348,
      "des": 6349,
      "Ġrefused": 6350,
      "ui": 6351,
      "Se": 6352,
      "ĠRace": 6353,
      "Ġprotection": 6354,
      "ĠPuerto": 6355,
      "ĠVin": 6356,
      "Ġexhibition": 6357,
      "aming": 6358,
      "ĠBry": 6359,
      "ĠToday": 6360,
      "51": 6361,
      "Ġattempted": 6362,
      "ĠAmericans": 6363,
      "under": 6364,
      "Ġapproved": 6365,
      "oes": 6366,
      "Ġinters": 6367,
      "ager": 6368,
      "Ġrapid": 6369,
      "uccess": 6370,
      "jo": 6371,
      "Ġcontain": 6372,
      "ĠVice": 6373,
      "ĠPap": 6374,
      "aux": 6375,
      "Ġ48": 6376,
      "Ġsoccer": 6377,
      "Ġtennis": 6378,
      "Ġvehicle": 6379,
      "ĠSin": 6380,
      "Ġsym": 6381,
      "Ġsettled": 6382,
      "Ġlake": 6383,
      "64": 6384,
      "ĠGordon": 6385,
      "Ġfans": 6386,
      "ĠGib": 6387,
      "ĠHungarian": 6388,
      "Ġactions": 6389,
      "Ġcreating": 6390,
      "Ġ41": 6391,
      "ĠDouglas": 6392,
      "Ġdefined": 6393,
      "Ġvisited": 6394,
      "ĠDetroit": 6395,
      "Ġadvert": 6396,
      "ĠLegislative": 6397,
      "Ġending": 6398,
      "Ġnecessary": 6399,
      "ifically": 6400,
      "ĠPortugal": 6401,
      "ĠTerrit": 6402,
      "Ġfair": 6403,
      "IT": 6404,
      "ressed": 6405,
      "Ġcombat": 6406,
      "ĠPed": 6407,
      "ĠAntonio": 6408,
      "inder": 6409,
      "iami": 6410,
      "iva": 6411,
      "SR": 6412,
      "ĠDenmark": 6413,
      "ĠOfficer": 6414,
      "agen": 6415,
      "ridges": 6416,
      "prise": 6417,
      "Ġsimply": 6418,
      "Ġpilot": 6419,
      "car": 6420,
      "Ġattacked": 6421,
      "iversary": 6422,
      "ĠHeritage": 6423,
      "ti": 6424,
      "ĠSel": 6425,
      "aren": 6426,
      "Ġstorm": 6427,
      "ĠPlayer": 6428,
      "Ġaudience": 6429,
      "ĠMississippi": 6430,
      "Ġconsisted": 6431,
      "achers": 6432,
      "Ġreceiving": 6433,
      "uma": 6434,
      "Ġcontaining": 6435,
      "Ġ1908": 6436,
      "Ġaged": 6437,
      "Ġadvance": 6438,
      "bar": 6439,
      "oured": 6440,
      "Ġfounding": 6441,
      "Ġopera": 6442,
      "Ġresources": 6443,
      "Ġdirectors": 6444,
      "ĠAD": 6445,
      "ĠIslamic": 6446,
      "uri": 6447,
      "Ġunable": 6448,
      "ĠTrib": 6449,
      "ĠAC": 6450,
      "Ġvolume": 6451,
      "secutive": 6452,
      "ĠBanglades": 6453,
      "Ġmethods": 6454,
      "Ġrepresentative": 6455,
      "ĠNar": 6456,
      "ĠOak": 6457,
      "ĠMand": 6458,
      "Ġconsum": 6459,
      "Ġrepresenting": 6460,
      "gor": 6461,
      "ĠFrederick": 6462,
      "ĠEnvironment": 6463,
      "Ġexpansion": 6464,
      "ĠSamuel": 6465,
      "Ġinhabit": 6466,
      "Ġsubsequent": 6467,
      "Ġdaily": 6468,
      "Ġlocations": 6469,
      "Ġactresses": 6470,
      "Ġproperties": 6471,
      "Ġattempts": 6472,
      "Ġrain": 6473,
      "Ġflow": 6474,
      "Ġgod": 6475,
      "ĠExpress": 6476,
      "ĠNatural": 6477,
      "09": 6478,
      "Ġfought": 6479,
      "agan": 6480,
      "Ġbroke": 6481,
      "weet": 6482,
      "Ġroof": 6483,
      "ista": 6484,
      "ĠBerg": 6485,
      "ĠAlan": 6486,
      "ĠIndependent": 6487,
      "Ġsimple": 6488,
      "Ġmachine": 6489,
      "Ġtele": 6490,
      "Ġtrees": 6491,
      "ĠDal": 6492,
      "lets": 6493,
      "risis": 6494,
      "Ġscheduled": 6495,
      "ĠInformation": 6496,
      "ĠFern": 6497,
      "agues": 6498,
      "ni": 6499,
      "Ġvent": 6500,
      "ĠSky": 6501,
      "Ġshared": 6502,
      "ghan": 6503,
      "Ġrespond": 6504,
      "ĠMusical": 6505,
      "Ġfrequently": 6506,
      "ĠMaur": 6507,
      "ĠRivers": 6508,
      "Ġretirement": 6509,
      "iley": 6510,
      "ĠPitts": 6511,
      "ĠRab": 6512,
      "Ġburn": 6513,
      "iments": 6514,
      "abad": 6515,
      "Ġcandidates": 6516,
      "Ġwear": 6517,
      "PA": 6518,
      "ĠWhit": 6519,
      "Ġjazz": 6520,
      "Ġexclus": 6521,
      "Ġ;": 6522,
      "Ġstock": 6523,
      "oen": 6524,
      "ĠRoc": 6525,
      "osed": 6526,
      "ĠYour": 6527,
      "52": 6528,
      "iner": 6529,
      "Ġoppon": 6530,
      "PS": 6531,
      "ĠAndre": 6532,
      "ania": 6533,
      "Ġspect": 6534,
      "ĠClark": 6535,
      "Ġconverted": 6536,
      "53": 6537,
      "Ġpiece": 6538,
      "Ġrelatively": 6539,
      "Ġsomething": 6540,
      "Ġdriver": 6541,
      "Ġstraight": 6542,
      "Ġqualified": 6543,
      "actions": 6544,
      "Ġmemory": 6545,
      "ĠPhill": 6546,
      "Ġliterary": 6547,
      "Ġchampions": 6548,
      "ĠWelsh": 6549,
      "Ġpresidential": 6550,
      "ĠJordan": 6551,
      "Ġdefin": 6552,
      "Ġeffective": 6553,
      "Ġcopies": 6554,
      "54": 6555,
      "Ġguns": 6556,
      "Ġunderst": 6557,
      "uses": 6558,
      "ĠPun": 6559,
      "stitutional": 6560,
      "igation": 6561,
      "ĠBan": 6562,
      "enny": 6563,
      "ĠExecutive": 6564,
      "po": 6565,
      "ĠBird": 6566,
      "Ġwinter": 6567,
      "ĠKa": 6568,
      "Ġlit": 6569,
      "ĠDoctor": 6570,
      "Ġ300": 6571,
      "ieval": 6572,
      "Ġmis": 6573,
      "Ġmorning": 6574,
      "long": 6575,
      "Ġincident": 6576,
      "ĠUN": 6577,
      "ĠLI": 6578,
      "Ġultimately": 6579,
      "Ġchurches": 6580,
      "Ġrecip": 6581,
      "Ġdrive": 6582,
      "ĠAlban": 6583,
      "ĠBou": 6584,
      "opter": 6585,
      "ĠIndonesia": 6586,
      "Ġinaug": 6587,
      "rum": 6588,
      "Ġgirls": 6589,
      "ĠInternet": 6590,
      "Ġdropped": 6591,
      "Ġtrust": 6592,
      "Ġfocused": 6593,
      "Ġappoint": 6594,
      "ĠAge": 6595,
      "Ġpolic": 6596,
      "Ġdomestic": 6597,
      "Ġoccupied": 6598,
      "enh": 6599,
      "Ġcovers": 6600,
      "Ġresc": 6601,
      "84": 6602,
      "Ġdefense": 6603,
      "Ġends": 6604,
      "ĠHotel": 6605,
      "Ġauth": 6606,
      "gment": 6607,
      "ĠMiami": 6608,
      "ĠFell": 6609,
      "fall": 6610,
      "Ġfaced": 6611,
      "ĠGard": 6612,
      "Ġperforming": 6613,
      "ĠVillage": 6614,
      "Ġsum": 6615,
      "ented": 6616,
      "ĠCompet": 6617,
      "udi": 6618,
      "Ġshortly": 6619,
      "Ġcho": 6620,
      "Ġnegoti": 6621,
      "ĠLam": 6622,
      "inburgh": 6623,
      "ĠEag": 6624,
      "ĠCricket": 6625,
      "lad": 6626,
      "Ġcategory": 6627,
      "Ġprofile": 6628,
      "Ġrang": 6629,
      "Ġalleged": 6630,
      "Ġ46": 6631,
      "Ġentitled": 6632,
      "ĠSquare": 6633,
      "ĠSchools": 6634,
      "odox": 6635,
      "oa": 6636,
      "Ġconsecutive": 6637,
      "ĠAdministration": 6638,
      "ĠBox": 6639,
      "phas": 6640,
      "ĠCultural": 6641,
      "ige": 6642,
      "wise": 6643,
      "Ġast": 6644,
      "Ġrecognition": 6645,
      "aza": 6646,
      "Ġrear": 6647,
      "ĠDave": 6648,
      "04": 6649,
      "orders": 6650,
      "Ġopposed": 6651,
      "Ġprotest": 6652,
      "Ġseem": 6653,
      "ĠDh": 6654,
      "US": 6655,
      "ĠUC": 6656,
      "anes": 6657,
      "AM": 6658,
      "ĠPrior": 6659,
      "structure": 6660,
      "alty": 6661,
      "Ġharm": 6662,
      "ĠFund": 6663,
      "Ġiron": 6664,
      "ĠPalest": 6665,
      "Ġ43": 6666,
      "ĠCall": 6667,
      "Ġheight": 6668,
      "Ġtouchdown": 6669,
      "Ġsetting": 6670,
      "Ġlearning": 6671,
      "fficient": 6672,
      "Ġconsult": 6673,
      "Ġdecor": 6674,
      "ĠVillages": 6675,
      "ĠDak": 6676,
      "ĠImperial": 6677,
      "ĠKer": 6678,
      "Ġidentity": 6679,
      "1998": 6680,
      "iki": 6681,
      "Ġinternal": 6682,
      "ĠBureau": 6683,
      "ogen": 6684,
      "Ġkilling": 6685,
      "ĠDublin": 6686,
      "ĠPope": 6687,
      "Ġmaximum": 6688,
      "udget": 6689,
      "orough": 6690,
      "ĠAcademic": 6691,
      "Ġinvestigation": 6692,
      "ĠKey": 6693,
      "pret": 6694,
      "Ġairport": 6695,
      "Ġacts": 6696,
      "ĠFarm": 6697,
      "awn": 6698,
      "72": 6699,
      "ook": 6700,
      "Ġ1890": 6701,
      "Ġmicro": 6702,
      "ĠMach": 6703,
      "enz": 6704,
      "Ġpermanent": 6705,
      "ĠLanc": 6706,
      "ĠDa": 6707,
      "ĠOrth": 6708,
      "Ġprepar": 6709,
      "lov": 6710,
      "fully": 6711,
      "dale": 6712,
      "Ġbul": 6713,
      "ĠBuddh": 6714,
      "Ġconvers": 6715,
      "ĠAthletics": 6716,
      "stream": 6717,
      "Ġhotel": 6718,
      "Ġemployed": 6719,
      "Bl": 6720,
      "Ġcontributed": 6721,
      "Ġguard": 6722,
      "Ġfields": 6723,
      "ĠPriv": 6724,
      "Ġ400": 6725,
      "ĠOnly": 6726,
      "ĠProf": 6727,
      "2020": 6728,
      "Ġletters": 6729,
      "Ġapplication": 6730,
      "ĠUpon": 6731,
      "Ġlawyer": 6732,
      "mit": 6733,
      "ĠStudios": 6734,
      "Ġcorner": 6735,
      "oria": 6736,
      "ĠMoore": 6737,
      "59": 6738,
      "scape": 6739,
      "acent": 6740,
      "ĠLast": 6741,
      "ownt": 6742,
      "Ġenvironmental": 6743,
      "Ġhero": 6744,
      "74": 6745,
      "\"),": 6746,
      "Ġ49": 6747,
      "ĠIS": 6748,
      "Ġlands": 6749,
      "ayan": 6750,
      "ĠInn": 6751,
      "Ġherself": 6752,
      "Ġnormal": 6753,
      "ĠTamil": 6754,
      "Ġoffices": 6755,
      "Ġkil": 6756,
      "ĠMrs": 6757,
      "ĠCour": 6758,
      "ĠArkansas": 6759,
      "ĠDark": 6760,
      "gency": 6761,
      "otte": 6762,
      "Ġpaintings": 6763,
      "Gen": 6764,
      "Ġinstall": 6765,
      "ĠRoberts": 6766,
      "Ġonto": 6767,
      "ĠSud": 6768,
      "Ġdetermined": 6769,
      "ĠTig": 6770,
      "ailand": 6771,
      "ĠClin": 6772,
      "Ġviolence": 6773,
      "ĠDall": 6774,
      "Ġsust": 6775,
      "Ġrein": 6776,
      "Ġsense": 6777,
      "Ġeconomy": 6778,
      "Ġcollected": 6779,
      "aver": 6780,
      "ĠShar": 6781,
      "81": 6782,
      "Ġspeech": 6783,
      "Ġoccurs": 6784,
      "Ġbegin": 6785,
      "ĠVenez": 6786,
      "ĠMem": 6787,
      "Ġsynt": 6788,
      "ĠDC": 6789,
      "Ġrot": 6790,
      "Ġtechnical": 6791,
      "Ġestablishment": 6792,
      "ĠMalaysia": 6793,
      "Ġmulti": 6794,
      "Ġvirt": 6795,
      "ĠCer": 6796,
      "ĠFriend": 6797,
      "Ġextensive": 6798,
      "ĠMatthew": 6799,
      "ĠFM": 6800,
      "ĠLang": 6801,
      "ĠAnna": 6802,
      "Ġcompris": 6803,
      "ĠCru": 6804,
      "ĠEner": 6805,
      "Ġalternative": 6806,
      "ĠDeputy": 6807,
      "ĠBart": 6808,
      "appe": 6809,
      "ĠGlobal": 6810,
      "Ġcompar": 6811,
      "redited": 6812,
      "icts": 6813,
      "1997": 6814,
      "ĠBelgian": 6815,
      "ĠEdinburgh": 6816,
      "Ġmerch": 6817,
      "ĠLyn": 6818,
      "ĠFem": 6819,
      "ĠCommunist": 6820,
      "ĠLith": 6821,
      "79": 6822,
      "Ġimpr": 6823,
      "61": 6824,
      "point": 6825,
      "leep": 6826,
      "www": 6827,
      "ĠHawai": 6828,
      "ĠNel": 6829,
      "atab": 6830,
      "Ġsay": 6831,
      "Ġencoura": 6832,
      "Ġmerged": 6833,
      "ĠBowl": 6834,
      "olo": 6835,
      "ĠStew": 6836,
      "seud": 6837,
      "ĠDVD": 6838,
      "fe": 6839,
      "don": 6840,
      "Ġdoctor": 6841,
      "lease": 6842,
      "veland": 6843,
      "ĠGarden": 6844,
      "71": 6845,
      "ĠPlayers": 6846,
      "Ġjur": 6847,
      "ĠSingh": 6848,
      "Ġsupporting": 6849,
      "Ġpowerful": 6850,
      "Ġarrang": 6851,
      "Ġpoetry": 6852,
      "Ġsan": 6853,
      "Ġhighway": 6854,
      "ĠOrchestra": 6855,
      "ĠKevin": 6856,
      "GBT": 6857,
      "oly": 6858,
      "Ġstrike": 6859,
      "Ġsector": 6860,
      "issance": 6861,
      "illing": 6862,
      "Ġdynasty": 6863,
      "olley": 6864,
      "di": 6865,
      "ĠFinland": 6866,
      "Ġcas": 6867,
      "ĠGian": 6868,
      "ĠCommander": 6869,
      "Ġenjoy": 6870,
      "Ġstadium": 6871,
      "Ġcenturies": 6872,
      "Ġavoid": 6873,
      "ĠCow": 6874,
      "Ġexpressed": 6875,
      "Ġox": 6876,
      "Ġgeneration": 6877,
      "ĠRow": 6878,
      "ĠAlfred": 6879,
      "Ġfranch": 6880,
      "Ġglass": 6881,
      "die": 6882,
      "ĠMayor": 6883,
      "Ġ1909": 6884,
      "ĠTit": 6885,
      "Ġfashion": 6886,
      "adow": 6887,
      "ĠScient": 6888,
      "ĠDick": 6889,
      "ographical": 6890,
      "equ": 6891,
      "imore": 6892,
      "Ġreign": 6893,
      "Ġcreat": 6894,
      "Ġresigned": 6895,
      "Sp": 6896,
      "ĠPra": 6897,
      "Ġholding": 6898,
      "83": 6899,
      "Ġcontrast": 6900,
      "Ġpatients": 6901,
      "Ġmatter": 6902,
      "Ġ1905": 6903,
      "2021": 6904,
      "Ġpartnership": 6905,
      "Ġapparent": 6906,
      "Ġring": 6907,
      "ĠJohann": 6908,
      "Ġplanning": 6909,
      "Ġ1906": 6910,
      "incorporated": 6911,
      "ĠDonald": 6912,
      "03": 6913,
      "Ġbeyond": 6914,
      "ĠPa": 6915,
      "Ġpand": 6916,
      "Ġdecre": 6917,
      "Ġ39": 6918,
      "oyd": 6919,
      "Ġmand": 6920,
      "De": 6921,
      "ĠHills": 6922,
      "Ġspok": 6923,
      "engers": 6924,
      "Ġpieces": 6925,
      "Ġmarg": 6926,
      "Ġphase": 6927,
      "ache": 6928,
      "ĠProdu": 6929,
      "ourney": 6930,
      "Ġabandoned": 6931,
      "Ġreasons": 6932,
      "note": 6933,
      "ĠShah": 6934,
      "rena": 6935,
      "Ġfinishing": 6936,
      "''": 6937,
      "Ġceremony": 6938,
      "ryst": 6939,
      "EA": 6940,
      "ĠWhat": 6941,
      "ĠGon": 6942,
      "Ġfuel": 6943,
      "Ġsought": 6944,
      "ĠQual": 6945,
      "ĠHonours": 6946,
      "rine": 6947,
      "Ġfunctions": 6948,
      "Ġneeds": 6949,
      "Ġweapons": 6950,
      "Ġindependence": 6951,
      "ĠThen": 6952,
      "82": 6953,
      "ĠFootballers": 6954,
      "Ġenemy": 6955,
      "Ġcastle": 6956,
      "Ġvalley": 6957,
      "ĠLawrence": 6958,
      "ĠAlexand": 6959,
      "ĠWhe": 6960,
      "azines": 6961,
      "Ġfailure": 6962,
      "Ġinjured": 6963,
      "Ġvisual": 6964,
      "stead": 6965,
      "isms": 6966,
      "Ġkick": 6967,
      "Ġ1907": 6968,
      "Ġflu": 6969,
      "ĠFu": 6970,
      "ĠHunt": 6971,
      "Ġjunior": 6972,
      "set": 6973,
      "Ġwalls": 6974,
      "found": 6975,
      "Ġbrown": 6976,
      "Ġeducational": 6977,
      "icide": 6978,
      "Ġsuccessfully": 6979,
      "raf": 6980,
      "rama": 6981,
      "ĠMoon": 6982,
      "ĠAtlanta": 6983,
      "uration": 6984,
      "istant": 6985,
      "ĠKings": 6986,
      "Ġpraised": 6987,
      "ĠMontreal": 6988,
      "Ġwrite": 6989,
      "ĠGri": 6990,
      "Ġsecretary": 6991,
      "ĠThailand": 6992,
      "Ġfinds": 6993,
      "ĠRyan": 6994,
      "ĠNob": 6995,
      "ĠHug": 6996,
      "ĠWalker": 6997,
      "ologies": 6998,
      "Ġstating": 6999,
      "ĠMicro": 7000,
      "ĠMale": 7001,
      "isters": 7002,
      "fr": 7003,
      "ĠTourn": 7004,
      "Ġcriminal": 7005,
      "ĠLog": 7006,
      "Ġmind": 7007,
      "iab": 7008,
      "02": 7009,
      "Ġways": 7010,
      "Ġsac": 7011,
      "Ġrival": 7012,
      "Ġimpl": 7013,
      "borough": 7014,
      "ĠEven": 7015,
      "ĠAlumni": 7016,
      "Ġdeploy": 7017,
      "ĠRub": 7018,
      "rome": 7019,
      "ĠLaure": 7020,
      "Ġslightly": 7021,
      "Ġconstituency": 7022,
      "ĠUtah": 7023,
      "obe": 7024,
      "Ġinhabitants": 7025,
      "Ġconnection": 7026,
      "while": 7027,
      "ĠAgric": 7028,
      "Ġtry": 7029,
      "rect": 7030,
      "cycl": 7031,
      "allel": 7032,
      "ĠLiga": 7033,
      "ĠMunicipal": 7034,
      "Ġethnic": 7035,
      "1990": 7036,
      "apted": 7037,
      "Ġinvited": 7038,
      "1996": 7039,
      "Ġrough": 7040,
      "IN": 7041,
      "ogy": 7042,
      "ĠEnt": 7043,
      "Ġregarding": 7044,
      "ĠLGBT": 7045,
      "Ġbacking": 7046,
      "Ġhydro": 7047,
      "Ġfunding": 7048,
      "Ġprogramme": 7049,
      "from": 7050,
      "Ġwealth": 7051,
      "Ġinvasion": 7052,
      "ĠFal": 7053,
      "Ġsand": 7054,
      "Ġrefers": 7055,
      "Ġfresh": 7056,
      "active": 7057,
      "friend": 7058,
      "iful": 7059,
      "ĠRelig": 7060,
      "ĠIce": 7061,
      "ĠNav": 7062,
      "oni": 7063,
      "ĠCleveland": 7064,
      "DP": 7065,
      "Ġvoted": 7066,
      "Ġsteel": 7067,
      "ĠArgentine": 7068,
      "Ġhyp": 7069,
      "Ġpoly": 7070,
      "Ġpriest": 7071,
      "ĠAfghan": 7072,
      "ules": 7073,
      "1995": 7074,
      "Ġorders": 7075,
      "Ġdeveloping": 7076,
      "ĠMcK": 7077,
      "otic": 7078,
      "63": 7079,
      "ĠChampion": 7080,
      "Ġderived": 7081,
      "ĠLet": 7082,
      "antasy": 7083,
      "ĠNep": 7084,
      "Ġentrance": 7085,
      "RC": 7086,
      "come": 7087,
      "Ġhired": 7088,
      "chell": 7089,
      "ĠPittsburgh": 7090,
      "Ġreligion": 7091,
      "It": 7092,
      "Ġtemperature": 7093,
      "ĠPas": 7094,
      "Ġadult": 7095,
      "Ġtownship": 7096,
      "Ġamb": 7097,
      "ĠOw": 7098,
      "Ġpassenger": 7099,
      "ĠMPs": 7100,
      "Ġpublications": 7101,
      "ĠReserve": 7102,
      "Ġequal": 7103,
      "ĠHop": 7104,
      "Ġadvant": 7105,
      "hard": 7106,
      "ĠLiver": 7107,
      "Ġpassing": 7108,
      "ĠRoger": 7109,
      "ĠBoys": 7110,
      "father": 7111,
      "fecture": 7112,
      "ĠSym": 7113,
      "run": 7114,
      "ĠChem": 7115,
      "ĠStage": 7116,
      "ĠPur": 7117,
      "ĠYug": 7118,
      "Ġcalls": 7119,
      "Ġpremiered": 7120,
      "ĠMission": 7121,
      "ĠMargaret": 7122,
      "ĠMetropolitan": 7123,
      "iamond": 7124,
      "Ġpowers": 7125,
      "ĠProm": 7126,
      "ĠDigital": 7127,
      "nia": 7128,
      "Ġnuclear": 7129,
      "ĠWard": 7130,
      "ishops": 7131,
      "vements": 7132,
      "BI": 7133,
      "ĠEqu": 7134,
      "Ġcausing": 7135,
      "ando": 7136,
      "Ġ1904": 7137,
      "ĠSerbian": 7138,
      "election": 7139,
      "Ġ*": 7140,
      "73": 7141,
      "orage": 7142,
      "Ġinstru": 7143,
      "ĠAM": 7144,
      "Ġmel": 7145,
      "Ġclin": 7146,
      "ĠGran": 7147,
      "ĠOttoman": 7148,
      "zer": 7149,
      "ĠLl": 7150,
      "ourses": 7151,
      "ĠIron": 7152,
      "ĠGene": 7153,
      "ĠRomanian": 7154,
      "Ġreserve": 7155,
      "ĠRailroad": 7156,
      "Ġinvolving": 7157,
      "ĠPeters": 7158,
      "ĠDisney": 7159,
      "Ġfunds": 7160,
      "apolis": 7161,
      "Ġgenera": 7162,
      "62": 7163,
      "Ġdates": 7164,
      "Ġboat": 7165,
      "Ġda": 7166,
      "ĠBeat": 7167,
      "ĠHungary": 7168,
      "Ġescape": 7169,
      "Ġcrow": 7170,
      "ĠNAS": 7171,
      "usal": 7172,
      "Ġselection": 7173,
      "Ġbasic": 7174,
      "Ġemphas": 7175,
      "uties": 7176,
      "ĠVenezuel": 7177,
      "ĠRick": 7178,
      "ĠSac": 7179,
      "ĠRomania": 7180,
      "Ġgar": 7181,
      "ĠJesus": 7182,
      "ĠFel": 7183,
      "\").": 7184,
      "Ġpasses": 7185,
      "ĠComics": 7186,
      "ĠMult": 7187,
      "Ġdecades": 7188,
      "Ġyour": 7189,
      "ĠFight": 7190,
      "Ġprotect": 7191,
      "Ġfleet": 7192,
      "Ġcontained": 7193,
      "poses": 7194,
      "term": 7195,
      "Ġconcluded": 7196,
      "Ġ52": 7197,
      "uster": 7198,
      "ĠImp": 7199,
      "Ġvo": 7200,
      "Ġpandemic": 7201,
      "isf": 7202,
      "ĠYan": 7203,
      "Ġped": 7204,
      "Ġvarian": 7205,
      "burn": 7206,
      "ĠMes": 7207,
      "Ġincorporated": 7208,
      "ĠTransportation": 7209,
      "ĠGirls": 7210,
      "clusion": 7211,
      "Ġbishop": 7212,
      "Ġcomposition": 7213,
      "Ġtrav": 7214,
      "ĠSC": 7215,
      "ĠFinnish": 7216,
      "Ġcompete": 7217,
      "ĠWho": 7218,
      "Ġdoing": 7219,
      "ski": 7220,
      "ĠFlora": 7221,
      "Ġmart": 7222,
      "Ġregistered": 7223,
      "ĠRio": 7224,
      "ĠBuff": 7225,
      "onomy": 7226,
      "Ġinfluenced": 7227,
      "ĠMichel": 7228,
      "song": 7229,
      "anger": 7230,
      "ĠDance": 7231,
      "mers": 7232,
      "Ġinstalled": 7233,
      "Ġadvoc": 7234,
      "after": 7235,
      "ĠFall": 7236,
      "mat": 7237,
      "ĠInvest": 7238,
      "ĠHollywood": 7239,
      "'m": 7240,
      "aved": 7241,
      "hing": 7242,
      "ĠSeattle": 7243,
      "Ġrise": 7244,
      "ĠFellows": 7245,
      "Ġrequest": 7246,
      "ĠNeb": 7247,
      "othing": 7248,
      "Ġtranslation": 7249,
      "ĠGrant": 7250,
      "Ġshape": 7251,
      "Ġexistence": 7252,
      "Ġsomeone": 7253,
      "rees": 7254,
      "apes": 7255,
      "Ġ1880": 7256,
      "Ġcru": 7257,
      "Ġwarn": 7258,
      "Ġovers": 7259,
      "%.": 7260,
      "AP": 7261,
      "ners": 7262,
      "orf": 7263,
      "ĠRights": 7264,
      "Ġemp": 7265,
      "Ġworldwide": 7266,
      "net": 7267,
      "We": 7268,
      "Ġjoining": 7269,
      "night": 7270,
      "Ġlaid": 7271,
      "uki": 7272,
      "Ġaid": 7273,
      "ographics": 7274,
      "racy": 7275,
      "III": 7276,
      "Ġargued": 7277,
      "Ġformal": 7278,
      "Ġviews": 7279,
      "Ġobserved": 7280,
      "ĠRy": 7281,
      "Ġscenes": 7282,
      "Ġdetails": 7283,
      "zi": 7284,
      "Ġemployees": 7285,
      "ĠDefense": 7286,
      "Ġwatch": 7287,
      ")\"": 7288,
      "ĠNet": 7289,
      "Ġconsisting": 7290,
      "ĠCamer": 7291,
      "Ġexperien": 7292,
      "ĠMetro": 7293,
      "Ġpione": 7294,
      "Ġhomes": 7295,
      "Ġmaintained": 7296,
      "hematics": 7297,
      "ĠFive": 7298,
      "rik": 7299,
      "rete": 7300,
      "ĠVeg": 7301,
      "ĠTak": 7302,
      "Ġpromote": 7303,
      "Ġanaly": 7304,
      "ĠEnergy": 7305,
      "eland": 7306,
      "ĠBull": 7307,
      "Ġanth": 7308,
      "Ġbodies": 7309,
      "ĠBaltimore": 7310,
      "owntown": 7311,
      "ĠPrad": 7312,
      "rett": 7313,
      "cia": 7314,
      "ĠOblast": 7315,
      "Ġsuperv": 7316,
      "Ġrecordings": 7317,
      "Ġ1903": 7318,
      "Ġdrivers": 7319,
      "Ġcarry": 7320,
      "Ġengaged": 7321,
      "Ġanimal": 7322,
      "ĠPublishing": 7323,
      "orro": 7324,
      "ĠBruce": 7325,
      "ĠMarie": 7326,
      "Ġsolid": 7327,
      "ĠSection": 7328,
      "unction": 7329,
      "Ġsoci": 7330,
      "Ġstatement": 7331,
      "LC": 7332,
      "Ġstarts": 7333,
      "ĠColonel": 7334,
      "Ġanimated": 7335,
      "Ġbands": 7336,
      "ĠArn": 7337,
      "rastructure": 7338,
      "ĠGa": 7339,
      "ĠSaf": 7340,
      "ĠChamber": 7341,
      "Ġaccused": 7342,
      "Ġopin": 7343,
      "Ġcricketers": 7344,
      "Ġconstant": 7345,
      "ĠUE": 7346,
      "ĠThough": 7347,
      "Ġscale": 7348,
      "69": 7349,
      "rations": 7350,
      "Ġbirds": 7351,
      "ĠPalace": 7352,
      "orus": 7353,
      "ĠMorgan": 7354,
      "asa": 7355,
      "Sc": 7356,
      "ĠRacing": 7357,
      "Ġheavily": 7358,
      "idden": 7359,
      "Ġsurvey": 7360,
      "Ġquant": 7361,
      "ĠRussell": 7362,
      "ĠFried": 7363,
      "Ġpull": 7364,
      "har": 7365,
      "Ġnom": 7366,
      "ĠClar": 7367,
      "ĠBuck": 7368,
      "unc": 7369,
      "ĠWriters": 7370,
      "Ġ51": 7371,
      "ĠHere": 7372,
      "OR": 7373,
      "ĠKan": 7374,
      "Ġreaching": 7375,
      "elli": 7376,
      "emble": 7377,
      "angel": 7378,
      "Ġtropical": 7379,
      "Ġtrained": 7380,
      "ovo": 7381,
      "Ġchair": 7382,
      "urday": 7383,
      "Ġplot": 7384,
      "Ġsole": 7385,
      "hop": 7386,
      "ĠKnight": 7387,
      "ĠRot": 7388,
      "ulate": 7389,
      "ĠAy": 7390,
      "pective": 7391,
      "Ġ55": 7392,
      "ects": 7393,
      "Ġadvent": 7394,
      "star": 7395,
      "ĠOperation": 7396,
      "pers": 7397,
      "Ġfoundation": 7398,
      "ĠPear": 7399,
      "Ġprotein": 7400,
      "Ġbatter": 7401,
      "Ġspecifically": 7402,
      "ĠSoccer": 7403,
      "Ġtrying": 7404,
      "Ġstandards": 7405,
      "lon": 7406,
      "ĠKelly": 7407,
      "Ġcomic": 7408,
      "olt": 7409,
      "Ġaffected": 7410,
      "lete": 7411,
      "onder": 7412,
      "Ġarchae": 7413,
      "olph": 7414,
      "ĠChristopher": 7415,
      "Ġextrem": 7416,
      "oda": 7417,
      "Ġeffic": 7418,
      "Ġ1901": 7419,
      "Ġassess": 7420,
      "ivalent": 7421,
      "Ġ1902": 7422,
      "Ġuncle": 7423,
      "ĠLev": 7424,
      "Ġislands": 7425,
      "Ġagency": 7426,
      "Ġban": 7427,
      "ĠFA": 7428,
      "atherine": 7429,
      "ĠCrown": 7430,
      "idel": 7431,
      "erbai": 7432,
      "bassador": 7433,
      "itals": 7434,
      "Ġchemical": 7435,
      "ĠDyn": 7436,
      "ĠPeace": 7437,
      "ĠRest": 7438,
      "Ġvolunte": 7439,
      "Ġcomput": 7440,
      "Ġtun": 7441,
      "ĠExt": 7442,
      "ĠVik": 7443,
      "ĠPad": 7444,
      "Ġimportance": 7445,
      "Ġtwelve": 7446,
      "=\"#": 7447,
      "Ġbehavior": 7448,
      "argo": 7449,
      "then": 7450,
      "do": 7451,
      "ĠBangladesh": 7452,
      "Ġexped": 7453,
      "Ġtoward": 7454,
      "Ġtend": 7455,
      "itations": 7456,
      "ĠPrincess": 7457,
      "intend": 7458,
      "anned": 7459,
      "Ġimprove": 7460,
      "ĠYugoslav": 7461,
      "ĠCole": 7462,
      "top": 7463,
      "Ġ{": 7464,
      "eties": 7465,
      "ĠAdvent": 7466,
      "Ġsale": 7467,
      "ĠPatri": 7468,
      "Ġheard": 7469,
      "Ġwrest": 7470,
      "ĠDean": 7471,
      "Ġment": 7472,
      "ĠDead": 7473,
      "Ġtranslated": 7474,
      "cht": 7475,
      "Ġvide": 7476,
      "ĠLeban": 7477,
      "ĠStudio": 7478,
      "Ġrebu": 7479,
      "ĠPersonnel": 7480,
      "ĠRand": 7481,
      "IV": 7482,
      "ĠMedicine": 7483,
      "Ġtor": 7484,
      "Ġhair": 7485,
      "inea": 7486,
      "ĠStewart": 7487,
      "ĠBroadcast": 7488,
      "ĠPy": 7489,
      "Ġobjects": 7490,
      "Ġreality": 7491,
      "ĠMunicipality": 7492,
      "Ġsession": 7493,
      "aughters": 7494,
      "ashi": 7495,
      "ĠYears": 7496,
      "Ġshell": 7497,
      "Ġregiment": 7498,
      "Ġintroduction": 7499,
      "Ġnegative": 7500,
      "1994": 7501,
      "ĠRan": 7502,
      "ĠEver": 7503,
      "ĠFIFA": 7504,
      "Ġlat": 7505,
      "Ġseventh": 7506,
      "Ġreception": 7507,
      "irt": 7508,
      "Ġengines": 7509,
      "going": 7510,
      "ĠCare": 7511,
      "Ġpainters": 7512,
      "uscript": 7513,
      "anny": 7514,
      "Ġseconds": 7515,
      "ĠGlas": 7516,
      "Ġdeleg": 7517,
      "owned": 7518,
      "Ġresistance": 7519,
      "ĠKon": 7520,
      "ĠVienna": 7521,
      "Ġdeputy": 7522,
      "ĠMaj": 7523,
      "esc": 7524,
      "Ġweather": 7525,
      "Ġstrateg": 7526,
      "Ġarmed": 7527,
      "Ġnick": 7528,
      "Ġahead": 7529,
      "uda": 7530,
      "Ġlicens": 7531,
      "ĠCEO": 7532,
      "coming": 7533,
      "Ġille": 7534,
      "boards": 7535,
      "Ġcollaboration": 7536,
      "Ġthrow": 7537,
      "ĠSign": 7538,
      "br": 7539,
      "ĠHampshire": 7540,
      "Ġ47": 7541,
      "Ġdescribes": 7542,
      "ĠTournament": 7543,
      "Ġruled": 7544,
      "Ġadapted": 7545,
      "Ġpossess": 7546,
      "ĠMarket": 7547,
      "ĠNev": 7548,
      "ĠOri": 7549,
      "white": 7550,
      "ĠAssoci": 7551,
      "osm": 7552,
      "Ġproducing": 7553,
      "ĠLib": 7554,
      "Ġdistinct": 7555,
      "ĠTrade": 7556,
      "estyle": 7557,
      "ĠBed": 7558,
      "ĠLen": 7559,
      "ĠAngl": 7560,
      "Ġextension": 7561,
      "gow": 7562,
      "Ġaccompan": 7563,
      "Ġmole": 7564,
      "ussion": 7565,
      "Ġbriefly": 7566,
      "ĠTrad": 7567,
      "Ġzone": 7568,
      "ĠLithuan": 7569,
      "ĠPsych": 7570,
      "DA": 7571,
      "Ġdivers": 7572,
      "ushed": 7573,
      "ĠMean": 7574,
      "Ġproved": 7575,
      "ĠNelson": 7576,
      "Ġprice": 7577,
      "Ġfactory": 7578,
      "amic": 7579,
      "level": 7580,
      "Ġcalling": 7581,
      "ĠGill": 7582,
      "ĠEston": 7583,
      "Cl": 7584,
      "emen": 7585,
      "Ġri": 7586,
      "umbent": 7587,
      "Ġentirely": 7588,
      "ĠHorn": 7589,
      "Ġdivisions": 7590,
      "Ġere": 7591,
      "ĠAzerbai": 7592,
      "Ġprize": 7593,
      "Ġmarine": 7594,
      "ĠOur": 7595,
      "ĠPhot": 7596,
      "Ġsteam": 7597,
      "ĠCampbell": 7598,
      "Ġexerc": 7599,
      "Ġcomposers": 7600,
      "ĠDallas": 7601,
      "Ġimages": 7602,
      "inking": 7603,
      "ĠMaine": 7604,
      "Ġrevolution": 7605,
      "ĠSupport": 7606,
      "Ġlect": 7607,
      "Ġupd": 7608,
      "ĠAT": 7609,
      "Ġgain": 7610,
      "Ġclosely": 7611,
      "ĠChairman": 7612,
      "ĠLiverpool": 7613,
      "ĠAustin": 7614,
      "including": 7615,
      "ĠOnce": 7616,
      "Ġresidence": 7617,
      "ĠConservative": 7618,
      "olleyball": 7619,
      "ĠAthletic": 7620,
      "ĠThompson": 7621,
      "aman": 7622,
      "ellite": 7623,
      "bal": 7624,
      "ĠHend": 7625,
      "ective": 7626,
      "ĠSarah": 7627,
      "ĠDod": 7628,
      "mingham": 7629,
      "avalry": 7630,
      "inian": 7631,
      "ĠEconomic": 7632,
      "ĠCarlos": 7633,
      "Ġagricultural": 7634,
      "Ġrating": 7635,
      "1993": 7636,
      "ducing": 7637,
      "ams": 7638,
      "aska": 7639,
      "Ġinterior": 7640,
      "ĠJimmy": 7641,
      "Ġchose": 7642,
      "Ġcauses": 7643,
      "ĠArena": 7644,
      "ĠDra": 7645,
      "icit": 7646,
      "ahn": 7647,
      "ĠKra": 7648,
      "Ġapplications": 7649,
      "Ġdistin": 7650,
      "Ġpages": 7651,
      "Ġnorthwest": 7652,
      "ĠEvery": 7653,
      "Ġideas": 7654,
      "Ġshall": 7655,
      "ovation": 7656,
      "--": 7657,
      "ĠNorman": 7658,
      "Ġedited": 7659,
      "ĠFood": 7660,
      "inae": 7661,
      "Ġcontributions": 7662,
      "Ġsurg": 7663,
      "ĠMethod": 7664,
      "aby": 7665,
      "ĠChen": 7666,
      "Ġacid": 7667,
      "Ġdocuments": 7668,
      "dy": 7669,
      "ĠAlliance": 7670,
      "Ġmilit": 7671,
      "ĠHell": 7672,
      "ĠWright": 7673,
      "ĠComple": 7674,
      "unch": 7675,
      "ĠEpis": 7676,
      "Ġreduce": 7677,
      "Ġlocality": 7678,
      "thm": 7679,
      "iler": 7680,
      "Ġentertain": 7681,
      "Ġsymbol": 7682,
      "Ġcopy": 7683,
      "Ġcolonial": 7684,
      "Ġinform": 7685,
      "Ġpassengers": 7686,
      "ĠOrthodox": 7687,
      "Ġdoor": 7688,
      "ĠKennedy": 7689,
      "ĠRain": 7690,
      "inch": 7691,
      "ĠUEFA": 7692,
      "ĠAgency": 7693,
      "Ġedge": 7694,
      "Ġflat": 7695,
      "final": 7696,
      "Ġpup": 7697,
      "Ġathletes": 7698,
      "2022": 7699,
      "Ġleads": 7700,
      "Ġproducers": 7701,
      "ategy": 7702,
      "Ġchoice": 7703,
      "Ġemot": 7704,
      "ĠPlat": 7705,
      "Ġopportunity": 7706,
      "inner": 7707,
      "pha": 7708,
      "Ġdismiss": 7709,
      "Ġbelieve": 7710,
      "Ġcharges": 7711,
      "Ġ1898": 7712,
      "Ġgarden": 7713,
      "Ġ54": 7714,
      "autiful": 7715,
      "Ġrailroad": 7716,
      "Ġgraduate": 7717,
      "1992": 7718,
      "Ġcrown": 7719,
      "ogether": 7720,
      "ĠOm": 7721,
      "Ġroads": 7722,
      "ĠBeck": 7723,
      "iri": 7724,
      "insula": 7725,
      "entially": 7726,
      "Ġstrength": 7727,
      "pen": 7728,
      "ĠNord": 7729,
      "ĠAdams": 7730,
      "Ġtechniques": 7731,
      "ĠRud": 7732,
      "Ġwitness": 7733,
      "person": 7734,
      "Ġregarded": 7735,
      "ĠOpera": 7736,
      "Ġpossibly": 7737,
      "Ġproced": 7738,
      "ĠEmer": 7739,
      "West": 7740,
      "ĠBrooklyn": 7741,
      "Ġcompilation": 7742,
      "ultan": 7743,
      "ucks": 7744,
      "ĠBomb": 7745,
      "Ġdebuted": 7746,
      "amo": 7747,
      "ĠLower": 7748,
      "arus": 7749,
      "Ġones": 7750,
      "Ġgetting": 7751,
      "ĠSenator": 7752,
      "Ġinterests": 7753,
      "ranean": 7754,
      "ĠKit": 7755,
      "ĠBernard": 7756,
      "Ġresign": 7757,
      "ĠFranklin": 7758,
      "Ġreally": 7759,
      "Ġimproved": 7760,
      "ĠGulf": 7761,
      "ĠApp": 7762,
      "via": 7763,
      "atures": 7764,
      "ĠSi": 7765,
      "ĠVolume": 7766,
      "Ġmist": 7767,
      "ĠBilly": 7768,
      "etime": 7769,
      "Ġoperate": 7770,
      "ĠNash": 7771,
      "ĠTrump": 7772,
      "ĠDemographics": 7773,
      "Ġcommitted": 7774,
      "phony": 7775,
      "ĠSerbia": 7776,
      "haps": 7777,
      "aware": 7778,
      "Ġaer": 7779,
      "Ġflying": 7780,
      "Ġancest": 7781,
      "Ġvalues": 7782,
      "ĠPortland": 7783,
      "Ġans": 7784,
      "ĠCooper": 7785,
      "ĠDub": 7786,
      "oba": 7787,
      "Ġdistributed": 7788,
      "orial": 7789,
      "tered": 7790,
      "ĠCatal": 7791,
      "ĠDakota": 7792,
      "ĠRobinson": 7793,
      "Ġax": 7794,
      "Ġadjacent": 7795,
      "Ġparticipate": 7796,
      "eler": 7797,
      "ĠNam": 7798,
      "aire": 7799,
      "Ġrefuge": 7800,
      "ĠStanley": 7801,
      "ĠPir": 7802,
      "Ġfine": 7803,
      "ĠConstitution": 7804,
      "ĠBirmingham": 7805,
      "Ġintelligence": 7806,
      "ĠHom": 7807,
      "ĠWrestling": 7808,
      "arest": 7809,
      "Ġsinging": 7810,
      "Ġusers": 7811,
      "Ġcore": 7812,
      "inate": 7813,
      "ĠBrothers": 7814,
      "Ġwaters": 7815,
      "lee": 7816,
      "ĠLINE": 7817,
      "Ġenl": 7818,
      "Ġobtain": 7819,
      "Ġfavour": 7820,
      "ishment": 7821,
      "Ġ150": 7822,
      "Ġconvent": 7823,
      "pir": 7824,
      "Ġclean": 7825,
      "ĠLud": 7826,
      "Ġdamaged": 7827,
      "ype": 7828,
      "Ġcontrolled": 7829,
      "ĠMurray": 7830,
      "uct": 7831,
      "Ġ1899": 7832,
      "Ġham": 7833,
      "ĠIvan": 7834,
      "Ġgrounds": 7835,
      "ĠUpper": 7836,
      "Ġbrig": 7837,
      "ocracy": 7838,
      "Ġsam": 7839,
      "ĠTraining": 7840,
      "ugar": 7841,
      "ĠMotor": 7842,
      "bach": 7843,
      "Ġ1870": 7844,
      "Ġquite": 7845,
      "Ġdemonst": 7846,
      "Ġsurvived": 7847,
      "ferred": 7848,
      "ĠConstruction": 7849,
      "ĠWol": 7850,
      "writers": 7851,
      "ĠVari": 7852,
      "icate": 7853,
      "ĠTele": 7854,
      "ĠReport": 7855,
      "ht": 7856,
      "ĠVerm": 7857,
      "Ġpros": 7858,
      "ĠWa": 7859,
      "Ġphotograph": 7860,
      "Ġfranchise": 7861,
      "ĠChang": 7862,
      "Ġclassification": 7863,
      "Ġsubstant": 7864,
      "ĠMarshall": 7865,
      "eta": 7866,
      "Ġsections": 7867,
      "Ġmeasures": 7868,
      "grade": 7869,
      "Ġrepeated": 7870,
      "Ġdrawn": 7871,
      "ĠBush": 7872,
      "ĠGraham": 7873,
      "Ġcombination": 7874,
      "ĠABC": 7875,
      "ĠSocorro": 7876,
      "ishments": 7877,
      "Ġitems": 7878,
      "Ġfly": 7879,
      "Ġconsequ": 7880,
      "ĠBud": 7881,
      "Ġbudget": 7882,
      "Ġbelief": 7883,
      "ĠLINEAR": 7884,
      "Ġbroken": 7885,
      "attan": 7886,
      "Ġcourts": 7887,
      "Ġdefensive": 7888,
      "Ġexact": 7889,
      "ommod": 7890,
      "ĠCollection": 7891,
      "Ġelectronic": 7892,
      "sch": 7893,
      "ĠDoc": 7894,
      "Ġprem": 7895,
      "ĠSaturday": 7896,
      "alymp": 7897,
      "Ġdefeating": 7898,
      "Ġshooting": 7899,
      "ĠGary": 7900,
      "ĠYouT": 7901,
      "lie": 7902,
      "ĠCarter": 7903,
      "Ġanniversary": 7904,
      "iop": 7905,
      "arsh": 7906,
      "oka": 7907,
      "orses": 7908,
      "ĠMadrid": 7909,
      "Ġphilosophy": 7910,
      "ĠAqu": 7911,
      "Ġuniversities": 7912,
      "Ġtransition": 7913,
      "ĠSyn": 7914,
      "ĠJazz": 7915,
      "tic": 7916,
      "Ġbenef": 7917,
      "din": 7918,
      "illo": 7919,
      "Ġdesigns": 7920,
      "Ġimprison": 7921,
      "ĠChand": 7922,
      "Ġstanding": 7923,
      "Ġearliest": 7924,
      "Ġtank": 7925,
      "Ġgrade": 7926,
      "Ġhour": 7927,
      "ĠThus": 7928,
      "Ġjustice": 7929,
      "ĠPierre": 7930,
      "ĠMort": 7931,
      "ĠTaxa": 7932,
      "Mar": 7933,
      "ĠRu": 7934,
      "ĠPrefecture": 7935,
      "ĠSecret": 7936,
      "Ġmort": 7937,
      "Ġworth": 7938,
      "Ġsignal": 7939,
      "Ġmoment": 7940,
      "ĠIns": 7941,
      "Ġowners": 7942,
      "Is": 7943,
      "Ġgoods": 7944,
      "Ġlists": 7945,
      "ĠIranian": 7946,
      "eless": 7947,
      "Ġcapture": 7948,
      "oming": 7949,
      "Ġmedicine": 7950,
      "Ġjudges": 7951,
      "rm": 7952,
      "aptist": 7953,
      "cious": 7954,
      "Ġfeed": 7955,
      "Ġdelivered": 7956,
      "Ġrejected": 7957,
      "ĠVers": 7958,
      "Ġfinals": 7959,
      "Ġcriticized": 7960,
      "Ġdry": 7961,
      "atabase": 7962,
      "ĠVic": 7963,
      "bishop": 7964,
      "ĠCarib": 7965,
      "ĠRap": 7966,
      "Ġtrip": 7967,
      "ĠIv": 7968,
      "ĠLane": 7969,
      "Man": 7970,
      "rons": 7971,
      "Ne": 7972,
      "Ġprovincial": 7973,
      "ĠPC": 7974,
      "Ġhttp": 7975,
      "Ġ63": 7976,
      "ĠCass": 7977,
      "Ġhumans": 7978,
      "Ġparallel": 7979,
      "ders": 7980,
      "Ġactual": 7981,
      "ĠArtists": 7982,
      "aked": 7983,
      "Ġcharged": 7984,
      "Ġchain": 7985,
      "General": 7986,
      "Ġneighbour": 7987,
      "EE": 7988,
      "He": 7989,
      "ĠDefence": 7990,
      "Ġdie": 7991,
      "hetic": 7992,
      "orer": 7993,
      "Ġbottom": 7994,
      "utation": 7995,
      "bridge": 7996,
      "Ġpurposes": 7997,
      "Ġactivist": 7998,
      "ĠYorks": 7999,
      "Ġstores": 8000,
      "GA": 8001,
      "ĠAgain": 8002,
      "wall": 8003,
      "Ġreleg": 8004,
      "Ġinterpret": 8005,
      "Ġ().": 8006,
      "Ġveter": 8007,
      "Ġshowing": 8008,
      "Ġgrant": 8009,
      "ĠDaily": 8010,
      "Ġpremi": 8011,
      "Ġcancell": 8012,
      "Ġterror": 8013,
      "coh": 8014,
      "oca": 8015,
      "Ġregularly": 8016,
      "Ġskills": 8017,
      "Ġ1896": 8018,
      "PC": 8019,
      "ĠMovement": 8020,
      "bat": 8021,
      "Ġsell": 8022,
      "ĠLead": 8023,
      "Ġgets": 8024,
      "ĠJohnny": 8025,
      "iac": 8026,
      "abled": 8027,
      "pat": 8028,
      "Ġprisoners": 8029,
      "Ġgreatest": 8030,
      "hibition": 8031,
      "ĠJason": 8032,
      "ifer": 8033,
      "Ġmedium": 8034,
      "ĠAld": 8035,
      "otes": 8036,
      "antly": 8037,
      "Ġqualifying": 8038,
      "eton": 8039,
      "ĠParalymp": 8040,
      "ceived": 8041,
      "Ġisol": 8042,
      "Ġseems": 8043,
      "ĠSax": 8044,
      "TS": 8045,
      "bean": 8046,
      "ĠCathedral": 8047,
      "ĠRecip": 8048,
      "Ġopposite": 8049,
      "Ġvenues": 8050,
      "ĠTot": 8051,
      "town": 8052,
      "Ġcourses": 8053,
      "ĠWing": 8054,
      "Ġdesigner": 8055,
      "olly": 8056,
      "Ġpublishing": 8057,
      "Ġroutes": 8058,
      "Ġfactors": 8059,
      "Ġbusinesses": 8060,
      "ĠNad": 8061,
      "Ġnaval": 8062,
      "ĠCycl": 8063,
      "Ġ1897": 8064,
      "ĠStra": 8065,
      "FM": 8066,
      "ĠGuy": 8067,
      "Ġhabitat": 8068,
      "Ġpurchase": 8069,
      "ĠMedalists": 8070,
      "ĠBenj": 8071,
      "Ġtries": 8072,
      "Ġvictims": 8073,
      "Ġaware": 8074,
      "Ġsouthwest": 8075,
      "itable": 8076,
      "ĠWoman": 8077,
      "ĠOrganization": 8078,
      "Ġlegislation": 8079,
      "Ġsuburb": 8080,
      "ĠNazi": 8081,
      "alia": 8082,
      "overty": 8083,
      "ls": 8084,
      "1991": 8085,
      "Ġpersons": 8086,
      "ouver": 8087,
      "wright": 8088,
      "Ind": 8089,
      "iterranean": 8090,
      "ielder": 8091,
      "Ġstrip": 8092,
      "ES": 8093,
      "ĠAdditionally": 8094,
      "ĠEgyptian": 8095,
      "Ġ1895": 8096,
      "ĠYorkshire": 8097,
      "ĠNBA": 8098,
      "Ġresidential": 8099,
      "ĠLanka": 8100,
      "Ġjournalists": 8101,
      "ĠHig": 8102,
      "operation": 8103,
      "Ġinsc": 8104,
      "leased": 8105,
      "Ġhits": 8106,
      "Ġegg": 8107,
      "Ġmeters": 8108,
      "Ġmile": 8109,
      "Ġfreedom": 8110,
      "Ġdies": 8111,
      "Ġstands": 8112,
      "xual": 8113,
      "ĠGor": 8114,
      "ĠSerge": 8115,
      "astery": 8116,
      "Ġboys": 8117,
      "ĠAppe": 8118,
      "Ġgender": 8119,
      "Ġheat": 8120,
      "Ġ56": 8121,
      "Ġminute": 8122,
      "Ġwounded": 8123,
      "dr": 8124,
      "merce": 8125,
      "rong": 8126,
      "ĠTob": 8127,
      "Pro": 8128,
      "Ġtack": 8129,
      "Ġbusinessman": 8130,
      "Ġscientists": 8131,
      "Ġrivers": 8132,
      "hai": 8133,
      "Ġ53": 8134,
      "ĠAR": 8135,
      "Ġadvantage": 8136,
      "Ġadmitted": 8137,
      "yll": 8138,
      "ture": 8139,
      "Ġexamples": 8140,
      "Ġmemorial": 8141,
      "Ġdriving": 8142,
      "aceae": 8143,
      "Ġarranged": 8144,
      "leans": 8145,
      "Ġattached": 8146,
      "ĠMack": 8147,
      "Ġcrisis": 8148,
      "Ġknock": 8149,
      "ĠAuthority": 8150,
      "ĠCapital": 8151,
      "Ġalleg": 8152,
      "Ġhill": 8153,
      "'re": 8154,
      "ĠBeg": 8155,
      "Ġtur": 8156,
      "ĠNigeria": 8157,
      "ĠRico": 8158,
      "aments": 8159,
      "ĠWindows": 8160,
      "ĠKum": 8161,
      "resents": 8162,
      "Ġdevice": 8163,
      "Ġmotion": 8164,
      "olia": 8165,
      "Ġcycle": 8166,
      "ĠIan": 8167,
      "ĠLiterature": 8168,
      "Ġcosts": 8169,
      "Ġdescription": 8170,
      "ĠWebsite": 8171,
      "ĠFull": 8172,
      "fiction": 8173,
      "ĠEvans": 8174,
      "ĠTrophy": 8175,
      "Ġsequence": 8176,
      "Ġcommunication": 8177,
      "NC": 8178,
      "iph": 8179,
      "ĠCook": 8180,
      "ĠGhana": 8181,
      "Ġaccommod": 8182,
      "umin": 8183,
      "Ġstages": 8184,
      "Ġstreets": 8185,
      "orce": 8186,
      "endment": 8187,
      "ĠMoths": 8188,
      "Ġsave": 8189,
      "Ġwhy": 8190,
      "Ġclimb": 8191,
      "ĠGuide": 8192,
      "ĠParish": 8193,
      "vant": 8194,
      "Ġsynd": 8195,
      "Ġrob": 8196,
      "Ġeasily": 8197,
      "ĠGrade": 8198,
      "Ġcredited": 8199,
      "Ġsuff": 8200,
      "Ġsubmar": 8201,
      "asi": 8202,
      "OC": 8203,
      "ĠNote": 8204,
      "Ġdetermine": 8205,
      "Ġmine": 8206,
      "low": 8207,
      "MP": 8208,
      "Ġduty": 8209,
      "ĠGray": 8210,
      "asure": 8211,
      "Ġrich": 8212,
      "Ġdecade": 8213,
      "1980": 8214,
      "Ġrestrict": 8215,
      "ĠSr": 8216,
      "Ġfaith": 8217,
      "ĠHas": 8218,
      "Ġstarred": 8219,
      "Ġrooms": 8220,
      "sea": 8221,
      "Ġcommune": 8222,
      "ĠElectric": 8223,
      "Ġkid": 8224,
      "Ġgang": 8225,
      "Ġprotected": 8226,
      "Ġfer": 8227,
      "ĠRichmond": 8228,
      "Ġrenew": 8229,
      "Ġtypical": 8230,
      "ĠHum": 8231,
      "Ġcomed": 8232,
      "ĠConvention": 8233,
      "auty": 8234,
      "Ġpainted": 8235,
      "othes": 8236,
      "Ġmembership": 8237,
      "ĠElementary": 8238,
      "ayed": 8239,
      "Ġaf": 8240,
      "Ġcircum": 8241,
      "Ġbond": 8242,
      "ĠOrleans": 8243,
      "Ġmyth": 8244,
      "Ġdemand": 8245,
      "Ġski": 8246,
      "ĠUg": 8247,
      "Ġretained": 8248,
      "bul": 8249,
      "rant": 8250,
      "rapy": 8251,
      "Ġoperates": 8252,
      "Ġrunner": 8253,
      "Ġreaction": 8254,
      "ĠGlasgow": 8255,
      "Ġassumed": 8256,
      "ĠMediterranean": 8257,
      "eenth": 8258,
      "Ġassistance": 8259,
      "Ġhunt": 8260,
      "iece": 8261,
      "ĠJama": 8262,
      "iah": 8263,
      "profit": 8264,
      "Ġmining": 8265,
      "ĠLad": 8266,
      "ohn": 8267,
      "Ġnickn": 8268,
      "Ġtheater": 8269,
      "Ġrestored": 8270,
      "Ġpool": 8271,
      "Ġaccompanied": 8272,
      "Ġinvestment": 8273,
      "cho": 8274,
      "ĠSS": 8275,
      "mund": 8276,
      "ĠFoot": 8277,
      "ĠMap": 8278,
      "ĠTu": 8279,
      "ĠJudge": 8280,
      "ĠMilan": 8281,
      "ĠUrban": 8282,
      "ĠEug": 8283,
      "ĠBarry": 8284,
      "tery": 8285,
      "opal": 8286,
      "Ġoffensive": 8287,
      "ĠCritical": 8288,
      "Ġteen": 8289,
      "ĠBorough": 8290,
      "Ġflo": 8291,
      "cussion": 8292,
      "Ġcited": 8293,
      "Ġfan": 8294,
      "ĠMond": 8295,
      "Ġvideos": 8296,
      "annels": 8297,
      "ĠPublications": 8298,
      "mith": 8299,
      "ĠPrimary": 8300,
      "ser": 8301,
      "Ġfra": 8302,
      "ĠDiscography": 8303,
      "You": 8304,
      "ĠChallenge": 8305,
      "ĠMi": 8306,
      "ĠCher": 8307,
      "ĠSalv": 8308,
      "ĠHindu": 8309,
      "1989": 8310,
      "ĠConfeder": 8311,
      "ĠFather": 8312,
      "Ġcontext": 8313,
      "CD": 8314,
      "ĠSpecies": 8315,
      "ĠFleet": 8316,
      "Ġrepresents": 8317,
      "aired": 8318,
      "ilst": 8319,
      "ĠWW": 8320,
      "ĠPav": 8321,
      "ĠMuham": 8322,
      "Ġutil": 8323,
      "Ġprime": 8324,
      "Ġpian": 8325,
      "Ġseed": 8326,
      "ĠTigers": 8327,
      "Ġ57": 8328,
      "cop": 8329,
      "Ġfest": 8330,
      "Ġdoll": 8331,
      "rang": 8332,
      "Ġnotably": 8333,
      "Ġbrain": 8334,
      "onian": 8335,
      "ĠKath": 8336,
      "ĠFrances": 8337,
      "ĠWayne": 8338,
      "Ġheaded": 8339,
      "ĠBroadway": 8340,
      "Ġexecuted": 8341,
      "count": 8342,
      "icket": 8343,
      "Ġcous": 8344,
      "Ġexperienced": 8345,
      "ĠTheater": 8346,
      "ĠAndy": 8347,
      "cyclop": 8348,
      "Ġbed": 8349,
      "Ġfired": 8350,
      "Ġadvis": 8351,
      "Ġretail": 8352,
      "Ġnewspapers": 8353,
      "ĠActress": 8354,
      "door": 8355,
      "ishers": 8356,
      "ĠPictures": 8357,
      "Ġseparated": 8358,
      "Ġchallenge": 8359,
      "Ġstood": 8360,
      "Ġreturns": 8361,
      "Ġsed": 8362,
      "orrow": 8363,
      "Ġmanuscript": 8364,
      "aku": 8365,
      "Ġ62": 8366,
      "ivated": 8367,
      "Ġgrass": 8368,
      "Ġdating": 8369,
      "ĠHold": 8370,
      "Ġpolicies": 8371,
      "ĠSelected": 8372,
      "Ġcollections": 8373,
      "Ġ1860": 8374,
      "oi": 8375,
      "Ġ1893": 8376,
      "ĠStars": 8377,
      "ĠFace": 8378,
      "Ġlooking": 8379,
      "Ġcaught": 8380,
      "rec": 8381,
      "Ġcarrying": 8382,
      "edding": 8383,
      "inter": 8384,
      "ĠVas": 8385,
      "ĠPradesh": 8386,
      "ĠBaker": 8387,
      "tha": 8388,
      "ilk": 8389,
      "Ġdoub": 8390,
      "Ġracial": 8391,
      "Ġinfl": 8392,
      "Ġconqu": 8393,
      "iation": 8394,
      "ĠPhoen": 8395,
      "RS": 8396,
      "Ġjump": 8397,
      "IP": 8398,
      "cular": 8399,
      "Ġselling": 8400,
      "Ġheritage": 8401,
      "ĠPolitics": 8402,
      "gie": 8403,
      "Ġformally": 8404,
      "ĠCentury": 8405,
      "owski": 8406,
      "Ġconcerns": 8407,
      "Ġtail": 8408,
      "ĠRena": 8409,
      "ĠNever": 8410,
      "Ġbran": 8411,
      "Ph": 8412,
      "ĠFrid": 8413,
      "ĠHit": 8414,
      "ĠMans": 8415,
      "Ġassault": 8416,
      "Ġrhy": 8417,
      "ĠFlore": 8418,
      "Ġstopped": 8419,
      "otan": 8420,
      "ĠYouTube": 8421,
      "chers": 8422,
      "Ġwings": 8423,
      "ĠMong": 8424,
      "kov": 8425,
      "ĠBlues": 8426,
      "Ġelectoral": 8427,
      "Ġunsuccess": 8428,
      "ĠCharlie": 8429,
      "uka": 8430,
      "acon": 8431,
      "ĠLov": 8432,
      "ĠDJ": 8433,
      "ĠWarren": 8434,
      "ĠNat": 8435,
      "ĠSeven": 8436,
      "ĠPeru": 8437,
      "Ġnor": 8438,
      "Ġ1894": 8439,
      "ĠVel": 8440,
      "Ġ1889": 8441,
      "ecution": 8442,
      "ĠGabri": 8443,
      "ĠFact": 8444,
      "ulu": 8445,
      "Ġfiled": 8446,
      "ĠBrist": 8447,
      "Ġdest": 8448,
      "Ġastron": 8449,
      "Ġkilomet": 8450,
      "ĠJosh": 8451,
      "ĠDelhi": 8452,
      "rage": 8453,
      "Ġrestaurant": 8454,
      "atters": 8455,
      "Re": 8456,
      "iege": 8457,
      "ĠBenjamin": 8458,
      "ĠMitchell": 8459,
      "Ġduties": 8460,
      "raska": 8461,
      "yles": 8462,
      "roc": 8463,
      "ĠAer": 8464,
      "Ġcarbon": 8465,
      "ĠSlovak": 8466,
      "Ġvaria": 8467,
      "ĠMonte": 8468,
      "Ġ1892": 8469,
      "Ġattract": 8470,
      "ĠMother": 8471,
      "Ġinstruments": 8472,
      "Ġeye": 8473,
      "ĠAS": 8474,
      "Ġuniform": 8475,
      "ĠCart": 8476,
      "ĠRangers": 8477,
      "Ġmagazines": 8478,
      "ĠRal": 8479,
      "amps": 8480,
      "Ġtall": 8481,
      "ĠLimited": 8482,
      "load": 8483,
      "inding": 8484,
      "oples": 8485,
      "ĠRav": 8486,
      "isd": 8487,
      "itime": 8488,
      "ĠCase": 8489,
      "jab": 8490,
      "ĠLanguage": 8491,
      "Ġsignificantly": 8492,
      "Ġsomew": 8493,
      "ĠPoly": 8494,
      "Ġinher": 8495,
      "ĠManh": 8496,
      "ancouver": 8497,
      "tenance": 8498,
      "Ġshel": 8499,
      "ĠGun": 8500,
      "oked": 8501,
      "Ġsevere": 8502,
      "ĠBenn": 8503,
      "Ġcolleges": 8504,
      "master": 8505,
      "Ġguitarist": 8506,
      "Ġadaptation": 8507,
      "Ġdegrees": 8508,
      "Ġnothing": 8509,
      "Ġarrival": 8510,
      "Ġcoastal": 8511,
      "Ġendemic": 8512,
      "ĠNorm": 8513,
      "ĠMall": 8514,
      "ĠQuarter": 8515,
      "Ġlink": 8516,
      "ĠCompanies": 8517,
      "orne": 8518,
      "Ġexpression": 8519,
      "Ġdemonstr": 8520,
      "utions": 8521,
      "ĠBund": 8522,
      "ĠRic": 8523,
      "ĠTowns": 8524,
      "ĠNova": 8525,
      "page": 8526,
      "ĠMess": 8527,
      "ĠNevada": 8528,
      "Ġpreced": 8529,
      "ashed": 8530,
      "ĠGuinea": 8531,
      "Ġthick": 8532,
      "Ġtesting": 8533,
      "Ġownership": 8534,
      "Ġcriticism": 8535,
      "Ġlegend": 8536,
      "Ġwindows": 8537,
      "ĠColombia": 8538,
      "Ġbat": 8539,
      "HS": 8540,
      "away": 8541,
      "ĠHawaii": 8542,
      "hab": 8543,
      "formance": 8544,
      "Ġ120": 8545,
      "iggest": 8546,
      "aran": 8547,
      "Ġequivalent": 8548,
      "Ġresponsibility": 8549,
      "ĠNepal": 8550,
      "Ġbrick": 8551,
      "Ġromantic": 8552,
      "Ġobl": 8553,
      "Ġuser": 8554,
      "Ġinstitution": 8555,
      "ĠConn": 8556,
      "ĠNation": 8557,
      "eget": 8558,
      "ĠZe": 8559,
      "Ġbringing": 8560,
      "ĠBurg": 8561,
      "original": 8562,
      "ĠMak": 8563,
      "Ġcoordin": 8564,
      "Ġcolour": 8565,
      "ĠFellow": 8566,
      "lock": 8567,
      "ĠBachelor": 8568,
      "leton": 8569,
      "Ġexplos": 8570,
      "ĠVoiv": 8571,
      "Ġincorpor": 8572,
      "ĠAlberta": 8573,
      "ĠAndr": 8574,
      "ĠNebraska": 8575,
      "Ġchampionships": 8576,
      "Ġmedals": 8577,
      "usalem": 8578,
      "oker": 8579,
      "idency": 8580,
      "Ġpoets": 8581,
      "Ġdaughters": 8582,
      "Ġorganisation": 8583,
      "Ġdepend": 8584,
      "Ġfactor": 8585,
      "No": 8586,
      "acc": 8587,
      "gressive": 8588,
      "Ġpractices": 8589,
      "phan": 8590,
      "Ġlearned": 8591,
      "ĠBarbara": 8592,
      "Ġflower": 8593,
      "Ġmunicipalities": 8594,
      "Ġotherwise": 8595,
      "Ġsuccessor": 8596,
      "ĠVlad": 8597,
      "Ġpoem": 8598,
      "ĠSched": 8599,
      "Ġflowers": 8600,
      "Ġvessels": 8601,
      "ĠWarner": 8602,
      "isations": 8603,
      "Ġsuggests": 8604,
      "heme": 8605,
      "phone": 8606,
      "ĠPhilippine": 8607,
      "Ġstorage": 8608,
      "astrop": 8609,
      "ĠBuffalo": 8610,
      "Ġ1885": 8611,
      "ĠStandard": 8612,
      "ĠGrad": 8613,
      "Ġindu": 8614,
      "ĠJenn": 8615,
      "ĠWeekly": 8616,
      "Ġunderstanding": 8617,
      "oom": 8618,
      "Ġhur": 8619,
      "ĠHunter": 8620,
      "ĠMinor": 8621,
      "ĠPil": 8622,
      "break": 8623,
      "Ġfilmed": 8624,
      "Ġwindow": 8625,
      "Ġ1891": 8626,
      "who": 8627,
      "Ġchance": 8628,
      "Ġreplacement": 8629,
      "ON": 8630,
      "atern": 8631,
      "ĠYe": 8632,
      "ĠCaribbean": 8633,
      "ĠTower": 8634,
      "ĠAlaska": 8635,
      "arma": 8636,
      "Ġwave": 8637,
      "Ġcrowd": 8638,
      "Ġaccur": 8639,
      "ĠSpeed": 8640,
      "odeship": 8641,
      "ĠAlt": 8642,
      "Ġdifference": 8643,
      "DS": 8644,
      "power": 8645,
      "Ġlinked": 8646,
      "Ġphen": 8647,
      "Ġturns": 8648,
      "Ġmedieval": 8649,
      "ĠUnt": 8650,
      "Ġcrossing": 8651,
      "ĠPant": 8652,
      "ĠMuhammad": 8653,
      "Ġcolspan": 8654,
      "stances": 8655,
      "Ġcoverage": 8656,
      "Ġclassified": 8657,
      "ĠFitz": 8658,
      "lem": 8659,
      "Ġdisappe": 8660,
      "ju": 8661,
      "Ġprepared": 8662,
      "ĠJonathan": 8663,
      "Ġdiagn": 8664,
      "xts": 8665,
      "Ġhosts": 8666,
      "ĠFine": 8667,
      "ellect": 8668,
      "Ġnomination": 8669,
      "ME": 8670,
      "Ġmonument": 8671,
      "Ġsoundtrack": 8672,
      "nik": 8673,
      "Ġcommemor": 8674,
      "Ġinterested": 8675,
      "enia": 8676,
      "Ġpeaked": 8677,
      "ĠWang": 8678,
      "Ġ76": 8679,
      "ĠVancouver": 8680,
      "ogle": 8681,
      "ĠGreater": 8682,
      "Ġoccupation": 8683,
      "Ġbanks": 8684,
      "ĠRelease": 8685,
      "stad": 8686,
      "Ġfrag": 8687,
      "Ġauthors": 8688,
      "ruption": 8689,
      "ĠCharlotte": 8690,
      "Ġtied": 8691,
      "ĠJess": 8692,
      "iya": 8693,
      "Ġdevices": 8694,
      "ĠTechnical": 8695,
      "1988": 8696,
      "Ġrecept": 8697,
      "Ġmouth": 8698,
      "ĠVictorian": 8699,
      "Ġdidn": 8700,
      "Ġfictional": 8701,
      "chang": 8702,
      "ĠProtest": 8703,
      "ĠTag": 8704,
      "fare": 8705,
      "Ġweekly": 8706,
      "ĠBengal": 8707,
      "iency": 8708,
      "ĠTang": 8709,
      "Ġartistic": 8710,
      "ĠSaints": 8711,
      "ĠUnit": 8712,
      "ĠLate": 8713,
      "Ġveget": 8714,
      "ĠConstant": 8715,
      "ĠPA": 8716,
      "ĠApple": 8717,
      "ĠKos": 8718,
      "Ġtheore": 8719,
      "Ġinvent": 8720,
      "ĠRecipients": 8721,
      "Ġcovering": 8722,
      "Ġmobile": 8723,
      "Ġlanding": 8724,
      "ĠAP": 8725,
      "Ġensure": 8726,
      "Ġrecru": 8727,
      "Ġdanc": 8728,
      "ĠAssistant": 8729,
      "ĠAmaz": 8730,
      "ĠHud": 8731,
      "Ġunus": 8732,
      "Ġteachers": 8733,
      "Ġsubjects": 8734,
      "ĠSum": 8735,
      "Ġdescend": 8736,
      "rix": 8737,
      "hips": 8738,
      "ĠAlger": 8739,
      "arked": 8740,
      "antine": 8741,
      "ĠBlood": 8742,
      "Ġagencies": 8743,
      "ictions": 8744,
      "Ġ|}": 8745,
      "Ġbiggest": 8746,
      "Ġparliamentary": 8747,
      "Ġchildhood": 8748,
      "Ġ61": 8749,
      "Ġflows": 8750,
      "ancell": 8751,
      "Ġassass": 8752,
      "aron": 8753,
      "Ġaspects": 8754,
      "ĠClassic": 8755,
      "enses": 8756,
      "Ġign": 8757,
      "Am": 8758,
      "ĠHeb": 8759,
      "enburg": 8760,
      "ĠVoivodeship": 8761,
      "ĠNicholas": 8762,
      "otype": 8763,
      "Ġsun": 8764,
      "ricane": 8765,
      "ĠCharts": 8766,
      "ĠDefunct": 8767,
      "ĠOnline": 8768,
      "ĠLore": 8769,
      "ĠStre": 8770,
      "ĠAlice": 8771,
      "ĠPle": 8772,
      "iko": 8773,
      "1987": 8774,
      "ĠLuther": 8775,
      "avan": 8776,
      "mosp": 8777,
      "Ġcold": 8778,
      "ĠPast": 8779,
      "Ġpod": 8780,
      "Ġscholar": 8781,
      "ournals": 8782,
      "ĠFab": 8783,
      "eria": 8784,
      "ĠFilip": 8785,
      "Ġartillery": 8786,
      "ĠSteel": 8787,
      "Ġexpert": 8788,
      "Ġministers": 8789,
      "oustic": 8790,
      "anim": 8791,
      "Ġsquadron": 8792,
      "Ġpopularity": 8793,
      "Ġcounties": 8794,
      "ĠUlt": 8795,
      "Ġmanufacturing": 8796,
      "ĠExper": 8797,
      "ĠChel": 8798,
      "Ġdepos": 8799,
      "Ġstruck": 8800,
      "essions": 8801,
      "ĠIndians": 8802,
      "ĠGriff": 8803,
      "ĠSchol": 8804,
      "ivia": 8805,
      "Ġstayed": 8806,
      "ĠDistribution": 8807,
      "ocol": 8808,
      "Ġcup": 8809,
      "gov": 8810,
      "Ġ1888": 8811,
      "Ġvary": 8812,
      "ĠLuis": 8813,
      "ĠBristol": 8814,
      "Eng": 8815,
      "Ġsort": 8816,
      "ĠSumm": 8817,
      "Ġforests": 8818,
      "ĠOrange": 8819,
      "Ġhistorians": 8820,
      "uru": 8821,
      "Ġeliminated": 8822,
      "ĠStorm": 8823,
      "ĠSid": 8824,
      "ouncill": 8825,
      "folk": 8826,
      "ĠFaculty": 8827,
      "forcement": 8828,
      "Ġassembly": 8829,
      "aris": 8830,
      "ĠPin": 8831,
      "fers": 8832,
      "Ġappropri": 8833,
      "ĠCode": 8834,
      "idad": 8835,
      "Ġdog": 8836,
      "ĠFish": 8837,
      "uez": 8838,
      "olds": 8839,
      "Ġrose": 8840,
      "Ġclassic": 8841,
      "Ġpapers": 8842,
      "ĠJerusalem": 8843,
      "ivan": 8844,
      "Ġreferences": 8845,
      "Ġdisestablished": 8846,
      "inations": 8847,
      "Ġgene": 8848,
      "ĠAfghanistan": 8849,
      "hus": 8850,
      "ĠParker": 8851,
      "Ġevening": 8852,
      "ĠTol": 8853,
      "Ġlocomotives": 8854,
      "Ġaccompl": 8855,
      "Ġles": 8856,
      "ĠSmall": 8857,
      "ilia": 8858,
      "Ġelement": 8859,
      "ĠNi": 8860,
      "Ġvert": 8861,
      "Ġdated": 8862,
      "ĠMoroc": 8863,
      "ĠAppl": 8864,
      "Ġinfrastructure": 8865,
      "Ġcheck": 8866,
      "Ġpicture": 8867,
      "Ġheads": 8868,
      "oga": 8869,
      "Ġrequirements": 8870,
      "Ġdim": 8871,
      "ĠDNA": 8872,
      "Ġ58": 8873,
      "hand": 8874,
      "bel": 8875,
      "Ġchannels": 8876,
      "ĠAdmiral": 8877,
      "ĠMind": 8878,
      "ĠRAF": 8879,
      "Ġmanga": 8880,
      "ĠSR": 8881,
      "Ġscheme": 8882,
      "ĠCinc": 8883,
      "Ġfalls": 8884,
      "Ġgraduating": 8885,
      "Ġfram": 8886,
      "othy": 8887,
      "MC": 8888,
      "Ġorchestra": 8889,
      "ĠMeanwhile": 8890,
      "Ġid": 8891,
      "Ġappointment": 8892,
      "Ġsynthes": 8893,
      "story": 8894,
      "uy": 8895,
      "Ġwheel": 8896,
      "ushing": 8897,
      "ĠUnd": 8898,
      "Ġtie": 8899,
      "Ġpenalty": 8900,
      "ĠKap": 8901,
      "mm": 8902,
      "ĠMaced": 8903,
      "ĠSoft": 8904,
      "Ġaggreg": 8905,
      "anner": 8906,
      "cons": 8907,
      "ĠSaudi": 8908,
      "Ġaffairs": 8909,
      "ĠSide": 8910,
      "Ġfixed": 8911,
      "Ġwithdraw": 8912,
      "ĠEsp": 8913,
      "Ġprocesses": 8914,
      "ĠOliver": 8915,
      "apping": 8916,
      "oven": 8917,
      "Ġnations": 8918,
      "ĠContemporary": 8919,
      "Ġbit": 8920,
      "Ġconduct": 8921,
      "Ġ1865": 8922,
      "Ġsnow": 8923,
      "race": 8924,
      "Ġsigning": 8925,
      "Ġplane": 8926,
      "Ġ1887": 8927,
      "ĠAround": 8928,
      "ĠBron": 8929,
      "Ġaudio": 8930,
      "ĠEvent": 8931,
      "ĠInit": 8932,
      "ĠKnights": 8933,
      "Ġrounds": 8934,
      "ĠKnow": 8935,
      "Ġlieutenant": 8936,
      "Ġtask": 8937,
      "Ġsentenced": 8938,
      "ĠPrincip": 8939,
      "know": 8940,
      "Ġpoverty": 8941,
      "Ġrent": 8942,
      "Ġconvicted": 8943,
      "Ġdifferences": 8944,
      "Ġrates": 8945,
      "ĠAction": 8946,
      "Ġcommit": 8947,
      "ĠClare": 8948,
      "urers": 8949,
      "isition": 8950,
      "Ġthousands": 8951,
      "ribed": 8952,
      "Ġchapter": 8953,
      "Ġru": 8954,
      "ĠAnti": 8955,
      "Ġnominations": 8956,
      "Ġstret": 8957,
      "Ġopinion": 8958,
      "Ġreplacing": 8959,
      "Ġquestions": 8960,
      "ĠManhattan": 8961,
      "Ġappearing": 8962,
      "ĠKun": 8963,
      "iary": 8964,
      "Ġliqu": 8965,
      "ĠSoul": 8966,
      "shaped": 8967,
      "ĠSha": 8968,
      "ĠNature": 8969,
      "card": 8970,
      "Ġexpedition": 8971,
      "claimed": 8972,
      "ĠHem": 8973,
      "ĠArtillery": 8974,
      "Ġmental": 8975,
      "ĠBert": 8976,
      "1986": 8977,
      "ĠHispan": 8978,
      "ĠSultan": 8979,
      "Ġevolution": 8980,
      "Ġmovements": 8981,
      "Ġsurre": 8982,
      "wig": 8983,
      "Ġencounter": 8984,
      "castle": 8985,
      "ĠTrinity": 8986,
      "ĠFreedom": 8987,
      "Ġextremely": 8988,
      "iors": 8989,
      "pent": 8990,
      "Ġjourney": 8991,
      "Ġemergency": 8992,
      "ĠYam": 8993,
      "ĠModel": 8994,
      "fish": 8995,
      "Ġrelative": 8996,
      "Ġlimit": 8997,
      "Ġportrayed": 8998,
      "boy": 8999,
      "Ġadding": 9000,
      "ijing": 9001,
      "Ġmonarch": 9002,
      "ĠDiocese": 9003,
      "Ġsoil": 9004,
      "Ġmac": 9005,
      "Ġindicate": 9006,
      "Ġsax": 9007,
      "ĠControl": 9008,
      "ĠPage": 9009,
      "Ġnote": 9010,
      "pression": 9011,
      "ĠTrail": 9012,
      "Ġtemporary": 9013,
      "Ġlov": 9014,
      "ĠPlant": 9015,
      "Ġindigenous": 9016,
      "feld": 9017,
      "ĠYu": 9018,
      "Ġwooden": 9019,
      "Ġweak": 9020,
      "ĠKirk": 9021,
      "ĠCroatian": 9022,
      "lement": 9023,
      "ĠBarcel": 9024,
      "ĠIsa": 9025,
      "Ġstrategy": 9026,
      "Ġcapable": 9027,
      "1985": 9028,
      "elected": 9029,
      "ĠFalls": 9030,
      "ĠEducational": 9031,
      "inces": 9032,
      "Ġplate": 9033,
      "acht": 9034,
      "Ġmeets": 9035,
      "Ġsuicide": 9036,
      "ĠShang": 9037,
      "Ġwor": 9038,
      "Ġterritories": 9039,
      "keeper": 9040,
      "Ġtechnique": 9041,
      "inos": 9042,
      "Ġ1864": 9043,
      "ĠMars": 9044,
      "Ġphotography": 9045,
      "alis": 9046,
      "ĠAdela": 9047,
      "Ġoffering": 9048,
      "ĠBranch": 9049,
      "ĠFeat": 9050,
      "Ġ1886": 9051,
      "ĠHarrison": 9052,
      "ĠKo": 9053,
      "but": 9054,
      "erk": 9055,
      "ĠPoet": 9056,
      "Ġsubsidi": 9057,
      "ophone": 9058,
      "Ġago": 9059,
      "ĠTerritory": 9060,
      "istani": 9061,
      "usc": 9062,
      "Ġhip": 9063,
      "Ġdefence": 9064,
      "hered": 9065,
      "ĠChron": 9066,
      "ĠNE": 9067,
      "ĠDraw": 9068,
      "ĠPay": 9069,
      "maker": 9070,
      "Ġmountains": 9071,
      "Ġcards": 9072,
      "ĠZone": 9073,
      "Ġhorror": 9074,
      "Ġvolumes": 9075,
      "ĠRef": 9076,
      "Ġelder": 9077,
      "Ġlap": 9078,
      "host": 9079,
      "Ġsuspended": 9080,
      "rov": 9081,
      "ussian": 9082,
      "Ġamateur": 9083,
      "Ġoption": 9084,
      "Ġactivists": 9085,
      "ĠLost": 9086,
      "ĠSocialist": 9087,
      "ĠCollins": 9088,
      "imir": 9089,
      "ĠML": 9090,
      "ĠElection": 9091,
      "ĠCosta": 9092,
      "Ġroughly": 9093,
      "Ġlosses": 9094,
      "Ġkingdom": 9095,
      "ĠGlen": 9096,
      "care": 9097,
      "Ġassociate": 9098,
      "ĠArmenian": 9099,
      "ĠLag": 9100,
      "ĠPrivate": 9101,
      "mate": 9102,
      "ĠTib": 9103,
      "ĠPhoenix": 9104,
      "Ġalcoh": 9105,
[...]
