{
  "version": "1.0",
  "truncation": null,
  "padding": null,
  "added_tokens": [
    {
      "id": 0,
      "content": "[PAD]",
      "single_word": false,
      "lstrip": false,
      "rstrip": false,
      "normalized": false,
      "special": true
    },
    {
      "id": 1,
      "content": "[EOT]",
      "single_word": false,
      "lstrip": false,
      "rstrip": false,
      "normalized": false,
      "special": true
    },
    {
      "id": 2,
      "content": "[UNK]",
      "single_word": false,
      "lstrip": false,
      "rstrip": false,
      "normalized": false,
      "special": true
    }
  ],
  "normalizer": {
    "type": "Sequence",
    "normalizers": [
      {
        "type": "NFD"
      },
      {
        "type": "StripAccents"
      },
      {
        "type": "Replace",
        "pattern": {
          "String": "[^a-zA-Z0-9\\s!\"\\#\\$%\\&'\\(\\)\\*\\+,\\-\\./:;<=>\\?@\\[\\\\\\]\\^_`\\{\\|\\}\\~]"
        },
        "content": ""
      }
    ]
  },
  "pre_tokenizer": {
    "type": "Sequence",
    "pretokenizers": [
      {
        "type": "WhitespaceSplit"
      },
      {
        "type": "Split",
        "pattern": {
          "String": "\\d"
        },
        "behavior": "Isolated",
        "invert": false
      },
      {
        "type": "ByteLevel",
        "add_prefix_space": true,
        "trim_offsets": true,
        "use_regex": true
      }
    ]
  },
  "post_processor": null,
  "decoder": {
    "type": "ByteLevel",
    "add_prefix_space": true,
    "trim_offsets": true,
    "use_regex": true
  },
  "model": {
    "type": "BPE",
    "dropout": 0.1,
    "unk_token": "[UNK]",
    "continuing_subword_prefix": null,
    "end_of_word_suffix": null,
    "fuse_unk": false,
    "byte_fallback": false,
    "ignore_merges": false,
    "vocab": {
      "[PAD]": 0,
      "[EOT]": 1,
      "[UNK]": 2,
      "\t": 3,
      "\n": 4,
      " ": 5,
      "!": 6,
      "\"": 7,
      "#": 8,
      "$": 9,
      "%": 10,
      "&": 11,
      "'": 12,
      "(": 13,
      ")": 14,
      "*": 15,
      "+": 16,
      ",": 17,
      "-": 18,
      ".": 19,
      "/": 20,
      "0": 21,
      "1": 22,
      "2": 23,
      "3": 24,
      "4": 25,
      "5": 26,
      "6": 27,
      "7": 28,
      "8": 29,
      "9": 30,
      ":": 31,
      ";": 32,
      "<": 33,
      "=": 34,
      ">": 35,
      "?": 36,
      "@": 37,
      "A": 38,
      "B": 39,
      "C": 40,
      "D": 41,
      "E": 42,
      "F": 43,
      "G": 44,
      "H": 45,
      "I": 46,
      "J": 47,
      "K": 48,
      "L": 49,
      "M": 50,
      "N": 51,
      "O": 52,
      "P": 53,
      "Q": 54,
      "R": 55,
      "S": 56,
      "T": 57,
      "U": 58,
      "V": 59,
      "W": 60,
      "X": 61,
      "Y": 62,
      "Z": 63,
      "[": 64,
      "\\": 65,
      "]": 66,
      "^": 67,
      "_": 68,
      "`": 69,
      "a": 70,
      "b": 71,
      "c": 72,
      "d": 73,
      "e": 74,
      "f": 75,
      "g": 76,
      "h": 77,
      "i": 78,
      "j": 79,
      "k": 80,
      "l": 81,
      "m": 82,
      "n": 83,
      "o": 84,
      "p": 85,
      "q": 86,
      "r": 87,
      "s": 88,
      "t": 89,
      "u": 90,
      "v": 91,
      "w": 92,
      "x": 93,
      "y": 94,
      "z": 95,
      "{": 96,
      "|": 97,
      "}": 98,
      "~": 99,
      "Ġ": 100,
      "he": 101,
      "Ġt": 102,
      "Ġa": 103,
      "in": 104,
      "er": 105,
      "an": 106,
      "on": 107,
      "Ġ|": 108,
      "or": 109,
      "Ġthe": 110,
      "es": 111,
      "is": 112,
      "en": 113,
      "ar": 114,
      "at": 115,
      "ed": 116,
      "Ġo": 117,
      "Ġw": 118,
      "Ġ||": 119,
      "Ġs": 120,
      "al": 121,
      "it": 122,
      "Ġb": 123,
      "Ġof": 124,
      "Ġin": 125,
      "Ġ1": 126,
      "Ġc": 127,
      "ic": 128,
      "ĠS": 129,
      "Ġf": 130,
      "re": 131,
      "as": 132,
      "nd": 133,
      "Ġp": 134,
      "ro": 135,
      "ĠA": 136,
      "ĠT": 137,
      "Ġm": 138,
      "Ġand": 139,
      "le": 140,
      "ĠC": 141,
      "ing": 142,
      "Ġ2": 143,
      "ĠM": 144,
      "Ġd": 145,
      "ou": 146,
      "ion": 147,
      "ol": 148,
      "ig": 149,
      "Ġ(": 150,
      "il": 151,
      "Ġ19": 152,
      "ĠP": 153,
      "Ġto": 154,
      "ĠI": 155,
      "am": 156,
      "Ġis": 157,
      "Ġh": 158,
      "ent": 159,
      "ĠB": 160,
      "om": 161,
      "us": 162,
      "ĠR": 163,
      "ĠH": 164,
      "ĠL": 165,
      "id": 166,
      "Ġ20": 167,
      "el": 168,
      "ĠThe": 169,
      "ct": 170,
      "Ġwas": 171,
      "Ġl": 172,
      "ir": 173,
      "ĠF": 174,
      "et": 175,
      "ĠD": 176,
      "ad": 177,
      "||": 178,
      "ch": 179,
      "ur": 180,
      "ers": 181,
      "ĠN": 182,
      "Ġn": 183,
      "iv": 184,
      "ay": 185,
      "Ġal": 186,
      "ot": 187,
      "ĠG": 188,
      "em": 189,
      "st": 190,
      "ef": 191,
      "ĠJ": 192,
      "ĠE": 193,
      "ĠO": 194,
      "ĠW": 195,
      "ist": 196,
      "Ġth": 197,
      "th": 198,
      "her": 199,
      "Ġg": 200,
      "im": 201,
      "ov": 202,
      "Ġon": 203,
      "ce": 204,
      "un": 205,
      "ht": 206,
      "Ġfor": 207,
      "op": 208,
      "ow": 209,
      "Ġk": 210,
      "ian": 211,
      "ber": 212,
      "ly": 213,
      "ation": 214,
      "rom": 215,
      "Ġre": 216,
      "ag": 217,
      "and": 218,
      "Ġe": 219,
      "ut": 220,
      "ight": 221,
      "ies": 222,
      "ĠK": 223,
      "Ġst": 224,
      "ec": 225,
      "ra": 226,
      "est": 227,
      "Ġ|-": 228,
      "Ġfrom": 229,
      "Ġ200": 230,
      "oc": 231,
      "Ġas": 232,
      "ia": 233,
      "um": 234,
      "ul": 235,
      "ign": 236,
      "ĠU": 237,
      "os": 238,
      "ces": 239,
      "all": 240,
      "mer": 241,
      "Ġan": 242,
      "ter": 243,
      "Ġby": 244,
      "ith": 245,
      "ĠIt": 246,
      "art": 247,
      "right": 248,
      "col": 249,
      "ak": 250,
      "od": 251,
      "ep": 252,
      "ish": 253,
      "av": 254,
      "ĠHe": 255,
      "ĠSt": 256,
      "ican": 257,
      "Ġkm": 258,
      "Ġare": 259,
      "res": 260,
      "Ġbe": 261,
      "Ġ201": 262,
      "color": 263,
      "ill": 264,
      "gcolor": 265,
      "ac": 266,
      "Ġalign": 267,
      "=#": 268,
      "Ġwith": 269,
      "Ġat": 270,
      "Ġbgcolor": 271,
      "ĠIn": 272,
      "Ġhe": 273,
      "Ġv": 274,
      "ity": 275,
      "ain": 276,
      "00": 277,
      "eb": 278,
      "Ġpl": 279,
      "Ġcom": 280,
      "'s": 281,
      "ap": 282,
      "ther": 283,
      "Ġwh": 284,
      "if": 285,
      "eren": 286,
      "ĠV": 287,
      "Ġthat": 288,
      "Ġ\"": 289,
      "ember": 290,
      "ĠAmer": 291,
      "19": 292,
      "ary": 293,
      "ab": 294,
      "oun": 295,
      "ĠRef": 296,
      "ie": 297,
      "erences": 298,
      "Ġor": 299,
      "ĠReferences": 300,
      "ĠCh": 301,
      "ip": 302,
      "Ġit": 303,
      "eop": 304,
      "up": 305,
      "ard": 306,
      "eople": 307,
      "Ġ199": 308,
      "ĠAmerican": 309,
      "ld": 310,
      "ong": 311,
      "ust": 312,
      "ant": 313,
      "ate": 314,
      "ort": 315,
      "Ġpro": 316,
      "ug": 317,
      "ud": 318,
      "ew": 319,
      "ĠUn": 320,
      "Ġ3": 321,
      "ment": 322,
      "ran": 323,
      "ame": 324,
      "ri": 325,
      "ub": 326,
      "rit": 327,
      "ver": 328,
      "ear": 329,
      "Ġ-": 330,
      "orn": 331,
      "ich": 332,
      "Ġcon": 333,
      "og": 334,
      "Ġde": 335,
      "Ġch": 336,
      "Ġmov": 337,
      "ast": 338,
      "ount": 339,
      "our": 340,
      "se": 341,
      "Ġr": 342,
      "ge": 343,
      "Ġhis": 344,
      "Ġpeople": 345,
      "Ġ18": 346,
      "ated": 347,
      "EA": 348,
      "Ġplay": 349,
      "so": 350,
      "ore": 351,
      "end": 352,
      "ell": 353,
      "ĠSoc": 354,
      "ive": 355,
      "ath": 356,
      "ue": 357,
      "ial": 358,
      "ctor": 359,
      "ost": 360,
      "Ġse": 361,
      "ine": 362,
      "ord": 363,
      "Ġus": 364,
      "ok": 365,
      "ere": 366,
      "ĠY": 367,
      "20": 368,
      "man": 369,
      "ates": 370,
      "orro": 371,
      "ĠMar": 372,
      "IN": 373,
      "Ġte": 374,
      "ĠTh": 375,
      "land": 376,
      "ited": 377,
      "EAR": 378,
      "ĠSocorro": 379,
      "ĠLIN": 380,
      "ĠLINEAR": 381,
      "),": 382,
      "own": 383,
      "uc": 384,
      "Ġ4": 385,
      "Ġalso": 386,
      "ork": 387,
      "Ġle": 388,
      "ire": 389,
      "Ġhas": 390,
      "sit": 391,
      "ry": 392,
      "Ġsp": 393,
      "ical": 394,
      "Ġsh": 395,
      "ang": 396,
      "ave": 397,
      "ess": 398,
      "qu": 399,
      "Ġwere": 400,
      "und": 401,
      "Ġ198": 402,
      "ĠAl": 403,
      "ebsit": 404,
      "ey": 405,
      "ern": 406,
      "ack": 407,
      "irst": 408,
      "Ġex": 409,
      "uary": 410,
      "age": 411,
      "Ġnot": 412,
      "Ġy": 413,
      "Ġwebsit": 414,
      "Ġ5": 415,
      "ome": 416,
      "ng": 417,
      "ure": 418,
      "ĠSp": 419,
      "ik": 420,
      "ect": 421,
      "ĠUnited": 422,
      "ric": 423,
      "ide": 424,
      "out": 425,
      "Ġbir": 426,
      "Ġ197": 427,
      "Ġbec": 428,
      "ions": 429,
      "ĠOther": 430,
      "ond": 431,
      ").": 432,
      "ths": 433,
      "efe": 434,
      "ass": 435,
      "Ġcomp": 436,
      "Ġwhich": 437,
      "Ġab": 438,
      "ational": 439,
      "ime": 440,
      "Ġ7": 441,
      "sp": 442,
      "Ġfirst": 443,
      "amp": 444,
      "Ġcan": 445,
      "any": 446,
      "hen": 447,
      "ĠAr": 448,
      "ice": 449,
      "lish": 450,
      "iz": 451,
      "ace": 452,
      "fef": 453,
      "fefefe": 454,
      "Ġwebsites": 455,
      "oot": 456,
      "Ġ6": 457,
      "ory": 458,
      "Ġar": 459,
      "200": 460,
      "Ġbirths": 461,
      "Ġhave": 462,
      "ous": 463,
      "ied": 464,
      "ĠStates": 465,
      "ĠLe": 466,
      "ach": 467,
      "ph": 468,
      "Ġ8": 469,
      "ĠNew": 470,
      "aw": 471,
      "ball": 472,
      "Ġun": 473,
      "per": 474,
      "olit": 475,
      "Ġ196": 476,
      "ician": 477,
      "Ġpart": 478,
      "fter": 479,
      "ound": 480,
      "ade": 481,
      "ob": 482,
      "les": 483,
      "ater": 484,
      "ff": 485,
      "ept": 486,
      "Ġro": 487,
      "to": 488,
      "Ġone": 489,
      "Ġ9": 490,
      "ens": 491,
      "ober": 492,
      "ts": 493,
      "ree": 494,
      "ĠShe": 495,
      "Ġcl": 496,
      "Ġthey": 497,
      "Ġkn": 498,
      "cl": 499,
      "Ġhad": 500,
      "io": 501,
      "ren": 502,
      "ision": 503,
      "Ġser": 504,
      "aus": 505,
      "ĠEng": 506,
      "orld": 507,
      "ĠAn": 508,
      "Ġj": 509,
      "ĠCom": 510,
      "Ġ17": 511,
      "ood": 512,
      "te": 513,
      "eptember": 514,
      "Ġdeath": 515,
      "Ġother": 516,
      "Ġwho": 517,
      "ics": 518,
      "ib": 519,
      "Ġtheir": 520,
      "ne": 521,
      "ans": 522,
      "ild": 523,
      "old": 524,
      "wn": 525,
      "Ġ2000": 526,
      "ĠSeptember": 527,
      "mun": 528,
      "ress": 529,
      "Ġ194": 530,
      "lect": 531,
      "ootball": 532,
      "ind": 533,
      "lev": 534,
      "pp": 535,
      "ĠAs": 536,
      "Ġ195": 537,
      "Ġher": 538,
      "ĠFran": 539,
      "Ġyear": 540,
      "Ġactor": 541,
      "iss": 542,
      "ĠThis": 543,
      "Ġbut": 544,
      "Ġtw": 545,
      "ings": 546,
      "ward": 547,
      "orm": 548,
      "ally": 549,
      "Ġ193": 550,
      "ounty": 551,
      "ĠJan": 552,
      "erman": 553,
      "are": 554,
      "rop": 555,
      "ivers": 556,
      "ĠSh": 557,
      "ident": 558,
      "Ġcall": 559,
      "Ġag": 560,
      "outh": 561,
      "ah": 562,
      "ons": 563,
      "ations": 564,
      "Ġknown": 565,
      "Ġact": 566,
      "oh": 567,
      "iving": 568,
      "ctober": 569,
      "Ġabout": 570,
      "ral": 571,
      "Ġmovies": 572,
      "ased": 573,
      "ĠThey": 574,
      "ake": 575,
      "ark": 576,
      "Ġ10": 577,
      "ince": 578,
      "Ġthis": 579,
      "one": 580,
      "ould": 581,
      "Ġ16": 582,
      "ook": 583,
      "ult": 584,
      "ĠOctober": 585,
      "Ġpolit": 586,
      "orth": 587,
      "tern": 588,
      "Ġused": 589,
      "Ġsc": 590,
      "Ġall": 591,
      "ubl": 592,
      "ities": 593,
      "Ġmovie": 594,
      "ists": 595,
      "ram": 596,
      "act": 597,
      "hed": 598,
      "uch": 599,
      "Ġ2001": 600,
      "ĠInd": 601,
      "Ġ15": 602,
      "erson": 603,
      "21": 604,
      "pr": 605,
      "ton": 606,
      "Ġmus": 607,
      "ĠMarch": 608,
      "Ġcalled": 609,
      "ery": 610,
      "=\"": 611,
      "Ġgro": 612,
      "we": 613,
      "ames": 614,
      "als": 615,
      "ile": 616,
      "ex": 617,
      "ugust": 618,
      "Ġits": 619,
      "ock": 620,
      "Ġwork": 621,
      "Ġdis": 622,
      "199": 623,
      "born": 624,
      "ents": 625,
      "oy": 626,
      "ĠJanuary": 627,
      "ĠAust": 628,
      "Ġmade": 629,
      "ĠGerman": 630,
      "ments": 631,
      "ĠZ": 632,
      "ence": 633,
      "ina": 634,
      "Ġad": 635,
      "port": 636,
      "Ġsing": 637,
      "Ġafter": 638,
      "Ġtwo": 639,
      "Ġdeaths": 640,
      "ors": 641,
      "ĠAugust": 642,
      "ĠMay": 643,
      "oug": 644,
      "levision": 645,
      "Ġcont": 646,
      "ick": 647,
      "ĠNov": 648,
      "clud": 649,
      "ĠDec": 650,
      "ite": 651,
      "Ġfootball": 652,
      "Ġres": 653,
      "ten": 654,
      "Ġmost": 655,
      "Ġsong": 656,
      "ebr": 657,
      "Ġmany": 658,
      "ict": 659,
      "iver": 660,
      "Ġme": 661,
      "ĠBrit": 662,
      "ev": 663,
      "Ġ14": 664,
      "Ġborn": 665,
      "uring": 666,
      "oll": 667,
      "Ġinclud": 668,
      "18": 669,
      "Ġ12": 670,
      "inn": 671,
      "ese": 672,
      "fer": 673,
      "apan": 674,
      "ages": 675,
      "ition": 676,
      "ĠSc": 677,
      "ĠDecember": 678,
      "Ġwrit": 679,
      "ĠNovember": 680,
      "ont": 681,
      "Ġthere": 682,
      "ail": 683,
      "Ġen": 684,
      "son": 685,
      "Ġtime": 686,
      "Ġ13": 687,
      "ĠEnglish": 688,
      "pl": 689,
      "gan": 690,
      "Ġbeen": 691,
      "Ġcity": 692,
      "pril": 693,
      "ĠOn": 694,
      "ĠJapan": 695,
      "itt": 696,
      "ike": 697,
      "az": 698,
      "ause": 699,
      "Ġtelevision": 700,
      "span": 701,
      "22": 702,
      "overn": 703,
      "ebruary": 704,
      "Ġinto": 705,
      "olog": 706,
      "Ġshe": 707,
      "uct": 708,
      "Ġfound": 709,
      "\"|": 710,
      "ash": 711,
      "ays": 712,
      "ĠCounty": 713,
      "Ġdied": 714,
      "Ġ11": 715,
      "mp": 716,
      "Ġac": 717,
      "ĠIs": 718,
      "ĠPr": 719,
      "ĠCl": 720,
      "Ġmore": 721,
      "ĠCan": 722,
      "ĠApril": 723,
      "Ġim": 724,
      "ague": 725,
      "ury": 726,
      "ĠFebruary": 727,
      "resident": 728,
      "une": 729,
      "Ġdo": 730,
      "Ġoff": 731,
      "Ġwhen": 732,
      "Ġup": 733,
      "ife": 734,
      "ool": 735,
      "ck": 736,
      "Ġpolitician": 737,
      "eak": 738,
      "ĠWorld": 739,
      "Ġdire": 740,
      "hes": 741,
      "reat": 742,
      "Ġpop": 743,
      "ĠPro": 744,
      "eg": 745,
      "Ġra": 746,
      "Ġpr": 747,
      "Ġper": 748,
      "ĠJu": 749,
      "Ġcount": 750,
      "10": 751,
      "ix": 752,
      "bum": 753,
      "row": 754,
      "||||": 755,
      "Ġev": 756,
      "Ġest": 757,
      "Ġteam": 758,
      "Ġcent": 759,
      "ĠJoh": 760,
      "hip": 761,
      "ft": 762,
      "Ġrec": 763,
      "pt": 764,
      "oin": 765,
      "ier": 766,
      "ase": 767,
      "ĠBritish": 768,
      "Ġreg": 769,
      "ĠLiving": 770,
      "here": 771,
      "enn": 772,
      "Ġbet": 773,
      "ĠWar": 774,
      "Ġapp": 775,
      "Ġbecame": 776,
      "inist": 777,
      "Ġout": 778,
      "uss": 779,
      "Ġ1999": 780,
      "igh": 781,
      "Ġthem": 782,
      "ll": 783,
      "ĠCar": 784,
      "iversity": 785,
      "Ġnum": 786,
      "iet": 787,
      "ins": 788,
      "Ġfam": 789,
      "Ġover": 790,
      "ogra": 791,
      "Ġyears": 792,
      "ann": 793,
      "ance": 794,
      "vel": 795,
      "istric": 796,
      "urn": 797,
      "ĠFrance": 798,
      "ose": 799,
      "ĠDe": 800,
      "ĠBr": 801,
      "Ġ2002": 802,
      "Ġnew": 803,
      "ily": 804,
      "Ġcommun": 805,
      "ĠKing": 806,
      "Ġactors": 807,
      "Ġalbum": 808,
      "Ġ2020": 809,
      "Ġprod": 810,
      "ĠJuly": 811,
      "icip": 812,
      "att": 813,
      "Ġname": 814,
      "Ġseries": 815,
      "Ġsome": 816,
      "Ġ192": 817,
      "ĠJohn": 818,
      "ĠSw": 819,
      "ĠAt": 820,
      "ĠGe": 821,
      "Ġgroup": 822,
      "Ġsy": 823,
      "atch": 824,
      "Ġph": 825,
      "Ġpopul": 826,
      "Ġfl": 827,
      "Ġdep": 828,
      "ĠCol": 829,
      "Ġso": 830,
      "Ġplayed": 831,
      "Ġestab": 832,
      "ĠAnd": 833,
      "ĠYork": 834,
      "ley": 835,
      "Ġcol": 836,
      "Ġelect": 837,
      "ĠPh": 838,
      "ener": 839,
      "Ġdif": 840,
      "aj": 841,
      "Ġrele": 842,
      "17": 843,
      "ĠBl": 844,
      "Ġonly": 845,
      "ale": 846,
      "imes": 847,
      "ism": 848,
      "Ġthan": 849,
      "Ġsec": 850,
      "ĠPar": 851,
      "ween": 852,
      "ever": 853,
      "Ġdes": 854,
      "ai": 855,
      "iam": 856,
      "ĠFor": 857,
      "oth": 858,
      "Ġhim": 859,
      "ĠQ": 860,
      "ĠLeague": 861,
      "Ġlar": 862,
      "uk": 863,
      "Ġstart": 864,
      "icial": 865,
      "ars": 866,
      "ĠSouth": 867,
      "ĠEu": 868,
      "able": 869,
      "istory": 870,
      "Ġplayer": 871,
      "Ġatt": 872,
      "round": 873,
      "resent": 874,
      "Ġbu": 875,
      "ĠJune": 876,
      "ĠPl": 877,
      "red": 878,
      "ĠAustral": 879,
      "ĠCal": 880,
      "ert": 881,
      "ugh": 882,
      "ower": 883,
      "ks": 884,
      "ĠItal": 885,
      "oman": 886,
      "Ġform": 887,
      "15": 888,
      "ouse": 889,
      "ĠPal": 890,
      "Ġbl": 891,
      "air": 892,
      "rib": 893,
      "mon": 894,
      "Ġstud": 895,
      "ograph": 896,
      "rench": 897,
      "ĠUniversity": 898,
      "Ġtr": 899,
      "ures": 900,
      "der": 901,
      "ely": 902,
      "\".": 903,
      "ĠMus": 904,
      "iel": 905,
      "emb": 906,
      "ett": 907,
      "16": 908,
      "ived": 909,
      "angu": 910,
      "anc": 911,
      "chool": 912,
      "ve": 913,
      "cess": 914,
      "14": 915,
      "ĠCon": 916,
      "ĠCanad": 917,
      "lishments": 918,
      "Ġbetween": 919,
      "ys": 920,
      "13": 921,
      "istrict": 922,
      "icipal": 923,
      "Ġbecause": 924,
      "12": 925,
      "ĠThere": 926,
      "ica": 927,
      "ĠPeople": 928,
      "Ġtra": 929,
      "ĠCity": 930,
      "erm": 931,
      "way": 932,
      "ron": 933,
      "ĠFrench": 934,
      "Ġstate": 935,
      "ĠAd": 936,
      "ient": 937,
      "unicipal": 938,
      "ather": 939,
      "198": 940,
      "ional": 941,
      "ĠEd": 942,
      "Ġgo": 943,
      "Ġnumber": 944,
      "ĠRep": 945,
      "Ġagain": 946,
      "ublic": 947,
      "other": 948,
      "ason": 949,
      "ved": 950,
      "ĠNational": 951,
      "inal": 952,
      "Ġwhere": 953,
      "Ġduring": 954,
      "rope": 955,
      "rat": 956,
      "ement": 957,
      "eth": 958,
      "Ġshow": 959,
      "ĠOr": 960,
      "Ġmon": 961,
      "au": 962,
      "Ġco": 963,
      "aid": 964,
      "Ġvery": 965,
      "ives": 966,
      "my": 967,
      "Ġund": 968,
      "Ġpre": 969,
      "Ġend": 970,
      "Ġwould": 971,
      "Ġ2010": 972,
      "urg": 973,
      "urr": 974,
      "ĠNorth": 975,
      "til": 976,
      "ital": 977,
      "Ġspec": 978,
      "ually": 979,
      "Ġplayers": 980,
      "ĠEurope": 981,
      "ough": 982,
      "yp": 983,
      "ee": 984,
      "Ġmay": 985,
      "Ġman": 986,
      "Ġwon": 987,
      "Ġlike": 988,
      "ros": 989,
      "artment": 990,
      "rist": 991,
      "ĠAward": 992,
      "form": 993,
      "Ġsm": 994,
      "Ġear": 995,
      "aint": 996,
      "Ġsuch": 997,
      "ax": 998,
      "hem": 999,
      "000": 1000,
      "Ġtown": 1001,
      "ferent": 1002,
      "Ġrel": 1003,
      "ĠFl": 1004,
      "Ġart": 1005,
      "Ġmusic": 1006,
      "ered": 1007,
      "ious": 1008,
      "Ġind": 1009,
      "23": 1010,
      "ual": 1011,
      "Ġreleased": 1012,
      "Ġcre": 1013,
      "amed": 1014,
      "ĠTe": 1015,
      "ines": 1016,
      "Ġ24": 1017,
      "ished": 1018,
      "Ġestablishments": 1019,
      "Ġchar": 1020,
      "ium": 1021,
      "ĠPresident": 1022,
      "rough": 1023,
      "ĠPart": 1024,
      "ternational": 1025,
      "Ġbro": 1026,
      "ĠAf": 1027,
      "pen": 1028,
      "sh": 1029,
      "ets": 1030,
      "Ġthree": 1031,
      "Ġdifferent": 1032,
      "Ġperson": 1033,
      "ung": 1034,
      "Ġsecond": 1035,
      "Ġdirect": 1036,
      "Ġuntil": 1037,
      "ĠMov": 1038,
      "cer": 1039,
      "ĠRiver": 1040,
      "ĠRuss": 1041,
      "Ġsup": 1042,
      "Ġlong": 1043,
      "rowspan": 1044,
      "ĠWest": 1045,
      "efore": 1046,
      "Ġstr": 1047,
      "ott": 1048,
      "ĠEl": 1049,
      "Ġgovern": 1050,
      "Ġ2003": 1051,
      "erg": 1052,
      "ise": 1053,
      "Ġwill": 1054,
      "oss": 1055,
      "Ġ25": 1056,
      "ilm": 1057,
      "Ġqu": 1058,
      "Ġcap": 1059,
      "Ġ1998": 1060,
      "ĠLa": 1061,
      "Ġworld": 1062,
      "ĠII": 1063,
      "eed": 1064,
      "ox": 1065,
      "Ġlead": 1066,
      "stem": 1067,
      "Ġlater": 1068,
      "Ġmed": 1069,
      "ĠGr": 1070,
      "Ġthen": 1071,
      "11": 1072,
      "Ġbook": 1073,
      "ĠAll": 1074,
      "areer": 1075,
      "ants": 1076,
      "Ġchild": 1077,
      "ĠHis": 1078,
      "Ġ2019": 1079,
      "ried": 1080,
      "ative": 1081,
      "let": 1082,
      "erv": 1083,
      "Ġdr": 1084,
      "Ġ2017": 1085,
      "Ġdec": 1086,
      "enc": 1087,
      "ze": 1088,
      "Ġnational": 1089,
      "Ġmember": 1090,
      "Ġage": 1091,
      "Ġthrough": 1092,
      "ĠRel": 1093,
      "Ġmar": 1094,
      "Ġarea": 1095,
      "ats": 1096,
      "omen": 1097,
      "ĠAb": 1098,
      "Ġmain": 1099,
      "its": 1100,
      "ĠAfter": 1101,
      "thern": 1102,
      "ampions": 1103,
      "ution": 1104,
      "Ġ2004": 1105,
      "30": 1106,
      "ĠWh": 1107,
      "ĠAm": 1108,
      "ĠSe": 1109,
      "ĠGu": 1110,
      "ography": 1111,
      "els": 1112,
      "ĠCommun": 1113,
      "Ġ30": 1114,
      "fect": 1115,
      "ink": 1116,
      "cc": 1117,
      "vent": 1118,
      "Ġsongs": 1119,
      "197": 1120,
      "Ġ2018": 1121,
      "Ġsame": 1122,
      "Ġsinger": 1123,
      "ĠBar": 1124,
      "ctors": 1125,
      "ull": 1126,
      "ology": 1127,
      "Ġsmall": 1128,
      "Ġband": 1129,
      "OS": 1130,
      "Ġcar": 1131,
      "Ġmake": 1132,
      "Ġloc": 1133,
      "ĠHer": 1134,
      "Ġ2005": 1135,
      "reen": 1136,
      "ĠGeor": 1137,
      "Ġ2014": 1138,
      "ĠChrist": 1139,
      "Ġformer": 1140,
      "Ġfour": 1141,
      "Ġsub": 1142,
      "dom": 1143,
      "lymp": 1144,
      "ĠBe": 1145,
      "ger": 1146,
      "ĠMan": 1147,
      "gest": 1148,
      "Ġret": 1149,
      "50": 1150,
      "ino": 1151,
      "ret": 1152,
      "ians": 1153,
      "com": 1154,
      "Ġdepartment": 1155,
      "Ġcons": 1156,
      "Ġlangu": 1157,
      "Ġkill": 1158,
      "Ġfe": 1159,
      "Ġprov": 1160,
      "ĠSpace": 1161,
      "Ġuse": 1162,
      "Ġam": 1163,
      "ĠOlymp": 1164,
      "Ġlife": 1165,
      "lp": 1166,
      "Ġmet": 1167,
      "akes": 1168,
      "ĠWill": 1169,
      "iforn": 1170,
      "ĠCent": 1171,
      "Ġair": 1172,
      "isc": 1173,
      "ounc": 1174,
      "ove": 1175,
      "cent": 1176,
      "ĠCaliforn": 1177,
      "Ġbeing": 1178,
      "Ġ190": 1179,
      "ural": 1180,
      "yl": 1181,
      "\",": 1182,
      "Ġcr": 1183,
      "ĠHar": 1184,
      "ĠCalifornia": 1185,
      "Ġgame": 1186,
      "fess": 1187,
      "ĠParty": 1188,
      "Ġwell": 1189,
      "Ġ2021": 1190,
      "Ġproduc": 1191,
      "Ġed": 1192,
      "ollow": 1193,
      "ble": 1194,
      "Ġmod": 1195,
      "Ġback": 1196,
      "ject": 1197,
      "ĠRe": 1198,
      "Ġno": 1199,
      "Ġpages": 1200,
      "Ġrecord": 1201,
      "ĠHow": 1202,
      "Ġdid": 1203,
      "Ġoften": 1204,
      "Ġbel": 1205,
      "yn": 1206,
      "ank": 1207,
      "Ġ21": 1208,
      "Ġrep": 1209,
      "Ġnamed": 1210,
      "iew": 1211,
      "24": 1212,
      "ating": 1213,
      "ĠBra": 1214,
      "lands": 1215,
      "omet": 1216,
      "Ġstarted": 1217,
      "60": 1218,
      "ield": 1219,
      "Ġgu": 1220,
      "rest": 1221,
      "Ġ.": 1222,
      "ĠChar": 1223,
      "Ġold": 1224,
      "ĠPol": 1225,
      "ĠOff": 1226,
      "Ġ2016": 1227,
      "ae": 1228,
      "Ġregion": 1229,
      "Ġbased": 1230,
      "Ġ23": 1231,
      "25": 1232,
      "stit": 1233,
      "ĠGermany": 1234,
      "ĠNor": 1235,
      "ille": 1236,
      "ught": 1237,
      "Ġbefore": 1238,
      "Ġsystem": 1239,
      "ald": 1240,
      "Ġ2015": 1241,
      "ĠAng": 1242,
      "80": 1243,
      "Ġmunicipal": 1244,
      "ries": 1245,
      "Ġfamily": 1246,
      "ĠMinist": 1247,
      "Ġ29": 1248,
      "ĠJapanese": 1249,
      "icians": 1250,
      "omar": 1251,
      "ourn": 1252,
      "ĠEngland": 1253,
      "Ġsaid": 1254,
      "Ġpar": 1255,
      "Ġrem": 1256,
      "ĠIndian": 1257,
      "ĠRelated": 1258,
      "Ġown": 1259,
      "ĠRoman": 1260,
      "eneral": 1261,
      "Ġ2006": 1262,
      "ĠPalomar": 1263,
      "Ġagainst": 1264,
      "Ġsince": 1265,
      "elf": 1266,
      "Ġunder": 1267,
      "ĠTr": 1268,
      "ific": 1269,
      "ird": 1270,
      "Ġcareer": 1271,
      "ondon": 1272,
      "uck": 1273,
      "Ġactress": 1274,
      "ony": 1275,
      "ether": 1276,
      "Ġcommune": 1277,
      "illion": 1278,
      "Ġtran": 1279,
      "Ġnorth": 1280,
      "Ġlaw": 1281,
      "burg": 1282,
      "ke": 1283,
      "40": 1284,
      "eng": 1285,
      "Ġgames": 1286,
      "27": 1287,
      "ĠBro": 1288,
      "ĠPeak": 1289,
      "Ġnear": 1290,
      "ĠMovies": 1291,
      "ĠItalian": 1292,
      "ĠX": 1293,
      "ĠEm": 1294,
      "ĠKitt": 1295,
      "ĠLondon": 1296,
      "29": 1297,
      "Ġ26": 1298,
      "ĠEn": 1299,
      "ĠAir": 1300,
      "Ġpo": 1301,
      "ĠDeath": 1302,
      "str": 1303,
      "bs": 1304,
      "ata": 1305,
      "ĠHistory": 1306,
      "Ġplace": 1307,
      "Ġcharact": 1308,
      "ask": 1309,
      "Ġany": 1310,
      "Ġwe": 1311,
      "Ġ28": 1312,
      "Ġhelp": 1313,
      "watch": 1314,
      "28": 1315,
      "ĠEx": 1316,
      "ĠCup": 1317,
      "Ġfollow": 1318,
      "che": 1319,
      "Ġwater": 1320,
      "Ġ2011": 1321,
      "iation": 1322,
      "26": 1323,
      "ature": 1324,
      "ison": 1325,
      "Ġass": 1326,
      "af": 1327,
      "Ġwar": 1328,
      "Ġ27": 1329,
      "ĠSpacewatch": 1330,
      "Ġgovernment": 1331,
      "Ġent": 1332,
      "Ġdirected": 1333,
      "Ġbest": 1334,
      "Ġinter": 1335,
      "ampionship": 1336,
      "ĠEar": 1337,
      "Ġtyp": 1338,
      "iness": 1339,
      "ring": 1340,
      "Ġgr": 1341,
      "Ġthese": 1342,
      "Ġanim": 1343,
      "gram": 1344,
      "ling": 1345,
      "Ġ2007": 1346,
      "ular": 1347,
      "ala": 1348,
      "Ġcentury": 1349,
      "EAT": 1350,
      "by": 1351,
      "uth": 1352,
      "ara": 1353,
      "ains": 1354,
      "ham": 1355,
      "ĠUS": 1356,
      "ĠNEAT": 1357,
      "con": 1358,
      "ideo": 1359,
      "ĠAss": 1360,
      "Ġpopulation": 1361,
      "ĠSome": 1362,
      "ana": 1363,
      "edy": 1364,
      "33": 1365,
      "int": 1366,
      "Ġever": 1367,
      "Ġseason": 1368,
      "ody": 1369,
      "Ġmil": 1370,
      "rama": 1371,
      "Ġ2022": 1372,
      "oon": 1373,
      "Ġcountry": 1374,
      "Ġsur": 1375,
      "ator": 1376,
      "Ġ&": 1377,
      "ows": 1378,
      "ĠKingdom": 1379,
      "Ġappear": 1380,
      "ords": 1381,
      "ama": 1382,
      "rog": 1383,
      "alt": 1384,
      "Ġ2013": 1385,
      "Ġaround": 1386,
      "Ġincluding": 1387,
      "ute": 1388,
      "ĠWhen": 1389,
      "Ġorig": 1390,
      "Ġland": 1391,
      "ster": 1392,
      "Ġorgan": 1393,
      "Ġ1990": 1394,
      "ĠMe": 1395,
      "fl": 1396,
      "90": 1397,
      "Ġboth": 1398,
      "Ġsever": 1399,
      "oint": 1400,
      "The": 1401,
      "ode": 1402,
      "aul": 1403,
      "Ġwebsite": 1404,
      "Ġ2008": 1405,
      "ajor": 1406,
      "70": 1407,
      "tt": 1408,
      "anish": 1409,
      "Ġschool": 1410,
      "rem": 1411,
      "Ġcould": 1412,
      "Ġinv": 1413,
      "Ġ22": 1414,
      "amb": 1415,
      "que": 1416,
      "rid": 1417,
      "ales": 1418,
      "ĠMc": 1419,
      "ipp": 1420,
      "de": 1421,
      "ĠBel": 1422,
      "zer": 1423,
      "ones": 1424,
      "Ġem": 1425,
      "Ġset": 1426,
      "Ġdistrict": 1427,
      "ĠGovern": 1428,
      "ilt": 1429,
      "ner": 1430,
      "istan": 1431,
      "ĠInternational": 1432,
      "urch": 1433,
      "usiness": 1434,
      "ĠCanadian": 1435,
      "ized": 1436,
      "embers": 1437,
      "Ġimport": 1438,
      "ĠWilliam": 1439,
      "ms": 1440,
      "ĠAustralia": 1441,
      "Ġbuild": 1442,
      "Ġ2012": 1443,
      "Ġ()": 1444,
      "Ġlist": 1445,
      "ought": 1446,
      "ĠMed": 1447,
      "Ġprofess": 1448,
      "ago": 1449,
      "Ġeach": 1450,
      "Ġhow": 1451,
      "Ġrun": 1452,
      "ĠAmerica": 1453,
      "aur": 1454,
      "Ġsl": 1455,
      "aking": 1456,
      "Ġhigh": 1457,
      "umb": 1458,
      "34": 1459,
      "Ġusually": 1460,
      "ney": 1461,
      "Ġright": 1462,
      "Ġlived": 1463,
      "ĠAnderson": 1464,
      "ĠComp": 1465,
      "ĠCommunes": 1466,
      "uction": 1467,
      "oard": 1468,
      "ĠMes": 1469,
      "Ġexamp": 1470,
      "velop": 1471,
      "ĠPhil": 1472,
      "Ġsim": 1473,
      "ĠThese": 1474,
      "orts": 1475,
      "Ġ2009": 1476,
      "alk": 1477,
      "ross": 1478,
      "99": 1479,
      "Ġchildren": 1480,
      "ĠMon": 1481,
      "37": 1482,
      "Ġhum": 1483,
      "ience": 1484,
      "65": 1485,
      "ract": 1486,
      "omin": 1487,
      "ues": 1488,
      "ummer": 1489,
      "ĠMich": 1490,
      "ible": 1491,
      "ĠHouse": 1492,
      "writ": 1493,
      "Ġlast": 1494,
      "ole": 1495,
      "Ġdevelop": 1496,
      "colspan": 1497,
      "ĠAustr": 1498,
      "64": 1499,
      "adem": 1500,
      "eter": 1501,
      "Ġcreated": 1502,
      "Ġrock": 1503,
      "Ġcompos": 1504,
      "68": 1505,
      "ĠOne": 1506,
      "67": 1507,
      "istor": 1508,
      "Ġcaus": 1509,
      "NE": 1510,
      "\"|-": 1511,
      "Ġserv": 1512,
      "ĠIndia": 1513,
      "35": 1514,
      "ĠMinister": 1515,
      "ĠLou": 1516,
      "Ġsk": 1517,
      "Ġran": 1518,
      "ĠSwed": 1519,
      "urrent": 1520,
      "lex": 1521,
      "Ġcounty": 1522,
      "Ġ'": 1523,
      "Ġbegan": 1524,
      "Ġadd": 1525,
      "Ġseveral": 1526,
      "Ġprogram": 1527,
      "\"|-||": 1528,
      "Ġwinn": 1529,
      "Ġsign": 1530,
      "ĠSan": 1531,
      "Ġclub": 1532,
      "ĠPer": 1533,
      "Ġsouth": 1534,
      "Ġstat": 1535,
      "ĠDem": 1536,
      "Ġattack": 1537,
      "ene": 1538,
      "Ġwhile": 1539,
      "Ġoper": 1540,
      "ĠState": 1541,
      "Ġcommon": 1542,
      "ĠSec": 1543,
      "inc": 1544,
      "ane": 1545,
      "Ġwriter": 1546,
      "38": 1547,
      "Ġ1980": 1548,
      "ĠDav": 1549,
      "Ġvers": 1550,
      "app": 1551,
      "ĠGl": 1552,
      "eder": 1553,
      "for": 1554,
      "ful": 1555,
      "ĠSup": 1556,
      "Ġlarge": 1557,
      "ches": 1558,
      "Ġterm": 1559,
      "ush": 1560,
      "ĠSy": 1561,
      "itary": 1562,
      "Ġimportant": 1563,
      "Ġlive": 1564,
      "ven": 1565,
      "ensus": 1566,
      "side": 1567,
      "ington": 1568,
      "Ġofficial": 1569,
      "ĠHowever": 1570,
      "45": 1571,
      "Ġsingle": 1572,
      "ĠSch": 1573,
      "Ġif": 1574,
      "Ġpol": 1575,
      "Ġhead": 1576,
      "ĠDeaths": 1577,
      "Ġdrama": 1578,
      "rew": 1579,
      "ĠAustralian": 1580,
      "Ġdisc": 1581,
      "ired": 1582,
      "Ġacc": 1583,
      "day": 1584,
      "ĠCities": 1585,
      "69": 1586,
      "Ġwent": 1587,
      "Ġ1997": 1588,
      "Ġfilm": 1589,
      "na": 1590,
      "ler": 1591,
      "Ġint": 1592,
      "attle": 1593,
      "Ġpopular": 1594,
      "ste": 1595,
      "aught": 1596,
      "aster": 1597,
      "Ġsuc": 1598,
      "ĠAc": 1599,
      "Ġmillion": 1600,
      "berg": 1601,
      "the": 1602,
      "ĠMesa": 1603,
      "Ġdef": 1604,
      "Ġmunicipality": 1605,
      "ĠOfficial": 1606,
      "Ġdiv": 1607,
      "ĠRussian": 1608,
      "Ġlanguage": 1609,
      "ico": 1610,
      "zil": 1611,
      "39": 1612,
      "aut": 1613,
      "idd": 1614,
      "Ġnow": 1615,
      "oice": 1616,
      "rol": 1617,
      "Ġsoc": 1618,
      "ĠMiss": 1619,
      "Ġleg": 1620,
      "48": 1621,
      "Ġexample": 1622,
      "47": 1623,
      "Ġmat": 1624,
      "ange": 1625,
      "cept": 1626,
      "Ġdesign": 1627,
      "Ġ1996": 1628,
      "omb": 1629,
      ".\"": 1630,
      "Ġpower": 1631,
      "Ġfin": 1632,
      "ĠSer": 1633,
      "Ġchang": 1634,
      "Ġcountries": 1635,
      "Ġmin": 1636,
      "Ġearly": 1637,
      "Ġep": 1638,
      "Ġann": 1639,
      "ĠChampionship": 1640,
      "Ġpresident": 1641,
      "ĠBrazil": 1642,
      "Ġdist": 1643,
      "ometimes": 1644,
      "iven": 1645,
      "Ġhome": 1646,
      "ĠMex": 1647,
      "Ġget": 1648,
      "west": 1649,
      "Ġeng": 1650,
      "ĠHol": 1651,
      "ĠLO": 1652,
      "ĠQu": 1653,
      "Ġcompet": 1654,
      "Ġwest": 1655,
      "ĠCo": 1656,
      "Ġgroups": 1657,
      "ockey": 1658,
      "Ġinclude": 1659,
      "ices": 1660,
      "ĠPark": 1661,
      "ĠRec": 1662,
      "Ġopen": 1663,
      "Ġday": 1664,
      "..": 1665,
      "ivil": 1666,
      "Ġvideo": 1667,
      "Ġinc": 1668,
      "oph": 1669,
      "ief": 1670,
      "lin": 1671,
      "Ġexp": 1672,
      "Ġtrans": 1673,
      "bert": 1674,
      "ĠRober": 1675,
      "Ġcapital": 1676,
      "ple": 1677,
      "Ġspecies": 1678,
      "Ġmeans": 1679,
      "ĠSm": 1680,
      "ford": 1681,
      "NEOS": 1682,
      "ĠLONEOS": 1683,
      "Ġ1960": 1684,
      "Ġwritten": 1685,
      "ĠPolit": 1686,
      "riend": 1687,
      "ij": 1688,
      "ĠSpanish": 1689,
      "conom": 1690,
      "57": 1691,
      "Ġleft": 1692,
      "ges": 1693,
      "ien": 1694,
      "ĠSing": 1695,
      "Ġway": 1696,
      "ided": 1697,
      "ĠJames": 1698,
      "ĠSchool": 1699,
      "Ġext": 1700,
      "ĠTur": 1701,
      "rod": 1702,
      "ĠPaul": 1703,
      "ocrat": 1704,
      "Ġevery": 1705,
      "ĠSen": 1706,
      "ĠMor": 1707,
      "gin": 1708,
      "Ġhistory": 1709,
      "Ġ1995": 1710,
      "aces": 1711,
      "Ġ,": 1712,
      "ĠDr": 1713,
      "98": 1714,
      "Ġmembers": 1715,
      "ĠTex": 1716,
      "ourt": 1717,
      "ĠPort": 1718,
      "ĠCanada": 1719,
      "Ġpass": 1720,
      "ĠActors": 1721,
      "iod": 1722,
      "Ġtimes": 1723,
      "ĠEast": 1724,
      "co": 1725,
      "ĠAngel": 1726,
      "ĠFootball": 1727,
      "eal": 1728,
      "led": 1729,
      "ius": 1730,
      "Ġ1970": 1731,
      "Ġdown": 1732,
      "FA": 1733,
      "ris": 1734,
      "ĠSaint": 1735,
      "lege": 1736,
      "uff": 1737,
      "Ġmuch": 1738,
      "ĠGree": 1739,
      "chn": 1740,
      "over": 1741,
      "Ġmanag": 1742,
      "Ġmarried": 1743,
      "Ġactiv": 1744,
      "arn": 1745,
      "Ġwhat": 1746,
      "97": 1747,
      "58": 1748,
      "ania": 1749,
      "ides": 1750,
      "ma": 1751,
      "rain": 1752,
      "Ġprot": 1753,
      "epend": 1754,
      "oung": 1755,
      "rote": 1756,
      "ĠRepublic": 1757,
      "Ġfamous": 1758,
      "itar": 1759,
      "||||||||": 1760,
      "iter": 1761,
      "istics": 1762,
      "Ġcancer": 1763,
      "Ġshort": 1764,
      "Ġ1994": 1765,
      "Ġwomen": 1766,
      "ean": 1767,
      "ior": 1768,
      "Ġvar": 1769,
      "osp": 1770,
      "ĠMil": 1771,
      "ĠReg": 1772,
      "ida": 1773,
      "ĠSov": 1774,
      "Ġstill": 1775,
      "Ġcomedy": 1776,
      "Ġmajor": 1777,
      "ael": 1778,
      "ĠFlor": 1779,
      "orp": 1780,
      "ĠNot": 1781,
      "Ġclass": 1782,
      "ĠTown": 1783,
      "yle": 1784,
      "uel": 1785,
      "Ġref": 1786,
      "oe": 1787,
      "ĠProv": 1788,
      "Ġbuilt": 1789,
      "ction": 1790,
      "Ġfather": 1791,
      "han": 1792,
      "Ġ31": 1793,
      "ya": 1794,
      "olution": 1795,
      "alth": 1796,
      "Ġjoin": 1797,
      "view": 1798,
      "Ġcurrent": 1799,
      "illa": 1800,
      "ĠGeorge": 1801,
      "ĠIts": 1802,
      "Ġrece": 1803,
      "ky": 1804,
      "ĠNY": 1805,
      "Ġ100": 1806,
      "gy": 1807,
      "ves": 1808,
      "66": 1809,
      "Ġstar": 1810,
      "astern": 1811,
      "ĠLouis": 1812,
      "Ġsold": 1813,
      "ases": 1814,
      "Ġ188": 1815,
      "Ġ1992": 1816,
      "ope": 1817,
      "Ġbre": 1818,
      "ĠPrime": 1819,
      "Ġpubl": 1820,
      "ĠSoviet": 1821,
      "95": 1822,
      "ĠPre": 1823,
      "hel": 1824,
      "Ġtit": 1825,
      "of": 1826,
      "Ġ1993": 1827,
      "Ġvill": 1828,
      "rick": 1829,
      "Ġdoes": 1830,
      "ĠJos": 1831,
      "Ġsupport": 1832,
      "utch": 1833,
      "ĠJack": 1834,
      "Ġlargest": 1835,
      "Ġcompany": 1836,
      "Ġtook": 1837,
      "Ġson": 1838,
      "Ġaward": 1839,
      "ĠArt": 1840,
      "Ġpublic": 1841,
      "ĠRed": 1842,
      "ĠChic": 1843,
      "ĠCat": 1844,
      "ansas": 1845,
      "Ġbusiness": 1846,
      "Ġgood": 1847,
      "ĠItaly": 1848,
      "ĠTw": 1849,
      "Ġwrote": 1850,
      "ĠVal": 1851,
      "ĠUnion": 1852,
      "ĠMount": 1853,
      "Ġmoved": 1854,
      "ĠEuropean": 1855,
      "ĠVir": 1856,
      "ĠKore": 1857,
      "ĠMany": 1858,
      "ena": 1859,
      "Ġanother": 1860,
      "Ġbecome": 1861,
      "ĠComm": 1862,
      "Ġla": 1863,
      "Ġfootballer": 1864,
      "ĠRich": 1865,
      "ĠTexas": 1866,
      "ness": 1867,
      "Ġthird": 1868,
      "ĠAg": 1869,
      "adio": 1870,
      "ised": 1871,
      "ĠChina": 1872,
      "Ġcame": 1873,
      "Ġsuccess": 1874,
      "Ġob": 1875,
      "ociation": 1876,
      "Ġheld": 1877,
      "ĠChicago": 1878,
      "Ġdirector": 1879,
      "Ġtop": 1880,
      "Ġbody": 1881,
      "Ġstage": 1882,
      "Ġ1991": 1883,
      "cy": 1884,
      "ĠRo": 1885,
      "ency": 1886,
      "work": 1887,
      "36": 1888,
      "Ġbig": 1889,
      "ades": 1890,
      "Ġneed": 1891,
      "ĠNYS": 1892,
      "44": 1893,
      "ots": 1894,
      "Ġeven": 1895,
      "ĠDemocrat": 1896,
      "rica": 1897,
      "Ġproble": 1898,
      "Ġcontin": 1899,
      "ournal": 1900,
      "uthor": 1901,
      "Ġalbums": 1902,
      "Ġgiven": 1903,
      "Ġprofessional": 1904,
      "Ġpos": 1905,
      "Ġwant": 1906,
      "ured": 1907,
      "Ġgen": 1908,
      "ival": 1909,
      "agn": 1910,
      "Ġbas": 1911,
      "Ġmean": 1912,
      "ady": 1913,
      "Ġphys": 1914,
      "ĠCast": 1915,
      "Ġbooks": 1916,
      "ĠPak": 1917,
      "ĠPri": 1918,
      "Ġpolitical": 1919,
      "Ġcond": 1920,
      "ĠDon": 1921,
      "ext": 1922,
      "ĠRobert": 1923,
      "ĠMont": 1924,
      "aced": 1925,
      "osed": 1926,
      "raft": 1927,
      "ĠSport": 1928,
      "ĠCap": 1929,
      "ĠLos": 1930,
      "rican": 1931,
      "ĠDuring": 1932,
      "Ġdeb": 1933,
      "55": 1934,
      "ĠMy": 1935,
      "Ġjust": 1936,
      "arm": 1937,
      "Ġcomm": 1938,
      "ĠSl": 1939,
      "Ġsix": 1940,
      "irl": 1941,
      "ĠDistrict": 1942,
      "Ġworked": 1943,
      "uter": 1944,
      "Ġocc": 1945,
      "ĠYou": 1946,
      "ki": 1947,
      "Ġnov": 1948,
      "ĠBlack": 1949,
      "Ġpoliticians": 1950,
      "78": 1951,
      "ĠMost": 1952,
      "ĠDavid": 1953,
      "Ġcensus": 1954,
      "ander": 1955,
      "ĠList": 1956,
      "ĠBest": 1957,
      "hi": 1958,
      "ĠDep": 1959,
      "Ġdesc": 1960,
      "ĠTra": 1961,
      "aving": 1962,
      "Ġcult": 1963,
      "iety": 1964,
      "Ġcharacter": 1965,
      "ility": 1966,
      "tain": 1967,
      "Ġthings": 1968,
      "ĠClub": 1969,
      "ula": 1970,
      "ĠJew": 1971,
      "Ġkilled": 1972,
      "atural": 1973,
      "era": 1974,
      "ĠAfrican": 1975,
      "Ġresp": 1976,
      "outhern": 1977,
      "Ġpresent": 1978,
      "31": 1979,
      "ĠChin": 1980,
      "ĠMal": 1981,
      "Ġepis": 1982,
      "ĠNe": 1983,
      "ĠHigh": 1984,
      "Ġalong": 1985,
      "Ġmen": 1986,
      "ville": 1987,
      "Ġrul": 1988,
      "Ġfive": 1989,
      "ump": 1990,
      "ĠFrom": 1991,
      "uted": 1992,
      "ĠDutch": 1993,
      "ĠScott": 1994,
      "men": 1995,
      "Ġlight": 1996,
      "ru": 1997,
      "Ġ|}": 1998,
      "ĠBas": 1999,
      "rab": 2000,
      "itions": 2001,
      "med": 2002,
      "Ġword": 2003,
      "oo": 2004,
      "ĠWe": 2005,
      "Ġfem": 2006,
      "ĠRes": 2007,
      "ories": 2008,
      "sc": 2009,
      "ĠHen": 2010,
      "ĠRoy": 2011,
      "ĠWash": 2012,
      "Ġ1989": 2013,
      "Ġliving": 2014,
      "Ġsw": 2015,
      "me": 2016,
      "ĠGro": 2017,
      "ids": 2018,
      "ĠAsia": 2019,
      "earch": 2020,
      "Ġperiod": 2021,
      "Ġmilitary": 2022,
      "ilar": 2023,
      "Ġred": 2024,
      "Ġrole": 2025,
      "ĠBy": 2026,
      "ĠAcadem": 2027,
      "ĠSal": 2028,
      "avy": 2029,
      "ĠSummer": 2030,
      "94": 2031,
      "ĠAfrica": 2032,
      "ĠEmp": 2033,
      "writer": 2034,
      "ĠBer": 2035,
      "Ġ1988": 2036,
      "Ġfounded": 2037,
      "Ġplays": 2038,
      "ano": 2039,
      "Ġ1981": 2040,
      "Ġtem": 2041,
      "Ġversion": 2042,
      "ĠDes": 2043,
      "Ġserved": 2044,
      "olic": 2045,
      "val": 2046,
      "ittle": 2047,
      "32": 2048,
      "Ġpublished": 2049,
      "ty": 2050,
      "ĠHal": 2051,
      "Ġhistor": 2052,
      "ours": 2053,
      "Ġef": 2054,
      "ĠMad": 2055,
      "Ġprovince": 2056,
      "eum": 2057,
      "Ġrepresent": 2058,
      "Ġusing": 2059,
      "ĠIll": 2060,
      "nect": 2061,
      "ĠQue": 2062,
      "off": 2063,
      "antic": 2064,
      "Ġexpl": 2065,
      "ux": 2066,
      "ĠThom": 2067,
      "reg": 2068,
      "ota": 2069,
      "Ġlook": 2070,
      "Ġworks": 2071,
      "ells": 2072,
      "ically": 2073,
      "Ġmy": 2074,
      "Ġorder": 2075,
      "ouncil": 2076,
      "'t": 2077,
      "Ġfrog": 2078,
      "irc": 2079,
      "ĠCath": 2080,
      "ĠMart": 2081,
      "Ġfollowing": 2082,
      "ĠWashington": 2083,
      "line": 2084,
      "Ġcamp": 2085,
      "77": 2086,
      "ĠGrand": 2087,
      "rael": 2088,
      "Ġparts": 2089,
      "Ġfew": 2090,
      "Ġaged": 2091,
      "lements": 2092,
      "Ġreturn": 2093,
      "Ġtog": 2094,
      "ĠSam": 2095,
      "Ġdise": 2096,
      "Ġ0": 2097,
      "Ġspecial": 2098,
      "Ġtogether": 2099,
      "Ġevent": 2100,
      "ĠAngeles": 2101,
      "ality": 2102,
      "ĠChinese": 2103,
      "ĠBut": 2104,
      "Ġengine": 2105,
      "ĠBu": 2106,
      "ĠAlex": 2107,
      "tal": 2108,
      "ĠDiv": 2109,
      "ators": 2110,
      "ĠPakistan": 2111,
      "Ġauthor": 2112,
      "itzer": 2113,
      "ize": 2114,
      "Ġ1950": 2115,
      "Ġide": 2116,
      "ĠWrit": 2117,
      "96": 2118,
      "ream": 2119,
      "ka": 2120,
      "Ġheart": 2121,
      "Ġgreat": 2122,
      "Ġcaused": 2123,
      "oul": 2124,
      "ĠCharles": 2125,
      "Ġfood": 2126,
      "ha": 2127,
      "ĠChristian": 2128,
      "ission": 2129,
      "LO": 2130,
      "odes": 2131,
      "ĠMunicipal": 2132,
      "ĠFirst": 2133,
      "Ġbecom": 2134,
      "ĠGreat": 2135,
      "ĠEv": 2136,
      "Ġsometimes": 2137,
      "ization": 2138,
      "ified": 2139,
      "ĠHall": 2140,
      "Ġelection": 2141,
      "ounced": 2142,
      "ĠMichael": 2143,
      "rip": 2144,
      "Ġequ": 2145,
      "ored": 2146,
      "iction": 2147,
      "St": 2148,
      "Ġgot": 2149,
      "ona": 2150,
      "ops": 2151,
      "Ġes": 2152,
      "Ġrest": 2153,
      "ĠNo": 2154,
      "Ġsee": 2155,
      "ĠDay": 2156,
      "Ġhuman": 2157,
      "lection": 2158,
      "Ġter": 2159,
      "Ġimp": 2160,
      "Ġ1986": 2161,
      "Ġarr": 2162,
      "Ġhig": 2163,
      "Ġtake": 2164,
      "Ġperform": 2165,
      "Ġvoice": 2166,
      "ĠVirgin": 2167,
      "ands": 2168,
      "ced": 2169,
      "Ġput": 2170,
      "ĠGold": 2171,
      "speople": 2172,
      "rov": 2173,
      "iol": 2174,
      "54": 2175,
      "ĠKar": 2176,
      "ĠPat": 2177,
      "minist": 2178,
      "Ġthought": 2179,
      "ĠMary": 2180,
      "ĠPlay": 2181,
      "Ġgener": 2182,
      "gian": 2183,
      "ĠRichard": 2184,
      "Ġsol": 2185,
      "Ġbelie": 2186,
      "ĠOlympics": 2187,
      "iddle": 2188,
      "ĠBill": 2189,
      "ĠSpain": 2190,
      "Ġbi": 2191,
      "iers": 2192,
      "ĠBen": 2193,
      "ĠMass": 2194,
      "Ġfight": 2195,
      "BC": 2196,
      "ĠLaw": 2197,
      "ĠMet": 2198,
      "Ġtrad": 2199,
      "arch": 2200,
      "unt": 2201,
      "Ġvot": 2202,
      "Ġ1987": 2203,
      "Ġseat": 2204,
      "Ġguitar": 2205,
      "AS": 2206,
      "ĠIsrael": 2207,
      "Ġmother": 2208,
      "ording": 2209,
      "ĠIr": 2210,
      "ument": 2211,
      "ĠCarol": 2212,
      "ways": 2213,
      "ĠGod": 2214,
      "lo": 2215,
      "Ġarch": 2216,
      "ration": 2217,
      "Ġ1984": 2218,
      "Ġlevel": 2219,
      "Ġtype": 2220,
      "ude": 2221,
      "Ġrepl": 2222,
      "Ġ1979": 2223,
      "ĠSim": 2224,
      "ared": 2225,
      "ĠTer": 2226,
      "88": 2227,
      "Ġsent": 2228,
      "Ġvol": 2229,
      "Ġstars": 2230,
      "ĠSo": 2231,
      "Ġfriend": 2232,
      "Ġeconom": 2233,
      "ĠTom": 2234,
      "Ġinternational": 2235,
      "ĠParis": 2236,
      "ini": 2237,
      "Ġnext": 2238,
      "Ġfeat": 2239,
      "erence": 2240,
      "ĠYear": 2241,
      "ĠAwards": 2242,
      "Ġriver": 2243,
      "ĠUK": 2244,
      "unn": 2245,
      "ĠChurch": 2246,
      "ĠDemocratic": 2247,
      "Ġgeneral": 2248,
      "ued": 2249,
      "ĠFLO": 2250,
      "atives": 2251,
      "59": 2252,
      "Ġking": 2253,
      "Ġline": 2254,
      "ĠFrank": 2255,
      "Ġmaking": 2256,
      "Ġscient": 2257,
      "ially": 2258,
      "Ġ1973": 2259,
      "Ġmark": 2260,
      "Ġstory": 2261,
      "ĠTowns": 2262,
      "ĠIf": 2263,
      "Ġcrit": 2264,
      "ĠTurk": 2265,
      "Ġ1985": 2266,
      "mb": 2267,
      "ĠArg": 2268,
      "ĠIsland": 2269,
      "Ġdata": 2270,
      "Ġvillage": 2271,
      "ming": 2272,
      "ĠLat": 2273,
      "Ġyou": 2274,
      "ĠGeneral": 2275,
      "etwork": 2276,
      "Ġ1976": 2277,
      "Ġ1982": 2278,
      "liam": 2279,
      "Ġorigin": 2280,
      "Ġrelig": 2281,
      "ura": 2282,
      "ĠKn": 2283,
      "peror": 2284,
      "Ġfind": 2285,
      "Ġhouse": 2286,
      "ĠFlorida": 2287,
      "ari": 2288,
      "Ġant": 2289,
      "Ġ1983": 2290,
      "ĠSant": 2291,
      "ĠCollege": 2292,
      "Ġchem": 2293,
      "ĠAcademy": 2294,
      "formation": 2295,
      "ĠEmpire": 2296,
      "Ġ50": 2297,
      "Ġvis": 2298,
      "Ġleader": 2299,
      "ID": 2300,
      "ropical": 2301,
      "Ġ1977": 2302,
      "ule": 2303,
      "Ġfail": 2304,
      "iber": 2305,
      "Ġstruct": 2306,
      "ĠRock": 2307,
      "Ġjournal": 2308,
      "oma": 2309,
      "Ġreceived": 2310,
      "inois": 2311,
      "Ġsimilar": 2312,
      "cast": 2313,
      "ĠAtl": 2314,
      "ĠDan": 2315,
      "ĠGo": 2316,
      "ston": 2317,
      "most": 2318,
      "Ġlocated": 2319,
      "Ġne": 2320,
      "ĠHam": 2321,
      "ĠKh": 2322,
      "liament": 2323,
      "ained": 2324,
      "lic": 2325,
      "63": 2326,
      "ĠTV": 2327,
      "cher": 2328,
      "ĠGra": 2329,
      "):": 2330,
      "ĠAustrian": 2331,
      "ĠIllinois": 2332,
      "cient": 2333,
      "Ġ1972": 2334,
      "ĠBi": 2335,
      "itzerland": 2336,
      "ĠRev": 2337,
      "Ġartist": 2338,
      "sy": 2339,
      "Ġproducer": 2340,
      "ertain": 2341,
      "Ġaut": 2342,
      "iga": 2343,
      "Ġnovel": 2344,
      "overed": 2345,
      "Ġdays": 2346,
      "Ġstation": 2347,
      "ĠDis": 2348,
      "Ġeduc": 2349,
      "Ġstop": 2350,
      "ĠGreek": 2351,
      "ĠMusic": 2352,
      "imate": 2353,
      "Ġpaint": 2354,
      "ĠIm": 2355,
      "ĠGovernor": 2356,
      "Ġseen": 2357,
      "ĠZeal": 2358,
      "ĠGeorg": 2359,
      "Ġhost": 2360,
      "Ġallow": 2361,
      "Ġav": 2362,
      "aim": 2363,
      "hest": 2364,
      "Ġprom": 2365,
      "ads": 2366,
      "ended": 2367,
      "Ġstatistics": 2368,
      "ering": 2369,
      "Ġ1978": 2370,
      "ĠPeter": 2371,
      "Ġval": 2372,
      "ĠZealand": 2373,
      "Ġgl": 2374,
      "Ġless": 2375,
      "ĠSwitzerland": 2376,
      "arian": 2377,
      "Ġmount": 2378,
      "Ġeast": 2379,
      "Ġgrow": 2380,
      "ĠSportspeople": 2381,
      "ĠArch": 2382,
      "ror": 2383,
      "Ġmodern": 2384,
      "Ġturn": 2385,
      "aves": 2386,
      "yr": 2387,
      "ĠTran": 2388,
      "olf": 2389,
      "ape": 2390,
      "ĠKansas": 2391,
      "Ġmakes": 2392,
      "Ġconsid": 2393,
      "08": 2394,
      "ĠFranc": 2395,
      "Ġdisease": 2396,
      "aff": 2397,
      "iron": 2398,
      "ĠDel": 2399,
      "ĠOlympic": 2400,
      "ĠUp": 2401,
      "ĠAssociation": 2402,
      "Ġ1930": 2403,
      "ĠRussia": 2404,
      "alf": 2405,
      "2006": 2406,
      "49": 2407,
      "ima": 2408,
      "Ġ187": 2409,
      "yd": 2410,
      "century": 2411,
      "aria": 2412,
      "ĠPoliticians": 2413,
      "ĠSweden": 2414,
      "Ġisland": 2415,
      "Ġstyle": 2416,
      "asket": 2417,
      "2005": 2418,
      "Ġproduced": 2419,
      "uz": 2420,
      "Ġ1974": 2421,
      "aughter": 2422,
      "ĠFilm": 2423,
      "Ġthose": 2424,
      "Ġ1975": 2425,
      "Ġblack": 2426,
      "Ġled": 2427,
      "ests": 2428,
      "Ġevents": 2429,
      "Ġbeg": 2430,
      "Ġindepend": 2431,
      "ĠWriters": 2432,
      "iana": 2433,
      "Ġelected": 2434,
      "Ġteams": 2435,
      "ults": 2436,
      "ĠTo": 2437,
      "ĠProvince": 2438,
      "2007": 2439,
      "ĠCatholic": 2440,
      "ĠMer": 2441,
      "Ġcontrol": 2442,
      "udd": 2443,
      "Ġbrother": 2444,
      "Ġparty": 2445,
      "ĠMexico": 2446,
      "Ġsex": 2447,
      "unk": 2448,
      "Ġstates": 2449,
      "Ġshould": 2450,
      "Ġformed": 2451,
      "itional": 2452,
      "Ġ1971": 2453,
      "uce": 2454,
      "ĠGreen": 2455,
      "though": 2456,
      "aken": 2457,
      "rey": 2458,
      "Ġ1940": 2459,
      "Ġdel": 2460,
      "Ġcharacters": 2461,
      "inter": 2462,
      "46": 2463,
      "ites": 2464,
      "lear": 2465,
      "Ġgod": 2466,
      "SS": 2467,
      "ined": 2468,
      "lam": 2469,
      "Ġsound": 2470,
      "uke": 2471,
      "Ġ#": 2472,
      "gypt": 2473,
      "07": 2474,
      "urt": 2475,
      "ergy": 2476,
      "Ġwithout": 2477,
      "Ġ:": 2478,
      "Ġnomin": 2479,
      "ĠEarth": 2480,
      "II": 2481,
      "board": 2482,
      "ted": 2483,
      "Ġmoney": 2484,
      "wood": 2485,
      "Ġphil": 2486,
      "ĠAct": 2487,
      "ada": 2488,
      "Ġconf": 2489,
      "Ġtitle": 2490,
      "Ġsay": 2491,
      "ĠVirginia": 2492,
      "ani": 2493,
      "Ġoriginal": 2494,
      "Ġplaces": 2495,
      "field": 2496,
      "Ġproblems": 2497,
      "oz": 2498,
      "aper": 2499,
      "Ġdi": 2500,
      "Ġside": 2501,
      "ols": 2502,
      "ongress": 2503,
      "Ġannounced": 2504,
      "Ġ/": 2505,
      "fecture": 2506,
      "iff": 2507,
      "hemat": 2508,
      "reet": 2509,
      "ĠBec": 2510,
      "Ġdescrib": 2511,
      "adu": 2512,
      "ĠArmy": 2513,
      "ĠWestern": 2514,
      "atory": 2515,
      "2004": 2516,
      "Ġwife": 2517,
      "Ġice": 2518,
      "ental": 2519,
      "ights": 2520,
      "ĠEr": 2521,
      "ublican": 2522,
      "ĠRoyal": 2523,
      "Ġdue": 2524,
      "self": 2525,
      "ĠBC": 2526,
      "ĠAnt": 2527,
      "Ġaway": 2528,
      "eep": 2529,
      "Ġexper": 2530,
      "ills": 2531,
      "ĠHenry": 2532,
      "56": 2533,
      "Ġshows": 2534,
      "Ġopp": 2535,
      "Ġlot": 2536,
      "appen": 2537,
      "Ġjoined": 2538,
      "ĠMac": 2539,
      "ĠEgypt": 2540,
      "icle": 2541,
      "ĠThomas": 2542,
      "Ġstrong": 2543,
      "Ġdest": 2544,
      "Ġsil": 2545,
      "Ġkind": 2546,
      "eball": 2547,
      "Ġmedal": 2548,
      "Ġpoet": 2549,
      "ense": 2550,
      "Amer": 2551,
      "Ġhockey": 2552,
      "ĠBrazilian": 2553,
      "Ġel": 2554,
      "asketball": 2555,
      "kn": 2556,
      "ards": 2557,
      "ĠTor": 2558,
      "ĠIran": 2559,
      "urs": 2560,
      "Ġstand": 2561,
      "Ġtotal": 2562,
      "ĠOl": 2563,
      "ĠVict": 2564,
      "Ġ1968": 2565,
      "ister": 2566,
      "Ġcy": 2567,
      "Ġmusician": 2568,
      "olk": 2569,
      "ĠArgent": 2570,
      "Ġmatch": 2571,
      "ĠCentral": 2572,
      "aine": 2573,
      "roy": 2574,
      "ached": 2575,
      "ĠOh": 2576,
      "ĠWomen": 2577,
      "ĠFin": 2578,
      "Ġcomposer": 2579,
      "ĠWil": 2580,
      "ĠWind": 2581,
      "ita": 2582,
      "ĠAcc": 2583,
      "ĠCO": 2584,
      "ridge": 2585,
      "xt": 2586,
      "Ġdefe": 2587,
      "go": 2588,
      "eph": 2589,
      "ront": 2590,
      "stead": 2591,
      "Ġbuilding": 2592,
      "Ġcities": 2593,
      "Ġlanguages": 2594,
      "Ġsite": 2595,
      "asons": 2596,
      "Ġothers": 2597,
      "Ġlost": 2598,
      "Ġchanged": 2599,
      "erst": 2600,
      "ĠBook": 2601,
      "urb": 2602,
      "raw": 2603,
      "2003": 2604,
      "Ġplan": 2605,
      "Ġlocal": 2606,
      "ylv": 2607,
      "ĠFI": 2608,
      "ĠWith": 2609,
      "ĠVill": 2610,
      "Ġfire": 2611,
      "2001": 2612,
      "order": 2613,
      "Ġdiff": 2614,
      "Ġprocess": 2615,
      "Ġwrest": 2616,
      "ĠPrize": 2617,
      "Ġmust": 2618,
      "Ġareas": 2619,
      "urrican": 2620,
      "Ġposs": 2621,
      "ements": 2622,
      "Ġrights": 2623,
      "ĠBay": 2624,
      "orpor": 2625,
      "ĠCouncil": 2626,
      "American": 2627,
      "ĠStud": 2628,
      "Ġchange": 2629,
      "ĠDo": 2630,
      "2008": 2631,
      "Ġstudio": 2632,
      "ĠRob": 2633,
      "be": 2634,
      "reed": 2635,
      "Ġ1969": 2636,
      "ĠMin": 2637,
      "Ġwee": 2638,
      "Ġdem": 2639,
      "reland": 2640,
      "Ġreal": 2641,
      "ched": 2642,
      "ender": 2643,
      "flu": 2644,
      "Ġreport": 2645,
      "oria": 2646,
      "ĠRepublican": 2647,
      "87": 2648,
      "ĠPop": 2649,
      "Ġmult": 2650,
      "Ġwhite": 2651,
      "FF": 2652,
      "Ġ1964": 2653,
      "Ġbeh": 2654,
      "ĠStar": 2655,
      "Ġlate": 2656,
      "ĠRecords": 2657,
      "not": 2658,
      "ĠGames": 2659,
      "ĠPet": 2660,
      "ado": 2661,
      "ĠCatal": 2662,
      "Ġlives": 2663,
      "ele": 2664,
      "ĠSwedish": 2665,
      "wards": 2666,
      "Ġ=": 2667,
      "93": 2668,
      "etherlands": 2669,
      "Ġincludes": 2670,
      "Ġpat": 2671,
      "Ġpoint": 2672,
      "Ġhappen": 2673,
      "ersey": 2674,
      "ĠDev": 2675,
      "oms": 2676,
      "ĠIreland": 2677,
      "Ġplaying": 2678,
      "ĠOk": 2679,
      "ĠMic": 2680,
      "2002": 2681,
      "Ġ1967": 2682,
      "ĠCont": 2683,
      "eland": 2684,
      "bor": 2685,
      "Ġsocial": 2686,
      "Ġhard": 2687,
      "ĠWhite": 2688,
      "Ġ$": 2689,
      "Ġeffect": 2690,
      "ĠPenn": 2691,
      "Ġbroad": 2692,
      "Ġscience": 2693,
      "ĠGroup": 2694,
      "ĠAv": 2695,
      "rd": 2696,
      "icles": 2697,
      "ript": 2698,
      "Ġcivil": 2699,
      "ĠScot": 2700,
      "aly": 2701,
      "lished": 2702,
      "aries": 2703,
      "Ġdet": 2704,
      "Ġfun": 2705,
      "Ġnon": 2706,
      "ĠCarolina": 2707,
      "Ġyoung": 2708,
      "Ġgave": 2709,
      "Ġincluded": 2710,
      "ĠAustria": 2711,
      "ĠSuper": 2712,
      ".,": 2713,
      "iller": 2714,
      "ips": 2715,
      "Ġ)": 2716,
      "Ġmix": 2717,
      "43": 2718,
      "Ġread": 2719,
      "ĠSecret": 2720,
      "awa": 2721,
      "Ġradio": 2722,
      "Ġmostly": 2723,
      "ogn": 2724,
      "ĠOs": 2725,
      "2000": 2726,
      "anies": 2727,
      "Ġmag": 2728,
      "rel": 2729,
      "iro": 2730,
      "Ġanimals": 2731,
      "61": 2732,
      "ning": 2733,
      "Ġhand": 2734,
      "iqu": 2735,
      "shire": 2736,
      "Ġphot": 2737,
      "part": 2738,
      "ĠLife": 2739,
      "Ġ40": 2740,
      "Un": 2741,
      "Ġappeared": 2742,
      "Ġpain": 2743,
      "Ġgold": 2744,
      "aker": 2745,
      "Ġfield": 2746,
      "ederal": 2747,
      "amm": 2748,
      "ĠMr": 2749,
      "Ġtechn": 2750,
      "ibr": 2751,
      "Ġaff": 2752,
      "Ġfinal": 2753,
      "cle": 2754,
      "41": 2755,
      "za": 2756,
      "Ġhold": 2757,
      "alls": 2758,
      "Ġrace": 2759,
      "Ġadv": 2760,
      "Ġresult": 2761,
      "ĠCro": 2762,
      "bon": 2763,
      "Ġnor": 2764,
      "anton": 2765,
      "ĠMel": 2766,
      "ĠHon": 2767,
      "ĠSur": 2768,
      "Ġwords": 2769,
      "ĠNetherlands": 2770,
      "ador": 2771,
      "ĠArab": 2772,
      "ym": 2773,
      "ĠEarly": 2774,
      "ps": 2775,
      "craft": 2776,
      "Ġsett": 2777,
      "ĠMag": 2778,
      "anguage": 2779,
      "Ġ1945": 2780,
      "li": 2781,
      "iger": 2782,
      "ĠBo": 2783,
      "92": 2784,
      "ĠRh": 2785,
      "Ġsea": 2786,
      "ĠApp": 2787,
      "ected": 2788,
      "Ġcolor": 2789,
      "ato": 2790,
      "iles": 2791,
      "br": 2792,
      "Ġdaughter": 2793,
      "ecut": 2794,
      "lected": 2795,
      "epar": 2796,
      "lement": 2797,
      "ĠChe": 2798,
      "sport": 2799,
      "Ġdebut": 2800,
      "inning": 2801,
      "2009": 2802,
      "91": 2803,
      "Ġcor": 2804,
      "1999": 2805,
      "Ġcomputer": 2806,
      "opher": 2807,
      "aud": 2808,
      "osaur": 2809,
      "Ġcomes": 2810,
      "Ġcal": 2811,
      "ĠLab": 2812,
      "heast": 2813,
      "ither": 2814,
      "Ġstudy": 2815,
      "ĠMark": 2816,
      "Ġcoach": 2817,
      "Ġuses": 2818,
      "uced": 2819,
      "ĠCr": 2820,
      "Ġtrib": 2821,
      "Ġtaken": 2822,
      "Ġz": 2823,
      "Ġwanted": 2824,
      "ww": 2825,
      "iding": 2826,
      "62": 2827,
      "Ġgra": 2828,
      "ĠConf": 2829,
      "ĠOhio": 2830,
      "ique": 2831,
      "Ġ1966": 2832,
      "isl": 2833,
      "ĠFam": 2834,
      "lor": 2835,
      "cean": 2836,
      "Ġ(;": 2837,
      "ĠHa": 2838,
      "53": 2839,
      "ĠSince": 2840,
      "ĠVol": 2841,
      "Ġfemale": 2842,
      "state": 2843,
      "Ġoffice": 2844,
      "ĠThat": 2845,
      "itect": 2846,
      "ube": 2847,
      "ĠBattle": 2848,
      "ĠDen": 2849,
      "ination": 2850,
      "ĠDivision": 2851,
      "51": 2852,
      "Ġrefer": 2853,
      "ĠGar": 2854,
      "Ġ[": 2855,
      "ny": 2856,
      "itch": 2857,
      "Ġinvol": 2858,
      "iy": 2859,
      "42": 2860,
      "ca": 2861,
      "ĠHung": 2862,
      "Ġ1947": 2863,
      "ellow": 2864,
      "eh": 2865,
      "gen": 2866,
      "Ġhaving": 2867,
      "Ġbirth": 2868,
      "atic": 2869,
      "Ġscreen": 2870,
      "ĠPortug": 2871,
      "Ġnatural": 2872,
      "gr": 2873,
      "ware": 2874,
      "ĠJer": 2875,
      "ĠSol": 2876,
      "Ġwithin": 2877,
      "lete": 2878,
      "Ch": 2879,
      "annel": 2880,
      "ĠNob": 2881,
      "GB": 2882,
      "ĠMod": 2883,
      "ĠUk": 2884,
      "Ġround": 2885,
      "Ġsports": 2886,
      "ked": 2887,
      "sel": 2888,
      "ĠLeg": 2889,
      "ictures": 2890,
      "la": 2891,
      "ĠMuseum": 2892,
      "Ġdam": 2893,
      "igan": 2894,
      "rial": 2895,
      "ĠGeography": 2896,
      "Ġbetter": 2897,
      "Ġdeveloped": 2898,
      "Ġpost": 2899,
      "onia": 2900,
      "ria": 2901,
      "ĠGeorgia": 2902,
      "esse": 2903,
      "Ġ1965": 2904,
      "Ġsurv": 2905,
      "ĠJersey": 2906,
      "Ġport": 2907,
      "ĠJr": 2908,
      "abit": 2909,
      "ĠScottish": 2910,
      "Ġknow": 2911,
      "ĠHel": 2912,
      "ĠMos": 2913,
      "Ġfootballers": 2914,
      "iest": 2915,
      "ĠPolish": 2916,
      "ĠJewish": 2917,
      "ĠHum": 2918,
      "Ġ1948": 2919,
      "Ġsom": 2920,
      "Ġhalf": 2921,
      "Ġsays": 2922,
      "Ġvoc": 2923,
      "ĠNorthern": 2924,
      "Ġthink": 2925,
      "ged": 2926,
      "Ġprison": 2927,
      "ĠBoy": 2928,
      "Ġ1963": 2929,
      "ĠGen": 2930,
      "Ġ1956": 2931,
      "heim": 2932,
      "ĠSong": 2933,
      "ĠLo": 2934,
      "Ġinformation": 2935,
      "ĠPe": 2936,
      "Ġcome": 2937,
      "ĠBur": 2938,
      "sych": 2939,
      "VID": 2940,
      "Ġfree": 2941,
      "Ġsepar": 2942,
      "Ġmass": 2943,
      "Ġlearn": 2944,
      "ĠLake": 2945,
      "Ġestablished": 2946,
      "Ġdistrib": 2947,
      "ĠGall": 2948,
      "asy": 2949,
      "Ġviol": 2950,
      "ances": 2951,
      "ĠLove": 2952,
      "ĠKent": 2953,
      "ĠLee": 2954,
      "ua": 2955,
      "yo": 2956,
      "ification": 2957,
      "Ġconsidered": 2958,
      "bers": 2959,
      "urricane": 2960,
      "ological": 2961,
      "Ġbecomes": 2962,
      "Ġspeak": 2963,
      "Ġamong": 2964,
      "Ġstudied": 2965,
      "ĠSett": 2966,
      "ĠCOVID": 2967,
      "Ġtour": 2968,
      "acy": 2969,
      "Ġconnect": 2970,
      "ĠStev": 2971,
      "iple": 2972,
      "Ġtoo": 2973,
      "ĠBor": 2974,
      "ospital": 2975,
      "Ġadminist": 2976,
      "ĠRepresent": 2977,
      "ĠSun": 2978,
      "Ġfish": 2979,
      "umn": 2980,
      "Ġhon": 2981,
      "Ġsouthern": 2982,
      "agon": 2983,
      "Ġinflu": 2984,
      "ils": 2985,
      "ĠJul": 2986,
      "ources": 2987,
      "ola": 2988,
      "etts": 2989,
      "Ġable": 2990,
      "ĠCamp": 2991,
      "Ġlab": 2992,
      "uf": 2993,
      "lim": 2994,
      "Ġ2023": 2995,
      "ĠPrefecture": 2996,
      "roll": 2997,
      "ĠCenter": 2998,
      "Ġcommunity": 2999,
      "itor": 3000,
      "Ġ1961": 3001,
      "ĠCor": 3002,
      "itz": 3003,
      "acher": 3004,
      "less": 3005,
      "elling": 3006,
      "Ġsqu": 3007,
      "Ġepisode": 3008,
      "ĠQueen": 3009,
      "Ġdone": 3010,
      "ĠEmperor": 3011,
      "ouri": 3012,
      "utes": 3013,
      "Ġ1962": 3014,
      "ĠPrince": 3015,
      "ĠRos": 3016,
      "ta": 3017,
      "ament": 3018,
      "ĠAnn": 3019,
      "Ġ1946": 3020,
      "ĠBang": 3021,
      "Ġindust": 3022,
      "etic": 3023,
      "ems": 3024,
      "known": 3025,
      "sylv": 3026,
      "ĠSk": 3027,
      "ĠCount": 3028,
      "ĠCivil": 3029,
      "ondiss": 3030,
      "ashi": 3031,
      "Ġtrain": 3032,
      "vious": 3033,
      "ĠInter": 3034,
      "Ġcenter": 3035,
      "ĠSmith": 3036,
      "like": 3037,
      "Ġwoman": 3038,
      "urder": 3039,
      "ĠPan": 3040,
      "ĠInstit": 3041,
      "Ġspace": 3042,
      "Ġabove": 3043,
      "used": 3044,
      "ĠIrish": 3045,
      "\")": 3046,
      "Ġtre": 3047,
      "jan": 3048,
      "ĠCourt": 3049,
      "ĠColumb": 3050,
      "ams": 3051,
      "ĠMat": 3052,
      "song": 3053,
      "Ġmot": 3054,
      "Ġlow": 3055,
      "ĠJust": 3056,
      "ampion": 3057,
      "aps": 3058,
      "ĠIslam": 3059,
      "forman": 3060,
      "ĠSilla": 3061,
      "Ġmodel": 3062,
      "ĠLin": 3063,
      "mar": 3064,
      "Ġinstr": 3065,
      "ĠObs": 3066,
      "Ġmathemat": 3067,
      "Ġposition": 3068,
      "rie": 3069,
      "Ġwriters": 3070,
      "ĠMunicipalities": 3071,
      "achus": 3072,
      "itiz": 3073,
      "Ġ1942": 3074,
      "Ġcoast": 3075,
      "ĠGovernment": 3076,
      "sylvania": 3077,
      "ĠIII": 3078,
      "ĠFIFA": 3079,
      "ground": 3080,
      "oor": 3081,
      "apt": 3082,
      "Ġtrack": 3083,
      "Ġ1949": 3084,
      "Ġphilos": 3085,
      "sur": 3086,
      "aka": 3087,
      "Ġcop": 3088,
      "Ġnever": 3089,
      "Ġworking": 3090,
      "Ġ1957": 3091,
      "Ġ1920": 3092,
      "azz": 3093,
      "ĠCongress": 3094,
      "band": 3095,
      "Ġthough": 3096,
      "ĠBern": 3097,
      "1998": 3098,
      "ently": 3099,
      "ĠEOS": 3100,
      "Ġnorthern": 3101,
      "Ġ1941": 3102,
      "Ġincre": 3103,
      "Ġtro": 3104,
      "Ġtreat": 3105,
      "ately": 3106,
      "Ġcounties": 3107,
      "ĠMartin": 3108,
      "Ġcirc": 3109,
      "Ġ1944": 3110,
      "Ġiss": 3111,
      "ritory": 3112,
      "elt": 3113,
      "Ġwinners": 3114,
      "ĠSea": 3115,
      "achusetts": 3116,
      "Ġ1936": 3117,
      "ĠParliament": 3118,
      "Ġmusical": 3119,
      "ĠJim": 3120,
      "Ġ1951": 3121,
      "52": 3122,
      "Ġobject": 3123,
      "ĠMa": 3124,
      "play": 3125,
      "Ġintrod": 3126,
      "Ġet": 3127,
      "ĠTelevision": 3128,
      "ĠWW": 3129,
      "eff": 3130,
      "Ġkeep": 3131,
      "Ġalmost": 3132,
      "Ġfar": 3133,
      "ds": 3134,
      "vers": 3135,
      "back": 3136,
      "ĠScotland": 3137,
      "ĠFred": 3138,
      "Ġbr": 3139,
      "Ġ1939": 3140,
      "ĠMassachusetts": 3141,
      "Ġchart": 3142,
      "Ġill": 3143,
      "ĠTheir": 3144,
      "Ġoffic": 3145,
      "Ġplants": 3146,
      "wh": 3147,
      "verage": 3148,
      "ette": 3149,
      "Ġfull": 3150,
      "read": 3151,
      "ĠCons": 3152,
      "Ġtypes": 3153,
      "Ġhor": 3154,
      "Ġsingers": 3155,
      "Ġservice": 3156,
      "Ġ1934": 3157,
      "Ġhighest": 3158,
      "wa": 3159,
      "Ġfa": 3160,
      "ĠLand": 3161,
      "Ġ88": 3162,
      "ĠEdward": 3163,
      "Ġnames": 3164,
      "ishop": 3165,
      "ĠHaleak": 3166,
      "ĠWales": 3167,
      "ĠDisney": 3168,
      "Ġmusicians": 3169,
      "HL": 3170,
      "ĠJoseph": 3171,
      "ĠStan": 3172,
      "Ġ1958": 3173,
      "oto": 3174,
      "ĠSettlements": 3175,
      "Ġpres": 3176,
      "Ġthr": 3177,
      "Ġcast": 3178,
      "ĠBecause": 3179,
      "ĠBob": 3180,
      "ĠSat": 3181,
      "pec": 3182,
      "ĠHot": 3183,
      "ella": 3184,
      "aterial": 3185,
      "Ġaction": 3186,
      "Ġdev": 3187,
      "Ġcand": 3188,
      "ĠSil": 3189,
      "Ġretired": 3190,
      "Ġended": 3191,
      "ĠPennsylvania": 3192,
      "cul": 3193,
      "ĠHaleakala": 3194,
      "Ġhit": 3195,
      "ĠKorean": 3196,
      "now": 3197,
      "Ġwinning": 3198,
      "pher": 3199,
      "Ġbasketball": 3200,
      "Ġcomb": 3201,
      "Ġ1938": 3202,
      "Ġleast": 3203,
      "ider": 3204,
      "ba": 3205,
      "pe": 3206,
      "zech": 3207,
      "ĠEU": 3208,
      "AR": 3209,
      "ranch": 3210,
      "Ġkey": 3211,
      "ĠTok": 3212,
      "Ġsuccessful": 3213,
      "ologist": 3214,
      "ĠFormer": 3215,
      "ĠWrest": 3216,
      "Ġ1952": 3217,
      "Ġinf": 3218,
      "1997": 3219,
      "Ġopened": 3220,
      "ĠUs": 3221,
      "Ġenergy": 3222,
      "Ġ(\"": 3223,
      "Ġ1954": 3224,
      "istricts": 3225,
      "mark": 3226,
      "Ġche": 3227,
      "Ġwin": 3228,
      "ĠCarl": 3229,
      "Ġarmy": 3230,
      "ression": 3231,
      "Ġten": 3232,
      "estival": 3233,
      "owa": 3234,
      "ĠJo": 3235,
      "Ġprim": 3236,
      "Ġ1929": 3237,
      "Ġappro": 3238,
      "uit": 3239,
      "Ġ1959": 3240,
      "Ġmetal": 3241,
      "ĠKorea": 3242,
      "ĠBir": 3243,
      "ĠNotes": 3244,
      "ĠSom": 3245,
      "Ġconstit": 3246,
      "Ġpolice": 3247,
      "ĠSenate": 3248,
      "Ġrom": 3249,
      "Ġrail": 3250,
      "Ġmid": 3251,
      "Ġ1933": 3252,
      "aign": 3253,
      "Ġhimself": 3254,
      "ĠRail": 3255,
      "ĠMissouri": 3256,
      "bour": 3257,
      "Ġmeaning": 3258,
      "ĠJackson": 3259,
      "ores": 3260,
      "Ġfailure": 3261,
      "Ġminist": 3262,
      "Ġtemper": 3263,
      "ĠBig": 3264,
      "TV": 3265,
      "ulf": 3266,
      "ĠSar": 3267,
      "orf": 3268,
      "Ġcomplet": 3269,
      "ĠAsian": 3270,
      "Ġjournalist": 3271,
      "nes": 3272,
      "och": 3273,
      "leg": 3274,
      "Ġ1943": 3275,
      "ĠLatin": 3276,
      "ĠTim": 3277,
      "Ġforces": 3278,
      "Ġculture": 3279,
      "ova": 3280,
      "ĠCzech": 3281,
      "Ġgive": 3282,
      "ĠDisc": 3283,
      "ĠPhilipp": 3284,
      "ĠEnter": 3285,
      "ĠOb": 3286,
      "Ġlik": 3287,
      "ĠFC": 3288,
      "Ġtransl": 3289,
      "ĠMexican": 3290,
      "ires": 3291,
      "Ġplant": 3292,
      "Ġ1955": 3293,
      "Ġmove": 3294,
      "Ġrequ": 3295,
      "owers": 3296,
      "Ġvarious": 3297,
      "Ġlawy": 3298,
      "ario": 3299,
      "ĠLater": 3300,
      "ecutive": 3301,
      "Ġi": 3302,
      "iano": 3303,
      "ĠIslands": 3304,
      "ye": 3305,
      "ĠGal": 3306,
      "viron": 3307,
      "gar": 3308,
      "ively": 3309,
      "Ġtest": 3310,
      "Ġcause": 3311,
      "ĠVer": 3312,
      "Ġ80": 3313,
      "ynast": 3314,
      "Ġlet": 3315,
      "Ġ1935": 3316,
      "Ġmanager": 3317,
      "Ġ1928": 3318,
      "ira": 3319,
      "Ġgirl": 3320,
      "ĠHockey": 3321,
      "Ġ1931": 3322,
      "Ġsymb": 3323,
      "Ġnetwork": 3324,
      "ĠCatalina": 3325,
      "Ġjob": 3326,
      "itte": 3327,
      "ĠSir": 3328,
      "Ġground": 3329,
      "ĠEs": 3330,
      "Ġaverage": 3331,
      "Ġliter": 3332,
      "itive": 3333,
      "Ġacross": 3334,
      "Ġbuildings": 3335,
      "ĠAccording": 3336,
      "Ġrecorded": 3337,
      "Ġlim": 3338,
      "ĠTwo": 3339,
      "Ġtry": 3340,
      "2010": 3341,
      "Ġbad": 3342,
      "ĠBrown": 3343,
      "Ġinstead": 3344,
      "ĠOver": 3345,
      "Ġperformed": 3346,
      "Ġ1937": 3347,
      "ĠUr": 3348,
      "Ġconc": 3349,
      "Ġstorm": 3350,
      "LS": 3351,
      "Ġtakes": 3352,
      "ĠTime": 3353,
      "ĠJean": 3354,
      "ĠUE": 3355,
      "ĠEduc": 3356,
      "Ġarrondiss": 3357,
      "Ġ60": 3358,
      "Ġproduct": 3359,
      "Ġcentral": 3360,
      "ĠMP": 3361,
      "har": 3362,
      "ething": 3363,
      "ĠPac": 3364,
      "Ġcurrently": 3365,
      "ĠHaw": 3366,
      "Ġprotect": 3367,
      "ios": 3368,
      "Ġtravel": 3369,
      "ĠFox": 3370,
      "gg": 3371,
      "asc": 3372,
      "Ġexist": 3373,
      "Ġmainly": 3374,
      "ĠOld": 3375,
      "1996": 3376,
      "Ġbar": 3377,
      "ably": 3378,
      "ĠFar": 3379,
      "Ġmeas": 3380,
      "Ġmaterial": 3381,
      "face": 3382,
      "ped": 3383,
      "Ġclaim": 3384,
      "ĠCSS": 3385,
      "Ġtowns": 3386,
      "anda": 3387,
      "eck": 3388,
      "ĠUnd": 3389,
      "stein": 3390,
      "ĠCam": 3391,
      "ĠMo": 3392,
      "ĠKe": 3393,
      "Ġroles": 3394,
      "ethod": 3395,
      "ĠSecond": 3396,
      "Ġcrime": 3397,
      "Ġdestroy": 3398,
      "language": 3399,
      "Ġunivers": 3400,
      "ĠMinn": 3401,
      "ĠLuc": 3402,
      "Ġamount": 3403,
      "Ġ1953": 3404,
      "Ġpark": 3405,
      "ĠTod": 3406,
      "Ġhealth": 3407,
      "Ġ1932": 3408,
      "ja": 3409,
      "Ġsug": 3410,
      "1995": 3411,
      "Ġwind": 3412,
      "Ġmovement": 3413,
      "Ġrelations": 3414,
      "abeth": 3415,
      "Ġeither": 3416,
      "Ġproper": 3417,
      "azine": 3418,
      "adesh": 3419,
      "Ġseats": 3420,
      "Ġ180": 3421,
      "Ġcertain": 3422,
      "Ġnorm": 3423,
      "stron": 3424,
      "Ġrecogn": 3425,
      "Ġwhe": 3426,
      "OR": 3427,
      "Ġblood": 3428,
      "ĠScient": 3429,
      "time": 3430,
      "Ġmonths": 3431,
      "Ġeat": 3432,
      "reme": 3433,
      "ĠAp": 3434,
      "ĠWood": 3435,
      "Ġchurch": 3436,
      "Ġview": 3437,
      "ko": 3438,
      "Ġhelped": 3439,
      "Ġseven": 3440,
      "Ġmight": 3441,
      "ource": 3442,
      "Ġwestern": 3443,
      "ivid": 3444,
      "Ġclose": 3445,
      "Ġ1926": 3446,
      "Ġball": 3447,
      "pecially": 3448,
      "Ġcreat": 3449,
      "Ġchemical": 3450,
      "Ġstructures": 3451,
      "Ġarchitect": 3452,
      "year": 3453,
      "ĠIowa": 3454,
      "Ġalways": 3455,
      "isco": 3456,
      "ĠStep": 3457,
      "Ġsit": 3458,
      "Ġvict": 3459,
      "Ġbroadcast": 3460,
      "United": 3461,
      "ĠDire": 3462,
      "ĠSpring": 3463,
      "airs": 3464,
      "Ġcase": 3465,
      "Ġcat": 3466,
      "89": 3467,
      "NA": 3468,
      "ih": 3469,
      "anger": 3470,
      "ending": 3471,
      "Ġwriting": 3472,
      "ention": 3473,
      "ĠStreet": 3474,
      "Ġreached": 3475,
      "ĠSecretary": 3476,
      "Ġpast": 3477,
      "ĠClass": 3478,
      "eld": 3479,
      "Ġident": 3480,
      "adium": 3481,
      "Ġonce": 3482,
      "wan": 3483,
      "Ġge": 3484,
      "Ġ1927": 3485,
      "Ġcompanies": 3486,
      "Ġtoday": 3487,
      "Ġproduction": 3488,
      "Ġ(,": 3489,
      "Ġcandid": 3490,
      "urther": 3491,
      "Ġdeg": 3492,
      "75": 3493,
      "Ġeight": 3494,
      "ĠNobel": 3495,
      "ali": 3496,
      "ĠJud": 3497,
      "ends": 3498,
      "ĠHill": 3499,
      "oints": 3500,
      "ĠBuild": 3501,
      "Ġfourth": 3502,
      "aki": 3503,
      "ĠAnton": 3504,
      "ĠSocial": 3505,
      "Ġmurder": 3506,
      "ĠPoland": 3507,
      "ĠSub": 3508,
      "ĠBad": 3509,
      "Ġnumbers": 3510,
      "ĠMichigan": 3511,
      "Ġshown": 3512,
      "Ġanimated": 3513,
      "Ġcompeted": 3514,
      "vironment": 3515,
      "Ġreplaced": 3516,
      "uments": 3517,
      "Ġpe": 3518,
      "stant": 3519,
      "Ġtree": 3520,
      "ĠOrder": 3521,
      "Ġcanton": 3522,
      "Ġpainter": 3523,
      "ucky": 3524,
      "Ġinh": 3525,
      "Ġpress": 3526,
      "ias": 3527,
      "embly": 3528,
      "ĠOut": 3529,
      "ĠBefore": 3530,
      "Ġprop": 3531,
      "Ġmonth": 3532,
      "ĠAre": 3533,
      "Ġidea": 3534,
      "ĠSports": 3535,
      "ĠHind": 3536,
      "use": 3537,
      "Ġgoal": 3538,
      "Ġtalk": 3539,
      "Ġcapt": 3540,
      "ibrary": 3541,
      "Ġcard": 3542,
      "Ġdevelopment": 3543,
      "ift": 3544,
      "ĠInt": 3545,
      "Ġsigned": 3546,
      "Ġrev": 3547,
      "ĠUnivers": 3548,
      "ĠLu": 3549,
      "Ġ70": 3550,
      "ĠCareer": 3551,
      "Ġinvent": 3552,
      "Ġsoft": 3553,
      "remier": 3554,
      "Ġchanges": 3555,
      "Ġcitiz": 3556,
      "cel": 3557,
      "Ġhot": 3558,
      "Ġcomed": 3559,
      "ĠGolden": 3560,
      "Ġprograms": 3561,
      "Ġcourt": 3562,
      "uty": 3563,
      "Ġcross": 3564,
      "ĠKenn": 3565,
      "ietn": 3566,
      "ume": 3567,
      "eds": 3568,
      "ĠWal": 3569,
      "72": 3570,
      "ĠBritain": 3571,
      "ĠServ": 3572,
      "ois": 3573,
      "enth": 3574,
      "ĠDar": 3575,
      "Ġreact": 3576,
      "ĠSeries": 3577,
      "ĠSociety": 3578,
      "Ġdecided": 3579,
      "ynasty": 3580,
      "ĠAlb": 3581,
      "atre": 3582,
      "Ġdead": 3583,
      "Ġuniversity": 3584,
      "Ġstudents": 3585,
      "ĠTenn": 3586,
      "ĠInstitute": 3587,
      "ĠAnim": 3588,
      "ĠMcC": 3589,
      "Ġpromot": 3590,
      "Ġinj": 3591,
      "ĠYoung": 3592,
      "idge": 3593,
      "Ġancient": 3594,
      "Ġpract": 3595,
      "Ġox": 3596,
      "Ġder": 3597,
      "ternet": 3598,
      "Ġnight": 3599,
      "Ġrelease": 3600,
      "ĠTeam": 3601,
      "ĠMiddle": 3602,
      "ĠBav": 3603,
      "Ġproject": 3604,
      "Ġ1925": 3605,
      "In": 3606,
      "ĠSand": 3607,
      "idence": 3608,
      "ĠOrgan": 3609,
      "Ġreturned": 3610,
      "Ġ!": 3611,
      "Ġarrest": 3612,
      "ĠRome": 3613,
      "oke": 3614,
      "oci": 3615,
      "ĠAtlantic": 3616,
      "sen": 3617,
      "Ġpay": 3618,
      "Ġlittle": 3619,
      "ĠLy": 3620,
      "ora": 3621,
      "Ġespecially": 3622,
      "emp": 3623,
      "Ġgoes": 3624,
      "Ġboy": 3625,
      "ĠBusiness": 3626,
      "esota": 3627,
      "ographer": 3628,
      "Ġprevious": 3629,
      "Ġadded": 3630,
      "Ġinside": 3631,
      "Ġ90": 3632,
      "Ġoutside": 3633,
      "urd": 3634,
      "Ġjud": 3635,
      "edia": 3636,
      "omer": 3637,
      "ipl": 3638,
      "Ġearl": 3639,
      "Ġgradu": 3640,
      "ĠThen": 3641,
      "ati": 3642,
      "ĠFe": 3643,
      "ĠRepresentatives": 3644,
      "inces": 3645,
      "Ġfiction": 3646,
      "Ġbattle": 3647,
      "ĠMuslim": 3648,
      "ĠLittle": 3649,
      "Ġindependent": 3650,
      "Ġfig": 3651,
      "ĠBab": 3652,
      "stra": 3653,
      "ĠGood": 3654,
      "ĠAbout": 3655,
      "ĠMax": 3656,
      "ĠVietn": 3657,
      "anche": 3658,
      "aska": 3659,
      "ulation": 3660,
      "ĠWork": 3661,
      "ĠMinnesota": 3662,
      "ĠPress": 3663,
      "ateg": 3664,
      "1994": 3665,
      "Ġperforman": 3666,
      "Ġallowed": 3667,
      "ĠDepartment": 3668,
      "Ġbaseball": 3669,
      "86": 3670,
      "Ġsen": 3671,
      "Ġdrug": 3672,
      "Ġfall": 3673,
      "Ġfre": 3674,
      "Ġmunicipalities": 3675,
      "ĠEver": 3676,
      "Ġartists": 3677,
      "Ġleaders": 3678,
      "ĠEp": 3679,
      "ĠSa": 3680,
      "ĠMah": 3681,
      "Ġhom": 3682,
      "Ġbox": 3683,
      "ĠGh": 3684,
      "Ġsomething": 3685,
      "Ġenough": 3686,
      "Ġfif": 3687,
      "mond": 3688,
      "Ġlaun": 3689,
      "ength": 3690,
      "Ġnominated": 3691,
      "Ġcannot": 3692,
      "rich": 3693,
      "Ġmountain": 3694,
      "Ġsouthwest": 3695,
      "Ġrap": 3696,
      "also": 3697,
      "ĠPers": 3698,
      "uns": 3699,
      "Ġmeet": 3700,
      "Ġfront": 3701,
      "Ġinterest": 3702,
      "Ġrelated": 3703,
      "Ġforce": 3704,
      "lah": 3705,
      "ĠTour": 3706,
      "ĠArmen": 3707,
      "ĠCompany": 3708,
      "people": 3709,
      "ĠWrestling": 3710,
      "ĠFrancisco": 3711,
      "Ġresearch": 3712,
      "icular": 3713,
      "riz": 3714,
      "adel": 3715,
      "Ġpossible": 3716,
      "Ġboard": 3717,
      "85": 3718,
      "oston": 3719,
      "Ġtheory": 3720,
      "ising": 3721,
      "ounds": 3722,
      "win": 3723,
      "Ġsystems": 3724,
      "ĠWay": 3725,
      "Ġsequ": 3726,
      "ĠJac": 3727,
      "ĠBul": 3728,
      "Ġcele": 3729,
      "ĠRon": 3730,
      "ĠFer": 3731,
      "ĠDuke": 3732,
      "hin": 3733,
      "Ġath": 3734,
      "ĠColumbia": 3735,
      "ĠPictures": 3736,
      "ĠGram": 3737,
      "Ġparents": 3738,
      "Ġbands": 3739,
      "Ġaircraft": 3740,
      "ĠNaz": 3741,
      "ĠEntertain": 3742,
      "Ġfriends": 3743,
      "ittee": 3744,
      "Ġ1924": 3745,
      "Ġactivist": 3746,
      "ĠLouisiana": 3747,
      "iting": 3748,
      "Ġgoing": 3749,
      "ĠVan": 3750,
      "estab": 3751,
      "izations": 3752,
      "ĠAlexander": 3753,
      "aged": 3754,
      "Ġcoll": 3755,
      "ĠForm": 3756,
      "Ġvir": 3757,
      "ivate": 3758,
      "CA": 3759,
      "Ġoriginally": 3760,
      "Ġstay": 3761,
      "Ġearth": 3762,
      "ĠTre": 3763,
      "rative": 3764,
      "ĠElect": 3765,
      "inson": 3766,
      "can": 3767,
      "Ġrac": 3768,
      "Ġweek": 3769,
      "ĠPLS": 3770,
      "ĠAirport": 3771,
      "Ġ1922": 3772,
      "add": 3773,
      "hess": 3774,
      "ayer": 3775,
      "ĠLeon": 3776,
      "Ġmem": 3777,
      "ĠSpec": 3778,
      "Ġtropical": 3779,
      "ply": 3780,
      "1993": 3781,
      "ĠWindows": 3782,
      "aya": 3783,
      "Ġlonger": 3784,
      "ĠFootballers": 3785,
      "illy": 3786,
      "arg": 3787,
      "ĠAD": 3788,
      "Ġresults": 3789,
      "ĠBiography": 3790,
      "incess": 3791,
      "isions": 3792,
      "ji": 3793,
      "iences": 3794,
      "Ġbreak": 3795,
      "uts": 3796,
      "74": 3797,
      "Ġdig": 3798,
      "ami": 3799,
      "Ġnorthwest": 3800,
      "ras": 3801,
      "inger": 3802,
      "ĠFame": 3803,
      "Ġseasons": 3804,
      "ĠEastern": 3805,
      "ensive": 3806,
      "ĠChief": 3807,
      "Ġgrand": 3808,
      "imb": 3809,
      "lahoma": 3810,
      "Ġshoot": 3811,
      "min": 3812,
      "Ġren": 3813,
      "GBT": 3814,
      "Ġcampaign": 3815,
      "ĠId": 3816,
      "ĠFamily": 3817,
      "79": 3818,
      "uses": 3819,
      "Ġreview": 3820,
      "ailable": 3821,
      "ĠHistor": 3822,
      "yan": 3823,
      "zo": 3824,
      "ĠChild": 3825,
      "Ġpur": 3826,
      "ĠPerson": 3827,
      "hood": 3828,
      "ĠNight": 3829,
      "ify": 3830,
      "Ġlove": 3831,
      "Ġfinished": 3832,
      "ĠOklahoma": 3833,
      "va": 3834,
      "Ġcrick": 3835,
      "ĠMu": 3836,
      "ĠShow": 3837,
      "ĠJeff": 3838,
      "Ġcell": 3839,
      "Ġsize": 3840,
      "Ġ1923": 3841,
      "ila": 3842,
      "umm": 3843,
      "Ġoldest": 3844,
      "orial": 3845,
      "Ġmale": 3846,
      "olitan": 3847,
      "ĠTam": 3848,
      "ĠCub": 3849,
      "Ġdivided": 3850,
      "ĠMajor": 3851,
      "05": 3852,
      "cest": 3853,
      "Ġepisodes": 3854,
      "ĠDet": 3855,
      "idae": 3856,
      "rown": 3857,
      "//": 3858,
      "war": 3859,
      "org": 3860,
      "raine": 3861,
      "Ġ1900": 3862,
      "ĠBoston": 3863,
      "ĠLong": 3864,
      "76": 3865,
      "Ġmiss": 3866,
      "oud": 3867,
      "ĠCharl": 3868,
      "Ġhowever": 3869,
      "ĠArk": 3870,
      "Ġdoc": 3871,
      "ĠAk": 3872,
      "value": 3873,
      "sort": 3874,
      "ĠChile": 3875,
      "present": 3876,
      "ĠWars": 3877,
      "ĠMem": 3878,
      "Ġhospital": 3879,
      "Ġleague": 3880,
      "Ġprob": 3881,
      "ĠNord": 3882,
      "lav": 3883,
      "ĠPacific": 3884,
      "utt": 3885,
      "Ġmedia": 3886,
      "Ġmach": 3887,
      "ĠEliz": 3888,
      "ĠTokyo": 3889,
      "rack": 3890,
      "ĠMatt": 3891,
      "ĠWhile": 3892,
      "Ġbo": 3893,
      "Ġeastern": 3894,
      "Ġconv": 3895,
      "Ġgoals": 3896,
      "ĠLGBT": 3897,
      "Ġer": 3898,
      "://": 3899,
      "Ġcycl": 3900,
      "ĠWWE": 3901,
      "Ġelectric": 3902,
      "Ġwid": 3903,
      "ĠPope": 3904,
      "elle": 3905,
      "Ġpersonal": 3906,
      "Ġchampionship": 3907,
      "Ġnewsp": 3908,
      "enced": 3909,
      "ĠOcean": 3910,
      "ĠBal": 3911,
      "Ġquick": 3912,
      "lers": 3913,
      "ĠNews": 3914,
      "aining": 3915,
      "aches": 3916,
      "umi": 3917,
      "Ġcontinued": 3918,
      "Ġeducation": 3919,
      "ĠRay": 3920,
      "ĠBerlin": 3921,
      "Ġlo": 3922,
      "Ġcases": 3923,
      "Ġpsych": 3924,
      "ĠMaria": 3925,
      "ĠLi": 3926,
      "ĠJohnson": 3927,
      "Ġmethod": 3928,
      "Ġsuper": 3929,
      "ĠGame": 3930,
      ".)": 3931,
      "ela": 3932,
      "Ġacadem": 3933,
      "ĠNick": 3934,
      "Ġstations": 3935,
      "Ġfac": 3936,
      "ĠCa": 3937,
      "Ġ;": 3938,
      "Ġsuff": 3939,
      "ĠSte": 3940,
      "Ġsmaller": 3941,
      "Ġlaws": 3942,
      "06": 3943,
      "ĠRoad": 3944,
      "Ġbelieved": 3945,
      "ito": 3946,
      "writers": 3947,
      "urity": 3948,
      "Ġforms": 3949,
      "ĠPas": 3950,
      "Ġawarded": 3951,
      "icult": 3952,
      "Ġlawyer": 3953,
      "thur": 3954,
      "with": 3955,
      "ĠTa": 3956,
      "uture": 3957,
      "Ġaccident": 3958,
      "Ġfeatures": 3959,
      "chan": 3960,
      "Ġdiscovered": 3961,
      "Ġborder": 3962,
      "Ġcritic": 3963,
      "ĠJun": 3964,
      "ĠIv": 3965,
      "Ġservices": 3966,
      "ĠNations": 3967,
      "ĠGirl": 3968,
      "Ġclos": 3969,
      "gu": 3970,
      "riage": 3971,
      "Ġroad": 3972,
      "Ġnuc": 3973,
      "ĠDef": 3974,
      "ĠPo": 3975,
      "Ġdog": 3976,
      "ĠCop": 3977,
      "Ġlower": 3978,
      "ĠBelgian": 3979,
      "ray": 3980,
      "Ġavailable": 3981,
      "inet": 3982,
      "emic": 3983,
      "ĠSqu": 3984,
      "2011": 3985,
      "ĠCamb": 3986,
      "ĠNa": 3987,
      "ĠJoe": 3988,
      "ĠDaniel": 3989,
      "ĠSouthern": 3990,
      "ĠRegion": 3991,
      "Ġrange": 3992,
      "Ġhapp": 3993,
      "otal": 3994,
      "ĠEnd": 3995,
      "Ġcauses": 3996,
      "ĠAlbert": 3997,
      "ĠStat": 3998,
      "ili": 3999
    },
    "merges": [
      "h e",
      "Ġ t",
      "Ġ a",
      "i n",
      "e r",
      "a n",
      "o n",
      "Ġ |",
      "o r",
      "Ġt he",
      "e s",
      "i s",
      "e n",
      "a r",
      "a t",
      "e d",
      "Ġ o",
      "Ġ w",
      "Ġ| |",
      "Ġ s",
      "a l",
      "i t",
      "Ġ b",
      "Ġo f",
      "Ġ in",
      "Ġ 1",
      "Ġ c",
      "i c",
      "Ġ S",
      "Ġ f",
      "r e",
      "a s",
      "n d",
      "Ġ p",
      "r o",
      "Ġ A",
      "Ġ T",
      "Ġ m",
      "Ġa nd",
      "l e",
      "Ġ C",
      "in g",
      "Ġ 2",
      "Ġ M",
      "Ġ d",
      "o u",
      "i on",
      "o l",
      "i g",
      "Ġ (",
      "i l",
      "Ġ1 9",
      "Ġ P",
      "Ġt o",
      "Ġ I",
      "a m",
      "Ġ is",
      "Ġ h",
      "en t",
      "Ġ B",
      "o m",
      "u s",
      "Ġ R",
      "Ġ H",
      "Ġ L",
      "i d",
      "Ġ2 0",
      "e l",
      "ĠT he",
      "c t",
      "Ġw as",
      "Ġ l",
      "i r",
      "Ġ F",
      "e t",
      "Ġ D",
      "a d",
      "| |",
      "c h",
      "u r",
      "er s",
      "Ġ N",
      "Ġ n",
      "i v",
      "a y",
      "Ġa l",
      "o t",
      "Ġ G",
      "e m",
      "s t",
      "e f",
      "Ġ J",
      "Ġ E",
      "Ġ O",
      "Ġ W",
      "is t",
      "Ġt h",
      "t h",
      "he r",
      "Ġ g",
      "i m",
      "o v",
      "Ġ on",
      "c e",
      "u n",
      "h t",
      "Ġf or",
      "o p",
      "o w",
      "Ġ k",
      "i an",
      "b er",
      "l y",
      "at ion",
      "ro m",
      "Ġ re",
      "a g",
      "an d",
      "Ġ e",
      "u t",
      "ig ht",
      "i es",
      "Ġ K",
      "Ġs t",
      "e c",
      "r a",
      "es t",
      "Ġ| -",
      "Ġf rom",
      "Ġ20 0",
      "o c",
      "Ġa s",
      "i a",
      "u m",
      "u l",
      "ig n",
      "Ġ U",
      "o s",
      "c es",
      "al l",
      "m er",
      "Ġa n",
      "t er",
      "Ġb y",
      "it h",
      "ĠI t",
      "ar t",
      "r ight",
      "c ol",
      "a k",
      "o d",
      "e p",
      "is h",
      "a v",
      "ĠH e",
      "ĠS t",
      "ic an",
      "Ġk m",
      "Ġa re",
      "r es",
      "Ġb e",
      "Ġ20 1",
      "col or",
      "il l",
      "g color",
      "a c",
      "Ġal ign",
      "= #",
      "Ġw ith",
      "Ġa t",
      "Ġb gcolor",
      "ĠI n",
      "Ġ he",
      "Ġ v",
      "it y",
      "a in",
      "0 0",
      "e b",
      "Ġp l",
      "Ġc om",
      "' s",
      "a p",
      "t her",
      "Ġw h",
      "i f",
      "er en",
      "Ġ V",
      "Ġth at",
      "Ġ \"",
      "em ber",
      "ĠA mer",
      "1 9",
      "ar y",
      "a b",
      "ou n",
      "ĠR ef",
      "i e",
      "eren ces",
      "Ġ or",
      "ĠRef erences",
      "ĠC h",
      "i p",
      "Ġ it",
      "e op",
      "u p",
      "ar d",
      "eop le",
      "Ġ19 9",
      "ĠAmer ican",
      "l d",
      "on g",
      "us t",
      "an t",
      "at e",
      "or t",
      "Ġp ro",
      "u g",
      "u d",
      "e w",
      "ĠU n",
      "Ġ 3",
      "m ent",
      "r an",
      "am e",
      "r i",
      "u b",
      "r it",
      "v er",
      "e ar",
      "Ġ -",
      "or n",
      "ic h",
      "Ġc on",
      "o g",
      "Ġd e",
      "Ġc h",
      "Ġm ov",
      "as t",
      "oun t",
      "ou r",
      "s e",
      "Ġ r",
      "g e",
      "Ġh is",
      "Ġp eople",
      "Ġ1 8",
      "at ed",
      "E A",
      "Ġpl ay",
      "s o",
      "or e",
      "en d",
      "el l",
      "ĠS oc",
      "iv e",
      "at h",
      "u e",
      "i al",
      "ct or",
      "o st",
      "Ġs e",
      "in e",
      "or d",
      "Ġ us",
      "o k",
      "er e",
      "Ġ Y",
      "2 0",
      "m an",
      "at es",
      "or ro",
      "ĠM ar",
      "I N",
      "Ġt e",
      "ĠT h",
      "l and",
      "it ed",
      "EA R",
      "ĠSoc orro",
      "ĠL IN",
      "ĠLIN EAR",
      ") ,",
      "ow n",
      "u c",
      "Ġ 4",
      "Ġal so",
      "or k",
      "Ġ le",
      "i re",
      "Ġh as",
      "s it",
      "r y",
      "Ġs p",
      "ic al",
      "Ġs h",
      "an g",
      "av e",
      "es s",
      "q u",
      "Ġw ere",
      "u nd",
      "Ġ19 8",
      "ĠA l",
      "eb sit",
      "e y",
      "er n",
      "ac k",
      "ir st",
      "Ġe x",
      "u ary",
      "ag e",
      "Ġn ot",
      "Ġ y",
      "Ġw ebsit",
      "Ġ 5",
      "om e",
      "n g",
      "u re",
      "ĠS p",
      "i k",
      "e ct",
      "ĠUn ited",
      "r ic",
      "id e",
      "ou t",
      "Ġb ir",
      "Ġ19 7",
      "Ġb ec",
      "ion s",
      "ĠO ther",
      "on d",
      ") .",
      "th s",
      "ef e",
      "as s",
      "Ġcom p",
      "Ġwh ich",
      "Ġa b",
      "ation al",
      "im e",
      "Ġ 7",
      "s p",
      "Ġf irst",
      "am p",
      "Ġc an",
      "an y",
      "he n",
      "ĠA r",
      "ic e",
      "l ish",
      "i z",
      "a ce",
      "f ef",
      "fef efe",
      "Ġwebsit es",
      "o ot",
      "Ġ 6",
      "or y",
      "Ġa r",
      "2 00",
      "Ġbir ths",
      "Ġh ave",
      "ou s",
      "i ed",
      "ĠSt ates",
      "ĠL e",
      "a ch",
      "p h",
      "Ġ 8",
      "ĠN ew",
      "a w",
      "b all",
      "Ġ un",
      "p er",
      "ol it",
      "Ġ19 6",
      "ic ian",
      "Ġp art",
      "f ter",
      "ou nd",
      "ad e",
      "o b",
      "l es",
      "at er",
      "f f",
      "ep t",
      "Ġ ro",
      "t o",
      "Ġon e",
      "Ġ 9",
      "en s",
      "o ber",
      "t s",
      "re e",
      "ĠS he",
      "Ġc l",
      "Ġthe y",
      "Ġk n",
      "c l",
      "Ġh ad",
      "i o",
      "r en",
      "is ion",
      "Ġs er",
      "a us",
      "ĠE ng",
      "or ld",
      "ĠA n",
      "Ġ j",
      "ĠC om",
      "Ġ1 7",
      "o od",
      "t e",
      "ept ember",
      "Ġde ath",
      "Ġo ther",
      "Ġwh o",
      "ic s",
      "i b",
      "Ġthe ir",
      "n e",
      "an s",
      "il d",
      "ol d",
      "w n",
      "Ġ200 0",
      "ĠS eptember",
      "m un",
      "res s",
      "Ġ19 4",
      "le ct",
      "oot ball",
      "in d",
      "le v",
      "p p",
      "ĠA s",
      "Ġ19 5",
      "Ġ her",
      "ĠF ran",
      "Ġy ear",
      "Ġa ctor",
      "is s",
      "ĠTh is",
      "Ġb ut",
      "Ġt w",
      "ing s",
      "w ard",
      "or m",
      "al ly",
      "Ġ19 3",
      "ount y",
      "ĠJ an",
      "er man",
      "ar e",
      "ro p",
      "iv ers",
      "ĠS h",
      "id ent",
      "Ġc all",
      "Ġa g",
      "ou th",
      "a h",
      "on s",
      "ation s",
      "Ġkn own",
      "Ġa ct",
      "o h",
      "iv ing",
      "ct ober",
      "Ġab out",
      "r al",
      "Ġmov ies",
      "as ed",
      "ĠThe y",
      "ak e",
      "ar k",
      "Ġ1 0",
      "in ce",
      "Ġth is",
      "on e",
      "ou ld",
      "Ġ1 6",
      "o ok",
      "ul t",
      "ĠO ctober",
      "Ġp olit",
      "or th",
      "ter n",
      "Ġus ed",
      "Ġs c",
      "Ġal l",
      "ub l",
      "it ies",
      "Ġmov ie",
      "ist s",
      "r am",
      "a ct",
      "he d",
      "u ch",
      "Ġ200 1",
      "ĠI nd",
      "Ġ1 5",
      "ers on",
      "2 1",
      "p r",
      "t on",
      "Ġm us",
      "ĠMar ch",
      "Ġcall ed",
      "er y",
      "= \"",
      "Ġg ro",
      "w e",
      "am es",
      "al s",
      "i le",
      "e x",
      "ug ust",
      "Ġit s",
      "oc k",
      "Ġw ork",
      "Ġd is",
      "19 9",
      "b orn",
      "ent s",
      "o y",
      "ĠJan uary",
      "ĠA ust",
      "Ġm ade",
      "ĠG erman",
      "ment s",
      "Ġ Z",
      "en ce",
      "in a",
      "Ġa d",
      "p ort",
      "Ġs ing",
      "Ġa fter",
      "Ġtw o",
      "Ġdeath s",
      "or s",
      "ĠA ugust",
      "ĠM ay",
      "ou g",
      "lev ision",
      "Ġcon t",
      "ic k",
      "ĠN ov",
      "cl ud",
      "ĠD ec",
      "it e",
      "Ġf ootball",
      "Ġ res",
      "t en",
      "Ġm ost",
      "Ġs ong",
      "eb r",
      "Ġm any",
      "ic t",
      "iv er",
      "Ġm e",
      "ĠB rit",
      "e v",
      "Ġ1 4",
      "Ġb orn",
      "ur ing",
      "ol l",
      "Ġin clud",
      "1 8",
      "Ġ1 2",
      "in n",
      "es e",
      "f er",
      "ap an",
      "ag es",
      "it ion",
      "ĠS c",
      "ĠDec ember",
      "Ġw rit",
      "ĠNov ember",
      "on t",
      "Ġthe re",
      "a il",
      "Ġ en",
      "s on",
      "Ġt ime",
      "Ġ1 3",
      "ĠEng lish",
      "p l",
      "g an",
      "Ġbe en",
      "Ġc ity",
      "pr il",
      "ĠO n",
      "ĠJ apan",
      "it t",
      "ik e",
      "a z",
      "aus e",
      "Ġte levision",
      "sp an",
      "2 2",
      "ov ern",
      "ebr uary",
      "Ġin to",
      "ol og",
      "Ġs he",
      "u ct",
      "Ġf ound",
      "\" |",
      "as h",
      "ay s",
      "ĠC ounty",
      "Ġd ied",
      "Ġ1 1",
      "m p",
      "Ġa c",
      "ĠI s",
      "ĠP r",
      "ĠC l",
      "Ġm ore",
      "ĠC an",
      "ĠA pril",
      "Ġ im",
      "ag ue",
      "ur y",
      "ĠF ebruary",
      "res ident",
      "un e",
      "Ġd o",
      "Ġof f",
      "Ġw hen",
      "Ġ up",
      "if e",
      "o ol",
      "c k",
      "Ġpolit ician",
      "e ak",
      "ĠW orld",
      "Ġd ire",
      "he s",
      "re at",
      "Ġp op",
      "ĠP ro",
      "e g",
      "Ġ ra",
      "Ġp r",
      "Ġp er",
      "ĠJ u",
      "Ġc ount",
      "1 0",
      "i x",
      "b um",
      "ro w",
      "|| ||",
      "Ġe v",
      "Ġ est",
      "Ġte am",
      "Ġc ent",
      "ĠJ oh",
      "h ip",
      "f t",
      "Ġre c",
      "p t",
      "o in",
      "i er",
      "as e",
      "ĠBrit ish",
      "Ġre g",
      "ĠL iving",
      "he re",
      "en n",
      "Ġb et",
      "ĠW ar",
      "Ġa pp",
      "Ġbec ame",
      "in ist",
      "Ġo ut",
      "us s",
      "Ġ199 9",
      "ig h",
      "Ġthe m",
      "l l",
      "ĠC ar",
      "ivers ity",
      "Ġn um",
      "i et",
      "in s",
      "Ġf am",
      "Ġo ver",
      "og ra",
      "Ġyear s",
      "an n",
      "an ce",
      "v el",
      "ist ric",
      "ur n",
      "ĠFran ce",
      "os e",
      "ĠD e",
      "ĠB r",
      "Ġ200 2",
      "Ġn ew",
      "il y",
      "Ġcom mun",
      "ĠK ing",
      "Ġactor s",
      "Ġal bum",
      "Ġ20 20",
      "Ġpro d",
      "ĠJu ly",
      "ic ip",
      "at t",
      "Ġn ame",
      "Ġser ies",
      "Ġs ome",
      "Ġ19 2",
      "ĠJoh n",
      "ĠS w",
      "ĠA t",
      "ĠG e",
      "Ġgro up",
      "Ġs y",
      "at ch",
      "Ġp h",
      "Ġpop ul",
      "Ġf l",
      "Ġd ep",
      "ĠC ol",
      "Ġs o",
      "Ġplay ed",
      "Ġest ab",
      "ĠA nd",
      "ĠY ork",
      "le y",
      "Ġc ol",
      "Ġe lect",
      "ĠP h",
      "en er",
      "Ġd if",
      "a j",
      "Ġre le",
      "1 7",
      "ĠB l",
      "Ġon ly",
      "al e",
      "im es",
      "is m",
      "Ġth an",
      "Ġs ec",
      "ĠP ar",
      "we en",
      "e ver",
      "Ġd es",
      "a i",
      "i am",
      "ĠF or",
      "ot h",
      "Ġh im",
      "Ġ Q",
      "ĠLe ague",
      "Ġl ar",
      "u k",
      "Ġst art",
      "ic ial",
      "ar s",
      "ĠS outh",
      "ĠE u",
      "ab le",
      "ist ory",
      "Ġplay er",
      "Ġat t",
      "ro und",
      "res ent",
      "Ġb u",
      "ĠJ une",
      "ĠP l",
      "r ed",
      "ĠAust ral",
      "ĠC al",
      "er t",
      "ug h",
      "ow er",
      "k s",
      "ĠIt al",
      "om an",
      "Ġfor m",
      "1 5",
      "ou se",
      "ĠP al",
      "Ġb l",
      "a ir",
      "ri b",
      "m on",
      "Ġst ud",
      "ogra ph",
      "ren ch",
      "ĠUn iversity",
      "Ġt r",
      "ur es",
      "d er",
      "el y",
      "\" .",
      "ĠM us",
      "i el",
      "em b",
      "et t",
      "1 6",
      "iv ed",
      "ang u",
      "an c",
      "ch ool",
      "v e",
      "ces s",
      "1 4",
      "ĠC on",
      "ĠCan ad",
      "lish ments",
      "Ġbet ween",
      "y s",
      "1 3",
      "istric t",
      "icip al",
      "Ġbec ause",
      "1 2",
      "ĠThe re",
      "ic a",
      "ĠP eople",
      "Ġt ra",
      "ĠC ity",
      "er m",
      "w ay",
      "r on",
      "ĠF rench",
      "Ġst ate",
      "ĠA d",
      "i ent",
      "un icipal",
      "at her",
      "19 8",
      "ion al",
      "ĠE d",
      "Ġg o",
      "Ġnum ber",
      "ĠR ep",
      "Ġag ain",
      "ubl ic",
      "ot her",
      "as on",
      "v ed",
      "ĠN ational",
      "in al",
      "Ġw here",
      "Ġd uring",
      "rop e",
      "r at",
      "em ent",
      "et h",
      "Ġsh ow",
      "ĠO r",
      "Ġm on",
      "a u",
      "Ġc o",
      "a id",
      "Ġv ery",
      "iv es",
      "m y",
      "Ġ und",
      "Ġp re",
      "Ġ end",
      "Ġw ould",
      "Ġ201 0",
      "ur g",
      "ur r",
      "ĠN orth",
      "t il",
      "it al",
      "Ġsp ec",
      "u ally",
      "Ġplay ers",
      "ĠEu rope",
      "oug h",
      "y p",
      "e e",
      "Ġm ay",
      "Ġm an",
      "Ġw on",
      "Ġl ike",
      "ro s",
      "art ment",
      "r ist",
      "ĠA ward",
      "f orm",
      "Ġs m",
      "Ġe ar",
      "ain t",
      "Ġs uch",
      "a x",
      "he m",
      "00 0",
      "Ġto wn",
      "fer ent",
      "Ġre l",
      "ĠF l",
      "Ġar t",
      "Ġmus ic",
      "er ed",
      "i ous",
      "Ġin d",
      "2 3",
      "u al",
      "Ġrele ased",
      "Ġc re",
      "am ed",
      "ĠT e",
      "in es",
      "Ġ2 4",
      "is hed",
      "Ġestab lishments",
      "Ġch ar",
      "i um",
      "ĠP resident",
      "ro ugh",
      "ĠP art",
      "tern ational",
      "Ġb ro",
      "ĠA f",
      "p en",
      "s h",
      "et s",
      "Ġth ree",
      "Ġdif ferent",
      "Ġp erson",
      "un g",
      "Ġsec ond",
      "Ġdire ct",
      "Ġun til",
      "ĠM ov",
      "c er",
      "ĠR iver",
      "ĠR uss",
      "Ġs up",
      "Ġl ong",
      "row span",
      "ĠW est",
      "ef ore",
      "Ġst r",
      "ot t",
      "ĠE l",
      "Ġg overn",
      "Ġ200 3",
      "er g",
      "is e",
      "Ġw ill",
      "os s",
      "Ġ2 5",
      "il m",
      "Ġ qu",
      "Ġc ap",
      "Ġ199 8",
      "ĠL a",
      "Ġw orld",
      "ĠI I",
      "e ed",
      "o x",
      "Ġle ad",
      "st em",
      "Ġl ater",
      "Ġm ed",
      "ĠG r",
      "Ġthe n",
      "1 1",
      "Ġb ook",
      "ĠAl l",
      "are er",
      "ant s",
      "Ġch ild",
      "ĠH is",
      "Ġ201 9",
      "ri ed",
      "at ive",
      "le t",
      "er v",
      "Ġd r",
      "Ġ201 7",
      "Ġd ec",
      "en c",
      "z e",
      "Ġn ational",
      "Ġm ember",
      "Ġa ge",
      "Ġth rough",
      "ĠR el",
      "Ġm ar",
      "Ġare a",
      "at s",
      "om en",
      "ĠA b",
      "Ġm ain",
      "it s",
      "ĠA fter",
      "ther n",
      "amp ions",
      "ut ion",
      "Ġ200 4",
      "3 0",
      "ĠW h",
      "ĠA m",
      "ĠS e",
      "ĠG u",
      "ograph y",
      "el s",
      "ĠCom mun",
      "Ġ3 0",
      "f ect",
      "in k",
      "c c",
      "v ent",
      "Ġsong s",
      "19 7",
      "Ġ201 8",
      "Ġs ame",
      "Ġsing er",
      "ĠB ar",
      "ctor s",
      "ul l",
      "olog y",
      "Ġsm all",
      "Ġb and",
      "O S",
      "Ġc ar",
      "Ġm ake",
      "Ġl oc",
      "ĠH er",
      "Ġ200 5",
      "re en",
      "ĠGe or",
      "Ġ201 4",
      "ĠCh rist",
      "Ġfor mer",
      "Ġf our",
      "Ġs ub",
      "d om",
      "ly mp",
      "ĠB e",
      "g er",
      "ĠM an",
      "g est",
      "Ġre t",
      "5 0",
      "in o",
      "re t",
      "ian s",
      "c om",
      "Ġdep artment",
      "Ġcon s",
      "Ġl angu",
      "Ġk ill",
      "Ġf e",
      "Ġpro v",
      "ĠSp ace",
      "Ġus e",
      "Ġa m",
      "ĠO lymp",
      "Ġl ife",
      "l p",
      "Ġm et",
      "ak es",
      "ĠW ill",
      "if orn",
      "ĠC ent",
      "Ġa ir",
      "is c",
      "oun c",
      "ov e",
      "c ent",
      "ĠCal iforn",
      "Ġbe ing",
      "Ġ19 0",
      "ur al",
      "y l",
      "\" ,",
      "Ġc r",
      "ĠH ar",
      "ĠCaliforn ia",
      "Ġg ame",
      "f ess",
      "ĠPart y",
      "Ġw ell",
      "Ġ20 21",
      "Ġprod uc",
      "Ġ ed",
      "oll ow",
      "b le",
      "Ġm od",
      "Ġb ack",
      "j ect",
      "ĠR e",
      "Ġn o",
      "Ġp ages",
      "Ġrec ord",
      "ĠH ow",
      "Ġd id",
      "Ġof ten",
      "Ġb el",
      "y n",
      "an k",
      "Ġ2 1",
      "Ġre p",
      "Ġn amed",
      "ie w",
      "2 4",
      "at ing",
      "ĠB ra",
      "land s",
      "om et",
      "Ġstart ed",
      "6 0",
      "iel d",
      "Ġg u",
      "r est",
      "Ġ .",
      "ĠCh ar",
      "Ġo ld",
      "ĠP ol",
      "ĠO ff",
      "Ġ201 6",
      "a e",
      "Ġreg ion",
      "Ġb ased",
      "Ġ2 3",
      "2 5",
      "st it",
      "ĠGerman y",
      "ĠN or",
      "il le",
      "ug ht",
      "Ġb efore",
      "Ġsy stem",
      "al d",
      "Ġ201 5",
      "ĠA ng",
      "8 0",
      "Ġm unicipal",
      "r ies",
      "Ġfam ily",
      "ĠM inist",
      "Ġ2 9",
      "ĠJapan ese",
      "ician s",
      "om ar",
      "our n",
      "ĠEng land",
      "Ġs aid",
      "Ġp ar",
      "Ġre m",
      "ĠInd ian",
      "ĠRel ated",
      "Ġo wn",
      "ĠR oman",
      "ener al",
      "Ġ200 6",
      "ĠPal omar",
      "Ġagain st",
      "Ġs ince",
      "el f",
      "Ġund er",
      "ĠT r",
      "if ic",
      "ir d",
      "Ġc areer",
      "ond on",
      "uc k",
      "Ġact ress",
      "on y",
      "et her",
      "Ġcommun e",
      "ill ion",
      "Ġt ran",
      "Ġn orth",
      "Ġl aw",
      "b urg",
      "k e",
      "4 0",
      "en g",
      "Ġg ames",
      "2 7",
      "ĠB ro",
      "ĠP eak",
      "Ġn ear",
      "ĠMov ies",
      "ĠItal ian",
      "Ġ X",
      "ĠE m",
      "ĠK itt",
      "ĠL ondon",
      "2 9",
      "Ġ2 6",
      "ĠE n",
      "ĠA ir",
      "Ġp o",
      "ĠDe ath",
      "st r",
      "b s",
      "at a",
      "ĠH istory",
      "Ġpl ace",
      "Ġchar act",
      "as k",
      "Ġan y",
      "Ġw e",
      "Ġ2 8",
      "Ġhe lp",
      "w atch",
      "2 8",
      "ĠE x",
      "ĠC up",
      "Ġf ollow",
      "c he",
      "Ġw ater",
      "Ġ201 1",
      "i ation",
      "2 6",
      "at ure",
      "is on",
      "Ġas s",
      "a f",
      "Ġw ar",
      "Ġ2 7",
      "ĠSpace watch",
      "Ġgovern ment",
      "Ġ ent",
      "Ġdirect ed",
      "Ġb est",
      "Ġin ter",
      "ampions hip",
      "ĠE ar",
      "Ġt yp",
      "in ess",
      "r ing",
      "Ġg r",
      "Ġthe se",
      "Ġan im",
      "g ram",
      "l ing",
      "Ġ200 7",
      "ul ar",
      "al a",
      "Ġcent ury",
      "EA T",
      "b y",
      "u th",
      "ar a",
      "ain s",
      "h am",
      "ĠU S",
      "ĠN EAT",
      "c on",
      "ide o",
      "ĠAs s",
      "Ġpopul ation",
      "ĠS ome",
      "an a",
      "ed y",
      "3 3",
      "in t",
      "Ġe ver",
      "Ġse ason",
      "od y",
      "Ġm il",
      "ram a",
      "Ġ20 22",
      "o on",
      "Ġcount ry",
      "Ġs ur",
      "at or",
      "Ġ &",
      "ow s",
      "ĠKing dom",
      "Ġapp ear",
      "ord s",
      "am a",
      "ro g",
      "al t",
      "Ġ201 3",
      "Ġa round",
      "Ġinclud ing",
      "ut e",
      "ĠW hen",
      "Ġor ig",
      "Ġl and",
      "st er",
      "Ġor gan",
      "Ġ199 0",
      "ĠM e",
      "f l",
      "9 0",
      "Ġb oth",
      "Ġse ver",
      "oin t",
      "T he",
      "od e",
      "a ul",
      "Ġwebsit e",
      "Ġ200 8",
      "aj or",
      "7 0",
      "t t",
      "an ish",
      "Ġs chool",
      "re m",
      "Ġc ould",
      "Ġin v",
      "Ġ2 2",
      "am b",
      "q ue",
      "r id",
      "al es",
      "ĠM c",
      "ip p",
      "d e",
      "ĠB el",
      "z er",
      "on es",
      "Ġ em",
      "Ġs et",
      "Ġd istrict",
      "ĠG overn",
      "il t",
      "n er",
      "ist an",
      "ĠIn ternational",
      "ur ch",
      "us iness",
      "ĠCanad ian",
      "iz ed",
      "emb ers",
      "Ġim port",
      "ĠWill iam",
      "m s",
      "ĠAustral ia",
      "Ġbu ild",
      "Ġ201 2",
      "Ġ( )",
      "Ġl ist",
      "oug ht",
      "ĠM ed",
      "Ġpro fess",
      "ag o",
      "Ġe ach",
      "Ġh ow",
      "Ġr un",
      "ĠAmer ica",
      "a ur",
      "Ġs l",
      "ak ing",
      "Ġh igh",
      "um b",
      "3 4",
      "Ġus ually",
      "n ey",
      "Ġ right",
      "Ġl ived",
      "ĠAnd erson",
      "ĠCom p",
      "ĠCommun es",
      "uct ion",
      "o ard",
      "ĠM es",
      "Ġex amp",
      "vel op",
      "ĠPh il",
      "Ġs im",
      "ĠThe se",
      "ort s",
      "Ġ200 9",
      "al k",
      "ros s",
      "9 9",
      "Ġchild ren",
      "ĠM on",
      "3 7",
      "Ġh um",
      "i ence",
      "6 5",
      "ra ct",
      "om in",
      "u es",
      "um mer",
      "ĠM ich",
      "ib le",
      "ĠH ouse",
      "w rit",
      "Ġl ast",
      "o le",
      "Ġde velop",
      "col span",
      "ĠAust r",
      "6 4",
      "ad em",
      "et er",
      "Ġcre ated",
      "Ġro ck",
      "Ġcomp os",
      "6 8",
      "ĠO ne",
      "6 7",
      "ist or",
      "Ġc aus",
      "N E",
      "\"| -",
      "Ġser v",
      "ĠInd ia",
      "3 5",
      "ĠMinist er",
      "ĠL ou",
      "Ġs k",
      "Ġ ran",
      "ĠSw ed",
      "urr ent",
      "le x",
      "Ġc ounty",
      "Ġ '",
      "Ġbe gan",
      "Ġad d",
      "Ġsever al",
      "Ġpro gram",
      "\"|- ||",
      "Ġw inn",
      "Ġs ign",
      "ĠS an",
      "Ġcl ub",
      "ĠP er",
      "Ġs outh",
      "Ġst at",
      "ĠD em",
      "Ġatt ack",
      "en e",
      "Ġwh ile",
      "Ġo per",
      "ĠSt ate",
      "Ġcom mon",
      "ĠS ec",
      "in c",
      "an e",
      "Ġwrit er",
      "3 8",
      "Ġ198 0",
      "ĠD av",
      "Ġv ers",
      "ap p",
      "ĠG l",
      "ed er",
      "f or",
      "f ul",
      "ĠS up",
      "Ġlar ge",
      "c hes",
      "Ġt erm",
      "us h",
      "ĠS y",
      "it ary",
      "Ġimport ant",
      "Ġl ive",
      "v en",
      "ens us",
      "s ide",
      "ing ton",
      "Ġoff icial",
      "ĠHow ever",
      "4 5",
      "Ġsing le",
      "ĠS ch",
      "Ġ if",
      "Ġp ol",
      "Ġhe ad",
      "ĠDeath s",
      "Ġd rama",
      "re w",
      "ĠAustral ian",
      "Ġdis c",
      "ir ed",
      "Ġac c",
      "d ay",
      "ĠC ities",
      "6 9",
      "Ġw ent",
      "Ġ199 7",
      "Ġf ilm",
      "n a",
      "l er",
      "Ġin t",
      "att le",
      "Ġpopul ar",
      "st e",
      "a ught",
      "as ter",
      "Ġs uc",
      "ĠA c",
      "Ġm illion",
      "ber g",
      "t he",
      "ĠMes a",
      "Ġd ef",
      "Ġmunicipal ity",
      "ĠOff icial",
      "Ġd iv",
      "ĠRuss ian",
      "Ġlangu age",
      "ic o",
      "z il",
      "3 9",
      "a ut",
      "id d",
      "Ġn ow",
      "o ice",
      "ro l",
      "Ġs oc",
      "ĠM iss",
      "Ġle g",
      "4 8",
      "Ġexamp le",
      "4 7",
      "Ġm at",
      "an ge",
      "ce pt",
      "Ġdes ign",
      "Ġ199 6",
      "om b",
      ". \"",
      "Ġp ower",
      "Ġf in",
      "ĠS er",
      "Ġch ang",
      "Ġcount ries",
      "Ġm in",
      "Ġear ly",
      "Ġe p",
      "Ġan n",
      "ĠCh ampionship",
      "Ġp resident",
      "ĠBra zil",
      "Ġd ist",
      "omet imes",
      "iv en",
      "Ġh ome",
      "ĠM ex",
      "Ġg et",
      "w est",
      "Ġen g",
      "ĠH ol",
      "ĠL O",
      "ĠQ u",
      "Ġcomp et",
      "Ġw est",
      "ĠC o",
      "Ġgroup s",
      "ock ey",
      "Ġinclud e",
      "ic es",
      "ĠP ark",
      "ĠR ec",
      "Ġo pen",
      "Ġd ay",
      ". .",
      "iv il",
      "Ġv ideo",
      "Ġin c",
      "op h",
      "i ef",
      "l in",
      "Ġex p",
      "Ġtran s",
      "ber t",
      "ĠR ober",
      "Ġcap ital",
      "p le",
      "Ġspec ies",
      "Ġme ans",
      "ĠS m",
      "f ord",
      "NE OS",
      "ĠLO NEOS",
      "Ġ196 0",
      "Ġwrit ten",
      "ĠP olit",
      "ri end",
      "i j",
      "ĠSp anish",
      "con om",
      "5 7",
      "Ġle ft",
      "g es",
      "i en",
      "ĠS ing",
      "Ġw ay",
      "id ed",
      "ĠJ ames",
      "ĠS chool",
      "Ġex t",
      "ĠT ur",
      "ro d",
      "ĠP aul",
      "oc rat",
      "Ġever y",
      "ĠS en",
      "ĠM or",
      "g in",
      "Ġh istory",
      "Ġ199 5",
      "a ces",
      "Ġ ,",
      "ĠD r",
      "9 8",
      "Ġm embers",
      "ĠT ex",
      "our t",
      "ĠP ort",
      "ĠCanad a",
      "Ġp ass",
      "ĠA ctors",
      "i od",
      "Ġt imes",
      "ĠE ast",
      "c o",
      "ĠAng el",
      "ĠF ootball",
      "e al",
      "l ed",
      "i us",
      "Ġ197 0",
      "Ġd own",
      "F A",
      "r is",
      "ĠS aint",
      "le ge",
      "u ff",
      "Ġm uch",
      "ĠG ree",
      "ch n",
      "ov er",
      "Ġman ag",
      "Ġmar ried",
      "Ġact iv",
      "ar n",
      "Ġwh at",
      "9 7",
      "5 8",
      "an ia",
      "id es",
      "m a",
      "ra in",
      "Ġpro t",
      "ep end",
      "oun g",
      "ro te",
      "ĠRep ublic",
      "Ġfam ous",
      "it ar",
      "|||| ||||",
      "it er",
      "ist ics",
      "Ġcan cer",
      "Ġsh ort",
      "Ġ199 4",
      "Ġw omen",
      "e an",
      "i or",
      "Ġv ar",
      "os p",
      "ĠM il",
      "ĠR eg",
      "id a",
      "ĠS ov",
      "Ġst ill",
      "Ġcom edy",
      "Ġm ajor",
      "a el",
      "ĠFl or",
      "or p",
      "ĠN ot",
      "Ġcl ass",
      "ĠT own",
      "y le",
      "u el",
      "Ġre f",
      "o e",
      "ĠPro v",
      "Ġbu ilt",
      "ct ion",
      "Ġf ather",
      "h an",
      "Ġ3 1",
      "y a",
      "ol ution",
      "al th",
      "Ġj oin",
      "v iew",
      "Ġc urrent",
      "ill a",
      "ĠGeor ge",
      "ĠIt s",
      "Ġre ce",
      "k y",
      "ĠN Y",
      "Ġ1 00",
      "g y",
      "v es",
      "6 6",
      "Ġst ar",
      "as tern",
      "ĠLou is",
      "Ġs old",
      "as es",
      "Ġ18 8",
      "Ġ199 2",
      "op e",
      "Ġb re",
      "ĠPr ime",
      "Ġp ubl",
      "ĠSov iet",
      "9 5",
      "ĠP re",
      "he l",
      "Ġt it",
      "o f",
      "Ġ199 3",
      "Ġv ill",
      "ric k",
      "Ġdo es",
      "ĠJ os",
      "Ġsup port",
      "ut ch",
      "ĠJ ack",
      "Ġlar gest",
      "Ġcomp any",
      "Ġto ok",
      "Ġs on",
      "Ġa ward",
      "ĠAr t",
      "Ġp ublic",
      "ĠR ed",
      "ĠCh ic",
      "ĠC at",
      "ans as",
      "Ġb usiness",
      "Ġg ood",
      "ĠItal y",
      "ĠT w",
      "Ġw rote",
      "ĠV al",
      "ĠUn ion",
      "ĠM ount",
      "Ġmov ed",
      "ĠEurope an",
      "ĠV ir",
      "ĠK ore",
      "ĠM any",
      "en a",
      "Ġan other",
      "Ġbec ome",
      "ĠCom m",
      "Ġl a",
      "Ġfootball er",
      "ĠR ich",
      "ĠTex as",
      "n ess",
      "Ġth ird",
      "ĠA g",
      "ad io",
      "is ed",
      "ĠCh ina",
      "Ġc ame",
      "Ġsuc cess",
      "Ġo b",
      "oc iation",
      "Ġhe ld",
      "ĠChic ago",
      "Ġdire ctor",
      "Ġto p",
      "Ġb ody",
      "Ġst age",
      "Ġ199 1",
      "c y",
      "ĠR o",
      "enc y",
      "w ork",
      "3 6",
      "Ġb ig",
      "ad es",
      "Ġn eed",
      "ĠNY S",
      "4 4",
      "ot s",
      "Ġev en",
      "ĠDem ocrat",
      "ric a",
      "Ġpro ble",
      "Ġcont in",
      "ourn al",
      "uth or",
      "Ġalbum s",
      "Ġg iven",
      "Ġprofess ional",
      "Ġp os",
      "Ġw ant",
      "ur ed",
      "Ġg en",
      "iv al",
      "ag n",
      "Ġb as",
      "Ġme an",
      "ad y",
      "Ġph ys",
      "ĠC ast",
      "Ġbook s",
      "ĠP ak",
      "ĠP ri",
      "Ġpolit ical",
      "Ġcon d",
      "ĠD on",
      "ex t",
      "ĠRober t",
      "ĠM ont",
      "ac ed",
      "os ed",
      "ra ft",
      "ĠSp ort",
      "ĠC ap",
      "ĠL os",
      "r ican",
      "ĠD uring",
      "Ġd eb",
      "5 5",
      "ĠM y",
      "Ġj ust",
      "ar m",
      "Ġcom m",
      "ĠS l",
      "Ġs ix",
      "ir l",
      "ĠD istrict",
      "Ġwork ed",
      "ut er",
      "Ġo cc",
      "ĠY ou",
      "k i",
      "Ġn ov",
      "ĠBl ack",
      "Ġpolitician s",
      "7 8",
      "ĠM ost",
      "ĠDav id",
      "Ġc ensus",
      "and er",
      "ĠL ist",
      "ĠB est",
      "h i",
      "ĠD ep",
      "Ġdes c",
      "ĠT ra",
      "av ing",
      "Ġc ult",
      "iet y",
      "Ġcharact er",
      "il ity",
      "t ain",
      "Ġth ings",
      "ĠCl ub",
      "ul a",
      "ĠJ ew",
      "Ġkill ed",
      "at ural",
      "er a",
      "ĠAf rican",
      "Ġres p",
      "ou thern",
      "Ġp resent",
      "3 1",
      "ĠCh in",
      "ĠM al",
      "Ġep is",
      "ĠN e",
      "ĠH igh",
      "Ġal ong",
      "Ġm en",
      "v ille",
      "Ġr ul",
      "Ġf ive",
      "um p",
      "ĠF rom",
      "ut ed",
      "ĠD utch",
      "ĠSc ott",
      "m en",
      "Ġl ight",
      "r u",
      "Ġ| }",
      "ĠB as",
      "ra b",
      "it ions",
      "m ed",
      "Ġw ord",
      "o o",
      "ĠW e",
      "Ġf em",
      "ĠR es",
      "or ies",
      "s c",
      "ĠH en",
      "ĠR oy",
      "ĠW ash",
      "Ġ198 9",
      "Ġl iving",
      "Ġs w",
      "m e",
      "ĠG ro",
      "id s",
      "ĠAs ia",
      "ear ch",
      "Ġper iod",
      "Ġmil itary",
      "il ar",
      "Ġr ed",
      "Ġro le",
      "ĠB y",
      "ĠAc adem",
      "ĠS al",
      "av y",
      "ĠS ummer",
      "9 4",
      "ĠAf rica",
      "ĠE mp",
      "writ er",
      "ĠB er",
      "Ġ198 8",
      "Ġfound ed",
      "Ġplay s",
      "an o",
      "Ġ198 1",
      "Ġt em",
      "Ġvers ion",
      "ĠD es",
      "Ġser ved",
      "ol ic",
      "v al",
      "itt le",
      "3 2",
      "Ġpubl ished",
      "t y",
      "ĠH al",
      "Ġh istor",
      "our s",
      "Ġ ef",
      "ĠM ad",
      "Ġprov ince",
      "e um",
      "Ġrep resent",
      "Ġus ing",
      "ĠI ll",
      "n ect",
      "ĠQ ue",
      "o ff",
      "ant ic",
      "Ġex pl",
      "u x",
      "ĠTh om",
      "re g",
      "ot a",
      "Ġl ook",
      "Ġwork s",
      "ell s",
      "ical ly",
      "Ġm y",
      "Ġor der",
      "ounc il",
      "' t",
      "Ġf rog",
      "ir c",
      "ĠC ath",
      "ĠM art",
      "Ġfollow ing",
      "ĠWash ington",
      "l ine",
      "Ġc amp",
      "7 7",
      "ĠGr and",
      "ra el",
      "Ġpart s",
      "Ġf ew",
      "Ġag ed",
      "le ments",
      "Ġret urn",
      "Ġto g",
      "ĠS am",
      "Ġdis e",
      "Ġ 0",
      "Ġspec ial",
      "Ġtog ether",
      "Ġev ent",
      "ĠAngel es",
      "al ity",
      "ĠChin ese",
      "ĠB ut",
      "Ġeng ine",
      "ĠB u",
      "ĠA lex",
      "t al",
      "ĠD iv",
      "at ors",
      "ĠPak istan",
      "Ġa uthor",
      "it zer",
      "iz e",
      "Ġ195 0",
      "Ġ ide",
      "ĠW rit",
      "9 6",
      "re am",
      "k a",
      "Ġhe art",
      "Ġg reat",
      "Ġcaus ed",
      "ou l",
      "ĠChar les",
      "Ġf ood",
      "h a",
      "ĠChrist ian",
      "iss ion",
      "L O",
      "od es",
      "ĠM unicipal",
      "ĠF irst",
      "Ġbec om",
      "ĠG reat",
      "ĠE v",
      "Ġs ometimes",
      "iz ation",
      "if ied",
      "ĠH all",
      "Ġelect ion",
      "ounc ed",
      "ĠMich ael",
      "r ip",
      "Ġe qu",
      "or ed",
      "ict ion",
      "S t",
      "Ġg ot",
      "on a",
      "op s",
      "Ġ es",
      "Ġr est",
      "ĠN o",
      "Ġse e",
      "ĠD ay",
      "Ġhum an",
      "lect ion",
      "Ġt er",
      "Ġim p",
      "Ġ198 6",
      "Ġar r",
      "Ġh ig",
      "Ġt ake",
      "Ġper form",
      "Ġv oice",
      "ĠVir gin",
      "and s",
      "c ed",
      "Ġp ut",
      "ĠG old",
      "sp eople",
      "ro v",
      "i ol",
      "5 4",
      "ĠK ar",
      "ĠP at",
      "m inist",
      "Ġth ought",
      "ĠM ary",
      "ĠPl ay",
      "Ġg ener",
      "g ian",
      "ĠRich ard",
      "Ġs ol",
      "Ġbel ie",
      "ĠOlymp ics",
      "idd le",
      "ĠB ill",
      "ĠSp ain",
      "Ġb i",
      "i ers",
      "ĠB en",
      "ĠM ass",
      "Ġf ight",
      "B C",
      "ĠL aw",
      "ĠM et",
      "Ġtr ad",
      "ar ch",
      "un t",
      "Ġv ot",
      "Ġ198 7",
      "Ġse at",
      "Ġgu itar",
      "A S",
      "ĠIs rael",
      "Ġm other",
      "ord ing",
      "ĠI r",
      "um ent",
      "ĠCar ol",
      "w ays",
      "ĠG od",
      "l o",
      "Ġar ch",
      "r ation",
      "Ġ198 4",
      "Ġle vel",
      "Ġtyp e",
      "ud e",
      "Ġre pl",
      "Ġ197 9",
      "ĠS im",
      "ar ed",
      "ĠT er",
      "8 8",
      "Ġs ent",
      "Ġv ol",
      "Ġst ars",
      "ĠS o",
      "Ġf riend",
      "Ġe conom",
      "ĠT om",
      "Ġin ternational",
      "ĠPar is",
      "in i",
      "Ġn ext",
      "Ġfe at",
      "eren ce",
      "ĠY ear",
      "ĠAward s",
      "Ġr iver",
      "ĠU K",
      "un n",
      "ĠCh urch",
      "ĠDemocrat ic",
      "Ġg eneral",
      "u ed",
      "ĠF LO",
      "at ives",
      "5 9",
      "Ġk ing",
      "Ġl ine",
      "ĠFran k",
      "Ġm aking",
      "Ġsc ient",
      "ial ly",
      "Ġ197 3",
      "Ġm ark",
      "Ġst ory",
      "ĠTown s",
      "ĠI f",
      "Ġc rit",
      "ĠTur k",
      "Ġ198 5",
      "m b",
      "ĠAr g",
      "ĠIs land",
      "Ġd ata",
      "Ġvill age",
      "m ing",
      "ĠL at",
      "Ġy ou",
      "ĠG eneral",
      "et work",
      "Ġ197 6",
      "Ġ198 2",
      "l iam",
      "Ġorig in",
      "Ġrel ig",
      "ur a",
      "ĠK n",
      "per or",
      "Ġf ind",
      "Ġh ouse",
      "ĠFlor ida",
      "ar i",
      "Ġan t",
      "Ġ198 3",
      "ĠS ant",
      "ĠCol lege",
      "Ġc hem",
      "ĠAcadem y",
      "form ation",
      "ĠEmp ire",
      "Ġ5 0",
      "Ġv is",
      "Ġlead er",
      "I D",
      "rop ical",
      "Ġ197 7",
      "u le",
      "Ġf ail",
      "i ber",
      "Ġstr uct",
      "ĠR ock",
      "Ġj ournal",
      "om a",
      "Ġrece ived",
      "ino is",
      "Ġsim ilar",
      "c ast",
      "ĠAt l",
      "ĠD an",
      "ĠG o",
      "st on",
      "m ost",
      "Ġloc ated",
      "Ġn e",
      "ĠH am",
      "ĠK h",
      "liam ent",
      "ain ed",
      "l ic",
      "6 3",
      "ĠT V",
      "c her",
      "ĠG ra",
      ") :",
      "ĠAustr ian",
      "ĠIll inois",
      "c ient",
      "Ġ197 2",
      "ĠB i",
      "itzer land",
      "ĠR ev",
      "Ġart ist",
      "s y",
      "Ġproduc er",
      "ert ain",
      "Ġa ut",
      "ig a",
      "Ġnov el",
      "ov ered",
      "Ġd ays",
      "Ġst ation",
      "ĠD is",
      "Ġed uc",
      "Ġst op",
      "ĠGree k",
      "ĠMus ic",
      "im ate",
      "Ġp aint",
      "ĠI m",
      "ĠGovern or",
      "Ġse en",
      "ĠZ eal",
      "ĠGeor g",
      "Ġh ost",
      "Ġall ow",
      "Ġa v",
      "a im",
      "he st",
      "Ġp rom",
      "ad s",
      "end ed",
      "Ġstat istics",
      "er ing",
      "Ġ197 8",
      "ĠP eter",
      "Ġv al",
      "ĠZeal and",
      "Ġg l",
      "Ġl ess",
      "ĠSw itzerland",
      "ar ian",
      "Ġm ount",
      "Ġe ast",
      "Ġgro w",
      "ĠSport speople",
      "ĠAr ch",
      "r or",
      "Ġmod ern",
      "Ġt urn",
      "av es",
      "y r",
      "ĠT ran",
      "ol f",
      "ap e",
      "ĠK ansas",
      "Ġm akes",
      "Ġcons id",
      "0 8",
      "ĠFran c",
      "Ġdise ase",
      "a ff",
      "ir on",
      "ĠD el",
      "ĠOlymp ic",
      "ĠU p",
      "ĠAss ociation",
      "Ġ193 0",
      "ĠRuss ia",
      "al f",
      "200 6",
      "4 9",
      "im a",
      "Ġ18 7",
      "y d",
      "cent ury",
      "ar ia",
      "ĠPolit icians",
      "ĠSwed en",
      "Ġis land",
      "Ġst yle",
      "ask et",
      "200 5",
      "Ġproduc ed",
      "u z",
      "Ġ197 4",
      "aught er",
      "ĠF ilm",
      "Ġth ose",
      "Ġ197 5",
      "Ġbl ack",
      "Ġl ed",
      "est s",
      "Ġev ents",
      "Ġbe g",
      "Ġind epend",
      "ĠWrit ers",
      "ian a",
      "Ġelect ed",
      "Ġteam s",
      "ul ts",
      "ĠT o",
      "ĠProv ince",
      "200 7",
      "ĠCath olic",
      "ĠM er",
      "Ġcont rol",
      "ud d",
      "Ġbro ther",
      "Ġpart y",
      "ĠMex ico",
      "Ġse x",
      "un k",
      "Ġst ates",
      "Ġsh ould",
      "Ġform ed",
      "ition al",
      "Ġ197 1",
      "u ce",
      "ĠG reen",
      "th ough",
      "ak en",
      "re y",
      "Ġ194 0",
      "Ġd el",
      "Ġcharact ers",
      "in ter",
      "4 6",
      "it es",
      "le ar",
      "Ġg od",
      "S S",
      "in ed",
      "l am",
      "Ġs ound",
      "uk e",
      "Ġ #",
      "gy pt",
      "0 7",
      "ur t",
      "erg y",
      "Ġwith out",
      "Ġ :",
      "Ġn omin",
      "ĠEar th",
      "I I",
      "b oard",
      "t ed",
      "Ġmon ey",
      "w ood",
      "Ġph il",
      "ĠA ct",
      "ad a",
      "Ġcon f",
      "Ġtit le",
      "Ġs ay",
      "ĠVirgin ia",
      "an i",
      "Ġorig inal",
      "Ġpl aces",
      "f ield",
      "Ġproble ms",
      "o z",
      "ap er",
      "Ġd i",
      "Ġs ide",
      "ol s",
      "ong ress",
      "Ġann ounced",
      "Ġ /",
      "fect ure",
      "if f",
      "hem at",
      "re et",
      "ĠB ec",
      "Ġdesc rib",
      "ad u",
      "ĠAr my",
      "ĠWest ern",
      "at ory",
      "200 4",
      "Ġw ife",
      "Ġ ice",
      "ent al",
      "ight s",
      "ĠE r",
      "ubl ican",
      "ĠRoy al",
      "Ġd ue",
      "s elf",
      "ĠB C",
      "ĠAn t",
      "Ġa way",
      "e ep",
      "Ġex per",
      "ill s",
      "ĠHen ry",
      "5 6",
      "Ġshow s",
      "Ġo pp",
      "Ġl ot",
      "ap pen",
      "Ġjoin ed",
      "ĠM ac",
      "ĠE gypt",
      "ic le",
      "ĠThom as",
      "Ġstr ong",
      "Ġd est",
      "Ġs il",
      "Ġk ind",
      "eb all",
      "Ġmed al",
      "Ġpo et",
      "en se",
      "A mer",
      "Ġh ockey",
      "ĠBrazil ian",
      "Ġ el",
      "asket ball",
      "k n",
      "ard s",
      "ĠT or",
      "ĠI ran",
      "ur s",
      "Ġst and",
      "Ġto tal",
      "ĠO l",
      "ĠV ict",
      "Ġ196 8",
      "ist er",
      "Ġc y",
      "Ġmus ician",
      "ol k",
      "ĠArg ent",
      "Ġm atch",
      "ĠCent ral",
      "ain e",
      "ro y",
      "ac hed",
      "ĠO h",
      "ĠW omen",
      "ĠF in",
      "Ġcompos er",
      "ĠW il",
      "ĠW ind",
      "it a",
      "ĠA cc",
      "ĠC O",
      "rid ge",
      "x t",
      "Ġd efe",
      "g o",
      "ep h",
      "r ont",
      "ste ad",
      "Ġbuild ing",
      "Ġc ities",
      "Ġlangu ages",
      "Ġs ite",
      "as ons",
      "Ġother s",
      "Ġl ost",
      "Ġchang ed",
      "ers t",
      "ĠB ook",
      "ur b",
      "ra w",
      "200 3",
      "Ġpl an",
      "Ġloc al",
      "yl v",
      "ĠF I",
      "ĠW ith",
      "ĠV ill",
      "Ġf ire",
      "200 1",
      "ord er",
      "Ġdif f",
      "Ġpro cess",
      "Ġw rest",
      "ĠPri ze",
      "Ġm ust",
      "Ġare as",
      "urr ican",
      "Ġp oss",
      "em ents",
      "Ġright s",
      "ĠB ay",
      "orp or",
      "ĠC ouncil",
      "Amer ican",
      "ĠSt ud",
      "Ġch ange",
      "ĠD o",
      "200 8",
      "Ġstud io",
      "ĠR ob",
      "b e",
      "re ed",
      "Ġ196 9",
      "ĠM in",
      "Ġw ee",
      "Ġd em",
      "re land",
      "Ġre al",
      "c hed",
      "end er",
      "fl u",
      "Ġre port",
      "or ia",
      "ĠRep ublican",
      "8 7",
      "ĠP op",
      "Ġm ult",
      "Ġwh ite",
      "F F",
      "Ġ196 4",
      "Ġbe h",
      "ĠSt ar",
      "Ġl ate",
      "ĠRec ords",
      "n ot",
      "ĠG ames",
      "ĠP et",
      "ad o",
      "ĠCat al",
      "Ġl ives",
      "e le",
      "ĠSwed ish",
      "ward s",
      "Ġ =",
      "9 3",
      "ether lands",
      "Ġinclud es",
      "Ġp at",
      "Ġp oint",
      "Ġh appen",
      "ers ey",
      "ĠD ev",
      "om s",
      "ĠI reland",
      "Ġplay ing",
      "ĠO k",
      "ĠM ic",
      "200 2",
      "Ġ196 7",
      "ĠC ont",
      "el and",
      "b or",
      "Ġsoc ial",
      "Ġh ard",
      "ĠWh ite",
      "Ġ $",
      "Ġef fect",
      "ĠP enn",
      "Ġbro ad",
      "Ġsc ience",
      "ĠGro up",
      "ĠA v",
      "r d",
      "ic les",
      "rip t",
      "Ġc ivil",
      "ĠSc ot",
      "al y",
      "l ished",
      "ar ies",
      "Ġd et",
      "Ġf un",
      "Ġn on",
      "ĠCarol ina",
      "Ġy oung",
      "Ġg ave",
      "Ġinclud ed",
      "ĠAustr ia",
      "ĠSup er",
      ". ,",
      "ill er",
      "ip s",
      "Ġ )",
      "Ġm ix",
      "4 3",
      "Ġre ad",
      "ĠSec ret",
      "aw a",
      "Ġr adio",
      "Ġmost ly",
      "og n",
      "ĠO s",
      "200 0",
      "an ies",
      "Ġm ag",
      "re l",
      "i ro",
      "Ġanim als",
      "6 1",
      "n ing",
      "Ġh and",
      "i qu",
      "sh ire",
      "Ġph ot",
      "p art",
      "ĠL ife",
      "Ġ4 0",
      "U n",
      "Ġappear ed",
      "Ġp ain",
      "Ġg old",
      "ak er",
      "Ġf ield",
      "eder al",
      "am m",
      "ĠM r",
      "Ġte chn",
      "ib r",
      "Ġa ff",
      "Ġf inal",
      "c le",
      "4 1",
      "z a",
      "Ġh old",
      "all s",
      "Ġra ce",
      "Ġad v",
      "Ġres ult",
      "ĠC ro",
      "b on",
      "Ġn or",
      "ant on",
      "ĠM el",
      "ĠH on",
      "ĠS ur",
      "Ġw ords",
      "ĠN etherlands",
      "ad or",
      "ĠA rab",
      "y m",
      "ĠEar ly",
      "p s",
      "c raft",
      "Ġs ett",
      "ĠM ag",
      "angu age",
      "Ġ194 5",
      "l i",
      "ig er",
      "ĠB o",
      "9 2",
      "ĠR h",
      "Ġse a",
      "ĠA pp",
      "ect ed",
      "Ġcol or",
      "at o",
      "il es",
      "b r",
      "Ġd aughter",
      "ec ut",
      "lect ed",
      "ep ar",
      "le ment",
      "ĠC he",
      "sp ort",
      "Ġdeb ut",
      "inn ing",
      "200 9",
      "9 1",
      "Ġc or",
      "199 9",
      "Ġcomp uter",
      "op her",
      "a ud",
      "os aur",
      "Ġcom es",
      "Ġc al",
      "ĠL ab",
      "he ast",
      "it her",
      "Ġstud y",
      "ĠMar k",
      "Ġco ach",
      "Ġus es",
      "uc ed",
      "ĠC r",
      "Ġt rib",
      "Ġt aken",
      "Ġ z",
      "Ġwant ed",
      "w w",
      "id ing",
      "6 2",
      "Ġg ra",
      "ĠCon f",
      "ĠOh io",
      "i que",
      "Ġ196 6",
      "is l",
      "ĠF am",
      "l or",
      "ce an",
      "Ġ( ;",
      "ĠH a",
      "5 3",
      "ĠS ince",
      "ĠV ol",
      "Ġfem ale",
      "st ate",
      "Ġoff ice",
      "ĠTh at",
      "it ect",
      "ub e",
      "ĠB attle",
      "ĠD en",
      "in ation",
      "ĠDiv ision",
      "5 1",
      "Ġre fer",
      "ĠG ar",
      "Ġ [",
      "n y",
      "it ch",
      "Ġinv ol",
      "i y",
      "4 2",
      "c a",
      "ĠH ung",
      "Ġ194 7",
      "ell ow",
      "e h",
      "g en",
      "Ġh aving",
      "Ġbir th",
      "at ic",
      "Ġsc reen",
      "ĠPort ug",
      "Ġn atural",
      "g r",
      "w are",
      "ĠJ er",
      "ĠS ol",
      "Ġwith in",
      "le te",
      "C h",
      "ann el",
      "ĠN ob",
      "G B",
      "ĠM od",
      "ĠU k",
      "Ġro und",
      "Ġsp orts",
      "k ed",
      "s el",
      "ĠLe g",
      "ict ures",
      "l a",
      "ĠMus eum",
      "Ġd am",
      "ig an",
      "ri al",
      "ĠGe ography",
      "Ġbet ter",
      "Ġdevelop ed",
      "Ġp ost",
      "on ia",
      "r ia",
      "ĠGeorg ia",
      "es se",
      "Ġ196 5",
      "Ġsur v",
      "ĠJ ersey",
      "Ġp ort",
      "ĠJ r",
      "ab it",
      "ĠScott ish",
      "Ġkn ow",
      "ĠH el",
      "ĠM os",
      "Ġfootball ers",
      "ies t",
      "ĠPol ish",
      "ĠJew ish",
      "ĠH um",
      "Ġ194 8",
      "Ġs om",
      "Ġh alf",
      "Ġs ays",
      "Ġv oc",
      "ĠNor thern",
      "Ġth ink",
      "g ed",
      "Ġpr ison",
      "ĠB oy",
      "Ġ196 3",
      "ĠG en",
      "Ġ195 6",
      "he im",
      "ĠS ong",
      "ĠL o",
      "Ġin formation",
      "ĠP e",
      "Ġcom e",
      "ĠB ur",
      "sy ch",
      "V ID",
      "Ġf ree",
      "Ġs epar",
      "Ġm ass",
      "Ġle arn",
      "ĠL ake",
      "Ġestab lished",
      "Ġdist rib",
      "ĠG all",
      "as y",
      "Ġv iol",
      "an ces",
      "ĠL ove",
      "ĠK ent",
      "ĠLe e",
      "u a",
      "y o",
      "ific ation",
      "Ġconsid ered",
      "b ers",
      "urrican e",
      "olog ical",
      "Ġbecom es",
      "Ġsp eak",
      "Ġam ong",
      "Ġstud ied",
      "ĠS ett",
      "ĠCO VID",
      "Ġt our",
      "ac y",
      "Ġcon nect",
      "ĠSt ev",
      "ip le",
      "Ġto o",
      "ĠB or",
      "osp ital",
      "Ġad minist",
      "ĠRep resent",
      "ĠS un",
      "Ġf ish",
      "um n",
      "Ġh on",
      "Ġs outhern",
      "ag on",
      "Ġin flu",
      "il s",
      "ĠJ ul",
      "our ces",
      "ol a",
      "et ts",
      "Ġab le",
      "ĠC amp",
      "Ġl ab",
      "u f",
      "l im",
      "Ġ20 23",
      "ĠPre fecture",
      "ro ll",
      "ĠCent er",
      "Ġcommun ity",
      "it or",
      "Ġ196 1",
      "ĠC or",
      "it z",
      "ac her",
      "l ess",
      "ell ing",
      "Ġs qu",
      "Ġepis ode",
      "ĠQue en",
      "Ġd one",
      "ĠEm peror",
      "ou ri",
      "ut es",
      "Ġ196 2",
      "ĠPr ince",
      "ĠR os",
      "t a",
      "am ent",
      "ĠAn n",
      "Ġ194 6",
      "ĠB ang",
      "Ġind ust",
      "et ic",
      "em s",
      "kn own",
      "s ylv",
      "ĠS k",
      "ĠC ount",
      "ĠC ivil",
      "ond iss",
      "ash i",
      "Ġtra in",
      "v ious",
      "ĠIn ter",
      "Ġcent er",
      "ĠSm ith",
      "l ike",
      "Ġw oman",
      "ur der",
      "ĠP an",
      "ĠIn stit",
      "Ġsp ace",
      "Ġab ove",
      "us ed",
      "ĠIr ish",
      "\" )",
      "Ġt re",
      "j an",
      "ĠC ourt",
      "ĠCol umb",
      "am s",
      "ĠM at",
      "s ong",
      "Ġm ot",
      "Ġl ow",
      "ĠJ ust",
      "amp ion",
      "ap s",
      "ĠIs lam",
      "for man",
      "ĠS illa",
      "Ġmod el",
      "ĠL in",
      "m ar",
      "Ġin str",
      "ĠO bs",
      "Ġmat hemat",
      "Ġpos ition",
      "r ie",
      "Ġwrit ers",
      "ĠMunicipal ities",
      "ach us",
      "it iz",
      "Ġ194 2",
      "Ġco ast",
      "ĠGovern ment",
      "sylv ania",
      "ĠII I",
      "ĠFI FA",
      "g round",
      "o or",
      "ap t",
      "Ġtra ck",
      "Ġ194 9",
      "Ġphil os",
      "s ur",
      "ak a",
      "Ġc op",
      "Ġn ever",
      "Ġwork ing",
      "Ġ195 7",
      "Ġ19 20",
      "az z",
      "ĠC ongress",
      "b and",
      "Ġth ough",
      "ĠB ern",
      "199 8",
      "ent ly",
      "ĠE OS",
      "Ġnor thern",
      "Ġ194 1",
      "Ġinc re",
      "Ġt ro",
      "Ġt reat",
      "at ely",
      "Ġcount ies",
      "ĠMart in",
      "Ġc irc",
      "Ġ194 4",
      "Ġis s",
      "rit ory",
      "el t",
      "Ġwinn ers",
      "ĠSe a",
      "achus etts",
      "Ġ193 6",
      "ĠPar liament",
      "Ġmus ical",
      "ĠJ im",
      "Ġ195 1",
      "5 2",
      "Ġob ject",
      "ĠM a",
      "pl ay",
      "Ġint rod",
      "Ġ et",
      "ĠTe levision",
      "ĠW W",
      "ef f",
      "Ġk eep",
      "Ġal most",
      "Ġf ar",
      "d s",
      "v ers",
      "b ack",
      "ĠScot land",
      "ĠF red",
      "Ġb r",
      "Ġ193 9",
      "ĠMass achusetts",
      "Ġch art",
      "Ġ ill",
      "ĠThe ir",
      "Ġoff ic",
      "Ġpl ants",
      "w h",
      "ver age",
      "et te",
      "Ġf ull",
      "re ad",
      "ĠC ons",
      "Ġtyp es",
      "Ġh or",
      "Ġsing ers",
      "Ġserv ice",
      "Ġ193 4",
      "Ġhig hest",
      "w a",
      "Ġf a",
      "ĠL and",
      "Ġ8 8",
      "ĠEd ward",
      "Ġn ames",
      "ish op",
      "ĠHal eak",
      "ĠW ales",
      "ĠDis ney",
      "Ġmus icians",
      "H L",
      "ĠJos eph",
      "ĠSt an",
      "Ġ195 8",
      "ot o",
      "ĠSett lements",
      "Ġp res",
      "Ġth r",
      "Ġc ast",
      "ĠBec ause",
      "ĠB ob",
      "ĠS at",
      "p ec",
      "ĠH ot",
      "ell a",
      "ater ial",
      "Ġact ion",
      "Ġde v",
      "Ġc and",
      "ĠS il",
      "Ġret ired",
      "Ġend ed",
      "ĠPenn sylvania",
      "c ul",
      "ĠHaleak ala",
      "Ġh it",
      "ĠKore an",
      "n ow",
      "Ġwinn ing",
      "p her",
      "Ġb asketball",
      "Ġcom b",
      "Ġ193 8",
      "Ġle ast",
      "id er",
      "b a",
      "p e",
      "ze ch",
      "ĠE U",
      "A R",
      "ran ch",
      "Ġk ey",
      "ĠT ok",
      "Ġsuccess ful",
      "olog ist",
      "ĠFor mer",
      "ĠW rest",
      "Ġ195 2",
      "Ġin f",
      "199 7",
      "Ġopen ed",
      "ĠU s",
      "Ġen ergy",
      "Ġ( \"",
      "Ġ195 4",
      "istric ts",
      "m ark",
      "Ġc he",
      "Ġw in",
      "ĠCar l",
      "Ġar my",
      "ress ion",
      "Ġt en",
      "est ival",
      "ow a",
      "ĠJ o",
      "Ġpr im",
      "Ġ192 9",
      "Ġapp ro",
      "u it",
      "Ġ195 9",
      "Ġmet al",
      "ĠKore a",
      "ĠB ir",
      "ĠNot es",
      "ĠS om",
      "Ġcon stit",
      "Ġpol ice",
      "ĠSen ate",
      "Ġ rom",
      "Ġra il",
      "Ġm id",
      "Ġ193 3",
      "a ign",
      "Ġhim self",
      "ĠR ail",
      "ĠMiss ouri",
      "b our",
      "Ġmean ing",
      "ĠJack son",
      "or es",
      "Ġfail ure",
      "Ġm inist",
      "Ġtem per",
      "ĠB ig",
      "T V",
      "ul f",
      "ĠS ar",
      "or f",
      "Ġcomp let",
      "ĠAs ian",
      "Ġjournal ist",
      "n es",
      "o ch",
      "le g",
      "Ġ194 3",
      "ĠLat in",
      "ĠT im",
      "Ġfor ces",
      "Ġcult ure",
      "ov a",
      "ĠC zech",
      "Ġg ive",
      "ĠD isc",
      "ĠPhil ipp",
      "ĠEn ter",
      "ĠO b",
      "Ġl ik",
      "ĠF C",
      "Ġtrans l",
      "ĠMex ican",
      "ir es",
      "Ġpl ant",
      "Ġ195 5",
      "Ġmov e",
      "Ġre qu",
      "ow ers",
      "Ġvar ious",
      "Ġlaw y",
      "ar io",
      "ĠL ater",
      "ecut ive",
      "Ġ i",
      "ian o",
      "ĠIs lands",
      "y e",
      "ĠG al",
      "v iron",
      "g ar",
      "iv ely",
      "Ġt est",
      "Ġc ause",
      "ĠV er",
      "Ġ8 0",
      "yn ast",
      "Ġle t",
      "Ġ193 5",
      "Ġmanag er",
      "Ġ192 8",
      "ir a",
      "Ġg irl",
      "ĠH ockey",
      "Ġ193 1",
      "Ġsy mb",
      "Ġn etwork",
      "ĠCatal ina",
      "Ġj ob",
      "it te",
      "ĠS ir",
      "Ġgro und",
      "ĠE s",
      "Ġa verage",
      "Ġl iter",
      "it ive",
      "Ġac ross",
      "Ġbuild ings",
      "ĠAcc ording",
      "Ġrecord ed",
      "Ġl im",
      "ĠTw o",
      "Ġt ry",
      "20 10",
      "Ġb ad",
      "ĠBro wn",
      "Ġin stead",
      "ĠO ver",
      "Ġperform ed",
      "Ġ193 7",
      "ĠU r",
      "Ġcon c",
      "Ġst orm",
      "L S",
      "Ġt akes",
      "ĠT ime",
      "ĠJ ean",
      "ĠU E",
      "ĠEd uc",
      "Ġarr ondiss",
      "Ġ6 0",
      "Ġprod uct",
      "Ġcent ral",
      "ĠM P",
      "h ar",
      "eth ing",
      "ĠP ac",
      "Ġcurrent ly",
      "ĠH aw",
      "Ġprot ect",
      "i os",
      "Ġtra vel",
      "ĠF ox",
      "g g",
      "as c",
      "Ġex ist",
      "Ġmain ly",
      "ĠO ld",
      "199 6",
      "Ġb ar",
      "ab ly",
      "ĠF ar",
      "Ġme as",
      "Ġm aterial",
      "f ace",
      "p ed",
      "Ġcl aim",
      "ĠC SS",
      "Ġtown s",
      "and a",
      "ec k",
      "ĠU nd",
      "ste in",
      "ĠC am",
      "ĠM o",
      "ĠK e",
      "Ġro les",
      "eth od",
      "ĠSec ond",
      "Ġcr ime",
      "Ġdest roy",
      "l anguage",
      "Ġun ivers",
      "ĠM inn",
      "ĠL uc",
      "Ġam ount",
      "Ġ195 3",
      "Ġp ark",
      "ĠT od",
      "Ġhe alth",
      "Ġ193 2",
      "j a",
      "Ġs ug",
      "199 5",
      "Ġw ind",
      "Ġmov ement",
      "Ġrel ations",
      "ab eth",
      "Ġe ither",
      "Ġpro per",
      "az ine",
      "ades h",
      "Ġse ats",
      "Ġ18 0",
      "Ġc ertain",
      "Ġn orm",
      "st ron",
      "Ġrec ogn",
      "Ġw he",
      "O R",
      "Ġbl ood",
      "ĠSc ient",
      "t ime",
      "Ġmon ths",
      "Ġe at",
      "rem e",
      "ĠA p",
      "ĠW ood",
      "Ġch urch",
      "Ġv iew",
      "k o",
      "Ġhelp ed",
      "Ġse ven",
      "Ġm ight",
      "our ce",
      "Ġwest ern",
      "iv id",
      "Ġcl ose",
      "Ġ192 6",
      "Ġb all",
      "pec ially",
      "Ġc reat",
      "Ġchem ical",
      "Ġstruct ures",
      "Ġarch itect",
      "y ear",
      "ĠI owa",
      "Ġal ways",
      "isc o",
      "ĠSt ep",
      "Ġs it",
      "Ġv ict",
      "Ġbroad cast",
      "Un ited",
      "ĠD ire",
      "ĠSp ring",
      "air s",
      "Ġc ase",
      "Ġc at",
      "8 9",
      "N A",
      "i h",
      "ang er",
      "end ing",
      "Ġwrit ing",
      "ent ion",
      "ĠSt reet",
      "Ġre ached",
      "ĠSecret ary",
      "Ġp ast",
      "ĠCl ass",
      "el d",
      "Ġ ident",
      "ad ium",
      "Ġon ce",
      "w an",
      "Ġg e",
      "Ġ192 7",
      "Ġcomp anies",
      "Ġto day",
      "Ġprod uction",
      "Ġ( ,",
      "Ġcand id",
      "ur ther",
      "Ġde g",
      "7 5",
      "Ġe ight",
      "ĠNob el",
      "al i",
      "ĠJ ud",
      "end s",
      "ĠH ill",
      "oin ts",
      "ĠBu ild",
      "Ġfour th",
      "ak i",
      "ĠAn ton",
      "ĠSoc ial",
      "Ġm urder",
      "ĠPol and",
      "ĠS ub",
      "ĠB ad",
      "Ġnum bers",
      "ĠMich igan",
      "Ġsh own",
      "Ġanim ated",
      "Ġcompet ed",
      "viron ment",
      "Ġrepl aced",
      "um ents",
      "Ġp e",
      "st ant",
      "Ġt ree",
      "ĠOr der",
      "Ġc anton",
      "Ġpain ter",
      "uck y",
      "Ġin h",
      "Ġp ress",
      "i as",
      "emb ly",
      "ĠO ut",
      "ĠB efore",
      "Ġpro p",
      "Ġmon th",
      "ĠA re",
      "Ġide a",
      "ĠSp orts",
      "ĠH ind",
      "us e",
      "Ġgo al",
      "Ġt alk",
      "Ġcap t",
      "ibr ary",
      "Ġc ard",
      "Ġdevelop ment",
      "if t",
      "ĠIn t",
      "Ġsign ed",
      "Ġre v",
      "ĠUn ivers",
      "ĠL u",
      "Ġ7 0",
      "ĠC areer",
      "Ġin vent",
      "Ġso ft",
      "rem ier",
      "Ġchang es",
      "Ġc itiz",
      "c el",
      "Ġh ot",
      "Ġcom ed",
      "ĠGold en",
      "Ġprogram s",
      "Ġc ourt",
      "ut y",
      "Ġc ross",
      "ĠK enn",
      "iet n",
      "um e",
      "ed s",
      "ĠW al",
      "7 2",
      "ĠBrit ain",
      "ĠS erv",
      "o is",
      "ent h",
      "ĠD ar",
      "Ġre act",
      "ĠSer ies",
      "ĠSoc iety",
      "Ġdec ided",
      "ynast y",
      "ĠAl b",
      "at re",
      "Ġde ad",
      "Ġun iversity",
      "Ġstud ents",
      "ĠT enn",
      "ĠInstit ute",
      "ĠAn im",
      "ĠMc C",
      "Ġprom ot",
      "Ġin j",
      "ĠY oung",
      "id ge",
      "Ġan cient",
      "Ġp ract",
      "Ġo x",
      "Ġd er",
      "tern et",
      "Ġn ight",
      "Ġrele ase",
      "ĠTe am",
      "ĠM iddle",
      "ĠB av",
      "Ġpro ject",
      "Ġ192 5",
      "I n",
      "ĠS and",
      "id ence",
      "ĠOr gan",
      "Ġreturn ed",
      "Ġ !",
      "Ġar rest",
      "ĠR ome",
      "ok e",
      "oc i",
      "ĠAtl antic",
      "s en",
      "Ġp ay",
      "Ġl ittle",
      "ĠL y",
      "or a",
      "Ġes pecially",
      "em p",
      "Ġgo es",
      "Ġb oy",
      "ĠB usiness",
      "es ota",
      "ogra pher",
      "Ġpre vious",
      "Ġadd ed",
      "Ġin side",
      "Ġ9 0",
      "Ġout side",
      "ur d",
      "Ġj ud",
      "ed ia",
      "om er",
      "ip l",
      "Ġear l",
      "Ġgr adu",
      "ĠThe n",
      "at i",
      "ĠF e",
      "ĠRepresent atives",
      "in ces",
      "Ġf iction",
      "Ġb attle",
      "ĠMus lim",
      "ĠL ittle",
      "Ġindepend ent",
      "Ġf ig",
      "ĠB ab",
      "st ra",
      "ĠG ood",
      "ĠAb out",
      "ĠM ax",
      "ĠV ietn",
      "anc he",
      "ask a",
      "ul ation",
      "ĠW ork",
      "ĠMinn esota",
      "ĠP ress",
      "ate g",
      "199 4",
      "Ġper forman",
      "Ġallow ed",
      "ĠDep artment",
      "Ġbas eball",
      "8 6",
      "Ġs en",
      "Ġdr ug",
      "Ġf all",
      "Ġf re",
      "Ġmunicipal ities",
      "ĠE ver",
      "Ġart ists",
      "Ġlead ers",
      "ĠE p",
      "ĠS a",
      "ĠM ah",
      "Ġh om",
      "Ġb ox",
      "ĠG h",
      "Ġsom ething",
      "Ġen ough",
      "Ġf if",
      "m ond",
      "Ġla un",
      "eng th",
      "Ġnomin ated",
      "Ġcan not",
      "r ich",
      "Ġmount ain",
      "Ġsouth west",
      "Ġra p",
      "al so",
      "ĠP ers",
      "un s",
      "Ġme et",
      "Ġf ront",
      "Ġinter est",
      "Ġrel ated",
      "Ġfor ce",
      "l ah",
      "ĠT our",
      "ĠAr men",
      "ĠComp any",
      "p eople",
      "ĠWrest ling",
      "ĠFranc isco",
      "Ġres earch",
      "ic ular",
      "ri z",
      "ad el",
      "Ġposs ible",
      "Ġb oard",
      "8 5",
      "ost on",
      "Ġthe ory",
      "is ing",
      "ound s",
      "w in",
      "Ġsystem s",
      "ĠW ay",
      "Ġse qu",
      "ĠJ ac",
      "ĠB ul",
      "Ġc ele",
      "ĠR on",
      "ĠF er",
      "ĠD uke",
      "h in",
      "Ġa th",
      "ĠColumb ia",
      "ĠP ictures",
      "ĠG ram",
      "Ġpar ents",
      "Ġband s",
      "Ġair craft",
      "ĠN az",
      "ĠEnter tain",
      "Ġfriend s",
      "itte e",
      "Ġ192 4",
      "Ġactiv ist",
      "ĠLouis iana",
      "it ing",
      "Ġgo ing",
      "ĠV an",
      "est ab",
      "iz ations",
      "ĠAlex ander",
      "ag ed",
      "Ġc oll",
      "ĠF orm",
      "Ġv ir",
      "iv ate",
      "C A",
      "Ġorigin ally",
      "Ġst ay",
      "Ġear th",
      "ĠT re",
      "rat ive",
      "ĠE lect",
      "in son",
      "c an",
      "Ġra c",
      "Ġwee k",
      "ĠP LS",
      "ĠAir port",
      "Ġ19 22",
      "ad d",
      "hes s",
      "ay er",
      "ĠLe on",
      "Ġm em",
      "ĠSp ec",
      "Ġt ropical",
      "p ly",
      "199 3",
      "ĠWind ows",
      "ay a",
      "Ġlong er",
      "ĠFootball ers",
      "il ly",
      "ar g",
      "ĠA D",
      "Ġres ults",
      "ĠBi ography",
      "in cess",
      "is ions",
      "j i",
      "ien ces",
      "Ġbre ak",
      "ut s",
      "7 4",
      "Ġd ig",
      "am i",
      "Ġnorth west",
      "r as",
      "ing er",
      "ĠF ame",
      "Ġse asons",
      "ĠE astern",
      "ens ive",
      "ĠCh ief",
      "Ġgr and",
      "im b",
      "lah oma",
      "Ġsh oot",
      "m in",
      "Ġr en",
      "GB T",
      "Ġcamp aign",
      "ĠI d",
      "ĠFam ily",
      "7 9",
      "us es",
      "Ġre view",
      "ail able",
      "ĠH istor",
      "y an",
      "z o",
      "ĠCh ild",
      "Ġp ur",
      "ĠP erson",
      "h ood",
      "ĠN ight",
      "if y",
      "Ġl ove",
      "Ġfin ished",
      "ĠOk lahoma",
      "v a",
      "Ġc rick",
      "ĠM u",
      "ĠSh ow",
      "ĠJ eff",
      "Ġc ell",
      "Ġs ize",
      "Ġ192 3",
      "il a",
      "um m",
      "Ġold est",
      "or ial",
      "Ġm ale",
      "olit an",
      "ĠT am",
      "ĠC ub",
      "Ġdiv ided",
      "ĠM ajor",
      "0 5",
      "c est",
      "Ġepis odes",
      "ĠD et",
      "id ae",
      "ro wn",
      "/ /",
      "w ar",
      "or g",
      "ra ine",
      "Ġ19 00",
      "ĠB oston",
      "ĠL ong",
      "7 6",
      "Ġm iss",
      "ou d",
      "ĠChar l",
      "Ġhow ever",
      "ĠAr k",
      "Ġd oc",
      "ĠA k",
      "val ue",
      "s ort",
      "ĠCh ile",
      "p resent",
      "ĠWar s",
      "ĠM em",
      "Ġh ospital",
      "Ġle ague",
      "Ġpro b",
      "ĠN ord",
      "l av",
      "ĠPac ific",
      "ut t",
      "Ġmed ia",
      "Ġm ach",
      "ĠEl iz",
      "ĠTok yo",
      "ra ck",
      "ĠM att",
      "ĠWh ile",
      "Ġb o",
      "Ġe astern",
      "Ġcon v",
      "Ġgo als",
      "ĠL GBT",
      "Ġ er",
      ": //",
      "Ġcy cl",
      "ĠWW E",
      "Ġelect ric",
      "Ġw id",
      "ĠP ope",
      "el le",
      "Ġperson al",
      "Ġch ampionship",
      "Ġnew sp",
      "enc ed",
      "ĠO cean",
      "ĠB al",
      "Ġqu ick",
      "l ers",
      "ĠNew s",
      "ain ing",
      "ac hes",
      "um i",
      "Ġcontin ued",
      "Ġeduc ation",
      "ĠR ay",
      "ĠBer lin",
      "Ġl o",
      "Ġc ases",
      "Ġp sych",
      "ĠMar ia",
      "ĠL i",
      "ĠJohn son",
      "Ġm ethod",
      "Ġsup er",
      "ĠG ame",
      ". )",
      "el a",
      "Ġac adem",
      "ĠN ick",
      "Ġst ations",
      "Ġf ac",
      "ĠC a",
      "Ġ ;",
      "Ġs uff",
      "ĠSt e",
      "Ġsmall er",
      "Ġlaw s",
      "0 6",
      "ĠRo ad",
      "Ġbelie ved",
      "it o",
      "writ ers",
      "ur ity",
      "Ġform s",
      "ĠP as",
      "Ġaward ed",
      "ic ult",
      "Ġlawy er",
      "th ur",
      "w ith",
      "ĠT a",
      "ut ure",
      "Ġacc ident",
      "Ġfeat ures",
      "ch an",
      "Ġdisc overed",
      "Ġb order",
      "Ġcrit ic",
      "ĠJ un",
      "ĠI v",
      "Ġserv ices",
      "ĠN ations",
      "ĠG irl",
      "Ġcl os",
      "g u",
      "ri age",
      "Ġro ad",
      "Ġn uc",
      "ĠD ef",
      "ĠP o",
      "Ġd og",
      "ĠC op",
      "Ġl ower",
      "ĠBel gian",
      "r ay",
      "Ġav ailable",
      "in et",
      "em ic",
      "ĠS qu",
      "20 11",
      "ĠC amb",
      "ĠN a",
      "ĠJ oe",
      "ĠDan iel",
      "ĠS outhern",
      "ĠReg ion",
      "Ġran ge",
      "Ġh app",
      "ot al",
      "ĠE nd",
      "Ġcaus es",
      "ĠAl bert",
      "ĠSt at",
      "il i"
    ]
  }
}