{
  "version": "1.0",
  "truncation": null,
  "padding": null,
  "added_tokens": [
    {
      "id": 0,
      "content": "[PAD]",
      "single_word": false,
      "lstrip": false,
      "rstrip": false,
      "normalized": false,
      "special": true
    },
    {
      "id": 1,
      "content": "[EOT]",
      "single_word": false,
      "lstrip": false,
      "rstrip": false,
      "normalized": false,
      "special": true
    },
    {
      "id": 2,
      "content": "[UNK]",
      "single_word": false,
      "lstrip": false,
      "rstrip": false,
      "normalized": false,
      "special": true
    }
  ],
  "normalizer": {
    "type": "Sequence",
    "normalizers": [
      {
        "type": "NFD"
      },
      {
        "type": "StripAccents"
      },
      {
        "type": "Replace",
        "pattern": {
          "String": "[^a-zA-Z0-9\\s!\"\\#\\$%\\&'\\(\\)\\*\\+,\\-\\./:;<=>\\?@\\[\\\\\\]\\^_`\\{\\|\\}\\~]"
        },
        "content": ""
      }
    ]
  },
  "pre_tokenizer": {
    "type": "Sequence",
    "pretokenizers": [
      {
        "type": "WhitespaceSplit"
      },
      {
        "type": "Split",
        "pattern": {
          "String": "\\d"
        },
        "behavior": "Isolated",
        "invert": false
      }
    ]
  },
  "post_processor": null,
  "decoder": null,
  "model": {
    "type": "BPE",
    "dropout": 0.1,
    "unk_token": "[UNK]",
    "continuing_subword_prefix": null,
    "end_of_word_suffix": null,
    "fuse_unk": false,
    "byte_fallback": false,
    "ignore_merges": false,
    "vocab": {
      "[PAD]": 0,
      "[EOT]": 1,
      "[UNK]": 2,
      "\t": 3,
      "\n": 4,
      " ": 5,
      "!": 6,
      "\"": 7,
      "#": 8,
      "$": 9,
      "%": 10,
      "&": 11,
      "'": 12,
      "(": 13,
      ")": 14,
      "*": 15,
      "+": 16,
      ",": 17,
      "-": 18,
      ".": 19,
      "/": 20,
      "0": 21,
      "1": 22,
      "2": 23,
      "3": 24,
      "4": 25,
      "5": 26,
      "6": 27,
      "7": 28,
      "8": 29,
      "9": 30,
      ":": 31,
      ";": 32,
      "<": 33,
      "=": 34,
      ">": 35,
      "?": 36,
      "@": 37,
      "A": 38,
      "B": 39,
      "C": 40,
      "D": 41,
      "E": 42,
      "F": 43,
      "G": 44,
      "H": 45,
      "I": 46,
      "J": 47,
      "K": 48,
      "L": 49,
      "M": 50,
      "N": 51,
      "O": 52,
      "P": 53,
      "Q": 54,
      "R": 55,
      "S": 56,
      "T": 57,
      "U": 58,
      "V": 59,
      "W": 60,
      "X": 61,
      "Y": 62,
      "Z": 63,
      "[": 64,
      "\\": 65,
      "]": 66,
      "^": 67,
      "_": 68,
      "`": 69,
      "a": 70,
      "b": 71,
      "c": 72,
      "d": 73,
      "e": 74,
      "f": 75,
      "g": 76,
      "h": 77,
      "i": 78,
      "j": 79,
      "k": 80,
      "l": 81,
      "m": 82,
      "n": 83,
      "o": 84,
      "p": 85,
      "q": 86,
      "r": 87,
      "s": 88,
      "t": 89,
      "u": 90,
      "v": 91,
      "w": 92,
      "x": 93,
      "y": 94,
      "z": 95,
      "{": 96,
      "|": 97,
      "}": 98,
      "~": 99,
      "th": 100,
      "in": 101,
      "er": 102,
      "an": 103,
      "on": 104,
      "the": 105,
      "or": 106,
      "en": 107,
      "ed": 108,
      "es": 109,
      "at": 110,
      "al": 111,
      "ar": 112,
      "is": 113,
      "as": 114,
      "of": 115,
      "and": 116,
      "ic": 117,
      "it": 118,
      "ing": 119,
      "re": 120,
      "to": 121,
      "ion": 122,
      "ou": 123,
      "le": 124,
      "om": 125,
      "st": 126,
      "he": 127,
      "il": 128,
      "ent": 129,
      "ch": 130,
      "am": 131,
      "ol": 132,
      "el": 133,
      "ad": 134,
      "ur": 135,
      "ac": 136,
      "19": 137,
      "for": 138,
      "ro": 139,
      "se": 140,
      "ter": 141,
      "iv": 142,
      "20": 143,
      "ir": 144,
      "was": 145,
      "ation": 146,
      "The": 147,
      "ig": 148,
      "ers": 149,
      "id": 150,
      "un": 151,
      "ay": 152,
      "ly": 153,
      "im": 154,
      "em": 155,
      "be": 156,
      "ct": 157,
      "ag": 158,
      "ow": 159,
      "us": 160,
      "ist": 161,
      "ith": 162,
      "ot": 163,
      "op": 164,
      "et": 165,
      "wh": 166,
      "by": 167,
      "ce": 168,
      "ul": 169,
      "de": 170,
      "with": 171,
      "con": 172,
      "fr": 173,
      "ap": 174,
      "est": 175,
      "um": 176,
      "In": 177,
      "ov": 178,
      "pl": 179,
      "ut": 180,
      "oun": 181,
      "'s": 182,
      "ab": 183,
      "all": 184,
      "tr": 185,
      "com": 186,
      "pr": 187,
      "ain": 188,
      "av": 189,
      "ian": 190,
      "oc": 191,
      "ere": 192,
      "from": 193,
      "art": 194,
      "s,": 195,
      "ies": 196,
      "os": 197,
      "ia": 198,
      "pe": 199,
      "ish": 200,
      "te": 201,
      "ber": 202,
      "that": 203,
      "ity": 204,
      "his": 205,
      "pro": 206,
      "ess": 207,
      "are": 208,
      "ne": 209,
      "ate": 210,
      "ill": 211,
      "sh": 212,
      "cl": 213,
      "s.": 214,
      "if": 215,
      "Re": 216,
      "od": 217,
      "ard": 218,
      "ip": 219,
      "igh": 220,
      "Ch": 221,
      "gr": 222,
      "ak": 223,
      "su": 224,
      "ther": 225,
      "201": 226,
      "200": 227,
      "ex": 228,
      "ich": 229,
      "als": 230,
      "St": 231,
      "ud": 232,
      "man": 233,
      "ary": 234,
      "ated": 235,
      "ort": 236,
      "our": 237,
      "qu": 238,
      "ie": 239,
      "ear": 240,
      "ment": 241,
      "mer": 242,
      "ant": 243,
      "fer": 244,
      "e,": 245,
      "18": 246,
      "ld": 247,
      "end": 248,
      "ial": 249,
      "per": 250,
      "ive": 251,
      "ong": 252,
      "ces": 253,
      "ge": 254,
      "ell": 255,
      "ub": 256,
      "ver": 257,
      "He": 258,
      "ass": 259,
      "Un": 260,
      "str": 261,
      "ast": 262,
      "ound": 263,
      "ack": 264,
      "gh": 265,
      "af": 266,
      "||": 267,
      "ame": 268,
      "ine": 269,
      "were": 270,
      "act": 271,
      "du": 272,
      "res": 273,
      "ord": 274,
      "ib": 275,
      "over": 276,
      "out": 277,
      "one": 278,
      "play": 279,
      "ical": 280,
      "),": 281,
      "ight": 282,
      "tern": 283,
      "ign": 284,
      "tw": 285,
      "also": 286,
      "which": 287,
      "ost": 288,
      "aw": 289,
      "ork": 290,
      "age": 291,
      "ction": 292,
      "ach": 293,
      "comp": 294,
      "up": 295,
      "rit": 296,
      "ew": 297,
      "port": 298,
      "land": 299,
      "og": 300,
      "ser": 301,
      "199": 302,
      "Se": 303,
      "ran": 304,
      "Ar": 305,
      "own": 306,
      "iz": 307,
      "ok": 308,
      "It": 309,
      "y,": 310,
      "au": 311,
      "ican": 312,
      "fir": 313,
      "ire": 314,
      "Al": 315,
      "feren": 316,
      "part": 317,
      "its": 318,
      "ure": 319,
      "ition": 320,
      "der": 321,
      "ember": 322,
      "00": 323,
      "had": 324,
      "An": 325,
      "her": 326,
      "cent": 327,
      "ous": 328,
      "has": 329,
      "bo": 330,
      "not": 331,
      "cr": 332,
      "ough": 333,
      "ational": 334,
      "ue": 335,
      "dr": 336,
      "ore": 337,
      "pt": 338,
      "ict": 339,
      "br": 340,
      "lin": 341,
      "first": 342,
      "ang": 343,
      "ke": 344,
      "ult": 345,
      "De": 346,
      "ide": 347,
      "Th": 348,
      "ave": 349,
      "Amer": 350,
      "ferences": 351,
      "ice": 352,
      "fe": 353,
      "Mar": 354,
      "a,": 355,
      "lish": 356,
      "who": 357,
      "but": 358,
      "ater": 359,
      "ory": 360,
      "int": 361,
      "ied": 362,
      "References": 363,
      "ph": 364,
      "form": 365,
      "198": 366,
      "arr": 367,
      "Le": 368,
      "ks": 369,
      "amp": 370,
      "es,": 371,
      "ilm": 372,
      "ath": 373,
      "ree": 374,
      "io": 375,
      "att": 376,
      "oll": 377,
      "year": 378,
      "ople": 379,
      "other": 380,
      "ra": 381,
      "their": 382,
      "ball": 383,
      "ited": 384,
      "ens": 385,
      "ust": 386,
      "ount": 387,
      "ans": 388,
      "old": 389,
      "work": 390,
      "ite": 391,
      "American": 392,
      "ome": 393,
      "co": 394,
      "es.": 395,
      "ob": 396,
      "ace": 397,
      "New": 398,
      "cho": 399,
      "sp": 400,
      "orn": 401,
      "sc": 402,
      "Com": 403,
      ").": 404,
      "ivers": 405,
      "En": 406,
      "ug": 407,
      "tim": 408,
      "ence": 409,
      "197": 410,
      "we": 411,
      "ations": 412,
      "ind": 413,
      "Ex": 414,
      "ile": 415,
      "me": 416,
      "incl": 417,
      "off": 418,
      "des": 419,
      "serv": 420,
      "comm": 421,
      "ev": 422,
      "ould": 423,
      "istr": 424,
      "dis": 425,
      "ally": 426,
      "po": 427,
      "ele": 428,
      "uring": 429,
      "col": 430,
      "two": 431,
      "As": 432,
      "Pr": 433,
      "ates": 434,
      "ann": 435,
      "y.": 436,
      "spe": 437,
      "air": 438,
      "son": 439,
      "cre": 440,
      "ade": 441,
      "able": 442,
      "ail": 443,
      "cord": 444,
      "iss": 445,
      "ased": 446,
      "have": 447,
      "oot": 448,
      "chool": 449,
      "pres": 450,
      "Con": 451,
      "ced": 452,
      "this": 453,
      "ship": 454,
      "film": 455,
      "196": 456,
      "urn": 457,
      "Jo": 458,
      "pos": 459,
      "loc": 460,
      "pub": 461,
      "min": 462,
      "ark": 463,
      "17": 464,
      "after": 465,
      "fin": 466,
      "fl": 467,
      "ason": 468,
      "ood": 469,
      "been": 470,
      "ision": 471,
      "Sh": 472,
      "er,": 473,
      "ick": 474,
      "outh": 475,
      "reg": 476,
      "li": 477,
      "cted": 478,
      "ton": 479,
      "ents": 480,
      "uil": 481,
      "On": 482,
      "uc": 483,
      "ah": 484,
      "10": 485,
      "ors": 486,
      "way": 487,
      "ve": 488,
      "pre": 489,
      "she": 490,
      "Fr": 491,
      "gan": 492,
      "people": 493,
      "cont": 494,
      "iversity": 495,
      "Ro": 496,
      "vel": 497,
      "Br": 498,
      "les": 499,
      "gen": 500,
      "a.": 501,
      "mon": 502,
      "new": 503,
      "pol": 504,
      "orld": 505,
      "1,": 506,
      "ance": 507,
      "sy": 508,
      "includ": 509,
      "ase": 510,
      "194": 511,
      "can": 512,
      "ward": 513,
      "cond": 514,
      "med": 515,
      "United": 516,
      "Col": 517,
      "any": 518,
      "ely": 519,
      "bec": 520,
      "into": 521,
      "ootball": 522,
      "195": 523,
      "they": 524,
      "16": 525,
      "Gr": 526,
      "uary": 527,
      "kn": 528,
      "eng": 529,
      "orth": 530,
      "ix": 531,
      "15": 532,
      "ale": 533,
      "University": 534,
      "ings": 535,
      "ics": 536,
      "under": 537,
      "let": 538,
      "lic": 539,
      "Tr": 540,
      "az": 541,
      "ret": 542,
      "inn": 543,
      "ternal": 544,
      "inter": 545,
      "cess": 546,
      "iel": 547,
      "ten": 548,
      "produ": 549,
      "olog": 550,
      "used": 551,
      "buil": 552,
      "set": 553,
      "ions": 554,
      "row": 555,
      "ever": 556,
      "ury": 557,
      "e.": 558,
      "Eng": 559,
      "team": 560,
      "oup": 561,
      "2,": 562,
      "main": 563,
      "amil": 564,
      "season": 565,
      "par": 566,
      "Cl": 567,
      "him": 568,
      "ik": 569,
      "ince": 570,
      "hy": 571,
      "ames": 572,
      "202": 573,
      "ists": 574,
      "ident": 575,
      "born": 576,
      "ake": 577,
      "rel": 578,
      "links": 579,
      "players": 580,
      "ious": 581,
      "oci": 582,
      "Pro": 583,
      "day": 584,
      "cer": 585,
      "Pe": 586,
      "External": 587,
      "most": 588,
      "Wh": 589,
      "cur": 590,
      "een": 591,
      "grap": 592,
      "ty": 593,
      "where": 594,
      "ouse": 595,
      "Ind": 596,
      "aj": 597,
      "For": 598,
      "Sc": 599,
      "ff": 600,
      "She": 601,
      "193": 602,
      "more": 603,
      "ities": 604,
      "ollow": 605,
      "ese": 606,
      "would": 607,
      "prov": 608,
      "Au": 609,
      "ep": 610,
      "writ": 611,
      "only": 612,
      "ters": 613,
      "when": 614,
      "thr": 615,
      "sing": 616,
      "usic": 617,
      "eral": 618,
      "ative": 619,
      "hn": 620,
      "3,": 621,
      "found": 622,
      "again": 623,
      "sub": 624,
      "use": 625,
      "12": 626,
      "overn": 627,
      "ating": 628,
      "mov": 629,
      "during": 630,
      "ts": 631,
      "bum": 632,
      "ual": 633,
      "This": 634,
      "ond": 635,
      "cons": 636,
      "iving": 637,
      "4,": 638,
      "spec": 639,
      "then": 640,
      "lished": 641,
      "stud": 642,
      "rele": 643,
      "ement": 644,
      "Pl": 645,
      "bir": 646,
      "ular": 647,
      "oy": 648,
      "time": 649,
      "led": 650,
      "ash": 651,
      "present": 652,
      "arg": 653,
      "football": 654,
      "je": 655,
      "ier": 656,
      "back": 657,
      "Be": 658,
      "en's": 659,
      "Is": 660,
      "known": 661,
      "ry": 662,
      "ed.": 663,
      "1.": 664,
      "ctor": 665,
      "fore": 666,
      "tween": 667,
      "between": 668,
      "ins": 669,
      "ific": 670,
      "ing,": 671,
      "Fran": 672,
      "about": 673,
      "John": 674,
      "them": 675,
      "high": 676,
      "National": 677,
      "Or": 678,
      "istrict": 679,
      "\".": 680,
      "unt": 681,
      "do": 682,
      "ife": 683,
      "three": 684,
      "later": 685,
      "leg": 686,
      "Ger": 687,
      "World": 688,
      "so": 689,
      "ague": 690,
      "no": 691,
      "lo": 692,
      "ck": 693,
      "erson": 694,
      "made": 695,
      "well": 696,
      "through": 697,
      "Sp": 698,
      "ths": 699,
      "album": 700,
      "ional": 701,
      "May": 702,
      "Count": 703,
      "nam": 704,
      "second": 705,
      "ful": 706,
      "follow": 707,
      "enn": 708,
      "estab": 709,
      "emb": 710,
      "num": 711,
      "pop": 712,
      "Can": 713,
      "5,": 714,
      "famil": 715,
      "iver": 716,
      "go": 717,
      "ield": 718,
      "Brit": 719,
      "dire": 720,
      "some": 721,
      "Jan": 722,
      "14": 723,
      "Jun": 724,
      "At": 725,
      "Austr": 726,
      "Car": 727,
      "reat": 728,
      "there": 729,
      "13": 730,
      "istory": 731,
      "point": 732,
      "II": 733,
      "tow": 734,
      "my": 735,
      "than": 736,
      "trans": 737,
      "War": 738,
      "record": 739,
      "red": 740,
      "century": 741,
      "ived": 742,
      "inv": 743,
      "urch": 744,
      "i,": 745,
      "ior": 746,
      "oper": 747,
      "2.": 748,
      "contr": 749,
      "por": 750,
      "Af": 751,
      "Ph": 752,
      "such": 753,
      "8,": 754,
      "bl": 755,
      "Ge": 756,
      "ven": 757,
      "atch": 758,
      "school": 759,
      "call": 760,
      "cy": 761,
      "6,": 762,
      "many": 763,
      "Bl": 764,
      "uss": 765,
      "7,": 766,
      "iew": 767,
      "South": 768,
      "ax": 769,
      "cap": 770,
      "ros": 771,
      "\",": 772,
      "public": 773,
      "itt": 774,
      "became": 775,
      "coun": 776,
      "stru": 777,
      "192": 778,
      "lead": 779,
      "velop": 780,
      "ina": 781,
      "stit": 782,
      "Bo": 783,
      "Ju": 784,
      "four": 785,
      "song": 786,
      "Comm": 787,
      "Par": 788,
      "ampion": 789,
      "ower": 790,
      "Nov": 791,
      "ed,": 792,
      "0,": 793,
      "polit": 794,
      "School": 795,
      "sk": 796,
      "including": 797,
      "right": 798,
      "appe": 799,
      "sup": 800,
      "Ad": 801,
      "series": 802,
      "mp": 803,
      "being": 804,
      "ia,": 805,
      "ternational": 806,
      "ley": 807,
      "igin": 808,
      "tain": 809,
      "ural": 810,
      "States": 811,
      "Ac": 812,
      "group": 813,
      "ister": 814,
      "view": 815,
      "aid": 816,
      "0.": 817,
      "|-": 818,
      "hel": 819,
      "sur": 820,
      "ism": 821,
      "road": 822,
      "ai": 823,
      "York": 824,
      "Pol": 825,
      "inc": 826,
      "Co": 827,
      "stem": 828,
      "while": 829,
      "Aug": 830,
      "Oc": 831,
      "against": 832,
      "ution": 833,
      "add": 834,
      "After": 835,
      "death": 836,
      "Fe": 837,
      "er.": 838,
      "ject": 839,
      "town": 840,
      "offic": 841,
      "Austral": 842,
      "o,": 843,
      "ose": 844,
      "Man": 845,
      "gu": 846,
      "Sept": 847,
      "sign": 848,
      "August": 849,
      "overnment": 850,
      "years": 851,
      "March": 852,
      "plac": 853,
      "care": 854,
      "top": 855,
      "Dec": 856,
      "appear": 857,
      "ope": 858,
      "British": 859,
      "char": 860,
      "September": 861,
      "Ser": 862,
      "ont": 863,
      "3.": 864,
      "build": 865,
      "wom": 866,
      "und": 867,
      "rece": 868,
      "istor": 869,
      "S.": 870,
      "align": 871,
      "ank": 872,
      "anc": 873,
      "music": 874,
      "=\"": 875,
      "Cent": 876,
      "organ": 877,
      "tober": 878,
      "ures": 879,
      "October": 880,
      "9,": 881,
      "show": 882,
      "state": 883,
      "arch": 884,
      "feat": 885,
      "ask": 886,
      "head": 887,
      "ys": 888,
      "may": 889,
      "former": 890,
      "before": 891,
      "January": 892,
      "Chr": 893,
      "ern": 894,
      "ient": 895,
      "origin": 896,
      "ing.": 897,
      "mod": 898,
      "until": 899,
      "All": 900,
      "ation.": 901,
      "Eur": 902,
      "July": 903,
      "ft": 904,
      "ation,": 905,
      "though": 906,
      "atr": 907,
      "develop": 908,
      "Apr": 909,
      "played": 910,
      "on,": 911,
      "vision": 912,
      "iam": 913,
      "gram": 914,
      "band": 915,
      "ium": 916,
      "sm": 917,
      "le,": 918,
      "both": 919,
      "open": 920,
      "ather": 921,
      "ise": 922,
      "April": 923,
      "North": 924,
      "owever": 925,
      "ered": 926,
      "released": 927,
      "number": 928,
      "arm": 929,
      "vers": 930,
      "elf": 931,
      "Canad": 932,
      "line": 933,
      "ons": 934,
      "embers": 935,
      "births": 936,
      "book": 937,
      "run": 938,
      "var": 939,
      "class": 940,
      "ica": 941,
      "field": 942,
      "June": 943,
      "Am": 944,
      "design": 945,
      "November": 946,
      "won": 947,
      "English": 948,
      "ampionship": 949,
      "See": 950,
      "based": 951,
      "ission": 952,
      "-century": 953,
      "prof": 954,
      "ia.": 955,
      "Gu": 956,
      "ians": 957,
      "ital": 958,
      "dep": 959,
      "name": 960,
      "bur": 961,
      "Ed": 962,
      "El": 963,
      "German": 964,
      "League": 965,
      "iet": 966,
      "December": 967,
      "ized": 968,
      "ator": 969,
      "4.": 970,
      "now": 971,
      "5.": 972,
      "list": 973,
      "ments": 974,
      "bel": 975,
      "Will": 976,
      "jo": 977,
      "11": 978,
      "side": 979,
      "press": 980,
      "commun": 981,
      "Te": 982,
      "(born": 983,
      "ended": 984,
      "long": 985,
      "City": 986,
      "ench": 987,
      "vis": 988,
      "dec": 989,
      "Cal": 990,
      "bert": 991,
      "cover": 992,
      "la": 993,
      "rest": 994,
      "ajor": 995,
      "000": 996,
      "icip": 997,
      "ef": 998,
      "veral": 999,
      "uch": 1000,
      "start": 1001,
      "ock": 1002,
      "190": 1003,
      "Reg": 1004,
      "called": 1005,
      "Me": 1006,
      "State": 1007,
      "thern": 1008,
      "xt": 1009,
      "ime": 1010,
      "chil": 1011,
      "Dr": 1012,
      "ped": 1013,
      "ham": 1014,
      "ae": 1015,
      "dif": 1016,
      "house": 1017,
      "6.": 1018,
      "Nor": 1019,
      "o.": 1020,
      "7.": 1021,
      "family": 1022,
      "cept": 1023,
      "ives": 1024,
      "en,": 1025,
      "Gen": 1026,
      "We": 1027,
      "left": 1028,
      "8.": 1029,
      "ground": 1030,
      "contin": 1031,
      "Award": 1032,
      "Fl": 1033,
      "ers,": 1034,
      "read": 1035,
      "Ne": 1036,
      "tit": 1037,
      "system": 1038,
      "city": 1039,
      "Bar": 1040,
      ".\"": 1041,
      "apan": 1042,
      "21": 1043,
      "will": 1044,
      "US": 1045,
      "His": 1046,
      "Febr": 1047,
      "suc": 1048,
      "February": 1049,
      "car": 1050,
      "ott": 1051,
      "Sw": 1052,
      "Her": 1053,
      "owever,": 1054,
      "Min": 1055,
      "King": 1056,
      "place": 1057,
      "ause": 1058,
      "vent": 1059,
      "Japan": 1060,
      "ually": 1061,
      "game": 1062,
      "ulation": 1063,
      "peri": 1064,
      "ament": 1065,
      "ek": 1066,
      "ird": 1067,
      "cour": 1068,
      "West": 1069,
      "same": 1070,
      "ute": 1071,
      "30": 1072,
      "war": 1073,
      "189": 1074,
      "near": 1075,
      "return": 1076,
      "met": 1077,
      "ilit": 1078,
      "omin": 1079,
      "ral": 1080,
      "Med": 1081,
      "member": 1082,
      "following": 1083,
      "law": 1084,
      "come": 1085,
      "ude": 1086,
      "life": 1087,
      "ivision": 1088,
      "ric": 1089,
      "Pres": 1090,
      "try": 1091,
      "descr": 1092,
      "named": 1093,
      "bus": 1094,
      "sty": 1095,
      "several": 1096,
      "ross": 1097,
      "Geor": 1098,
      "Ste": 1099,
      "ste": 1100,
      "mark": 1101,
      "early": 1102,
      "ility": 1103,
      "Sy": 1104,
      "films": 1105,
      "club": 1106,
      "vol": 1107,
      "ief": 1108,
      "stand": 1109,
      "person": 1110,
      "government": 1111,
      "since": 1112,
      "established": 1113,
      "oth": 1114,
      "compet": 1115,
      "ently": 1116,
      "ially": 1117,
      "ford": 1118,
      "down": 1119,
      "colle": 1120,
      "site": 1121,
      "chn": 1122,
      "ved": 1123,
      "val": 1124,
      "aff": 1125,
      "Air": 1126,
      "els": 1127,
      "ext": 1128,
      "pass": 1129,
      "Part": 1130,
      "result": 1131,
      "aking": 1132,
      "French": 1133,
      "They": 1134,
      "graphy": 1135,
      "vill": 1136,
      "cut": 1137,
      "25": 1138,
      "C.": 1139,
      "tele": 1140,
      "ival": 1141,
      "held": 1142,
      "Comp": 1143,
      "sl": 1144,
      "ers.": 1145,
      "Afr": 1146,
      "ired": 1147,
      "requ": 1148,
      "angu": 1149,
      "ung": 1150,
      "fect": 1151,
      "ants": 1152,
      "History": 1153,
      "located": 1154,
      "Russ": 1155,
      "Art": 1156,
      "..": 1157,
      "program": 1158,
      "ible": 1159,
      "i-": 1160,
      "Res": 1161,
      "aint": 1162,
      "members": 1163,
      "began": 1164,
      "served": 1165,
      "Mc": 1166,
      "High": 1167,
      "cast": 1168,
      "Char": 1169,
      "9.": 1170,
      "(200": 1171,
      "round": 1172,
      "augh": 1173,
      "along": 1174,
      "atic": 1175,
      "0s": 1176,
      "support": 1177,
      "aft": 1178,
      "soci": 1179,
      "graph": 1180,
      "ality": 1181,
      "thor": 1182,
      "these": 1183,
      "aster": 1184,
      "van": 1185,
      "ages": 1186,
      "event": 1187,
      "William": 1188,
      "remain": 1189,
      "Rom": 1190,
      "gl": 1191,
      "Cr": 1192,
      "adem": 1193,
      "There": 1194,
      "ington": 1195,
      "ined": 1196,
      "position": 1197,
      "2019": 1198,
      "final": 1199,
      "aim": 1200,
      "Championship": 1201,
      "election": 1202,
      "Ital": 1203,
      "Europe": 1204,
      "an,": 1205,
      "cil": 1206,
      "tal": 1207,
      "fac": 1208,
      "ided": 1209,
      "sim": 1210,
      "2020": 1211,
      "188": 1212,
      "1)": 1213,
      "did": 1214,
      "earch": 1215,
      "fact": 1216,
      "ony": 1217,
      "took": 1218,
      "lex": 1219,
      "built": 1220,
      "District": 1221,
      "reen": 1222,
      "key": 1223,
      "ble": 1224,
      "ology": 1225,
      "charac": 1226,
      "2)": 1227,
      "color": 1228,
      "Wal": 1229,
      "ically": 1230,
      "And": 1231,
      "career": 1232,
      "bro": 1233,
      "ature": 1234,
      "men": 1235,
      "People": 1236,
      "formed": 1237,
      "Su": 1238,
      "Colle": 1239,
      "Lond": 1240,
      "ove": 1241,
      "che": 1242,
      "mill": 1243,
      "each": 1244,
      "ured": 1245,
      "bre": 1246,
      "like": 1247,
      "ata": 1248,
      "Christ": 1249,
      "ies.": 1250,
      "San": 1251,
      "curr": 1252,
      "marr": 1253,
      "track": 1254,
      "Film": 1255,
      "tom": 1256,
      "count": 1257,
      "district": 1258,
      "ca": 1259,
      "alth": 1260,
      "yn": 1261,
      "describ": 1262,
      "on-": 1263,
      "Mo": 1264,
      "published": 1265,
      "died": 1266,
      "national": 1267,
      "International": 1268,
      "Dav": 1269,
      "area": 1270,
      "major": 1271,
      "home": 1272,
      "small": 1273,
      "Indian": 1274,
      "profess": 1275,
      "oung": 1276,
      "aving": 1277,
      "reet": 1278,
      "Mon": 1279,
      "ices": 1280,
      "iness": 1281,
      "Oly": 1282,
      "gy": 1283,
      "Ear": 1284,
      "world": 1285,
      "Cor": 1286,
      "local": 1287,
      "manag": 1288,
      "mar": 1289,
      "ies,": 1290,
      "oss": 1291,
      "ama": 1292,
      "Olymp": 1293,
      "uck": 1294,
      "success": 1295,
      "ene": 1296,
      "Ab": 1297,
      "La": 1298,
      "style": 1299,
      "Not": 1300,
      "dom": 1301,
      "Living": 1302,
      "rop": 1303,
      "Phil": 1304,
      "Per": 1305,
      "ion,": 1306,
      "ron": 1307,
      "exp": 1308,
      "due": 1309,
      "th-century": 1310,
      "ison": 1311,
      "hold": 1312,
      "continu": 1313,
      "television": 1314,
      "ised": 1315,
      "uk": 1316,
      "sport": 1317,
      "ple": 1318,
      ".S.": 1319,
      "langu": 1320,
      "Cup": 1321,
      "Coun": 1322,
      "received": 1323,
      "ery": 1324,
      "aul": 1325,
      "resp": 1326,
      "around": 1327,
      "24": 1328,
      "report": 1329,
      "sem": 1330,
      "educ": 1331,
      "estern": 1332,
      "last": 1333,
      "ban": 1334,
      "cle": 1335,
      "ified": 1336,
      "train": 1337,
      "def": 1338,
      "3)": 1339,
      "water": 1340,
      "ize": 1341,
      "Sch": 1342,
      "could": 1343,
      "186": 1344,
      "umn": 1345,
      "hal": 1346,
      "ilitary": 1347,
      "que": 1348,
      "cor": 1349,
      "prom": 1350,
      "match": 1351,
      "align=": 1352,
      "allow": 1353,
      "ars": 1354,
      "yal": 1355,
      "award": 1356,
      "order": 1357,
      "50": 1358,
      "chan": 1359,
      "House": 1360,
      "west": 1361,
      "win": 1362,
      "lar": 1363,
      "six": 1364,
      "187": 1365,
      "put": 1366,
      "Har": 1367,
      "nor": 1368,
      "dem": 1369,
      "cording": 1370,
      "station": 1371,
      "List": 1372,
      "get": 1373,
      "ion.": 1374,
      "camp": 1375,
      "hip": 1376,
      "ien": 1377,
      "Park": 1378,
      "cas": 1379,
      "Mal": 1380,
      "represent": 1381,
      "sol": 1382,
      "ummer": 1383,
      "issu": 1384,
      "depend": 1385,
      "(201": 1386,
      "moved": 1387,
      "grad": 1388,
      "County": 1389,
      "Off": 1390,
      "rad": 1391,
      "vil": 1392,
      "level": 1393,
      "Ber": 1394,
      "ner": 1395,
      "di": 1396,
      "A.": 1397,
      "less": 1398,
      "rown": 1399,
      "ocial": 1400,
      "ument": 1401,
      "ience": 1402,
      "north": 1403,
      "single": 1404,
      "histor": 1405,
      "i.": 1406,
      "stat": 1407,
      "Mich": 1408,
      "ling": 1409,
      "third": 1410,
      "five": 1411,
      "said": 1412,
      "bor": 1413,
      "population": 1414,
      "lim": 1415,
      "short": 1416,
      "ted": 1417,
      "company": 1418,
      "ines": 1419,
      "is,": 1420,
      "However,": 1421,
      "Des": 1422,
      "hand": 1423,
      "During": 1424,
      "just": 1425,
      "oto": 1426,
      "8)": 1427,
      "U.S.": 1428,
      "larg": 1429,
      "gener": 1430,
      "mid": 1431,
      "ney": 1432,
      "within": 1433,
      "test": 1434,
      "app": 1435,
      "Gl": 1436,
      "ored": 1437,
      "announ": 1438,
      "board": 1439,
      "rew": 1440,
      "5)": 1441,
      "very": 1442,
      "term": 1443,
      "ished": 1444,
      "23": 1445,
      "post": 1446,
      "amb": 1447,
      "ourn": 1448,
      "7)": 1449,
      "6)": 1450,
      "activ": 1451,
      "power": 1452,
      "4)": 1453,
      "south": 1454,
      "rem": 1455,
      "women": 1456,
      "species": 1457,
      "childr": 1458,
      "TV": 1459,
      "iven": 1460,
      "winn": 1461,
      "described": 1462,
      "urther": 1463,
      "County,": 1464,
      "author": 1465,
      "vi": 1466,
      "ana": 1467,
      "include": 1468,
      "ref": 1469,
      "ze": 1470,
      "iter": 1471,
      "wood": 1472,
      "College": 1473,
      "den": 1474,
      "By": 1475,
      "sett": 1476,
      "rac": 1477,
      "England": 1478,
      "using": 1479,
      "ink": 1480,
      "ifor": 1481,
      "ately": 1482,
      "sw": 1483,
      "father": 1484,
      "Act": 1485,
      "complet": 1486,
      "Ang": 1487,
      "differ": 1488,
      "sch": 1489,
      "ides": 1490,
      "iate": 1491,
      "iforn": 1492,
      "London": 1493,
      "ull": 1494,
      "village": 1495,
      "consid": 1496,
      "because": 1497,
      "building": 1498,
      "Californ": 1499,
      "iend": 1500,
      "constru": 1501,
      "conom": 1502,
      "partment": 1503,
      "ane": 1504,
      "Em": 1505,
      "vious": 1506,
      "ference": 1507,
      "kill": 1508,
      "included": 1509,
      "history": 1510,
      "sequ": 1511,
      "ideo": 1512,
      "Bel": 1513,
      "idge": 1514,
      "games": 1515,
      "East": 1516,
      "One": 1517,
      "Str": 1518,
      "Roman": 1519,
      "Li": 1520,
      "indu": 1521,
      "establish": 1522,
      "Dem": 1523,
      "center": 1524,
      "original": 1525,
      "self": 1526,
      "uman": 1527,
      "ode": 1528,
      "pect": 1529,
      "large": 1530,
      "crit": 1531,
      "associ": 1532,
      "nov": 1533,
      "us,": 1534,
      "Qu": 1535,
      "mag": 1536,
      "akes": 1537,
      "del": 1538,
      "Fin": 1539,
      "useum": 1540,
      "cture": 1541,
      "Sm": 1542,
      "ety": 1543,
      "compan": 1544,
      "22": 1545,
      "addition": 1546,
      "Church": 1547,
      "ma": 1548,
      "General": 1549,
      "equ": 1550,
      "politic": 1551,
      "sit": 1552,
      "(199": 1553,
      "BC": 1554,
      "player": 1555,
      "character": 1556,
      "male": 1557,
      "ones": 1558,
      "Music": 1559,
      "voc": 1560,
      "ning": 1561,
      "ought": 1562,
      "ats": 1563,
      "ains": 1564,
      "period": 1565,
      "9)": 1566,
      "Associ": 1567,
      "went": 1568,
      "Wil": 1569,
      "vir": 1570,
      "net": 1571,
      "Australian": 1572,
      "100": 1573,
      "clos": 1574,
      "trad": 1575,
      "sen": 1576,
      "ush": 1577,
      "deaths": 1578,
      "2010": 1579,
      "km": 1580,
      "ization": 1581,
      "chang": 1582,
      "gress": 1583,
      "coach": 1584,
      "Island": 1585,
      "claim": 1586,
      "men's": 1587,
      "rail": 1588,
      "pec": 1589,
      "appro": 1590,
      "France": 1591,
      "cult": 1592,
      "pur": 1593,
      "ctions": 1594,
      "compos": 1595,
      "ministr": 1596,
      "different": 1597,
      "ays": 1598,
      "itch": 1599,
      "Mor": 1600,
      "rec": 1601,
      "Val": 1602,
      "tem": 1603,
      "placed": 1604,
      "attle": 1605,
      "incre": 1606,
      "ets": 1607,
      "still": 1608,
      "aud": 1609,
      "40": 1610,
      "church": 1611,
      "Cap": 1612,
      "26": 1613,
      "fun": 1614,
      "another": 1615,
      "ibut": 1616,
      "those": 1617,
      "ipt": 1618,
      "fem": 1619,
      "dist": 1620,
      "River": 1621,
      "Thom": 1622,
      "ri": 1623,
      "George": 1624,
      "gin": 1625,
      "best": 1626,
      "miss": 1627,
      "reach": 1628,
      "27": 1629,
      "vot": 1630,
      "poss": 1631,
      "ily": 1632,
      "lect": 1633,
      "Pal": 1634,
      "attack": 1635,
      "umb": 1636,
      "produced": 1637,
      "Port": 1638,
      "web": 1639,
      "na": 1640,
      "28": 1641,
      "To": 1642,
      "cell": 1643,
      "()": 1644,
      "atter": 1645,
      "appoint": 1646,
      "late": 1647,
      "Que": 1648,
      "Royal": 1649,
      "light": 1650,
      "language": 1651,
      "har": 1652,
      "European": 1653,
      "uel": 1654,
      "ivil": 1655,
      "aver": 1656,
      "Hol": 1657,
      "sold": 1658,
      "written": 1659,
      "Fir": 1660,
      "announced": 1661,
      "debut": 1662,
      "Cour": 1663,
      "service": 1664,
      "international": 1665,
      "Po": 1666,
      "Year": 1667,
      "bas": 1668,
      "flu": 1669,
      "When": 1670,
      "James": 1671,
      "Chin": 1672,
      "ournal": 1673,
      "refer": 1674,
      "itor": 1675,
      "Division": 1676,
      "Canadian": 1677,
      "Paul": 1678,
      "Wom": 1679,
      "what": 1680,
      "Dan": 1681,
      "previous": 1682,
      "osp": 1683,
      "in,": 1684,
      "ained": 1685,
      "Pub": 1686,
      "business": 1687,
      "\"The": 1688,
      "Rich": 1689,
      "unicip": 1690,
      "host": 1691,
      "gar": 1692,
      "Mount": 1693,
      "omb": 1694,
      "stor": 1695,
      "Sal": 1696,
      "formation": 1697,
      "ipp": 1698,
      "general": 1699,
      "techn": 1700,
      "bg": 1701,
      "epis": 1702,
      "often": 1703,
      "vo": 1704,
      "Don": 1705,
      "itar": 1706,
      "among": 1707,
      "make": 1708,
      "bgcolor": 1709,
      "With": 1710,
      "Academ": 1711,
      "sent": 1712,
      "text": 1713,
      "CA": 1714,
      "role": 1715,
      "project": 1716,
      "turn": 1717,
      "Record": 1718,
      "even": 1719,
      "David": 1720,
      "bar": 1721,
      "Lou": 1722,
      "enc": 1723,
      "Street": 1724,
      "ael": 1725,
      "expl": 1726,
      "forman": 1727,
      "abor": 1728,
      "Stat": 1729,
      "ler": 1730,
      "production": 1731,
      "ox": 1732,
      "My": 1733,
      "esh": 1734,
      "St.": 1735,
      "married": 1736,
      "empt": 1737,
      "iment": 1738,
      "title": 1739,
      "185": 1740,
      "Red": 1741,
      "ues": 1742,
      "real": 1743,
      "unch": 1744,
      "ploy": 1745,
      "elect": 1746,
      "quar": 1747,
      "init": 1748,
      "Tran": 1749,
      "invol": 1750,
      "Council": 1751,
      "Football": 1752,
      "ida": 1753,
      "ger": 1754,
      "ander": 1755,
      "young": 1756,
      "President": 1757,
      "ster": 1758,
      "Histor": 1759,
      "cret": 1760,
      "research": 1761,
      "friend": 1762,
      "Club": 1763,
      "bod": 1764,
      "pen": 1765,
      "astern": 1766,
      "avy": 1767,
      "oph": 1768,
      "created": 1769,
      "import": 1770,
      "as,": 1771,
      "ps": 1772,
      "half": 1773,
      "FC": 1774,
      "Bro": 1775,
      "see": 1776,
      "First": 1777,
      "vict": 1778,
      "2008": 1779,
      "Party": 1780,
      "rodu": 1781,
      "29": 1782,
      "engine": 1783,
      "came": 1784,
      "joined": 1785,
      "ren": 1786,
      "Sing": 1787,
      "2011": 1788,
      "Ap": 1789,
      "given": 1790,
      "ivid": 1791,
      "ilar": 1792,
      "Je": 1793,
      "Black": 1794,
      "ness": 1795,
      "Rail": 1796,
      "ellow": 1797,
      "Sen": 1798,
      "From": 1799,
      "Robert": 1800,
      "Tim": 1801,
      "non-": 1802,
      "2006": 1803,
      "Sport": 1804,
      "total": 1805,
      "umni": 1806,
      "every": 1807,
      "Arch": 1808,
      "night": 1809,
      "eder": 1810,
      "t,": 1811,
      "rote": 1812,
      "action": 1813,
      "works": 1814,
      "Army": 1815,
      "effect": 1816,
      "itions": 1817,
      "political": 1818,
      "Flor": 1819,
      "Stud": 1820,
      "community": 1821,
      "shire": 1822,
      "ged": 1823,
      "D.": 1824,
      "ibr": 1825,
      "version": 1826,
      "started": 1827,
      "development": 1828,
      "ying": 1829,
      "million": 1830,
      "outhern": 1831,
      "carr": 1832,
      "worked": 1833,
      "Ze": 1834,
      "president": 1835,
      "Tur": 1836,
      "prote": 1837,
      "Mag": 1838,
      "F.": 1839,
      "reek": 1840,
      "Dis": 1841,
      "itte": 1842,
      "director": 1843,
      "various": 1844,
      "Mart": 1845,
      "J.": 1846,
      "king": 1847,
      "Town": 1848,
      "Best": 1849,
      "ico": 1850,
      "military": 1851,
      "living": 1852,
      "promot": 1853,
      "Hen": 1854,
      "ves": 1855,
      "aur": 1856,
      "rain": 1857,
      "prim": 1858,
      "Ir": 1859,
      "or,": 1860,
      "Instit": 1861,
      "vice": 1862,
      "2012": 1863,
      "2007": 1864,
      "Vir": 1865,
      "acc": 1866,
      "wrote": 1867,
      "having": 1868,
      "ino": 1869,
      "much": 1870,
      "African": 1871,
      "yl": 1872,
      "Group": 1873,
      "2009": 1874,
      "'t": 1875,
      "craft": 1876,
      "ards": 1877,
      "ested": 1878,
      "Mex": 1879,
      "Italian": 1880,
      "special": 1881,
      "professional": 1882,
      "take": 1883,
      "video": 1884,
      "aged": 1885,
      "children": 1886,
      "next": 1887,
      "ared": 1888,
      "Mary": 1889,
      "ream": 1890,
      "burg": 1891,
      "irl": 1892,
      "Sam": 1893,
      "Russian": 1894,
      "Road": 1895,
      "Bur": 1896,
      "asket": 1897,
      "introdu": 1898,
      "become": 1899,
      "Mid": 1900,
      "Japanese": 1901,
      "Commun": 1902,
      "posed": 1903,
      "ius": 1904,
      "ett": 1905,
      "ij": 1906,
      "Tw": 1907,
      "countr": 1908,
      "aughter": 1909,
      "hib": 1910,
      "Law": 1911,
      "0)": 1912,
      "ru": 1913,
      "Bal": 1914,
      "ogn": 1915,
      "Jer": 1916,
      "elected": 1917,
      "process": 1918,
      "gether": 1919,
      "ending": 1920,
      "week": 1921,
      "Mac": 1922,
      "hon": 1923,
      "Wash": 1924,
      "opened": 1925,
      "mult": 1926,
      "Lu": 1927,
      "Ter": 1928,
      "mal": 1929,
      "det": 1930,
      "performan": 1931,
      "Soci": 1932,
      "gg": 1933,
      "story": 1934,
      "These": 1935,
      "Kar": 1936,
      "east": 1937,
      "centur": 1938,
      "Cam": 1939,
      "few": 1940,
      "direct": 1941,
      "ability": 1942,
      "popular": 1943,
      "184": 1944,
      "Play": 1945,
      "Mad": 1946,
      "olic": 1947,
      "draw": 1948,
      "returned": 1949,
      "son,": 1950,
      "dest": 1951,
      "an.": 1952,
      "ering": 1953,
      "low": 1954,
      "al,": 1955,
      "2013": 1956,
      "change": 1957,
      "Scott": 1958,
      "2014": 1959,
      "ological": 1960,
      "ocr": 1961,
      "2016": 1962,
      "Mer": 1963,
      "igr": 1964,
      "duc": 1965,
      "E9": 1966,
      "Hall": 1967,
      "ago": 1968,
      "imin": 1969,
      "iy": 1970,
      "tt": 1971,
      "gradu": 1972,
      "comb": 1973,
      "nd": 1974,
      "Jack": 1975,
      "imm": 1976,
      "Bra": 1977,
      "cis": 1978,
      "lear": 1979,
      "continued": 1980,
      "Miss": 1981,
      "Washington": 1982,
      "liament": 1983,
      "aken": 1984,
      "official": 1985,
      "dle": 1986,
      "great": 1987,
      "cript": 1988,
      "lif": 1989,
      "co-": 1990,
      "plic": 1991,
      "a's": 1992,
      "Australia": 1993,
      "ll": 1994,
      "Ke": 1995,
      "particip": 1996,
      "ively": 1997,
      "Cath": 1998,
      "c.": 1999,
      "wards": 2000,
      "pract": 2001,
      "without": 2002,
      "M.": 2003,
      "According": 2004,
      "anim": 2005,
      "(198": 2006,
      "lost": 2007,
      "aut": 2008,
      "full": 2009,
      "quad": 2010,
      "footballers": 2011,
      "ittle": 2012,
      "rock": 2013,
      "beg": 2014,
      "social": 2015,
      "Grand": 2016,
      "Leg": 2017,
      "You": 2018,
      "el,": 2019,
      "broad": 2020,
      "Vol": 2021,
      "similar": 2022,
      "Prov": 2023,
      "itz": 2024,
      "2015": 2025,
      "Sl": 2026,
      "conne": 2027,
      "Sun": 2028,
      "asketball": 2029,
      "dam": 2030,
      "style=\"": 2031,
      "appointed": 2032,
      "ources": 2033,
      "Rad": 2034,
      "partic": 2035,
      "Central": 2036,
      "founded": 2037,
      "p.": 2038,
      "ait": 2039,
      "econom": 2040,
      "ned": 2041,
      "room": 2042,
      "need": 2043,
      "ges": 2044,
      "UK": 2045,
      "Alex": 2046,
      "Olympic": 2047,
      "ike": 2048,
      "Super": 2049,
      "Association": 2050,
      "ecut": 2051,
      "Er": 2052,
      "Tour": 2053,
      "Cast": 2054,
      "acqu": 2055,
      "coming": 2056,
      "Offic": 2057,
      "estival": 2058,
      "r.": 2059,
      "artist": 2060,
      "Jew": 2061,
      "assist": 2062,
      "uses": 2063,
      "NA": 2064,
      "iography": 2065,
      "ense": 2066,
      "Im": 2067,
      "directed": 2068,
      "ership": 2069,
      "berg": 2070,
      "Kingdom": 2071,
      "ops": 2072,
      "Met": 2073,
      "2018": 2074,
      "thod": 2075,
      "aign": 2076,
      "on.": 2077,
      "iction": 2078,
      "signed": 2079,
      "front": 2080,
      "industr": 2081,
      "2000": 2082,
      "ha": 2083,
      "invest": 2084,
      "Sk": 2085,
      "No.": 2086,
      "review": 2087,
      "Span": 2088,
      "daughter": 2089,
      "country": 2090,
      "attempt": 2091,
      "Museum": 2092,
      "aland": 2093,
      "re-": 2094,
      "fall": 2095,
      "control": 2096,
      "ris": 2097,
      "proper": 2098,
      "alumni": 2099,
      "California": 2100,
      "ly,": 2101,
      "Hill": 2102,
      "hol": 2103,
      "Western": 2104,
      "omet": 2105,
      "Angel": 2106,
      "20th-century": 2107,
      "al.": 2108,
      "lock": 2109,
      "base": 2110,
      "Sim": 2111,
      "Union": 2112,
      "Tex": 2113,
      "disc": 2114,
      "mother": 2115,
      "Thomas": 2116,
      "Summer": 2117,
      "concer": 2118,
      "priv": 2119,
      "Ben": 2120,
      "1st": 2121,
      "isl": 2122,
      "seven": 2123,
      "Gold": 2124,
      "2017": 2125,
      "sex": 2126,
      "Educ": 2127,
      "Court": 2128,
      "han": 2129,
      "teach": 2130,
      "ways": 2131,
      "together": 2132,
      "ena": 2133,
      "recorded": 2134,
      "Early": 2135,
      "Prof": 2136,
      "fire": 2137,
      "Charles": 2138,
      "coll": 2139,
      "bgcolor=": 2140,
      "beh": 2141,
      "individ": 2142,
      "Christian": 2143,
      "Other": 2144,
      "human": 2145,
      "ester": 2146,
      "Michael": 2147,
      "Go": 2148,
      "successful": 2149,
      "ances": 2150,
      "Bay": 2151,
      "Vict": 2152,
      "Ver": 2153,
      "Do": 2154,
      "ston": 2155,
      "Great": 2156,
      "guitar": 2157,
      "ald": 2158,
      "Department": 2159,
      "Care": 2160,
      "making": 2161,
      "it.": 2162,
      "Pan": 2163,
      "league": 2164,
      "find": 2165,
      "hab": 2166,
      "appeared": 2167,
      "60": 2168,
      "tour": 2169,
      "yr": 2170,
      "2005": 2171,
      "Spanish": 2172,
      "trav": 2173,
      "Tor": 2174,
      "albums": 2175,
      "oute": 2176,
      "Peter": 2177,
      "qual": 2178,
      "mission": 2179,
      "away": 2180,
      "Inter": 2181,
      "further": 2182,
      "Book": 2183,
      "age,": 2184,
      "bi": 2185,
      "employ": 2186,
      "-year": 2187,
      "Games": 2188,
      "face": 2189,
      "Mus": 2190,
      "considered": 2191,
      "birth": 2192,
      "Tom": 2193,
      "ensive": 2194,
      "India": 2195,
      "cop": 2196,
      "hous": 2197,
      "ville": 2198,
      "tradition": 2199,
      "Mark": 2200,
      "bgcolor=#": 2201,
      "21st": 2202,
      "working": 2203,
      "dependent": 2204,
      "ials": 2205,
      "2004": 2206,
      "gam": 2207,
      "cu": 2208,
      "(S": 2209,
      "Green": 2210,
      "fort": 2211,
      "influ": 2212,
      "songs": 2213,
      "emor": 2214,
      "hor": 2215,
      "live": 2216,
      "nel": 2217,
      "Pop": 2218,
      "ara": 2219,
      "Louis": 2220,
      "black": 2221,
      "mot": 2222,
      "pat": 2223,
      "background": 2224,
      "Virgin": 2225,
      "good": 2226,
      "Sur": 2227,
      "termin": 2228,
      "ency": 2229,
      "nat": 2230,
      "division": 2231,
      "playing": 2232,
      "idence": 2233,
      "Republic": 2234,
      "grow": 2235,
      "183": 2236,
      "Bill": 2237,
      "land,": 2238,
      "Mil": 2239,
      "thing": 2240,
      "ole": 2241,
      "teams": 2242,
      "semb": 2243,
      "sal": 2244,
      "and,": 2245,
      "Zealand": 2246,
      "administr": 2247,
      "exist": 2248,
      "completed": 2249,
      "aper": 2250,
      "ators": 2251,
      "Kore": 2252,
      "doc": 2253,
      "phys": 2254,
      "bour": 2255,
      "contract": 2256,
      "Del": 2257,
      "cup": 2258,
      "stead": 2259,
      "FA": 2260,
      "construction": 2261,
      "meet": 2262,
      "launch": 2263,
      "agre": 2264,
      "strong": 2265,
      "race": 2266,
      "time,": 2267,
      "typ": 2268,
      "align=right": 2269,
      "acy": 2270,
      "ification": 2271,
      "Chinese": 2272,
      "Ag": 2273,
      "cts": 2274,
      "ting": 2275,
      "icle": 2276,
      "Frank": 2277,
      "covered": 2278,
      "Carol": 2279,
      "case": 2280,
      "deg": 2281,
      "establishments": 2282,
      "cred": 2283,
      "tar": 2284,
      "Jose": 2285,
      "archite": 2286,
      "plant": 2287,
      "a-": 2288,
      "municip": 2289,
      "Catholic": 2290,
      "No": 2291,
      "offer": 2292,
      "particular": 2293,
      "Ele": 2294,
      "bet": 2295,
      "important": 2296,
      "rul": 2297,
      "Up": 2298,
      "how": 2299,
      "fail": 2300,
      "Richard": 2301,
      "Mel": 2302,
      "Public": 2303,
      "gian": 2304,
      "Some": 2305,
      "iple": 2306,
      "ms": 2307,
      "type": 2308,
      "inst": 2309,
      "id=": 2310,
      "tourn": 2311,
      "While": 2312,
      "lands": 2313,
      "Democr": 2314,
      "ospital": 2315,
      "ising": 2316,
      "reported": 2317,
      "modern": 2318,
      "help": 2319,
      "wid": 2320,
      "website": 2321,
      "avail": 2322,
      "Minister": 2323,
      "Ire": 2324,
      "Work": 2325,
      "Mont": 2326,
      "ederal": 2327,
      "developed": 2328,
      "inj": 2329,
      "novel": 2330,
      "free": 2331,
      "photo": 2332,
      "market": 2333,
      "cir": 2334,
      "odes": 2335,
      "recogn": 2336,
      "mus": 2337,
      "ateg": 2338,
      "defe": 2339,
      "Du": 2340,
      "Song": 2341,
      "Lat": 2342,
      "cal": 2343,
      "(197": 2344,
      "Swed": 2345,
      "Francis": 2346,
      "should": 2347,
      "oul": 2348,
      "range": 2349,
      "Il": 2350,
      "2021": 2351,
      "|-id=": 2352,
      "cus": 2353,
      "medal": 2354,
      "super": 2355,
      "itive": 2356,
      "word": 2357,
      "fund": 2358,
      "mater": 2359,
      "ots": 2360,
      "areas": 2361,
      "Kr": 2362,
      "party": 2363,
      "fan": 2364,
      "era": 2365,
      "(C": 2366,
      "decl": 2367,
      "active": 2368,
      "teen": 2369,
      "himself": 2370,
      "Tele": 2371,
      "viron": 2372,
      "Smith": 2373,
      "ours": 2374,
      "ulated": 2375,
      "interest": 2376,
      "sil": 2377,
      "Second": 2378,
      "goal": 2379,
      "Day": 2380,
      "ength": 2381,
      "politician": 2382,
      "episode": 2383,
      "events": 2384,
      "listed": 2385,
      "rid": 2386,
      "white": 2387,
      "days": 2388,
      "Mill": 2389,
      "ably": 2390,
      "35": 2391,
      "iers": 2392,
      "R.": 2393,
      "Ma": 2394,
      "wide": 2395,
      "campaign": 2396,
      "Saint": 2397,
      "condu": 2398,
      "pite": 2399,
      "tre": 2400,
      "Victor": 2401,
      "regular": 2402,
      "across": 2403,
      "plan": 2404,
      "radio": 2405,
      "stitut": 2406,
      "liter": 2407,
      "Mass": 2408,
      "don": 2409,
      "lected": 2410,
      "E.": 2411,
      "jud": 2412,
      "Los": 2413,
      "Canada": 2414,
      "viol": 2415,
      "lete": 2416,
      "Sov": 2417,
      "ittee": 2418,
      "month": 2419,
      "Dire": 2420,
      "it,": 2421,
      "section": 2422,
      "But": 2423,
      "Harr": 2424,
      "taken": 2425,
      "31": 2426,
      "urr": 2427,
      "ump": 2428,
      "child": 2429,
      "B.": 2430,
      "imately": 2431,
      "America": 2432,
      "foc": 2433,
      "atre": 2434,
      "journal": 2435,
      "2003": 2436,
      "ither": 2437,
      "bridge": 2438,
      "does": 2439,
      "gun": 2440,
      "office": 2441,
      "paint": 2442,
      "although": 2443,
      "Star": 2444,
      "d6": 2445,
      "(A": 2446,
      "release": 2447,
      "overnor": 2448,
      "2002": 2449,
      "hom": 2450,
      "s:": 2451,
      "never": 2452,
      "belie": 2453,
      "Braz": 2454,
      "-s": 2455,
      "fig": 2456,
      "itted": 2457,
      "Institute": 2458,
      "cost": 2459,
      "common": 2460,
      "Penn": 2461,
      "average": 2462,
      "separ": 2463,
      "season.": 2464,
      "fight": 2465,
      "Academy": 2466,
      "Che": 2467,
      "services": 2468,
      "examp": 2469,
      "ceed": 2470,
      "aly": 2471,
      "roy": 2472,
      "critic": 2473,
      "female": 2474,
      "2022": 2475,
      "via": 2476,
      "court": 2477,
      "Isra": 2478,
      "So": 2479,
      "available": 2480,
      "ta": 2481,
      "current": 2482,
      "students": 2483,
      "writers": 2484,
      "iff": 2485,
      "got": 2486,
      "45": 2487,
      "CO": 2488,
      "vironment": 2489,
      "hood": 2490,
      "Henry": 2491,
      "Awards": 2492,
      "hard": 2493,
      "andid": 2494,
      "mount": 2495,
      "brother": 2496,
      "aval": 2497,
      "box": 2498,
      "aces": 2499,
      "Society": 2500,
      "body": 2501,
      "Order": 2502,
      "80": 2503,
      "mix": 2504,
      "merc": 2505,
      "is.": 2506,
      "in-": 2507,
      "ari": 2508,
      "Camp": 2509,
      "Atl": 2510,
      "stage": 2511,
      "ming": 2512,
      "finished": 2513,
      "White": 2514,
      "region": 2515,
      "performance": 2516,
      "western": 2517,
      "Rock": 2518,
      "tournament": 2519,
      "Hon": 2520,
      "olf": 2521,
      "2nd": 2522,
      "ishop": 2523,
      "ibrary": 2524,
      "Soviet": 2525,
      "2001": 2526,
      "performed": 2527,
      "Brazil": 2528,
      "Just": 2529,
      "groups": 2530,
      "saw": 2531,
      "related": 2532,
      "relation": 2533,
      "gave": 2534,
      "Spec": 2535,
      "edy": 2536,
      "iles": 2537,
      "ilities": 2538,
      "writer": 2539,
      "cit": 2540,
      "Chic": 2541,
      "originally": 2542,
      "inning": 2543,
      "div": 2544,
      "cens": 2545,
      "Vill": 2546,
      "dou": 2547,
      "Sup": 2548,
      "Ham": 2549,
      "once": 2550,
      "education": 2551,
      "ani": 2552,
      "icult": 2553,
      "lab": 2554,
      "data": 2555,
      "say": 2556,
      "Person": 2557,
      "utch": 2558,
      "ograph": 2559,
      "command": 2560,
      "Center": 2561,
      "Land": 2562,
      "21st-century": 2563,
      "health": 2564,
      "Government": 2565,
      "break": 2566,
      "Team": 2567,
      "rd": 2568,
      "ranch": 2569,
      "P.": 2570,
      "Texas": 2571,
      "Hu": 2572,
      "experi": 2573,
      "eight": 2574,
      "access": 2575,
      "ine,": 2576,
      "lik": 2577,
      "season,": 2578,
      "competition": 2579,
      "istic": 2580,
      "central": 2581,
      "China": 2582,
      "los": 2583,
      "SA": 2584,
      "Notes": 2585,
      "sel": 2586,
      "Germany": 2587,
      "print": 2588,
      "BA": 2589,
      "relig": 2590,
      "leading": 2591,
      "rap": 2592,
      "Scot": 2593,
      "tress": 2594,
      "ume": 2595,
      "ockey": 2596,
      "aves": 2597,
      "onto": 2598,
      "uz": 2599,
      "Career": 2600,
      "ificant": 2601,
      "imes": 2602,
      "patr": 2603,
      "places": 2604,
      "includes": 2605,
      "model": 2606,
      "largest": 2607,
      "Over": 2608,
      "Ireland": 2609,
      "(M": 2610,
      "sound": 2611,
      "ugby": 2612,
      "rey": 2613,
      "basketball": 2614,
      "atory": 2615,
      "L.": 2616,
      "designed": 2617,
      "pot": 2618,
      "Railway": 2619,
      "civil": 2620,
      "ild": 2621,
      "aircraft": 2622,
      "Sub": 2623,
      "consist": 2624,
      "wind": 2625,
      "tock": 2626,
      "prison": 2627,
      "\"|": 2628,
      "ique": 2629,
      "times": 2630,
      "pan": 2631,
      "Sir": 2632,
      "capt": 2633,
      "10,": 2634,
      "look": 2635,
      "awarded": 2636,
      "years.": 2637,
      "you": 2638,
      "ential": 2639,
      "Israel": 2640,
      "distr": 2641,
      "Its": 2642,
      "execut": 2643,
      "ples": 2644,
      "Rob": 2645,
      "tic": 2646,
      "pair": 2647,
      "ography": 2648,
      "RA": 2649,
      "3:": 2650,
      "er's": 2651,
      "sembly": 2652,
      "olk": 2653,
      "Historic": 2654,
      "CD": 2655,
      "stations": 2656,
      "attr": 2657,
      "forces": 2658,
      "en.": 2659,
      "magaz": 2660,
      "tro": 2661,
      "gold": 2662,
      "ships": 2663,
      "man,": 2664,
      "nomin": 2665,
      "points": 2666,
      "III": 2667,
      "Den": 2668,
      "rank": 2669,
      "gent": 2670,
      "t.": 2671,
      "actor": 2672,
      "1990": 2673,
      "arts": 2674,
      "Films": 2675,
      "companies": 2676,
      "scored": 2677,
      "ate,": 2678,
      "Di": 2679,
      "far": 2680,
      "Life": 2681,
      "syn": 2682,
      "bank": 2683,
      "Force": 2684,
      "Class": 2685,
      "aining": 2686,
      "significant": 2687,
      "H.": 2688,
      "Lo": 2689,
      "fish": 2690,
      "winning": 2691,
      "transfer": 2692,
      "iding": 2693,
      "featured": 2694,
      "ula": 2695,
      "Records": 2696,
      "oney": 2697,
      "Irish": 2698,
      "65": 2699,
      "Mod": 2700,
      "70": 2701,
      "uation": 2702,
      "ender": 2703,
      "forms": 2704,
      "must": 2705,
      "Profess": 2706,
      "owned": 2707,
      "occur": 2708,
      "wife": 2709,
      "anted": 2710,
      "struct": 2711,
      "wall": 2712,
      "remained": 2713,
      "however,": 2714,
      "whe": 2715,
      "buildings": 2716,
      "polic": 2717,
      "Commission": 2718,
      "introduced": 2719,
      "sey": 2720,
      "Two": 2721,
      "hu": 2722,
      "enced": 2723,
      "ga": 2724,
      "Polit": 2725,
      "bill": 2726,
      "(196": 2727,
      "Sil": 2728,
      "know": 2729,
      "Gall": 2730,
      "icles": 2731,
      "force": 2732,
      "ota": 2733,
      "Company": 2734,
      "Out": 2735,
      "weight": 2736,
      "uild": 2737,
      "ends": 2738,
      "uter": 2739,
      "student": 2740,
      "...": 2741,
      "Parliament": 2742,
      "\"I": 2743,
      "quest": 2744,
      "Ol": 2745,
      "agu": 2746,
      "spir": 2747,
      "document": 2748,
      "star": 2749,
      "Pre": 2750,
      "Ros": 2751,
      "ource": 2752,
      "ibution": 2753,
      "followed": 2754,
      "ror": 2755,
      "Since": 2756,
      "Oper": 2757,
      "E9E9": 2758,
      "stated": 2759,
      "IS": 2760,
      "throughout": 2761,
      "chair": 2762,
      "tell": 2763,
      "comes": 2764,
      "respons": 2765,
      "private": 2766,
      "Ann": 2767,
      "subsequ": 2768,
      "seen": 2769,
      "fourth": 2770,
      "cross": 2771,
      "90": 2772,
      "Northern": 2773,
      "God": 2774,
      "Bus": 2775,
      "sugg": 2776,
      "Province": 2777,
      "ements": 2778,
      "Uk": 2779,
      "currently": 2780,
      "candid": 2781,
      "pring": 2782,
      "Georg": 2783,
      "Old": 2784,
      "ences": 2785,
      "33": 2786,
      "sum": 2787,
      "Pac": 2788,
      "1999": 2789,
      "bound": 2790,
      "alk": 2791,
      "prem": 2792,
      "W.": 2793,
      "staff": 2794,
      "pay": 2795,
      "respect": 2796,
      "Techn": 2797,
      "stop": 2798,
      "year,": 2799,
      "Hy": 2800,
      "eventually": 2801,
      "Patr": 2802,
      "entire": 2803,
      "Although": 2804,
      "information": 2805,
      "Festival": 2806,
      "ey": 2807,
      "quarter": 2808,
      "ist,": 2809,
      "features": 2810,
      "Olympics": 2811,
      "Under": 2812,
      "Brown": 2813,
      "time.": 2814,
      "uture": 2815,
      "ergy": 2816,
      "proble": 2817,
      "rich": 2818,
      "ity,": 2819,
      "volution": 2820,
      "annel": 2821,
      "artists": 2822,
      "ply": 2823,
      "Oh": 2824,
      "usually": 2825,
      "NE": 2826,
      "ka": 2827,
      "erous": 2828,
      "grand": 2829,
      "police": 2830,
      "earli": 2831,
      "ny": 2832,
      "Lake": 2833,
      "mur": 2834,
      "close": 2835,
      "cretary": 2836,
      "replaced": 2837,
      "ella": 2838,
      "ato": 2839,
      "Ram": 2840,
      "hi": 2841,
      "redu": 2842,
      "atives": 2843,
      "ity.": 2844,
      "FL": 2845,
      "180": 2846,
      "fav": 2847,
      "fre": 2848,
      "lement": 2849,
      "aker": 2850,
      "Fer": 2851,
      "park": 2852,
      "surv": 2853,
      "Most": 2854,
      "study": 2855,
      "Joseph": 2856,
      "transl": 2857,
      "Science": 2858,
      "Emp": 2859,
      "Education": 2860,
      "least": 2861,
      "standing": 2862,
      "bot": 2863,
      "Bas": 2864,
      "ado": 2865,
      "ufact": 2866,
      "Found": 2867,
      "AR": 2868,
      "igned": 2869,
      "Dou": 2870,
      "Bor": 2871,
      "oor": 2872,
      "recent": 2873,
      "unk": 2874,
      "ations.": 2875,
      "idents": 2876,
      "flow": 2877,
      "syl": 2878,
      "apt": 2879,
      "killed": 2880,
      "past": 2881,
      "Bu": 2882,
      "tra": 2883,
      "ios": 2884,
      "Arab": 2885,
      "accept": 2886,
      "Mos": 2887,
      "ape": 2888,
      "shows": 2889,
      "atal": 2890,
      "ona": 2891,
      "rights": 2892,
      "organiz": 2893,
      "Sant": 2894,
      "pie": 2895,
      "arian": 2896,
      "porary": 2897,
      "imate": 2898,
      "Produ": 2899,
      "mean": 2900,
      "icket": 2901,
      "nes": 2902,
      "defin": 2903,
      "space": 2904,
      "Ukrain": 2905,
      "lad": 2906,
      "involved": 2907,
      "iqu": 2908,
      "indic": 2909,
      "Mat": 2910,
      "express": 2911,
      "Sol": 2912,
      "individual": 2913,
      "occup": 2914,
      "vey": 2915,
      "Chris": 2916,
      "treat": 2917,
      "railway": 2918,
      "antic": 2919,
      "m.": 2920,
      "Mic": 2921,
      "enter": 2922,
      "eth": 2923,
      "books": 2924,
      "pet": 2925,
      "al-": 2926,
      "ctive": 2927,
      "schools": 2928,
      "fif": 2929,
      "1980": 2930,
      "Big": 2931,
      "shot": 2932,
      "incor": 2933,
      "mor": 2934,
      "amed": 2935,
      "Research": 2936,
      "Greek": 2937,
      "in.": 2938,
      "sylvan": 2939,
      "sid": 2940,
      "ID": 2941,
      "enz": 2942,
      "upon": 2943,
      "hit": 2944,
      "How": 2945,
      "association": 2946,
      "exhib": 2947,
      "seat": 2948,
      "MP": 2949,
      "defeated": 2950,
      "commission": 2951,
      "plays": 2952,
      "cel": 2953,
      "ois": 2954,
      "degree": 2955,
      "Gar": 2956,
      "edition": 2957,
      "mas": 2958,
      "ini": 2959,
      "cause": 2960,
      "household": 2961,
      "ice,": 2962,
      "ination": 2963,
      "championship": 2964,
      "mit": 2965,
      "1998": 2966,
      "lie": 2967,
      "proved": 2968,
      "bon": 2969,
      "o-": 2970,
      "Ba": 2971,
      "Cy": 2972,
      "capital": 2973,
      "publ": 2974,
      "36": 2975,
      "us.": 2976,
      "500": 2977,
      "Ur": 2978,
      "pain": 2979,
      "achie": 2980,
      "function": 2981,
      "Wood": 2982,
      "Main": 2983,
      "aries": 2984,
      "Ty": 2985,
      "sych": 2986,
      "(P": 2987,
      "lam": 2988,
      "either": 2989,
      "chief": 2990,
      "meas": 2991,
      "certain": 2992,
      "reached": 2993,
      "Dutch": 2994,
      "broadcast": 2995,
      "agon": 2996,
      "movement": 2997,
      "approx": 2998,
      "contribut": 2999,
      "onom": 3000,
      "college": 3001,
      "Fre": 3002,
      "Ath": 3003,
      "Bul": 3004,
      "thus": 3005,
      "previously": 3006,
      "azz": 3007,
      "girl": 3008,
      "eds": 3009,
      "stant": 3010,
      "dy": 3011,
      "34": 3012,
      "provided": 3013,
      "Follow": 3014,
      "cul": 3015,
      "Chief": 3016,
      "reve": 3017,
      "Love": 3018,
      "mercial": 3019,
      "poet": 3020,
      "1996": 3021,
      "Ru": 3022,
      "Boy": 3023,
      "studio": 3024,
      "Democratic": 3025,
      "bb": 3026,
      "Spain": 3027,
      "Major": 3028,
      "Further": 3029,
      "vert": 3030,
      "log": 3031,
      "adium": 3032,
      "Arts": 3033,
      "year.": 3034,
      "Sar": 3035,
      "stone": 3036,
      "emp": 3037,
      "tax": 3038,
      "added": 3039,
      "media": 3040,
      "Pet": 3041,
      "Jud": 3042,
      "bass": 3043,
      "Battle": 3044,
      "ving": 3045,
      "legal": 3046,
      "asing": 3047,
      "publican": 3048,
      "loss": 3049,
      "Radio": 3050,
      "iro": 3051,
      "38": 3052,
      "(19": 3053,
      "stitution": 3054,
      "ita": 3055,
      "decision": 3056,
      "natural": 3057,
      "ready": 3058,
      "actress": 3059,
      "Empire": 3060,
      "possible": 3061,
      "Hel": 3062,
      "ests": 3063,
      "ura": 3064,
      "collection": 3065,
      "Africa": 3066,
      "attended": 3067,
      "von": 3068,
      "(195": 3069,
      "closed": 3070,
      "Kh": 3071,
      "missing": 3072,
      "ola": 3073,
      "dress": 3074,
      "ations,": 3075,
      "singer": 3076,
      "lor": 3077,
      "Lord": 3078,
      "eter": 3079,
      "37": 3080,
      "neigh": 3081,
      "reading": 3082,
      "women's": 3083,
      "decided": 3084,
      "pred": 3085,
      "bell": 3086,
      "abe": 3087,
      "ded": 3088,
      "cycl": 3089,
      "(193": 3090,
      "join": 3091,
      "instead": 3092,
      "exper": 3093,
      "Women's": 3094,
      "culture": 3095,
      "bit": 3096,
      "whose": 3097,
      "finish": 3098,
      "Scottish": 3099,
      "training": 3100,
      "20,": 3101,
      "Hung": 3102,
      "scient": 3103,
      "Es": 3104,
      "-up": 3105,
      "istics": 3106,
      "Jewish": 3107,
      "aps": 3108,
      "Social": 3109,
      "Mu": 3110,
      "AC": 3111,
      "ate.": 3112,
      "mass": 3113,
      "Pennsylvan": 3114,
      "results": 3115,
      "(N": 3116,
      "unit": 3117,
      "ibl": 3118,
      "deal": 3119,
      "perform": 3120,
      "plann": 3121,
      "Hot": 3122,
      "scor": 3123,
      "mann": 3124,
      "rup": 3125,
      "sat": 3126,
      "wing": 3127,
      "Pak": 3128,
      "Mah": 3129,
      "sus": 3130,
      "speople": 3131,
      "Young": 3132,
      "F.C.": 3133,
      "account": 3134,
      "land.": 3135,
      "Fort": 3136,
      "Asian": 3137,
      "igan": 3138,
      "adv": 3139,
      "subject": 3140,
      "kin": 3141,
      "Championships": 3142,
      "course": 3143,
      "Bud": 3144,
      "Edward": 3145,
      "Congress": 3146,
      "ay,": 3147,
      "years,": 3148,
      "overs": 3149,
      "Following": 3150,
      "Jim": 3151,
      "Haw": 3152,
      "Service": 3153,
      "Lin": 3154,
      "ffer": 3155,
      "Back": 3156,
      "names": 3157,
      "(D": 3158,
      "1997": 3159,
      "istry": 3160,
      "investig": 3161,
      "\")": 3162,
      "va": 3163,
      "farm": 3164,
      "ert": 3165,
      "method": 3166,
      "s)": 3167,
      "incorpor": 3168,
      "Official": 3169,
      "Long": 3170,
      "rang": 3171,
      "keep": 3172,
      "18,": 3173,
      "represented": 3174,
      "Members": 3175,
      "primary": 3176,
      "Iran": 3177,
      "Gal": 3178,
      "ention": 3179,
      "u,": 3180,
      "Military": 3181,
      "ive,": 3182,
      "theast": 3183,
      "behind": 3184,
      "arily": 3185,
      "astr": 3186,
      "chest": 3187,
      "d.": 3188,
      "hus": 3189,
      "writing": 3190,
      "age.": 3191,
      "da": 3192,
      "northern": 3193,
      "Common": 3194,
      "purch": 3195,
      "Ox": 3196,
      "Later": 3197,
      "southern": 3198,
      "regard": 3199,
      "length": 3200,
      "Register": 3201,
      "mir": 3202,
      "\"the": 3203,
      "Ep": 3204,
      "iger": 3205,
      "179": 3206,
      "screen": 3207,
      "phil": 3208,
      "jun": 3209,
      "master": 3210,
      "3rd": 3211,
      "provide": 3212,
      "claimed": 3213,
      "Men's": 3214,
      "Assembly": 3215,
      "Bet": 3216,
      "Southern": 3217,
      "ww": 3218,
      "15,": 3219,
      "Civil": 3220,
      "plat": 3221,
      "academ": 3222,
      "span": 3223,
      "rather": 3224,
      "lived": 3225,
      "respond": 3226,
      "Bank": 3227,
      "lower": 3228,
      "taking": 3229,
      "network": 3230,
      "Navy": 3231,
      "reason": 3232,
      "Board": 3233,
      "opt": 3234,
      "Republican": 3235,
      "habit": 3236,
      "75": 3237,
      "rom": 3238,
      "anch": 3239,
      "value": 3240,
      "frequ": 3241,
      "mic": 3242,
      "months": 3243,
      "drama": 3244,
      "ception": 3245,
      "card": 3246,
      "curity": 3247,
      "Jul": 3248,
      "venue": 3249,
      "Ken": 3250,
      "Post": 3251,
      "standard": 3252,
      "newsp": 3253,
      "oid": 3254,
      "Liber": 3255,
      "Net": 3256,
      "lines": 3257,
      "brought": 3258,
      "structure": 3259,
      "tor": 3260,
      "Prem": 3261,
      "Build": 3262,
      "Top": 3263,
      "day,": 3264,
      "aled": 3265,
      "Martin": 3266,
      "Rel": 3267,
      "coast": 3268,
      "above": 3269,
      "Chicago": 3270,
      "ic,": 3271,
      "somet": 3272,
      "1994": 3273,
      "1995": 3274,
      "(the": 3275,
      "manufact": 3276,
      "diff": 3277,
      "oke": 3278,
      "Bob": 3279,
      "Portug": 3280,
      "science": 3281,
      "G.": 3282,
      "ili": 3283,
      "Lad": 3284,
      "1970": 3285,
      "Bre": 3286,
      "imp": 3287,
      "almost": 3288,
      "changed": 3289,
      "bed": 3290,
      "Rh": 3291,
      "ba": 3292,
      "O'": 3293,
      "32": 3294,
      "musical": 3295,
      "Virginia": 3296,
      "mond": 3297,
      "river": 3298,
      "Cult": 3299,
      "dig": 3300,
      "Engine": 3301,
      "organization": 3302,
      "ter,": 3303,
      "outside": 3304,
      "transport": 3305,
      "maintain": 3306,
      "39": 3307,
      "1992": 3308,
      "union": 3309,
      "Pacific": 3310,
      "Def": 3311,
      "pian": 3312,
      "Colleg": 3313,
      "princ": 3314,
      "thes": 3315,
      "(L": 3316,
      "food": 3317,
      "stream": 3318,
      "(\"": 3319,
      "48": 3320,
      "batt": 3321,
      "ya": 3322,
      "independent": 3323,
      "Arm": 3324,
      "personal": 3325,
      "parts": 3326,
      "move": 3327,
      "editor": 3328,
      "ancial": 3329,
      "eas": 3330,
      "Columb": 3331,
      "2010,": 3332,
      "clear": 3333,
      "states": 3334,
      "2019,": 3335,
      "ada": 3336,
      "ordin": 3337,
      "yard": 3338,
      "Medal": 3339,
      "according": 3340,
      "(R": 3341,
      "(194": 3342,
      "2018,": 3343,
      "Television": 3344,
      "schol": 3345,
      "travel": 3346,
      "others": 3347,
      "ben": 3348,
      "lying": 3349,
      "fel": 3350,
      "oo": 3351,
      "Philipp": 3352,
      "Compan": 3353,
      "to:": 3354,
      "vin": 3355,
      "ories": 3356,
      "colon": 3357,
      "2011,": 3358,
      "units": 3359,
      "-language": 3360,
      "espec": 3361,
      "appearance": 3362,
      "material": 3363,
      "allowed": 3364,
      "elling": 3365,
      "Health": 3366,
      "environment": 3367,
      "une": 3368,
      "T.": 3369,
      "quare": 3370,
      "approach": 3371,
      "Az": 3372,
      "gas": 3373,
      "forced": 3374,
      "territ": 3375,
      "2017,": 3376,
      "emer": 3377,
      "rough": 3378,
      "Luc": 3379,
      "approximately": 3380,
      "highest": 3381,
      "veh": 3382,
      "especially": 3383,
      "singles": 3384,
      "fefe": 3385,
      "Series": 3386,
      "le.": 3387,
      "Ohio": 3388,
      "MA": 3389,
      "Polish": 3390,
      "-American": 3391,
      "2012,": 3392,
      "ems": 3393,
      "12,": 3394,
      "anal": 3395,
      "minor": 3396,
      "Committee": 3397,
      "whom": 3398,
      "SS": 3399,
      "Kent": 3400,
      "Loc": 3401,
      "Director": 3402,
      "Jon": 3403,
      "ients": 3404,
      "hot": 3405,
      "Athlet": 3406,
      "towards": 3407,
      "Paris": 3408,
      "2016,": 3409,
      "align=\"": 3410,
      "iences": 3411,
      "bal": 3412,
      "ton,": 3413,
      "Argent": 3414,
      "d6d6": 3415,
      "1-": 3416,
      "2020,": 3417,
      "lay": 3418,
      "ened": 3419,
      "mo": 3420,
      "destroy": 3421,
      "department": 3422,
      "Hor": 3423,
      "summer": 3424,
      "Ant": 3425,
      "ho": 3426,
      "Mur": 3427,
      "opp": 3428,
      "Os": 3429,
      "2013,": 3430,
      "expatr": 3431,
      "les,": 3432,
      "senior": 3433,
      "CE": 3434,
      "producer": 3435,
      "ips": 3436,
      "n't": 3437,
      "cele": 3438,
      "bu": 3439,
      "Develop": 3440,
      "2014,": 3441,
      "launched": 3442,
      "2:": 3443,
      "complex": 3444,
      "yan": 3445,
      "ension": 3446,
      "istan": 3447,
      "Mas": 3448,
      "street": 3449,
      "2015,": 3450,
      "Illin": 3451,
      "Ot": 3452,
      "object": 3453,
      "sports": 3454,
      "complete": 3455,
      "Base": 3456,
      "drop": 3457,
      "spent": 3458,
      "ustr": 3459,
      "woman": 3460,
      "additional": 3461,
      "Far": 3462,
      "ibility": 3463,
      "Open": 3464,
      "squad": 3465,
      "I.": 3466,
      "Bost": 3467,
      "Lee": 3468,
      "leader": 3469,
      "vocals": 3470,
      "ala": 3471,
      "charg": 3472,
      "anth": 3473,
      "minut": 3474,
      "traditional": 3475,
      "Track": 3476,
      "soon": 3477,
      "at,": 3478,
      "Famil": 3479,
      "ctic": 3480,
      "ansas": 3481,
      "Press": 3482,
      "inet": 3483,
      "genus": 3484,
      "Sports": 3485,
      "49": 3486,
      "future": 3487,
      "little": 3488,
      "achu": 3489,
      "sea": 3490,
      "Sand": 3491,
      "burgh": 3492,
      "States.": 3493,
      "Cro": 3494,
      "cing": 3495,
      "fa": 3496,
      "itself": 3497,
      "wealth": 3498,
      "ar,": 3499,
      "route": 3500,
      "Eastern": 3501,
      "footballer": 3502,
      "or.": 3503,
      "plied": 3504,
      "reser": 3505,
      "serving": 3506,
      "Ak": 3507,
      "multiple": 3508,
      ":#": 3509,
      "Head": 3510,
      "minister": 3511,
      "beginning": 3512,
      "opening": 3513,
      "Dun": 3514,
      "fam": 3515,
      "ults": 3516,
      "16,": 3517,
      "2021,": 3518,
      "ica,": 3519,
      "brand": 3520,
      "iting": 3521,
      "Hal": 3522,
      "Blue": 3523,
      "branch": 3524,
      "sof": 3525,
      "prior": 3526,
      "17,": 3527,
      "ge,": 3528,
      "going": 3529,
      "sometimes": 3530,
      "Conference": 3531,
      "exam": 3532,
      "14,": 3533,
      "actions": 3534,
      "ine.": 3535,
      "FI": 3536,
      "ally,": 3537,
      "reme": 3538,
      "oil": 3539,
      "iana": 3540,
      "11,": 3541,
      "chart": 3542,
      "ero": 3543,
      "Bow": 3544,
      "Britain": 3545,
      "Prince": 3546,
      "operated": 3547,
      "Bang": 3548,
      "iga": 3549,
      "47": 3550,
      "running": 3551,
      "associated": 3552,
      "Jean": 3553,
      "uan": 3554,
      "economic": 3555,
      "husband": 3556,
      "pected": 3557,
      "onse": 3558,
      "Ev": 3559,
      "Die": 3560,
      "That": 3561,
      "entered": 3562,
      "ify": 3563,
      "Represent": 3564,
      "commercial": 3565,
      "aught": 3566,
      "selected": 3567,
      "Lab": 3568,
      "2009,": 3569,
      "below": 3570,
      "saf": 3571,
      "za": 3572,
      "Ko": 3573,
      "ights": 3574,
      "Journal": 3575,
      "too": 3576,
      "publish": 3577,
      "lack": 3578,
      "th,": 3579,
      "i's": 3580,
      "inte": 3581,
      "Massachu": 3582,
      "fle": 3583,
      "Places": 3584,
      "interview": 3585,
      "phen": 3586,
      "pose": 3587,
      "ure,": 3588,
      "Are": 3589,
      "Middle": 3590,
      "Governor": 3591,
      "chester": 3592,
      "urb": 3593,
      "characters": 3594,
      "4:": 3595,
      "Sat": 3596,
      "Dr.": 3597,
      "z,": 3598,
      "starr": 3599,
      "contains": 3600,
      "Mexico": 3601,
      "sister": 3602,
      "management": 3603,
      "conf": 3604,
      "score": 3605,
      "Jos": 3606,
      "mad": 3607,
      "counter": 3608,
      "lot": 3609,
      "oma": 3610,
      "studied": 3611,
      "Florida": 3612,
      "applic": 3613,
      "ayed": 3614,
      "runs": 3615,
      "thers": 3616,
      "older": 3617,
      "ley,": 3618,
      "big": 3619,
      "Water": 3620,
      "Ass": 3621,
      "wan": 3622,
      "1960": 3623,
      "1991": 3624,
      "limited": 3625,
      "1988": 3626,
      "Van": 3627,
      "ence,": 3628,
      "Stan": 3629,
      "municipality": 3630,
      "murder": 3631,
      "Bir": 3632,
      "iation": 3633,
      "Ca": 3634,
      "Four": 3635,
      "amount": 3636,
      "surround": 3637,
      "iance": 3638,
      "Field": 3639,
      "actors": 3640,
      "Cross": 3641,
      "ises": 3642,
      "Ha": 3643,
      "inal": 3644,
      "obal": 3645,
      "pil": 3646,
      "higher": 3647,
      "Ash": 3648,
      "ie,": 3649,
      "Good": 3650,
      "politicians": 3651,
      "-based": 3652,
      "acted": 3653,
      "Library": 3654,
      "s'": 3655,
      "55": 3656,
      "2008,": 3657,
      "Lim": 3658,
      "cin": 3659,
      "aring": 3660,
      "Broad": 3661,
      "issue": 3662,
      "uten": 3663,
      "burn": 3664,
      "later,": 3665,
      "y's": 3666,
      "urt": 3667,
      "Islam": 3668,
      "19,": 3669,
      "EP": 3670,
      "3),": 3671,
      "becoming": 3672,
      "ano": 3673,
      "medical": 3674,
      "(192": 3675,
      "equip": 3676,
      "island": 3677,
      "iety": 3678,
      "ales": 3679,
      "size": 3680,
      "Hong": 3681,
      "mat": 3682,
      "46": 3683,
      "Albert": 3684,
      "Theatre": 3685,
      "him.": 3686,
      "generally": 3687,
      "initially": 3688,
      "Carolina": 3689,
      "activities": 3690,
      "collabor": 3691,
      "Development": 3692,
      "mach": 3693,
      "Tenn": 3694,
      "ns": 3695,
      "suffer": 3696,
      "fil": 3697,
      "seasons": 3698,
      "foot": 3699,
      "prob": 3700,
      "relationship": 3701,
      "ffic": 3702,
      "noted": 3703,
      "Spe": 3704,
      "instr": 3705,
      "expand": 3706,
      "Econom": 3707,
      "Mot": 3708,
      "eastern": 3709,
      "caused": 3710,
      "sym": 3711,
      "Many": 3712,
      "ring": 3713,
      "Ho": 3714,
      "3-": 3715,
      "1989": 3716,
      "brid": 3717,
      "Ok": 3718,
      "Death": 3719,
      "bol": 3720,
      "ador": 3721,
      "Angeles": 3722,
      "communic": 3723,
      "hum": 3724,
      "1920": 3725,
      "Vo": 3726,
      "step": 3727,
      "Oxford": 3728,
      "(17": 3729,
      "legisl": 3730,
      "council": 3731,
      "bird": 3732,
      "ties": 3733,
      "celebr": 3734,
      "Coast": 3735,
      "lov": 3736,
      "ette": 3737,
      "Of": 3738,
      "aka": 3739,
      "2-": 3740,
      "Serb": 3741,
      "mid-": 3742,
      "Bern": 3743,
      "Conserv": 3744,
      "pers": 3745,
      "threat": 3746,
      "Game": 3747,
      "passed": 3748,
      "Ul": 3749,
      "Wind": 3750,
      "date": 3751,
      "BS": 3752,
      "Organ": 3753,
      "Tre": 3754,
      "already": 3755,
      "If": 3756,
      "Der": 3757,
      "ift": 3758,
      "Kong": 3759,
      "Egy": 3760,
      "Gre": 3761,
      "Adam": 3762,
      "System": 3763,
      "Francisco": 3764,
      "increased": 3765,
      "Little": 3766,
      "annual": 3767,
      "adel": 3768,
      "Ve": 3769,
      "means": 3770,
      "-align": 3771,
      "Bol": 3772,
      "Final": 3773,
      "Writ": 3774,
      "worth": 3775,
      "Ly": 3776,
      "cription": 3777,
      "specific": 3778,
      "page": 3779,
      "obtain": 3780,
      "roll": 3781,
      "Swedish": 3782,
      "flict": 3783,
      "y-": 3784,
      "Manag": 3785,
      "Wales": 3786,
      "museum": 3787,
      "clus": 3788,
      "difficult": 3789,
      "13,": 3790,
      "IV": 3791,
      "style=\"background": 3792,
      "44": 3793,
      "university": 3794,
      "Max": 3795,
      "Soc": 3796,
      "-align:": 3797,
      "ades": 3798,
      "Personal": 3799,
      "align=center": 3800,
      "stitu": 3801,
      "ais": 3802,
      "Station": 3803,
      "firm": 3804,
      "immed": 3805,
      "Wis": 3806,
      "numerous": 3807,
      "Ob": 3808,
      "ulty": 3809,
      "acts": 3810,
      "religious": 3811,
      "Univers": 3812,
      "g.": 3813,
      "feature": 3814,
      "Card": 3815,
      "Home": 3816,
      "2007,": 3817,
      "rat": 3818,
      "tol": 3819,
      "Poland": 3820,
      "ingu": 3821,
      "n,": 3822,
      "Centre": 3823,
      "trade": 3824,
      "ows": 3825,
      "Ray": 3826,
      "hun": 3827,
      "competed": 3828,
      "battle": 3829,
      "ian,": 3830,
      "2),": 3831,
      "centre": 3832,
      "Metro": 3833,
      "victory": 3834,
      "plement": 3835,
      "ulpt": 3836,
      "retired": 3837,
      "Egypt": 3838,
      "better": 3839,
      "comedy": 3840,
      "ko": 3841,
      "uments": 3842,
      "anti-": 3843,
      "clud": 3844,
      "AT": 3845,
      "two-": 3846,
      "Special": 3847,
      "ec": 3848,
      "required": 3849,
      "chap": 3850,
      "ias": 3851,
      "Wall": 3852,
      "2022,": 3853,
      "Anton": 3854,
      "Transport": 3855,
      "drum": 3856,
      "Italy": 3857,
      "mostly": 3858,
      "Gard": 3859,
      "Det": 3860,
      "Elect": 3861,
      "ance,": 3862,
      "altern": 3863,
      "happ": 3864,
      "create": 3865,
      "Berlin": 3866,
      "goals": 3867,
      "fill": 3868,
      "self-": 3869,
      "Dar": 3870,
      "ids": 3871,
      "rol": 3872,
      "professor": 3873,
      "portr": 3874,
      "nine": 3875,
      "Turk": 3876,
      "itors": 3877,
      "expatriate": 3878,
      "ky": 3879,
      "anda": 3880,
      "Night": 3881,
      "ica.": 3882,
      "supported": 3883,
      "Daniel": 3884,
      "bad": 3885,
      "lav": 3886,
      "(T": 3887,
      "Andrew": 3888,
      "vocal": 3889,
      "text-align:": 3890,
      "federal": 3891,
      "marri": 3892,
      "load": 3893,
      "famous": 3894,
      "pool": 3895,
      "idae": 3896,
      "earned": 3897,
      "recording": 3898,
      "hockey": 3899,
      "give": 3900,
      "Enter": 3901,
      "wa": 3902,
      "block": 3903,
      "1987": 3904,
      "detail": 3905,
      "historical": 3906,
      "overall": 3907,
      "emorial": 3908,
      "parish": 3909,
      "tainment": 3910,
      "Girl": 3911,
      ";\"": 3912,
      "ange": 3913,
      "pal": 3914,
      "ski": 3915,
      "practice": 3916,
      "occas": 3917,
      "chall": 3918,
      "CC": 3919,
      "prevent": 3920,
      "partn": 3921,
      "cru": 3922,
      "subsequently": 3923,
      "bomb": 3924,
      "icated": 3925,
      "particularly": 3926,
      "iang": 3927,
      "airs": 3928,
      "concept": 3929,
      "install": 3930,
      "hospital": 3931,
      "rate": 3932,
      "product": 3933,
      "Biography": 3934,
      "MS": 3935,
      "ampions": 3936,
      "Russia": 3937,
      "iest": 3938,
      "Syd": 3939,
      "job": 3940,
      "Their": 3941,
      "news": 3942,
      "Win": 3943,
      "condition": 3944,
      "1),": 3945,
      "Nat": 3946,
      "personnel": 3947,
      "Dor": 3948,
      "asked": 3949,
      "electric": 3950,
      "dro": 3951,
      "majority": 3952,
      "Latin": 3953,
      "cting": 3954,
      "Tro": 3955,
      "Time": 3956,
      "2023": 3957,
      "Women": 3958,
      "ites": 3959,
      "Eliz": 3960,
      "descent": 3961,
      "//": 3962,
      "consider": 3963,
      "century,": 3964,
      "Album": 3965,
      "belong": 3966,
      "urban": 3967,
      "crew": 3968,
      "scen": 3969,
      "appearances": 3970,
      "evidence": 3971,
      "Mir": 3972,
      "baseball": 3973,
      "Minn": 3974,
      "1986": 3975,
      "Secretary": 3976,
      "communities": 3977,
      "ker": 3978,
      "thought": 3979,
      "Brook": 3980,
      "Valley": 3981,
      "Vi": 3982,
      "crimin": 3983,
      "changes": 3984,
      "1993": 3985,
      "Week": 3986,
      "hem": 3987,
      "response": 3988,
      "et,": 3989,
      "Creek": 3990,
      "Korean": 3991,
      "one,": 3992,
      "Bi": 3993,
      "mel": 3994,
      "manager": 3995,
      "presented": 3996,
      "path": 3997,
      "table": 3998,
      "Son": 3999
    },
    "merges": [
      "t h",
      "i n",
      "e r",
      "a n",
      "o n",
      "th e",
      "o r",
      "e n",
      "e d",
      "e s",
      "a t",
      "a l",
      "a r",
      "i s",
      "a s",
      "o f",
      "an d",
      "i c",
      "i t",
      "in g",
      "r e",
      "t o",
      "i on",
      "o u",
      "l e",
      "o m",
      "s t",
      "h e",
      "i l",
      "en t",
      "c h",
      "a m",
      "o l",
      "e l",
      "a d",
      "u r",
      "a c",
      "1 9",
      "f or",
      "r o",
      "s e",
      "t er",
      "i v",
      "2 0",
      "i r",
      "w as",
      "at ion",
      "T he",
      "i g",
      "er s",
      "i d",
      "u n",
      "a y",
      "l y",
      "i m",
      "e m",
      "b e",
      "c t",
      "a g",
      "o w",
      "u s",
      "is t",
      "i th",
      "o t",
      "o p",
      "e t",
      "w h",
      "b y",
      "c e",
      "u l",
      "d e",
      "w ith",
      "c on",
      "f r",
      "a p",
      "es t",
      "u m",
      "I n",
      "o v",
      "p l",
      "u t",
      "ou n",
      "' s",
      "a b",
      "al l",
      "t r",
      "c om",
      "p r",
      "a in",
      "a v",
      "i an",
      "o c",
      "er e",
      "fr om",
      "ar t",
      "s ,",
      "i es",
      "o s",
      "i a",
      "p e",
      "is h",
      "t e",
      "b er",
      "th at",
      "it y",
      "h is",
      "p ro",
      "es s",
      "ar e",
      "n e",
      "at e",
      "il l",
      "s h",
      "c l",
      "s .",
      "i f",
      "R e",
      "o d",
      "ar d",
      "i p",
      "ig h",
      "C h",
      "g r",
      "a k",
      "s u",
      "th er",
      "20 1",
      "20 0",
      "e x",
      "ic h",
      "al s",
      "S t",
      "u d",
      "m an",
      "ar y",
      "at ed",
      "or t",
      "ou r",
      "q u",
      "i e",
      "e ar",
      "m ent",
      "m er",
      "an t",
      "f er",
      "e ,",
      "1 8",
      "l d",
      "en d",
      "i al",
      "p er",
      "iv e",
      "on g",
      "c es",
      "g e",
      "el l",
      "u b",
      "v er",
      "H e",
      "as s",
      "U n",
      "st r",
      "as t",
      "oun d",
      "ac k",
      "g h",
      "a f",
      "| |",
      "am e",
      "in e",
      "w ere",
      "ac t",
      "d u",
      "r es",
      "or d",
      "i b",
      "ov er",
      "ou t",
      "on e",
      "pl ay",
      "ic al",
      ") ,",
      "igh t",
      "ter n",
      "ig n",
      "t w",
      "als o",
      "wh ich",
      "o st",
      "a w",
      "or k",
      "ag e",
      "ct ion",
      "a ch",
      "com p",
      "u p",
      "r it",
      "e w",
      "p ort",
      "l and",
      "o g",
      "s er",
      "19 9",
      "S e",
      "r an",
      "A r",
      "ow n",
      "i z",
      "o k",
      "I t",
      "y ,",
      "a u",
      "ic an",
      "f ir",
      "i re",
      "A l",
      "fer en",
      "p art",
      "it s",
      "u re",
      "it ion",
      "d er",
      "em ber",
      "0 0",
      "h ad",
      "A n",
      "h er",
      "c ent",
      "ou s",
      "h as",
      "b o",
      "n ot",
      "c r",
      "ou gh",
      "ation al",
      "u e",
      "d r",
      "or e",
      "p t",
      "ic t",
      "b r",
      "l in",
      "fir st",
      "an g",
      "k e",
      "ul t",
      "D e",
      "id e",
      "T h",
      "av e",
      "A mer",
      "feren ces",
      "ic e",
      "f e",
      "M ar",
      "a ,",
      "l ish",
      "wh o",
      "b ut",
      "at er",
      "or y",
      "in t",
      "i ed",
      "Re ferences",
      "p h",
      "for m",
      "19 8",
      "ar r",
      "L e",
      "k s",
      "am p",
      "es ,",
      "il m",
      "a th",
      "re e",
      "i o",
      "at t",
      "ol l",
      "y ear",
      "op le",
      "o ther",
      "r a",
      "the ir",
      "b all",
      "it ed",
      "en s",
      "u st",
      "oun t",
      "an s",
      "ol d",
      "w ork",
      "it e",
      "Amer ican",
      "om e",
      "c o",
      "es .",
      "o b",
      "ac e",
      "N ew",
      "ch o",
      "s p",
      "or n",
      "s c",
      "C om",
      ") .",
      "iv ers",
      "E n",
      "u g",
      "t im",
      "en ce",
      "19 7",
      "w e",
      "ation s",
      "in d",
      "E x",
      "i le",
      "m e",
      "in cl",
      "of f",
      "d es",
      "ser v",
      "com m",
      "e v",
      "ou ld",
      "ist r",
      "d is",
      "al ly",
      "p o",
      "e le",
      "ur ing",
      "c ol",
      "tw o",
      "A s",
      "P r",
      "at es",
      "an n",
      "y .",
      "s pe",
      "a ir",
      "s on",
      "c re",
      "ad e",
      "ab le",
      "a il",
      "c ord",
      "is s",
      "as ed",
      "h ave",
      "o ot",
      "cho ol",
      "pr es",
      "C on",
      "c ed",
      "th is",
      "sh ip",
      "f ilm",
      "19 6",
      "ur n",
      "J o",
      "p os",
      "l oc",
      "p ub",
      "m in",
      "ar k",
      "1 7",
      "af ter",
      "f in",
      "f l",
      "as on",
      "o od",
      "be en",
      "is ion",
      "S h",
      "er ,",
      "ic k",
      "ou th",
      "re g",
      "l i",
      "ct ed",
      "t on",
      "ent s",
      "u il",
      "O n",
      "u c",
      "a h",
      "1 0",
      "or s",
      "w ay",
      "v e",
      "p re",
      "s he",
      "F r",
      "g an",
      "pe ople",
      "con t",
      "ivers ity",
      "R o",
      "v el",
      "B r",
      "l es",
      "g en",
      "a .",
      "m on",
      "ne w",
      "p ol",
      "or ld",
      "1 ,",
      "an ce",
      "s y",
      "incl ud",
      "as e",
      "19 4",
      "c an",
      "w ard",
      "con d",
      "m ed",
      "Un ited",
      "C ol",
      "an y",
      "el y",
      "be c",
      "in to",
      "oot ball",
      "19 5",
      "the y",
      "1 6",
      "G r",
      "u ary",
      "k n",
      "en g",
      "or th",
      "i x",
      "1 5",
      "al e",
      "Un iversity",
      "ing s",
      "ic s",
      "un der",
      "le t",
      "l ic",
      "T r",
      "a z",
      "re t",
      "in n",
      "tern al",
      "in ter",
      "c ess",
      "i el",
      "t en",
      "pro du",
      "ol og",
      "us ed",
      "b uil",
      "se t",
      "ion s",
      "ro w",
      "e ver",
      "ur y",
      "e .",
      "En g",
      "te am",
      "ou p",
      "2 ,",
      "m ain",
      "am il",
      "se ason",
      "p ar",
      "C l",
      "h im",
      "i k",
      "in ce",
      "h y",
      "am es",
      "20 2",
      "ist s",
      "id ent",
      "b orn",
      "ak e",
      "re l",
      "lin ks",
      "play ers",
      "i ous",
      "oc i",
      "P ro",
      "d ay",
      "c er",
      "P e",
      "Ex ternal",
      "m ost",
      "W h",
      "c ur",
      "e en",
      "gr ap",
      "t y",
      "wh ere",
      "ou se",
      "In d",
      "a j",
      "F or",
      "S c",
      "f f",
      "S he",
      "19 3",
      "m ore",
      "it ies",
      "oll ow",
      "es e",
      "w ould",
      "pro v",
      "A u",
      "e p",
      "w rit",
      "on ly",
      "ter s",
      "wh en",
      "th r",
      "s ing",
      "us ic",
      "er al",
      "at ive",
      "h n",
      "3 ,",
      "f ound",
      "ag ain",
      "su b",
      "u se",
      "1 2",
      "over n",
      "at ing",
      "m ov",
      "d uring",
      "t s",
      "b um",
      "u al",
      "T his",
      "on d",
      "con s",
      "iv ing",
      "4 ,",
      "spe c",
      "the n",
      "lish ed",
      "st ud",
      "re le",
      "em ent",
      "P l",
      "b ir",
      "ul ar",
      "o y",
      "tim e",
      "l ed",
      "as h",
      "pres ent",
      "ar g",
      "f ootball",
      "j e",
      "i er",
      "b ack",
      "B e",
      "en 's",
      "I s",
      "kn own",
      "r y",
      "ed .",
      "1 .",
      "ct or",
      "for e",
      "tw een",
      "be tween",
      "in s",
      "if ic",
      "ing ,",
      "F ran",
      "ab out",
      "Jo hn",
      "the m",
      "h igh",
      "N ational",
      "O r",
      "istr ict",
      "\" .",
      "un t",
      "d o",
      "if e",
      "th ree",
      "l ater",
      "le g",
      "G er",
      "W orld",
      "s o",
      "ag ue",
      "n o",
      "l o",
      "c k",
      "ers on",
      "m ade",
      "w ell",
      "thr ough",
      "S p",
      "th s",
      "al bum",
      "ion al",
      "M ay",
      "C ount",
      "n am",
      "se cond",
      "f ul",
      "f ollow",
      "en n",
      "est ab",
      "em b",
      "n um",
      "p op",
      "C an",
      "5 ,",
      "f amil",
      "iv er",
      "g o",
      "iel d",
      "B rit",
      "d ire",
      "s ome",
      "J an",
      "1 4",
      "J un",
      "A t",
      "Au str",
      "C ar",
      "re at",
      "th ere",
      "1 3",
      "ist ory",
      "po int",
      "I I",
      "to w",
      "m y",
      "th an",
      "tr ans",
      "W ar",
      "re cord",
      "r ed",
      "cent ury",
      "iv ed",
      "in v",
      "ur ch",
      "i ,",
      "i or",
      "op er",
      "2 .",
      "con tr",
      "p or",
      "A f",
      "P h",
      "su ch",
      "8 ,",
      "b l",
      "G e",
      "v en",
      "at ch",
      "s chool",
      "c all",
      "c y",
      "6 ,",
      "man y",
      "B l",
      "us s",
      "7 ,",
      "ie w",
      "S outh",
      "a x",
      "c ap",
      "ro s",
      "\" ,",
      "pub lic",
      "it t",
      "bec ame",
      "c oun",
      "str u",
      "19 2",
      "le ad",
      "vel op",
      "in a",
      "st it",
      "B o",
      "J u",
      "f our",
      "s ong",
      "Com m",
      "P ar",
      "amp ion",
      "ow er",
      "N ov",
      "ed ,",
      "0 ,",
      "pol it",
      "S chool",
      "s k",
      "includ ing",
      "r ight",
      "ap pe",
      "su p",
      "A d",
      "ser ies",
      "m p",
      "be ing",
      "ia ,",
      "tern ational",
      "le y",
      "ig in",
      "t ain",
      "ur al",
      "St ates",
      "A c",
      "gr oup",
      "is ter",
      "v iew",
      "a id",
      "0 .",
      "| -",
      "he l",
      "s ur",
      "is m",
      "ro ad",
      "a i",
      "Y ork",
      "P ol",
      "in c",
      "C o",
      "st em",
      "wh ile",
      "A ug",
      "O c",
      "again st",
      "ut ion",
      "ad d",
      "Af ter",
      "de ath",
      "F e",
      "er .",
      "je ct",
      "tow n",
      "off ic",
      "Austr al",
      "o ,",
      "o se",
      "M an",
      "g u",
      "Se pt",
      "s ign",
      "Aug ust",
      "overn ment",
      "year s",
      "Mar ch",
      "pl ac",
      "c are",
      "to p",
      "De c",
      "appe ar",
      "op e",
      "Brit ish",
      "ch ar",
      "Sept ember",
      "S er",
      "on t",
      "3 .",
      "buil d",
      "w om",
      "un d",
      "re ce",
      "ist or",
      "S .",
      "al ign",
      "an k",
      "an c",
      "m usic",
      "= \"",
      "C ent",
      "or gan",
      "to ber",
      "ur es",
      "Oc tober",
      "9 ,",
      "sh ow",
      "st ate",
      "ar ch",
      "fe at",
      "as k",
      "he ad",
      "y s",
      "m ay",
      "for mer",
      "be fore",
      "Jan uary",
      "Ch r",
      "er n",
      "i ent",
      "or igin",
      "ing .",
      "m od",
      "unt il",
      "Al l",
      "ation .",
      "E ur",
      "Ju ly",
      "f t",
      "ation ,",
      "th ough",
      "at r",
      "de velop",
      "A pr",
      "play ed",
      "on ,",
      "v ision",
      "i am",
      "gr am",
      "b and",
      "i um",
      "s m",
      "le ,",
      "bo th",
      "op en",
      "a ther",
      "is e",
      "Apr il",
      "N orth",
      "ow ever",
      "er ed",
      "rele ased",
      "num ber",
      "ar m",
      "v ers",
      "el f",
      "Can ad",
      "l ine",
      "on s",
      "emb ers",
      "bir ths",
      "bo ok",
      "r un",
      "v ar",
      "cl ass",
      "ic a",
      "f ield",
      "Jun e",
      "A m",
      "des ign",
      "Nov ember",
      "w on",
      "Eng lish",
      "ampion ship",
      "Se e",
      "b ased",
      "iss ion",
      "- century",
      "pr of",
      "ia .",
      "G u",
      "ian s",
      "it al",
      "de p",
      "n ame",
      "b ur",
      "E d",
      "E l",
      "Ger man",
      "Le ague",
      "i et",
      "Dec ember",
      "iz ed",
      "at or",
      "4 .",
      "n ow",
      "5 .",
      "l ist",
      "ment s",
      "b el",
      "W ill",
      "j o",
      "1 1",
      "s ide",
      "pr ess",
      "comm un",
      "T e",
      "( born",
      "end ed",
      "l ong",
      "C ity",
      "en ch",
      "v is",
      "de c",
      "C al",
      "ber t",
      "c over",
      "l a",
      "r est",
      "aj or",
      "00 0",
      "ic ip",
      "e f",
      "ver al",
      "u ch",
      "st art",
      "oc k",
      "19 0",
      "Re g",
      "call ed",
      "M e",
      "St ate",
      "ther n",
      "x t",
      "im e",
      "ch il",
      "D r",
      "p ed",
      "h am",
      "a e",
      "d if",
      "h ouse",
      "6 .",
      "N or",
      "o .",
      "7 .",
      "famil y",
      "ce pt",
      "iv es",
      "en ,",
      "G en",
      "W e",
      "le ft",
      "8 .",
      "gr ound",
      "cont in",
      "A ward",
      "F l",
      "ers ,",
      "re ad",
      "N e",
      "t it",
      "sy stem",
      "c ity",
      "B ar",
      ". \"",
      "ap an",
      "2 1",
      "w ill",
      "U S",
      "H is",
      "Fe br",
      "su c",
      "Febr uary",
      "c ar",
      "ot t",
      "S w",
      "H er",
      "owever ,",
      "M in",
      "K ing",
      "pl ace",
      "au se",
      "v ent",
      "J apan",
      "u ally",
      "g ame",
      "ul ation",
      "per i",
      "am ent",
      "e k",
      "ir d",
      "c our",
      "W est",
      "s ame",
      "ut e",
      "3 0",
      "w ar",
      "18 9",
      "ne ar",
      "ret urn",
      "m et",
      "il it",
      "om in",
      "r al",
      "M ed",
      "m ember",
      "follow ing",
      "l aw",
      "com e",
      "u de",
      "l ife",
      "iv ision",
      "r ic",
      "P res",
      "tr y",
      "des cr",
      "nam ed",
      "b us",
      "st y",
      "se veral",
      "ros s",
      "Ge or",
      "S te",
      "st e",
      "m ark",
      "ear ly",
      "il ity",
      "S y",
      "film s",
      "cl ub",
      "v ol",
      "ie f",
      "st and",
      "p erson",
      "g overnment",
      "s ince",
      "estab lished",
      "o th",
      "comp et",
      "ent ly",
      "ial ly",
      "for d",
      "d own",
      "col le",
      "s ite",
      "ch n",
      "v ed",
      "v al",
      "af f",
      "A ir",
      "el s",
      "ex t",
      "p ass",
      "P art",
      "res ult",
      "ak ing",
      "Fr ench",
      "The y",
      "grap hy",
      "v ill",
      "c ut",
      "2 5",
      "C .",
      "te le",
      "iv al",
      "he ld",
      "Com p",
      "s l",
      "ers .",
      "A fr",
      "ir ed",
      "re qu",
      "ang u",
      "un g",
      "fe ct",
      "ant s",
      "H istory",
      "loc ated",
      "R uss",
      "Ar t",
      ". .",
      "pro gram",
      "ib le",
      "i -",
      "R es",
      "ain t",
      "m embers",
      "be gan",
      "serv ed",
      "M c",
      "H igh",
      "c ast",
      "Ch ar",
      "9 .",
      "( 200",
      "r ound",
      "au gh",
      "al ong",
      "at ic",
      "0 s",
      "sup port",
      "af t",
      "s oci",
      "grap h",
      "al ity",
      "th or",
      "the se",
      "as ter",
      "v an",
      "ag es",
      "ev ent",
      "Will iam",
      "re main",
      "R om",
      "g l",
      "C r",
      "ad em",
      "Th ere",
      "ing ton",
      "in ed",
      "pos ition",
      "20 19",
      "fin al",
      "a im",
      "Ch ampionship",
      "ele ction",
      "It al",
      "Eur ope",
      "an ,",
      "c il",
      "t al",
      "f ac",
      "id ed",
      "s im",
      "20 20",
      "18 8",
      "1 )",
      "d id",
      "ear ch",
      "f act",
      "on y",
      "to ok",
      "le x",
      "buil t",
      "D istrict",
      "re en",
      "ke y",
      "b le",
      "olog y",
      "char ac",
      "2 )",
      "col or",
      "W al",
      "ical ly",
      "An d",
      "care er",
      "b ro",
      "at ure",
      "m en",
      "Pe ople",
      "form ed",
      "S u",
      "Col le",
      "L ond",
      "ov e",
      "c he",
      "m ill",
      "e ach",
      "ur ed",
      "b re",
      "li ke",
      "at a",
      "Chr ist",
      "ies .",
      "S an",
      "cur r",
      "m arr",
      "tr ack",
      "F ilm",
      "to m",
      "c ount",
      "d istrict",
      "c a",
      "al th",
      "y n",
      "descr ib",
      "on -",
      "M o",
      "pub lished",
      "d ied",
      "n ational",
      "In ternational",
      "D av",
      "are a",
      "m ajor",
      "h ome",
      "sm all",
      "Ind ian",
      "prof ess",
      "oun g",
      "av ing",
      "re et",
      "M on",
      "ic es",
      "in ess",
      "O ly",
      "g y",
      "E ar",
      "w orld",
      "C or",
      "loc al",
      "man ag",
      "m ar",
      "ies ,",
      "os s",
      "am a",
      "Oly mp",
      "uc k",
      "suc cess",
      "en e",
      "A b",
      "L a",
      "sty le",
      "N ot",
      "d om",
      "L iving",
      "ro p",
      "Ph il",
      "P er",
      "ion ,",
      "r on",
      "ex p",
      "du e",
      "th -century",
      "is on",
      "h old",
      "contin u",
      "tele vision",
      "is ed",
      "u k",
      "s port",
      "p le",
      ". S.",
      "l angu",
      "C up",
      "C oun",
      "rece ived",
      "er y",
      "a ul",
      "res p",
      "ar ound",
      "2 4",
      "re port",
      "se m",
      "ed uc",
      "es tern",
      "l ast",
      "b an",
      "c le",
      "if ied",
      "tr ain",
      "de f",
      "3 )",
      "w ater",
      "iz e",
      "S ch",
      "c ould",
      "18 6",
      "um n",
      "h al",
      "ilit ary",
      "qu e",
      "c or",
      "pr om",
      "m atch",
      "align =",
      "all ow",
      "ar s",
      "y al",
      "aw ard",
      "ord er",
      "5 0",
      "ch an",
      "H ouse",
      "w est",
      "w in",
      "l ar",
      "s ix",
      "18 7",
      "p ut",
      "H ar",
      "n or",
      "d em",
      "cord ing",
      "st ation",
      "L ist",
      "g et",
      "ion .",
      "c amp",
      "h ip",
      "i en",
      "P ark",
      "c as",
      "M al",
      "re present",
      "s ol",
      "um mer",
      "is su",
      "dep end",
      "( 201",
      "mov ed",
      "gr ad",
      "Count y",
      "O ff",
      "r ad",
      "v il",
      "le vel",
      "B er",
      "n er",
      "d i",
      "A .",
      "l ess",
      "row n",
      "oc ial",
      "um ent",
      "i ence",
      "n orth",
      "sing le",
      "h istor",
      "i .",
      "st at",
      "M ich",
      "l ing",
      "th ird",
      "f ive",
      "s aid",
      "b or",
      "pop ulation",
      "l im",
      "sh ort",
      "t ed",
      "comp any",
      "in es",
      "is ,",
      "H owever,",
      "D es",
      "h and",
      "D uring",
      "j ust",
      "o to",
      "8 )",
      "U .S.",
      "l arg",
      "gen er",
      "m id",
      "ne y",
      "with in",
      "t est",
      "ap p",
      "G l",
      "or ed",
      "ann oun",
      "bo ard",
      "re w",
      "5 )",
      "ver y",
      "ter m",
      "ish ed",
      "2 3",
      "p ost",
      "am b",
      "our n",
      "7 )",
      "6 )",
      "act iv",
      "p ower",
      "4 )",
      "s outh",
      "re m",
      "wom en",
      "spec ies",
      "chil dr",
      "T V",
      "iv en",
      "w inn",
      "describ ed",
      "ur ther",
      "Count y,",
      "au thor",
      "v i",
      "an a",
      "incl ude",
      "re f",
      "z e",
      "it er",
      "w ood",
      "Colle ge",
      "d en",
      "B y",
      "set t",
      "r ac",
      "Eng land",
      "us ing",
      "in k",
      "i for",
      "at ely",
      "s w",
      "f ather",
      "A ct",
      "comp let",
      "An g",
      "dif fer",
      "s ch",
      "id es",
      "i ate",
      "ifor n",
      "Lond on",
      "ul l",
      "vill age",
      "cons id",
      "bec ause",
      "build ing",
      "Cal iforn",
      "i end",
      "con stru",
      "con om",
      "part ment",
      "an e",
      "E m",
      "v ious",
      "feren ce",
      "k ill",
      "includ ed",
      "h istory",
      "se qu",
      "ide o",
      "B el",
      "id ge",
      "g ames",
      "E ast",
      "O ne",
      "S tr",
      "Rom an",
      "L i",
      "in du",
      "estab lish",
      "D em",
      "cent er",
      "origin al",
      "s elf",
      "um an",
      "o de",
      "pe ct",
      "lar ge",
      "c rit",
      "ass oci",
      "n ov",
      "us ,",
      "Q u",
      "m ag",
      "ak es",
      "d el",
      "F in",
      "use um",
      "ct ure",
      "S m",
      "et y",
      "comp an",
      "2 2",
      "add ition",
      "Ch urch",
      "m a",
      "Gen eral",
      "e qu",
      "polit ic",
      "s it",
      "( 199",
      "B C",
      "play er",
      "charac ter",
      "m ale",
      "on es",
      "M usic",
      "v oc",
      "n ing",
      "ough t",
      "at s",
      "ain s",
      "peri od",
      "9 )",
      "As soci",
      "w ent",
      "W il",
      "v ir",
      "n et",
      "Austral ian",
      "1 00",
      "cl os",
      "tr ad",
      "s en",
      "us h",
      "death s",
      "201 0",
      "k m",
      "iz ation",
      "ch ang",
      "gr ess",
      "co ach",
      "Is land",
      "cl aim",
      "m en's",
      "ra il",
      "pe c",
      "ap pro",
      "Fran ce",
      "c ult",
      "p ur",
      "ction s",
      "comp os",
      "min istr",
      "differ ent",
      "ay s",
      "it ch",
      "M or",
      "re c",
      "V al",
      "t em",
      "plac ed",
      "att le",
      "in cre",
      "et s",
      "st ill",
      "a ud",
      "4 0",
      "ch urch",
      "C ap",
      "2 6",
      "f un",
      "an other",
      "ib ut",
      "th ose",
      "ip t",
      "f em",
      "d ist",
      "R iver",
      "Th om",
      "r i",
      "Geor ge",
      "g in",
      "b est",
      "m iss",
      "re ach",
      "2 7",
      "v ot",
      "pos s",
      "il y",
      "le ct",
      "P al",
      "att ack",
      "um b",
      "produ ced",
      "P ort",
      "we b",
      "n a",
      "2 8",
      "T o",
      "c ell",
      "( )",
      "at ter",
      "ap point",
      "l ate",
      "Q ue",
      "Ro yal",
      "l ight",
      "langu age",
      "h ar",
      "Europe an",
      "u el",
      "iv il",
      "av er",
      "H ol",
      "s old",
      "writ ten",
      "F ir",
      "announ ced",
      "de but",
      "C our",
      "serv ice",
      "in ternational",
      "P o",
      "Y ear",
      "b as",
      "fl u",
      "Wh en",
      "J ames",
      "Ch in",
      "ourn al",
      "re fer",
      "it or",
      "D ivision",
      "Canad ian",
      "P aul",
      "W om",
      "wh at",
      "D an",
      "pre vious",
      "os p",
      "in ,",
      "ain ed",
      "P ub",
      "bus iness",
      "\" The",
      "R ich",
      "un icip",
      "h ost",
      "g ar",
      "M ount",
      "om b",
      "st or",
      "S al",
      "form ation",
      "ip p",
      "gen eral",
      "te chn",
      "b g",
      "ep is",
      "of ten",
      "v o",
      "D on",
      "it ar",
      "am ong",
      "m ake",
      "bg color",
      "W ith",
      "Ac adem",
      "s ent",
      "te xt",
      "C A",
      "ro le",
      "pro ject",
      "t urn",
      "Re cord",
      "ev en",
      "Dav id",
      "b ar",
      "L ou",
      "en c",
      "St reet",
      "a el",
      "ex pl",
      "for man",
      "ab or",
      "St at",
      "l er",
      "produ ction",
      "o x",
      "M y",
      "es h",
      "St .",
      "marr ied",
      "em pt",
      "im ent",
      "tit le",
      "18 5",
      "R ed",
      "u es",
      "re al",
      "un ch",
      "pl oy",
      "ele ct",
      "qu ar",
      "in it",
      "T ran",
      "inv ol",
      "Coun cil",
      "F ootball",
      "id a",
      "g er",
      "and er",
      "y oung",
      "Pres ident",
      "st er",
      "H istor",
      "cre t",
      "res earch",
      "fr iend",
      "Cl ub",
      "b od",
      "p en",
      "as tern",
      "av y",
      "op h",
      "cre ated",
      "im port",
      "as ,",
      "p s",
      "hal f",
      "F C",
      "B ro",
      "se e",
      "Fir st",
      "v ict",
      "200 8",
      "Part y",
      "ro du",
      "2 9",
      "eng ine",
      "c ame",
      "jo ined",
      "r en",
      "S ing",
      "201 1",
      "A p",
      "g iven",
      "iv id",
      "il ar",
      "J e",
      "Bl ack",
      "n ess",
      "R ail",
      "ell ow",
      "S en",
      "Fr om",
      "Ro bert",
      "T im",
      "n on-",
      "200 6",
      "S port",
      "to tal",
      "umn i",
      "ever y",
      "Ar ch",
      "n ight",
      "ed er",
      "t ,",
      "ro te",
      "act ion",
      "work s",
      "Ar my",
      "ef fect",
      "ition s",
      "polit ical",
      "Fl or",
      "St ud",
      "commun ity",
      "sh ire",
      "g ed",
      "D .",
      "ib r",
      "vers ion",
      "start ed",
      "develop ment",
      "y ing",
      "mill ion",
      "ou thern",
      "c arr",
      "work ed",
      "Z e",
      "pres ident",
      "T ur",
      "pro te",
      "M ag",
      "F .",
      "ree k",
      "D is",
      "it te",
      "dire ctor",
      "var ious",
      "M art",
      "J .",
      "k ing",
      "T own",
      "B est",
      "ic o",
      "m ilitary",
      "l iving",
      "prom ot",
      "H en",
      "v es",
      "a ur",
      "r ain",
      "pr im",
      "I r",
      "or ,",
      "In stit",
      "v ice",
      "201 2",
      "200 7",
      "V ir",
      "ac c",
      "w rote",
      "h aving",
      "in o",
      "m uch",
      "Afr ican",
      "y l",
      "Gr oup",
      "200 9",
      "' t",
      "cr aft",
      "ard s",
      "est ed",
      "M ex",
      "Ital ian",
      "spec ial",
      "profess ional",
      "t ake",
      "v ideo",
      "ag ed",
      "childr en",
      "ne xt",
      "ar ed",
      "M ary",
      "re am",
      "bur g",
      "ir l",
      "S am",
      "Russ ian",
      "Ro ad",
      "B ur",
      "ask et",
      "int rodu",
      "be come",
      "M id",
      "Japan ese",
      "Comm un",
      "pos ed",
      "i us",
      "et t",
      "i j",
      "T w",
      "coun tr",
      "augh ter",
      "h ib",
      "L aw",
      "0 )",
      "r u",
      "B al",
      "og n",
      "J er",
      "ele cted",
      "pro cess",
      "ge ther",
      "end ing",
      "we ek",
      "M ac",
      "h on",
      "W ash",
      "open ed",
      "m ult",
      "L u",
      "T er",
      "m al",
      "d et",
      "per forman",
      "S oci",
      "g g",
      "st ory",
      "Th ese",
      "K ar",
      "e ast",
      "cent ur",
      "C am",
      "f ew",
      "dire ct",
      "ab ility",
      "pop ular",
      "18 4",
      "Pl ay",
      "M ad",
      "ol ic",
      "dr aw",
      "return ed",
      "son ,",
      "d est",
      "an .",
      "er ing",
      "l ow",
      "al ,",
      "201 3",
      "chan ge",
      "Sc ott",
      "201 4",
      "olog ical",
      "oc r",
      "201 6",
      "M er",
      "ig r",
      "du c",
      "E 9",
      "H all",
      "ag o",
      "im in",
      "i y",
      "t t",
      "grad u",
      "com b",
      "n d",
      "J ack",
      "im m",
      "B ra",
      "c is",
      "le ar",
      "continu ed",
      "M iss",
      "Wash ington",
      "li ament",
      "ak en",
      "offic ial",
      "d le",
      "g reat",
      "cr ipt",
      "l if",
      "co -",
      "pl ic",
      "a 's",
      "Austral ia",
      "l l",
      "K e",
      "part icip",
      "iv ely",
      "C ath",
      "c .",
      "ward s",
      "pr act",
      "with out",
      "M .",
      "Ac cording",
      "an im",
      "( 198",
      "l ost",
      "a ut",
      "ful l",
      "qu ad",
      "football ers",
      "itt le",
      "ro ck",
      "be g",
      "s ocial",
      "Gr and",
      "Le g",
      "Y ou",
      "el ,",
      "b road",
      "V ol",
      "sim ilar",
      "Pro v",
      "it z",
      "201 5",
      "S l",
      "con ne",
      "S un",
      "asket ball",
      "d am",
      "style =\"",
      "appoint ed",
      "our ces",
      "R ad",
      "part ic",
      "Cent ral",
      "found ed",
      "p .",
      "a it",
      "e conom",
      "n ed",
      "ro om",
      "ne ed",
      "g es",
      "U K",
      "A lex",
      "Olymp ic",
      "i ke",
      "Su per",
      "Associ ation",
      "e cut",
      "E r",
      "T our",
      "C ast",
      "ac qu",
      "com ing",
      "Off ic",
      "est ival",
      "r .",
      "art ist",
      "J ew",
      "ass ist",
      "us es",
      "N A",
      "io graphy",
      "en se",
      "I m",
      "dire cted",
      "ers hip",
      "ber g",
      "King dom",
      "op s",
      "M et",
      "201 8",
      "th od",
      "a ign",
      "on .",
      "ict ion",
      "sign ed",
      "fr ont",
      "indu str",
      "200 0",
      "h a",
      "inv est",
      "S k",
      "N o.",
      "re view",
      "Sp an",
      "d aughter",
      "coun try",
      "att empt",
      "M useum",
      "al and",
      "re -",
      "f all",
      "contr ol",
      "r is",
      "pro per",
      "al umni",
      "Californ ia",
      "ly ,",
      "H ill",
      "h ol",
      "W estern",
      "om et",
      "Ang el",
      "20 th-century",
      "al .",
      "loc k",
      "b ase",
      "S im",
      "Un ion",
      "T ex",
      "dis c",
      "m other",
      "Thom as",
      "S ummer",
      "con cer",
      "pr iv",
      "B en",
      "1 st",
      "is l",
      "se ven",
      "G old",
      "201 7",
      "se x",
      "E duc",
      "Cour t",
      "h an",
      "te ach",
      "way s",
      "to gether",
      "en a",
      "record ed",
      "Ear ly",
      "Pr of",
      "f ire",
      "Char les",
      "c oll",
      "bgcolor =",
      "be h",
      "ind ivid",
      "Christ ian",
      "O ther",
      "h uman",
      "es ter",
      "Mich ael",
      "G o",
      "success ful",
      "an ces",
      "B ay",
      "V ict",
      "V er",
      "D o",
      "st on",
      "G reat",
      "gu itar",
      "al d",
      "De partment",
      "C are",
      "m aking",
      "it .",
      "P an",
      "le ague",
      "f ind",
      "h ab",
      "appear ed",
      "6 0",
      "to ur",
      "y r",
      "200 5",
      "Span ish",
      "tr av",
      "T or",
      "album s",
      "ou te",
      "Pe ter",
      "qu al",
      "m ission",
      "aw ay",
      "In ter",
      "f urther",
      "Bo ok",
      "ag e,",
      "b i",
      "em ploy",
      "- year",
      "G ames",
      "f ace",
      "M us",
      "consid ered",
      "bir th",
      "T om",
      "ens ive",
      "Ind ia",
      "c op",
      "h ous",
      "vil le",
      "trad ition",
      "Mar k",
      "bgcolor= #",
      "21 st",
      "work ing",
      "depend ent",
      "i als",
      "200 4",
      "g am",
      "c u",
      "( S",
      "G reen",
      "for t",
      "in flu",
      "song s",
      "em or",
      "h or",
      "l ive",
      "n el",
      "P op",
      "ar a",
      "Lou is",
      "bl ack",
      "m ot",
      "p at",
      "back ground",
      "Vir gin",
      "g ood",
      "S ur",
      "ter min",
      "en cy",
      "n at",
      "d ivision",
      "play ing",
      "id ence",
      "Re public",
      "g row",
      "18 3",
      "B ill",
      "land ,",
      "M il",
      "th ing",
      "o le",
      "team s",
      "sem b",
      "s al",
      "and ,",
      "Ze aland",
      "ad ministr",
      "ex ist",
      "complet ed",
      "ap er",
      "at ors",
      "K ore",
      "d oc",
      "ph ys",
      "b our",
      "contr act",
      "D el",
      "c up",
      "ste ad",
      "F A",
      "constru ction",
      "me et",
      "la unch",
      "ag re",
      "str ong",
      "r ace",
      "tim e,",
      "ty p",
      "align= right",
      "ac y",
      "ific ation",
      "Chin ese",
      "A g",
      "ct s",
      "t ing",
      "ic le",
      "Fran k",
      "cover ed",
      "Car ol",
      "c ase",
      "de g",
      "establish ments",
      "cr ed",
      "t ar",
      "Jo se",
      "arch ite",
      "pl ant",
      "a -",
      "m unicip",
      "Cath olic",
      "N o",
      "of fer",
      "partic ular",
      "E le",
      "be t",
      "import ant",
      "r ul",
      "U p",
      "h ow",
      "f ail",
      "Rich ard",
      "M el",
      "Pub lic",
      "g ian",
      "S ome",
      "ip le",
      "m s",
      "ty pe",
      "in st",
      "id =",
      "to urn",
      "Wh ile",
      "land s",
      "Dem ocr",
      "osp ital",
      "is ing",
      "report ed",
      "mod ern",
      "hel p",
      "w id",
      "web site",
      "av ail",
      "Min ister",
      "I re",
      "W ork",
      "M ont",
      "ed eral",
      "develop ed",
      "in j",
      "nov el",
      "f ree",
      "ph oto",
      "mark et",
      "c ir",
      "od es",
      "rec ogn",
      "m us",
      "ate g",
      "de fe",
      "D u",
      "S ong",
      "L at",
      "c al",
      "( 197",
      "Sw ed",
      "Fran cis",
      "sh ould",
      "ou l",
      "ran ge",
      "I l",
      "202 1",
      "|- id=",
      "c us",
      "med al",
      "su per",
      "it ive",
      "w ord",
      "f und",
      "m ater",
      "ot s",
      "are as",
      "K r",
      "part y",
      "f an",
      "er a",
      "( C",
      "de cl",
      "act ive",
      "te en",
      "him self",
      "T ele",
      "vir on",
      "Sm ith",
      "our s",
      "ul ated",
      "inter est",
      "s il",
      "Se cond",
      "go al",
      "D ay",
      "eng th",
      "politic ian",
      "epis ode",
      "ev ents",
      "list ed",
      "r id",
      "wh ite",
      "day s",
      "M ill",
      "ab ly",
      "3 5",
      "i ers",
      "R .",
      "M a",
      "w ide",
      "camp aign",
      "S aint",
      "con du",
      "p ite",
      "t re",
      "Vict or",
      "reg ular",
      "ac ross",
      "pl an",
      "rad io",
      "stit ut",
      "l iter",
      "M ass",
      "d on",
      "le cted",
      "E .",
      "j ud",
      "L os",
      "Canad a",
      "vi ol",
      "le te",
      "S ov",
      "itte e",
      "mon th",
      "D ire",
      "it ,",
      "se ction",
      "B ut",
      "H arr",
      "t aken",
      "3 1",
      "ur r",
      "um p",
      "chil d",
      "B .",
      "im ately",
      "Amer ica",
      "f oc",
      "at re",
      "j ournal",
      "200 3",
      "ith er",
      "br idge",
      "do es",
      "g un",
      "off ice",
      "p aint",
      "al though",
      "St ar",
      "d 6",
      "( A",
      "rele ase",
      "overn or",
      "200 2",
      "h om",
      "s :",
      "ne ver",
      "bel ie",
      "Bra z",
      "- s",
      "f ig",
      "itt ed",
      "Instit ute",
      "c ost",
      "comm on",
      "P enn",
      "aver age",
      "se par",
      "season .",
      "f ight",
      "Academ y",
      "C he",
      "serv ices",
      "ex amp",
      "ce ed",
      "al y",
      "ro y",
      "crit ic",
      "fem ale",
      "202 2",
      "v ia",
      "cour t",
      "Is ra",
      "S o",
      "avail able",
      "t a",
      "curr ent",
      "stud ents",
      "writ ers",
      "if f",
      "g ot",
      "4 5",
      "C O",
      "viron ment",
      "h ood",
      "Hen ry",
      "Award s",
      "h ard",
      "and id",
      "m ount",
      "bro ther",
      "av al",
      "bo x",
      "ac es",
      "Soci ety",
      "bod y",
      "Or der",
      "8 0",
      "m ix",
      "mer c",
      "is .",
      "in -",
      "ar i",
      "C amp",
      "At l",
      "st age",
      "m ing",
      "fin ished",
      "Wh ite",
      "reg ion",
      "performan ce",
      "w estern",
      "R ock",
      "tourn ament",
      "H on",
      "ol f",
      "2 nd",
      "ish op",
      "ibr ary",
      "Sov iet",
      "200 1",
      "per formed",
      "Braz il",
      "J ust",
      "group s",
      "s aw",
      "rel ated",
      "rel ation",
      "g ave",
      "S pec",
      "ed y",
      "il es",
      "il ities",
      "writ er",
      "c it",
      "Ch ic",
      "origin ally",
      "inn ing",
      "d iv",
      "c ens",
      "V ill",
      "d ou",
      "S up",
      "H am",
      "on ce",
      "educ ation",
      "an i",
      "ic ult",
      "l ab",
      "d ata",
      "s ay",
      "P erson",
      "ut ch",
      "o graph",
      "comm and",
      "Cent er",
      "L and",
      "21st -century",
      "he alth",
      "G overnment",
      "bre ak",
      "Te am",
      "r d",
      "ran ch",
      "P .",
      "Tex as",
      "H u",
      "ex peri",
      "e ight",
      "ac cess",
      "in e,",
      "li k",
      "season ,",
      "compet ition",
      "ist ic",
      "cent ral",
      "Ch ina",
      "l os",
      "S A",
      "Not es",
      "s el",
      "Ger many",
      "pr int",
      "B A",
      "rel ig",
      "lead ing",
      "r ap",
      "Sc ot",
      "tr ess",
      "um e",
      "oc key",
      "av es",
      "on to",
      "u z",
      "Care er",
      "ific ant",
      "im es",
      "p atr",
      "plac es",
      "includ es",
      "mod el",
      "larg est",
      "O ver",
      "Ire land",
      "( M",
      "s ound",
      "ug by",
      "re y",
      "b asketball",
      "at ory",
      "L .",
      "design ed",
      "p ot",
      "Rail way",
      "c ivil",
      "il d",
      "air craft",
      "S ub",
      "cons ist",
      "w ind",
      "to ck",
      "pr ison",
      "\" |",
      "i que",
      "tim es",
      "p an",
      "S ir",
      "cap t",
      "10 ,",
      "lo ok",
      "award ed",
      "year s.",
      "y ou",
      "ent ial",
      "Isra el",
      "d istr",
      "It s",
      "ex ecut",
      "pl es",
      "R ob",
      "t ic",
      "p air",
      "o graphy",
      "R A",
      "3 :",
      "er 's",
      "semb ly",
      "ol k",
      "Histor ic",
      "C D",
      "st ations",
      "at tr",
      "for ces",
      "en .",
      "mag az",
      "t ro",
      "g old",
      "ship s",
      "man ,",
      "n omin",
      "point s",
      "II I",
      "D en",
      "ran k",
      "g ent",
      "t .",
      "act or",
      "199 0",
      "art s",
      "Film s",
      "compan ies",
      "sc ored",
      "ate ,",
      "D i",
      "f ar",
      "L ife",
      "sy n",
      "b ank",
      "For ce",
      "Cl ass",
      "ain ing",
      "sign ificant",
      "H .",
      "L o",
      "f ish",
      "winn ing",
      "trans fer",
      "id ing",
      "feat ured",
      "ul a",
      "Record s",
      "one y",
      "Ir ish",
      "6 5",
      "M od",
      "7 0",
      "u ation",
      "end er",
      "form s",
      "m ust",
      "Prof ess",
      "own ed",
      "oc cur",
      "w ife",
      "ant ed",
      "stru ct",
      "w all",
      "remain ed",
      "h owever,",
      "w he",
      "build ings",
      "pol ic",
      "Comm ission",
      "introdu ced",
      "se y",
      "Tw o",
      "h u",
      "en ced",
      "g a",
      "Pol it",
      "b ill",
      "( 196",
      "S il",
      "kn ow",
      "G all",
      "ic les",
      "for ce",
      "ot a",
      "Comp any",
      "O ut",
      "we ight",
      "uil d",
      "end s",
      "u ter",
      "stud ent",
      ".. .",
      "Par liament",
      "\" I",
      "qu est",
      "O l",
      "ag u",
      "sp ir",
      "doc ument",
      "st ar",
      "P re",
      "R os",
      "our ce",
      "ib ution",
      "follow ed",
      "r or",
      "S ince",
      "O per",
      "E9 E9",
      "st ated",
      "I S",
      "through out",
      "ch air",
      "t ell",
      "com es",
      "resp ons",
      "priv ate",
      "An n",
      "sub sequ",
      "se en",
      "four th",
      "c ross",
      "9 0",
      "Nor thern",
      "G od",
      "B us",
      "su gg",
      "Prov ince",
      "em ents",
      "U k",
      "curr ently",
      "c andid",
      "pr ing",
      "Geor g",
      "O ld",
      "en ces",
      "3 3",
      "s um",
      "P ac",
      "199 9",
      "b ound",
      "al k",
      "pre m",
      "W .",
      "st aff",
      "p ay",
      "res pect",
      "Te chn",
      "s top",
      "year ,",
      "H y",
      "event ually",
      "P atr",
      "ent ire",
      "Al though",
      "in formation",
      "F estival",
      "e y",
      "quar ter",
      "ist ,",
      "feat ures",
      "Olymp ics",
      "Un der",
      "B rown",
      "tim e.",
      "ut ure",
      "er gy",
      "pro ble",
      "r ich",
      "ity ,",
      "vol ution",
      "ann el",
      "art ists",
      "p ly",
      "O h",
      "us ually",
      "N E",
      "k a",
      "er ous",
      "gr and",
      "pol ice",
      "ear li",
      "n y",
      "L ake",
      "m ur",
      "cl ose",
      "cret ary",
      "re placed",
      "ell a",
      "at o",
      "R am",
      "h i",
      "red u",
      "at ives",
      "ity .",
      "F L",
      "18 0",
      "f av",
      "f re",
      "le ment",
      "ak er",
      "F er",
      "p ark",
      "sur v",
      "M ost",
      "stud y",
      "Jose ph",
      "trans l",
      "Sc ience",
      "E mp",
      "Educ ation",
      "le ast",
      "stand ing",
      "b ot",
      "B as",
      "ad o",
      "u fact",
      "F ound",
      "A R",
      "ign ed",
      "D ou",
      "B or",
      "o or",
      "re cent",
      "un k",
      "ation s.",
      "id ents",
      "fl ow",
      "sy l",
      "ap t",
      "kill ed",
      "p ast",
      "B u",
      "tr a",
      "i os",
      "Ar ab",
      "ac cept",
      "M os",
      "ap e",
      "show s",
      "at al",
      "on a",
      "right s",
      "organ iz",
      "S ant",
      "p ie",
      "ar ian",
      "por ary",
      "im ate",
      "Pro du",
      "me an",
      "ick et",
      "n es",
      "de fin",
      "sp ace",
      "Uk rain",
      "l ad",
      "invol ved",
      "i qu",
      "ind ic",
      "M at",
      "ex press",
      "S ol",
      "individ ual",
      "oc cup",
      "ve y",
      "Chr is",
      "t reat",
      "rail way",
      "ant ic",
      "m .",
      "M ic",
      "ent er",
      "e th",
      "book s",
      "p et",
      "al -",
      "ct ive",
      "school s",
      "f if",
      "198 0",
      "B ig",
      "sh ot",
      "inc or",
      "m or",
      "am ed",
      "Res earch",
      "G reek",
      "in .",
      "syl van",
      "s id",
      "I D",
      "en z",
      "up on",
      "h it",
      "H ow",
      "associ ation",
      "ex hib",
      "se at",
      "M P",
      "defe ated",
      "comm ission",
      "play s",
      "c el",
      "o is",
      "deg ree",
      "G ar",
      "ed ition",
      "m as",
      "in i",
      "c ause",
      "house hold",
      "ic e,",
      "in ation",
      "ch ampionship",
      "m it",
      "199 8",
      "l ie",
      "prov ed",
      "b on",
      "o -",
      "B a",
      "C y",
      "cap ital",
      "pub l",
      "3 6",
      "us .",
      "5 00",
      "U r",
      "p ain",
      "ach ie",
      "fun ction",
      "W ood",
      "M ain",
      "ar ies",
      "T y",
      "sy ch",
      "( P",
      "l am",
      "e ither",
      "ch ief",
      "me as",
      "cer tain",
      "reach ed",
      "D utch",
      "broad cast",
      "ag on",
      "mov ement",
      "appro x",
      "contr ibut",
      "on om",
      "colle ge",
      "F re",
      "A th",
      "B ul",
      "th us",
      "previous ly",
      "az z",
      "g irl",
      "ed s",
      "st ant",
      "d y",
      "3 4",
      "prov ided",
      "F ollow",
      "c ul",
      "Ch ief",
      "re ve",
      "L ove",
      "merc ial",
      "po et",
      "199 6",
      "R u",
      "B oy",
      "stud io",
      "Democr atic",
      "b b",
      "Sp ain",
      "M ajor",
      "F urther",
      "ver t",
      "l og",
      "ad ium",
      "Ar ts",
      "year .",
      "S ar",
      "st one",
      "em p",
      "t ax",
      "add ed",
      "med ia",
      "P et",
      "J ud",
      "b ass",
      "B attle",
      "v ing",
      "leg al",
      "as ing",
      "publ ican",
      "l oss",
      "Rad io",
      "i ro",
      "3 8",
      "( 19",
      "stit ution",
      "it a",
      "dec ision",
      "nat ural",
      "read y",
      "ac tress",
      "Emp ire",
      "poss ible",
      "H el",
      "est s",
      "ur a",
      "colle ction",
      "Afr ica",
      "att ended",
      "v on",
      "( 195",
      "clos ed",
      "K h",
      "miss ing",
      "ol a",
      "dr ess",
      "ation s,",
      "sing er",
      "l or",
      "L ord",
      "e ter",
      "3 7",
      "ne igh",
      "read ing",
      "wom en's",
      "dec ided",
      "pr ed",
      "b ell",
      "a be",
      "d ed",
      "cy cl",
      "( 193",
      "jo in",
      "in stead",
      "ex per",
      "Wom en's",
      "cult ure",
      "b it",
      "who se",
      "fin ish",
      "Scott ish",
      "train ing",
      "20 ,",
      "H ung",
      "sc ient",
      "E s",
      "- up",
      "ist ics",
      "Jew ish",
      "ap s",
      "S ocial",
      "M u",
      "A C",
      "ate .",
      "m ass",
      "Penn sylvan",
      "result s",
      "( N",
      "un it",
      "ib l",
      "de al",
      "per form",
      "pl ann",
      "H ot",
      "sc or",
      "man n",
      "r up",
      "s at",
      "w ing",
      "P ak",
      "M ah",
      "s us",
      "spe ople",
      "Y oung",
      "F. C.",
      "ac count",
      "land .",
      "F ort",
      "As ian",
      "ig an",
      "ad v",
      "sub ject",
      "k in",
      "Championship s",
      "cour se",
      "B ud",
      "Ed ward",
      "Con gress",
      "ay ,",
      "year s,",
      "ov ers",
      "Follow ing",
      "J im",
      "H aw",
      "Ser vice",
      "L in",
      "f fer",
      "B ack",
      "n ames",
      "( D",
      "199 7",
      "istr y",
      "invest ig",
      "\" )",
      "v a",
      "f arm",
      "er t",
      "me thod",
      "s )",
      "incor por",
      "Offic ial",
      "L ong",
      "ran g",
      "ke ep",
      "18 ,",
      "represent ed",
      "M embers",
      "prim ary",
      "I ran",
      "G al",
      "ent ion",
      "u ,",
      "M ilitary",
      "iv e,",
      "the ast",
      "beh ind",
      "ar ily",
      "as tr",
      "ch est",
      "d .",
      "h us",
      "writ ing",
      "age .",
      "d a",
      "nor thern",
      "Com mon",
      "p urch",
      "O x",
      "L ater",
      "s outhern",
      "reg ard",
      "l ength",
      "Reg ister",
      "m ir",
      "\" the",
      "E p",
      "ig er",
      "17 9",
      "sc reen",
      "ph il",
      "j un",
      "m aster",
      "3 rd",
      "prov ide",
      "claim ed",
      "M en's",
      "As sembly",
      "B et",
      "S outhern",
      "w w",
      "15 ,",
      "C ivil",
      "pl at",
      "ac adem",
      "sp an",
      "ra ther",
      "l ived",
      "resp ond",
      "B ank",
      "l ower",
      "t aking",
      "net work",
      "N avy",
      "re ason",
      "Bo ard",
      "op t",
      "Re publican",
      "hab it",
      "7 5",
      "r om",
      "an ch",
      "val ue",
      "f requ",
      "m ic",
      "mon ths",
      "dr ama",
      "cept ion",
      "c ard",
      "cur ity",
      "J ul",
      "ven ue",
      "K en",
      "P ost",
      "stand ard",
      "new sp",
      "o id",
      "Li ber",
      "N et",
      "lin es",
      "br ought",
      "stru cture",
      "t or",
      "P rem",
      "B uild",
      "T op",
      "day ,",
      "al ed",
      "Mart in",
      "R el",
      "co ast",
      "ab ove",
      "Chic ago",
      "ic ,",
      "s omet",
      "199 4",
      "199 5",
      "( the",
      "man ufact",
      "dif f",
      "ok e",
      "B ob",
      "Port ug",
      "sc ience",
      "G .",
      "il i",
      "L ad",
      "197 0",
      "B re",
      "im p",
      "al most",
      "chang ed",
      "b ed",
      "R h",
      "b a",
      "O '",
      "3 2",
      "mus ical",
      "Virgin ia",
      "mon d",
      "r iver",
      "C ult",
      "d ig",
      "Eng ine",
      "organ ization",
      "ter ,",
      "out side",
      "trans port",
      "main tain",
      "3 9",
      "199 2",
      "un ion",
      "Pac ific",
      "De f",
      "p ian",
      "Col leg",
      "pr inc",
      "the s",
      "( L",
      "f ood",
      "st ream",
      "( \"",
      "4 8",
      "b att",
      "y a",
      "in dependent",
      "Ar m",
      "person al",
      "part s",
      "mov e",
      "ed itor",
      "anc ial",
      "e as",
      "Col umb",
      "201 0,",
      "cle ar",
      "st ates",
      "2019 ,",
      "ad a",
      "ord in",
      "y ard",
      "Med al",
      "ac cording",
      "( R",
      "( 194",
      "201 8,",
      "Tele vision",
      "sch ol",
      "trav el",
      "oth ers",
      "b en",
      "ly ing",
      "f el",
      "o o",
      "Phil ipp",
      "Comp an",
      "to :",
      "v in",
      "or ies",
      "col on",
      "201 1,",
      "un its",
      "- language",
      "es pec",
      "appear ance",
      "mater ial",
      "allow ed",
      "ell ing",
      "He alth",
      "en vironment",
      "un e",
      "T .",
      "qu are",
      "appro ach",
      "A z",
      "g as",
      "for ced",
      "ter rit",
      "201 7,",
      "em er",
      "r ough",
      "L uc",
      "approx imately",
      "high est",
      "ve h",
      "espec ially",
      "sing les",
      "fe fe",
      "Ser ies",
      "le .",
      "Oh io",
      "M A",
      "Pol ish",
      "- American",
      "201 2,",
      "em s",
      "1 2,",
      "an al",
      "min or",
      "Comm ittee",
      "wh om",
      "S S",
      "K ent",
      "L oc",
      "Dire ctor",
      "J on",
      "i ents",
      "h ot",
      "Ath let",
      "to wards",
      "Par is",
      "201 6,",
      "align =\"",
      "ien ces",
      "b al",
      "ton ,",
      "Ar gent",
      "d6 d6",
      "1 -",
      "2020 ,",
      "l ay",
      "en ed",
      "m o",
      "dest roy",
      "de partment",
      "H or",
      "s ummer",
      "An t",
      "h o",
      "M ur",
      "op p",
      "O s",
      "201 3,",
      "exp atr",
      "l es,",
      "sen ior",
      "C E",
      "produ cer",
      "ip s",
      "n 't",
      "ce le",
      "b u",
      "De velop",
      "201 4,",
      "launch ed",
      "2 :",
      "comp lex",
      "y an",
      "ens ion",
      "ist an",
      "M as",
      "st reet",
      "201 5,",
      "Il lin",
      "O t",
      "ob ject",
      "sport s",
      "comp lete",
      "B ase",
      "d rop",
      "sp ent",
      "u str",
      "wom an",
      "addition al",
      "F ar",
      "ib ility",
      "O pen",
      "s quad",
      "I .",
      "B ost",
      "Le e",
      "lead er",
      "voc als",
      "al a",
      "ch arg",
      "an th",
      "min ut",
      "tradition al",
      "Tr ack",
      "so on",
      "at ,",
      "F amil",
      "ct ic",
      "ans as",
      "Pr ess",
      "in et",
      "gen us",
      "Sport s",
      "4 9",
      "f uture",
      "l ittle",
      "ach u",
      "se a",
      "S and",
      "bur gh",
      "Stat es.",
      "C ro",
      "c ing",
      "f a",
      "its elf",
      "we alth",
      "ar ,",
      "r oute",
      "E astern",
      "football er",
      "or .",
      "pl ied",
      "res er",
      "serv ing",
      "A k",
      "mult iple",
      ": #",
      "He ad",
      "min ister",
      "beg inning",
      "open ing",
      "D un",
      "f am",
      "ult s",
      "16 ,",
      "202 1,",
      "ic a,",
      "br and",
      "it ing",
      "H al",
      "Bl ue",
      "b ranch",
      "s of",
      "pr ior",
      "17 ,",
      "g e,",
      "go ing",
      "somet imes",
      "Con ference",
      "ex am",
      "1 4,",
      "act ions",
      "ine .",
      "F I",
      "ally ,",
      "re me",
      "o il",
      "ian a",
      "1 1,",
      "ch art",
      "er o",
      "B ow",
      "Brit ain",
      "Pr ince",
      "oper ated",
      "B ang",
      "ig a",
      "4 7",
      "run ning",
      "associ ated",
      "Je an",
      "u an",
      "econom ic",
      "hus band",
      "pe cted",
      "on se",
      "E v",
      "D ie",
      "Th at",
      "ent ered",
      "if y",
      "Re present",
      "com mercial",
      "augh t",
      "se lected",
      "L ab",
      "200 9,",
      "bel ow",
      "s af",
      "z a",
      "K o",
      "ight s",
      "J ournal",
      "to o",
      "pub lish",
      "l ack",
      "th ,",
      "i 's",
      "in te",
      "Mass achu",
      "f le",
      "Pl aces",
      "inter view",
      "ph en",
      "po se",
      "ure ,",
      "A re",
      "Mid dle",
      "G overnor",
      "ch ester",
      "ur b",
      "charac ters",
      "4 :",
      "S at",
      "Dr .",
      "z ,",
      "st arr",
      "cont ains",
      "Mex ico",
      "s ister",
      "manag ement",
      "con f",
      "sc ore",
      "J os",
      "m ad",
      "coun ter",
      "l ot",
      "om a",
      "stud ied",
      "Flor ida",
      "ap plic",
      "ay ed",
      "run s",
      "th ers",
      "ol der",
      "le y,",
      "b ig",
      "W ater",
      "As s",
      "w an",
      "196 0",
      "199 1",
      "lim ited",
      "198 8",
      "V an",
      "ence ,",
      "St an",
      "municip ality",
      "mur der",
      "B ir",
      "i ation",
      "C a",
      "F our",
      "am ount",
      "sur round",
      "ian ce",
      "F ield",
      "act ors",
      "C ross",
      "is es",
      "H a",
      "in al",
      "ob al",
      "p il",
      "high er",
      "A sh",
      "ie ,",
      "G ood",
      "politic ians",
      "- based",
      "act ed",
      "L ibrary",
      "s '",
      "5 5",
      "200 8,",
      "L im",
      "c in",
      "ar ing",
      "B road",
      "issu e",
      "ut en",
      "b urn",
      "later ,",
      "y 's",
      "ur t",
      "Is lam",
      "19 ,",
      "E P",
      "3 ),",
      "be coming",
      "an o",
      "med ical",
      "( 192",
      "equ ip",
      "is land",
      "iet y",
      "al es",
      "s ize",
      "H ong",
      "m at",
      "4 6",
      "Al bert",
      "The atre",
      "him .",
      "gener ally",
      "init ially",
      "Carol ina",
      "activ ities",
      "coll abor",
      "Develop ment",
      "m ach",
      "T enn",
      "n s",
      "su ffer",
      "f il",
      "season s",
      "f oot",
      "pro b",
      "relation ship",
      "ff ic",
      "not ed",
      "S pe",
      "in str",
      "exp and",
      "E conom",
      "M ot",
      "e astern",
      "ca used",
      "sy m",
      "M any",
      "r ing",
      "H o",
      "3 -",
      "198 9",
      "br id",
      "O k",
      "De ath",
      "b ol",
      "ad or",
      "Angel es",
      "commun ic",
      "h um",
      "19 20",
      "V o",
      "st ep",
      "Ox ford",
      "( 17",
      "leg isl",
      "coun cil",
      "bir d",
      "t ies",
      "cele br",
      "Co ast",
      "l ov",
      "et te",
      "O f",
      "ak a",
      "2 -",
      "Ser b",
      "mid -",
      "B ern",
      "Con serv",
      "p ers",
      "th reat",
      "G ame",
      "pass ed",
      "U l",
      "W ind",
      "d ate",
      "B S",
      "Or gan",
      "T re",
      "al ready",
      "I f",
      "D er",
      "if t",
      "K ong",
      "E gy",
      "G re",
      "Ad am",
      "Sy stem",
      "Francis co",
      "incre ased",
      "L ittle",
      "ann ual",
      "ad el",
      "V e",
      "me ans",
      "- align",
      "B ol",
      "Fin al",
      "W rit",
      "w orth",
      "L y",
      "cript ion",
      "spec ific",
      "p age",
      "ob tain",
      "r oll",
      "Swed ish",
      "fl ict",
      "y -",
      "Man ag",
      "Wal es",
      "m useum",
      "cl us",
      "diff icult",
      "1 3,",
      "I V",
      "style=\" background",
      "4 4",
      "un iversity",
      "M ax",
      "S oc",
      "-align :",
      "ad es",
      "Person al",
      "align= center",
      "stit u",
      "a is",
      "St ation",
      "fir m",
      "im med",
      "W is",
      "num erous",
      "O b",
      "ult y",
      "act s",
      "relig ious",
      "Un ivers",
      "g .",
      "feat ure",
      "C ard",
      "H ome",
      "200 7,",
      "r at",
      "to l",
      "Pol and",
      "ing u",
      "n ,",
      "Cent re",
      "tr ade",
      "ow s",
      "R ay",
      "h un",
      "compet ed",
      "b attle",
      "ian ,",
      "2 ),",
      "cent re",
      "Met ro",
      "vict ory",
      "ple ment",
      "ul pt",
      "ret ired",
      "Egy pt",
      "bet ter",
      "com edy",
      "k o",
      "um ents",
      "ant i-",
      "cl ud",
      "A T",
      "two -",
      "Spec ial",
      "e c",
      "requ ired",
      "ch ap",
      "i as",
      "W all",
      "202 2,",
      "An ton",
      "Tran sport",
      "dr um",
      "Ital y",
      "most ly",
      "G ard",
      "D et",
      "E lect",
      "ance ,",
      "al tern",
      "h app",
      "cre ate",
      "Ber lin",
      "go als",
      "f ill",
      "self -",
      "D ar",
      "id s",
      "r ol",
      "profess or",
      "por tr",
      "n ine",
      "Tur k",
      "it ors",
      "expatr iate",
      "k y",
      "and a",
      "N ight",
      "ic a.",
      "support ed",
      "Dan iel",
      "b ad",
      "l av",
      "( T",
      "And rew",
      "voc al",
      "text -align:",
      "f ederal",
      "marr i",
      "lo ad",
      "fam ous",
      "po ol",
      "id ae",
      "ear ned",
      "record ing",
      "h ockey",
      "g ive",
      "En ter",
      "w a",
      "b lock",
      "198 7",
      "det ail",
      "histor ical",
      "over all",
      "emor ial",
      "par ish",
      "tain ment",
      "G irl",
      "; \"",
      "an ge",
      "p al",
      "sk i",
      "pract ice",
      "oc cas",
      "ch all",
      "C C",
      "pre vent",
      "part n",
      "cr u",
      "subsequ ently",
      "b omb",
      "ic ated",
      "particular ly",
      "ian g",
      "air s",
      "con cept",
      "inst all",
      "h ospital",
      "r ate",
      "produ ct",
      "B iography",
      "M S",
      "amp ions",
      "Russ ia",
      "i est",
      "Sy d",
      "j ob",
      "The ir",
      "new s",
      "W in",
      "cond ition",
      "1 ),",
      "N at",
      "person nel",
      "D or",
      "ask ed",
      "elect ric",
      "d ro",
      "major ity",
      "Lat in",
      "ct ing",
      "T ro",
      "T ime",
      "202 3",
      "Wom en",
      "it es",
      "El iz",
      "des cent",
      "/ /",
      "consid er",
      "centur y,",
      "Al bum",
      "bel ong",
      "ur ban",
      "cre w",
      "sc en",
      "appear ances",
      "ev idence",
      "M ir",
      "base ball",
      "M inn",
      "198 6",
      "Se cretary",
      "commun ities",
      "k er",
      "though t",
      "Bro ok",
      "Val ley",
      "V i",
      "cr imin",
      "chang es",
      "199 3",
      "We ek",
      "he m",
      "resp onse",
      "et ,",
      "C reek",
      "Kore an",
      "on e,",
      "B i",
      "m el",
      "manag er",
      "present ed",
      "p ath",
      "t able",
      "S on"
    ]
  }
}