{
  "version": "1.0",
  "truncation": null,
  "padding": null,
  "added_tokens": [
    {
      "id": 0,
      "content": "[PAD]",
      "single_word": false,
      "lstrip": false,
      "rstrip": false,
      "normalized": false,
      "special": true
    },
    {
      "id": 1,
      "content": "[EOT]",
      "single_word": false,
      "lstrip": false,
      "rstrip": false,
      "normalized": false,
      "special": true
    },
    {
      "id": 2,
      "content": "[UNK]",
      "single_word": false,
      "lstrip": false,
      "rstrip": false,
      "normalized": false,
      "special": true
    }
  ],
  "normalizer": {
    "type": "Sequence",
    "normalizers": [
      {
        "type": "NFD"
      },
      {
        "type": "StripAccents"
      },
      {
        "type": "Replace",
        "pattern": {
          "String": "[^a-zA-Z0-9\\s!\"\\#\\$%\\&'\\(\\)\\*\\+,\\-\\./:;<=>\\?@\\[\\\\\\]\\^_`\\{\\|\\}\\~]"
        },
        "content": ""
      }
    ]
  },
  "pre_tokenizer": {
    "type": "Sequence",
    "pretokenizers": [
      {
        "type": "WhitespaceSplit"
      },
      {
        "type": "Split",
        "pattern": {
          "String": "\\d"
        },
        "behavior": "Isolated",
        "invert": false
      },
      {
        "type": "ByteLevel",
        "add_prefix_space": true,
        "trim_offsets": true,
        "use_regex": true
      }
    ]
  },
  "post_processor": null,
  "decoder": {
    "type": "ByteLevel",
    "add_prefix_space": true,
    "trim_offsets": true,
    "use_regex": true
  },
  "model": {
    "type": "BPE",
    "dropout": 0.1,
    "unk_token": "[UNK]",
    "continuing_subword_prefix": null,
    "end_of_word_suffix": null,
    "fuse_unk": false,
    "byte_fallback": false,
    "ignore_merges": false,
    "vocab": {
      "[PAD]": 0,
      "[EOT]": 1,
      "[UNK]": 2,
      "\t": 3,
      "\n": 4,
      " ": 5,
      "!": 6,
      "\"": 7,
      "#": 8,
      "$": 9,
      "%": 10,
      "&": 11,
      "'": 12,
      "(": 13,
      ")": 14,
      "*": 15,
      "+": 16,
      ",": 17,
      "-": 18,
      ".": 19,
      "/": 20,
      "0": 21,
      "1": 22,
      "2": 23,
      "3": 24,
      "4": 25,
      "5": 26,
      "6": 27,
      "7": 28,
      "8": 29,
      "9": 30,
      ":": 31,
      ";": 32,
      "<": 33,
      "=": 34,
      ">": 35,
      "?": 36,
      "@": 37,
      "A": 38,
      "B": 39,
      "C": 40,
      "D": 41,
      "E": 42,
      "F": 43,
      "G": 44,
      "H": 45,
      "I": 46,
      "J": 47,
      "K": 48,
      "L": 49,
      "M": 50,
      "N": 51,
      "O": 52,
      "P": 53,
      "Q": 54,
      "R": 55,
      "S": 56,
      "T": 57,
      "U": 58,
      "V": 59,
      "W": 60,
      "X": 61,
      "Y": 62,
      "Z": 63,
      "[": 64,
      "\\": 65,
      "]": 66,
      "^": 67,
      "_": 68,
      "`": 69,
      "a": 70,
      "b": 71,
      "c": 72,
      "d": 73,
      "e": 74,
      "f": 75,
      "g": 76,
      "h": 77,
      "i": 78,
      "j": 79,
      "k": 80,
      "l": 81,
      "m": 82,
      "n": 83,
      "o": 84,
      "p": 85,
      "q": 86,
      "r": 87,
      "s": 88,
      "t": 89,
      "u": 90,
      "v": 91,
      "w": 92,
      "x": 93,
      "y": 94,
      "z": 95,
      "{": 96,
      "|": 97,
      "}": 98,
      "~": 99,
      "Ġ": 100,
      "Ġt": 101,
      "he": 102,
      "in": 103,
      "Ġa": 104,
      "er": 105,
      "on": 106,
      "Ġthe": 107,
      "re": 108,
      "an": 109,
      "or": 110,
      "en": 111,
      "at": 112,
      "ed": 113,
      "Ġo": 114,
      "st": 115,
      "al": 116,
      "Ġw": 117,
      "ar": 118,
      "it": 119,
      "Ġof": 120,
      "nd": 121,
      "Ġin": 122,
      "Ġs": 123,
      "Ġf": 124,
      "es": 125,
      "Ġc": 126,
      "is": 127,
      "Ġb": 128,
      "ic": 129,
      "Ġp": 130,
      "ing": 131,
      "Ġand": 132,
      "as": 133,
      "ion": 134,
      "ĠS": 135,
      "ro": 136,
      "le": 137,
      "ĠC": 138,
      "ĠA": 139,
      "ĠT": 140,
      "Ġto": 141,
      "Ġm": 142,
      "Ġd": 143,
      "Ġ1": 144,
      "ou": 145,
      "il": 146,
      "ĠM": 147,
      "ent": 148,
      "Ġh": 149,
      "am": 150,
      "om": 151,
      "ol": 152,
      "ĠB": 153,
      "el": 154,
      "ĠP": 155,
      "Ġre": 156,
      "Ġ(": 157,
      "ĠR": 158,
      "ct": 159,
      "Ġ2": 160,
      "ĠI": 161,
      "Ġl": 162,
      "ĠH": 163,
      "ad": 164,
      "ur": 165,
      "et": 166,
      "ch": 167,
      "iv": 168,
      "ers": 169,
      "Ġwas": 170,
      "ĠThe": 171,
      "ation": 172,
      "ĠD": 173,
      "ĠL": 174,
      "Ġn": 175,
      "Ġe": 176,
      "ig": 177,
      "ĠF": 178,
      "Ġ19": 179,
      "ir": 180,
      "id": 181,
      "ot": 182,
      "Ġth": 183,
      "ce": 184,
      "us": 185,
      "Ġfor": 186,
      "ay": 187,
      "Ġon": 188,
      "ly": 189,
      "ĠG": 190,
      "im": 191,
      "ist": 192,
      "ĠN": 193,
      "Ġ20": 194,
      "ĠE": 195,
      "ut": 196,
      "ĠW": 197,
      "ra": 198,
      "Ġg": 199,
      "Ġis": 200,
      "Ġas": 201,
      "em": 202,
      "ow": 203,
      "un": 204,
      "th": 205,
      "ith": 206,
      "ĠJ": 207,
      "Ġbe": 208,
      "Ġst": 209,
      "and": 210,
      "her": 211,
      "ter": 212,
      "ul": 213,
      "Ġwith": 214,
      "Ġby": 215,
      "ag": 216,
      "ĠO": 217,
      "Ġal": 218,
      "um": 219,
      "os": 220,
      "rom": 221,
      "'s": 222,
      "op": 223,
      "ac": 224,
      "Ġat": 225,
      "ver": 226,
      "ri": 227,
      "ĠK": 228,
      "Ġwh": 229,
      "Ġan": 230,
      "oc": 231,
      "Ġ|": 232,
      "Ġde": 233,
      "ian": 234,
      "ĠIn": 235,
      "Ġfrom": 236,
      "Ġcon": 237,
      "ĠU": 238,
      "Ġhe": 239,
      "Ġ\"": 240,
      "ia": 241,
      "Ġv": 242,
      "ain": 243,
      "ber": 244,
      "all": 245,
      "Ġthat": 246,
      "ity": 247,
      "res": 248,
      "od": 249,
      "ies": 250,
      "est": 251,
      "art": 252,
      "av": 253,
      "Ġcom": 254,
      "ab": 255,
      "ate": 256,
      "if": 257,
      "ill": 258,
      "Ġpro": 259,
      "ĠSt": 260,
      "up": 261,
      "Ġse": 262,
      "ort": 263,
      "ew": 264,
      "ard": 265,
      "ud": 266,
      "ĠRe": 267,
      "pe": 268,
      "Ġpl": 269,
      "ces": 270,
      "ub": 271,
      "Ġit": 272,
      "ak": 273,
      "igh": 274,
      "ip": 275,
      "ĠCh": 276,
      "Ġ201": 277,
      "Ġhis": 278,
      "se": 279,
      "ore": 280,
      "ich": 281,
      "ĠV": 282,
      "ov": 283,
      "ast": 284,
      "ld": 285,
      "ated": 286,
      "ary": 287,
      "ap": 288,
      "ant": 289,
      "Ġor": 290,
      "qu": 291,
      "ment": 292,
      "nt": 293,
      "ish": 294,
      "fer": 295,
      "ge": 296,
      "mer": 297,
      "ive": 298,
      "Ġr": 299,
      "Ġ200": 300,
      "ong": 301,
      "our": 302,
      "ug": 303,
      "og": 304,
      "ial": 305,
      "Ġch": 306,
      "end": 307,
      "und": 308,
      "ine": 309,
      "ere": 310,
      "Ġare": 311,
      "Ġex": 312,
      "ks": 313,
      "ell": 314,
      "ust": 315,
      "ear": 316,
      "ĠHe": 317,
      "00": 318,
      "ction": 319,
      "ame": 320,
      "so": 321,
      "ord": 322,
      "ire": 323,
      "Ġwere": 324,
      "ran": 325,
      "uc": 326,
      "ure": 327,
      "ĠUn": 328,
      "ical": 329,
      "ight": 330,
      "Ġle": 331,
      "Ġ||": 332,
      "ue": 333,
      "ie": 334,
      "ost": 335,
      "),": 336,
      "ign": 337,
      "Ġ18": 338,
      "19": 339,
      "Ġalso": 340,
      "Ġwhich": 341,
      "pt": 342,
      "ric": 343,
      "are": 344,
      "ess": 345,
      "Ġplay": 346,
      "Ġcomp": 347,
      "Ġk": 348,
      "cl": 349,
      "rit": 350,
      "Ġsh": 351,
      "ther": 352,
      "Ġy": 353,
      "ff": 354,
      "ĠSe": 355,
      "ass": 356,
      "ry": 357,
      "age": 358,
      "port": 359,
      "irst": 360,
      "ĠY": 361,
      "Ġ3": 362,
      "ĠIt": 363,
      "feren": 364,
      "man": 365,
      "ition": 366,
      "ount": 367,
      "ous": 368,
      "Ġun": 369,
      "ĠAl": 370,
      "ork": 371,
      "ack": 372,
      "Ġar": 373,
      "erv": 374,
      "iz": 375,
      "te": 376,
      "Ġhad": 377,
      "Ġcl": 378,
      "ond": 379,
      "ational": 380,
      "per": 381,
      "hed": 382,
      "Ġte": 383,
      "ide": 384,
      "ok": 385,
      "ĠTh": 386,
      "ang": 387,
      "ican": 388,
      "land": 389,
      "tern": 390,
      "orn": 391,
      "ory": 392,
      "ice": 393,
      "ations": 394,
      "ult": 395,
      "pl": 396,
      "ph": 397,
      "Ġfirst": 398,
      "Ġ199": 399,
      "Ġnot": 400,
      "fter": 401,
      "own": 402,
      "Ġhas": 403,
      "ferences": 404,
      "ng": 405,
      "ave": 406,
      "ĠAr": 407,
      "ome": 408,
      "ĠDe": 409,
      "Ġro": 410,
      "Ġwhe": 411,
      "ater": 412,
      "ib": 413,
      "ne": 414,
      "ĠReferences": 415,
      "ens": 416,
      "Ġcont": 417,
      "wo": 418,
      "ach": 419,
      "ĠAmer": 420,
      "ĠMar": 421,
      "amp": 422,
      "sh": 423,
      "ilm": 424,
      "ree": 425,
      "ite": 426,
      "Ġad": 427,
      "Ġus": 428,
      "ates": 429,
      "Ġpart": 430,
      "ople": 431,
      "Ġwho": 432,
      "ĠLe": 433,
      "ime": 434,
      "Ġj": 435,
      "ited": 436,
      "Ġtheir": 437,
      "ru": 438,
      "Ġint": 439,
      "Ġher": 440,
      "ember": 441,
      "Ġap": 442,
      "Ġits": 443,
      "Ġres": 444,
      "aw": 445,
      "ound": 446,
      "ke": 447,
      "ubl": 448,
      "ath": 449,
      "out": 450,
      "ivers": 451,
      "ool": 452,
      "20": 453,
      "over": 454,
      "ild": 455,
      "ball": 456,
      "ace": 457,
      ").": 458,
      "Ġab": 459,
      "oll": 460,
      "iss": 461,
      "ĠNew": 462,
      "Ġ4": 463,
      "clud": 464,
      "Ġbut": 465,
      "Ġac": 466,
      "eople": 467,
      "inal": 468,
      "ĠCom": 469,
      "Ġyear": 470,
      "ts": 471,
      "ĠAmerican": 472,
      "Ġone": 473,
      "ugh": 474,
      "ile": 475,
      "oot": 476,
      "old": 477,
      "ors": 478,
      "Ġ198": 479,
      "ould": 480,
      "Ġag": 481,
      "ĠEx": 482,
      "ade": 483,
      "Ġrec": 484,
      "Ġper": 485,
      "ress": 486,
      "ual": 487,
      "uring": 488,
      "for": 489,
      "Ġsc": 490,
      "ents": 491,
      "ence": 492,
      "ward": 493,
      "oin": 494,
      "wn": 495,
      "les": 496,
      "Ġman": 497,
      "ĠAs": 498,
      "Ġtwo": 499,
      "oy": 500,
      "Ġinclud": 501,
      "act": 502,
      "ased": 503,
      "Ġdes": 504,
      "Ġbec": 505,
      "io": 506,
      "chool": 507,
      "ons": 508,
      "Ġhave": 509,
      "we": 510,
      "ied": 511,
      "Ġ-": 512,
      "Ġen": 513,
      "cted": 514,
      "ob": 515,
      "Ġthis": 516,
      "ern": 517,
      "vel": 518,
      "Ġall": 519,
      "one": 520,
      "ings": 521,
      "Ġ5": 522,
      "ail": 523,
      "Ġfilm": 524,
      "urn": 525,
      "ase": 526,
      "Ġcomm": 527,
      "ark": 528,
      "Ġbeen": 529,
      "ind": 530,
      "ision": 531,
      "Ġ197": 532,
      "gh": 533,
      "outh": 534,
      "Ġother": 535,
      "ics": 536,
      "ted": 537,
      "Ġafter": 538,
      "Ġdis": 539,
      "ury": 540,
      "ĠSh": 541,
      "uch": 542,
      "Ġim": 543,
      "ely": 544,
      "gan": 545,
      "ral": 546,
      "ished": 547,
      "ft": 548,
      "ect": 549,
      "Ġoff": 550,
      "ren": 551,
      "ah": 552,
      "iversity": 553,
      "red": 554,
      "oh": 555,
      "able": 556,
      "Ġsp": 557,
      "ose": 558,
      "ance": 559,
      "Ġlin": 560,
      "Ġserv": 561,
      "Ġout": 562,
      "Ġup": 563,
      "Ġpeople": 564,
      "ont": 565,
      "orld": 566,
      "ood": 567,
      "Ġra": 568,
      "Ġshe": 569,
      "Ġover": 570,
      "pec": 571,
      "cent": 572,
      "Ġne": 573,
      "ions": 574,
      "rib": 575,
      "Ġ196": 576,
      "ames": 577,
      "ĠPro": 578,
      "ĠOn": 579,
      "way": 580,
      "Ġev": 581,
      "Ġnew": 582,
      "ton": 583,
      "ason": 584,
      "ale": 585,
      "Ġund": 586,
      "olog": 587,
      "Ġ6": 588,
      "ĠUnited": 589,
      "ram": 590,
      "Ġloc": 591,
      "Ġele": 592,
      "ootball": 593,
      "ĠInd": 594,
      "du": 595,
      "Ġthey": 596,
      "Ġwork": 597,
      "ists": 598,
      "ans": 599,
      "olle": 600,
      "eb": 601,
      "Ġinto": 602,
      "che": 603,
      "Ġtra": 604,
      "cess": 605,
      "ĠZ": 606,
      "Ġpre": 607,
      "Ġgro": 608,
      "orth": 609,
      "ĠUniversity": 610,
      "eral": 611,
      "ough": 612,
      "Ġact": 613,
      "Ġatt": 614,
      "ck": 615,
      "ternal": 616,
      "ep": 617,
      "ict": 618,
      "ake": 619,
      "Ġsec": 620,
      "ĠAn": 621,
      "Ġtime": 622,
      "Ġbu": 623,
      "az": 624,
      "ik": 625,
      "Ġcan": 626,
      "ily": 627,
      "rans": 628,
      "Ġunder": 629,
      "ĠCl": 630,
      "rough": 631,
      "iel": 632,
      "ix": 633,
      "ick": 634,
      "vi": 635,
      "Ġpol": 636,
      "duc": 637,
      "pr": 638,
      "ĠSc": 639,
      "ĠEng": 640,
      "ince": 641,
      "ve": 642,
      "oun": 643,
      "ife": 644,
      "Ġteam": 645,
      "Ġlinks": 646,
      "Ġplayers": 647,
      "als": 648,
      "oci": 649,
      "rad": 650,
      "Ġreg": 651,
      "Ġpubl": 652,
      "oth": 653,
      "Ġ194": 654,
      "Ġkn": 655,
      "ident": 656,
      "ĠExternal": 657,
      "ship": 658,
      "form": 659,
      "Ġhim": 660,
      "Ġbet": 661,
      "att": 662,
      "Ġass": 663,
      "ĠShe": 664,
      "inn": 665,
      "ative": 666,
      "Ġ7": 667,
      "ier": 668,
      "aj": 669,
      "18": 670,
      "ouse": 671,
      "ins": 672,
      "emb": 673,
      "Ġpr": 674,
      "ities": 675,
      "use": 676,
      "ollow": 677,
      "ina": 678,
      "Ġ195": 679,
      "Ġwould": 680,
      "Ġco": 681,
      "ann": 682,
      "ĠTe": 683,
      "ober": 684,
      "Ġest": 685,
      "Ġwhen": 686,
      "usic": 687,
      "Ġagain": 688,
      "ll": 689,
      "Ġcent": 690,
      "Ġop": 691,
      "Ġyears": 692,
      "ween": 693,
      "eries": 694,
      "ced": 695,
      "Ġcons": 696,
      "round": 697,
      "resent": 698,
      "overn": 699,
      "ating": 700,
      "Ġwhere": 701,
      "Ġduring": 702,
      "Ġret": 703,
      "Ġmore": 704,
      "Ġind": 705,
      "abl": 706,
      "Ġ17": 707,
      "Ġbo": 708,
      "iving": 709,
      "raph": 710,
      "arly": 711,
      "bum": 712,
      "der": 713,
      "ĠJoh": 714,
      "Ġsub": 715,
      "air": 716,
      "Ġstud": 717,
      "any": 718,
      "Ġform": 719,
      "Ġsup": 720,
      "Ġ202": 721,
      "Ġgen": 722,
      "ĠThis": 723,
      "Ġme": 724,
      "ĠPl": 725,
      "Ġqu": 726,
      "ĠCount": 727,
      "ĠStates": 728,
      "Ġfootball": 729,
      "Ġfound": 730,
      "Ġ8": 731,
      "ional": 732,
      "ock": 733,
      "arl": 734,
      "Ġrele": 735,
      "Ġfl": 736,
      "cc": 737,
      "Ġspec": 738,
      "enn": 739,
      "ash": 740,
      "Ġonly": 741,
      "Ġbetween": 742,
      "iam": 743,
      "ague": 744,
      "Ġfam": 745,
      "Ġbir": 746,
      "Ġrel": 747,
      "reat": 748,
      "ĠFor": 749,
      "Ġseason": 750,
      "pro": 751,
      "ĠQ": 752,
      "eat": 753,
      "istric": 754,
      "ĠAt": 755,
      "opul": 756,
      "Ġsy": 757,
      "ĠNational": 758,
      "ĠWar": 759,
      "Ġed": 760,
      "istory": 761,
      "Ġart": 762,
      "ific": 763,
      "ĠSp": 764,
      "son": 765,
      "ĠComm": 766,
      "erman": 767,
      "ĠIs": 768,
      "Ġabout": 769,
      "ĠAust": 770,
      "Ġthree": 771,
      "ĠJohn": 772,
      "\".": 773,
      "Ġinter": 774,
      "Ġmost": 775,
      "ctor": 776,
      "fore": 777,
      "ĠWorld": 778,
      "ley": 779,
      "ĠFran": 780,
      "ĠPh": 781,
      "ths": 782,
      "ĠCon": 783,
      "Ġrem": 784,
      "Ġfollow": 785,
      "Ġ9": 786,
      "Ġmade": 787,
      "Ġalbum": 788,
      "Ġlater": 789,
      "Ġsing": 790,
      "Ġthrough": 791,
      "ield": 792,
      "inist": 793,
      "une": 794,
      "omen": 795,
      "Ġend": 796,
      "Ġ10": 797,
      "iver": 798,
      "ived": 799,
      "ĠBe": 800,
      "erson": 801,
      "ron": 802,
      "Ġsecond": 803,
      "Ġthem": 804,
      "ros": 805,
      "ĠBrit": 806,
      "ĠBl": 807,
      "ograph": 808,
      "Ġwrit": 809,
      "ĠMay": 810,
      "ank": 811,
      "uss": 812,
      "Ġnum": 813,
      "Ġmov": 814,
      "Ġthere": 815,
      "Ġ193": 816,
      "Ġthen": 817,
      "Ġdire": 818,
      "mp": 819,
      "ĠCan": 820,
      "Ġdef": 821,
      "Ġused": 822,
      ".\"": 823,
      "ĠJan": 824,
      "erm": 825,
      "ower": 826,
      "ese": 827,
      "velop": 828,
      "ures": 829,
      "hen": 830,
      "Ġrecord": 831,
      "arg": 832,
      "Ġinv": 833,
      "ement": 834,
      "istrict": 835,
      "Ġtrans": 836,
      "oss": 837,
      "ten": 838,
      "Ġso": 839,
      "ert": 840,
      "Ġmed": 841,
      "ee": 842,
      "ari": 843,
      "Ġ16": 844,
      "ars": 845,
      "Ġschool": 846,
      "Ġknown": 847,
      "Ġset": 848,
      "ai": 849,
      "ĠCounty": 850,
      "ĠAd": 851,
      "ys": 852,
      "\",": 853,
      "Ġent": 854,
      "Ġbecame": 855,
      "200": 856,
      "Ġsuch": 857,
      "stit": 858,
      "Ġestabl": 859,
      "ĠOr": 860,
      "Ġ15": 861,
      "Ġam": 862,
      "ism": 863,
      "ĠSouth": 864,
      "ĠGe": 865,
      "Ġprov": 866,
      "cy": 867,
      "ural": 868,
      "its": 869,
      "Ġph": 870,
      "Ġinc": 871,
      "ments": 872,
      "Ġthan": 873,
      "ĠSchool": 874,
      "ampion": 875,
      "ternational": 876,
      "uro": 877,
      "ĠGerman": 878,
      "ĠMe": 879,
      "ax": 880,
      "ise": 881,
      "Ġfour": 882,
      "pos": 883,
      "Ġ&": 884,
      "ĠNov": 885,
      "Ġseries": 886,
      "ĠJu": 887,
      "Ġbeing": 888,
      "Ġsome": 889,
      "urch": 890,
      "Ġlead": 891,
      "Ġ|-": 892,
      "Ġbl": 893,
      "Ġpopul": 894,
      "Ġ.": 895,
      "ever": 896,
      "ĠWest": 897,
      "ute": 898,
      "Ġcall": 899,
      "Ġsong": 900,
      "ays": 901,
      "Ġincluding": 902,
      "other": 903,
      "ject": 904,
      "let": 905,
      "eth": 906,
      "Ġgroup": 907,
      "Ġagainst": 908,
      "ae": 909,
      "Ġwell": 910,
      "areer": 911,
      "Ġdo": 912,
      "ike": 913,
      "Ġappe": 914,
      "ĠPol": 915,
      "ĠAfter": 916,
      "born": 917,
      "Ġdeath": 918,
      "ugust": 919,
      "Ġacc": 920,
      "arri": 921,
      "Ġcount": 922,
      "ty": 923,
      "Ġcre": 924,
      "ctions": 925,
      "ians": 926,
      "ĠPr": 927,
      "uary": 928,
      "ĠWh": 929,
      "amed": 930,
      "ptember": 931,
      "ĠAustral": 932,
      "ven": 933,
      "stem": 934,
      "ather": 935,
      "til": 936,
      "ĠYork": 937,
      "arn": 938,
      "ired": 939,
      "ull": 940,
      "by": 941,
      "my": 942,
      "ered": 943,
      "rid": 944,
      "very": 945,
      "ution": 946,
      "ey": 947,
      "ĠAugust": 948,
      "Ġbefore": 949,
      "ĠBritish": 950,
      "Ġrece": 951,
      "=\"": 952,
      "ĠOct": 953,
      "els": 954,
      "Ġ12": 955,
      "Ġadd": 956,
      "Ġwhile": 957,
      "rist": 958,
      "Ġsur": 959,
      "ĠSeptember": 960,
      "Ġsign": 961,
      "Ġpolit": 962,
      "ives": 963,
      "ĠMarch": 964,
      "overnment": 965,
      "000": 966,
      "Ġbro": 967,
      "Ġdec": 968,
      "Ġshow": 969,
      "ĠCent": 970,
      "aid": 971,
      "Ġoffic": 972,
      "Ġbuild": 973,
      "Ġdevelop": 974,
      "Ġoper": 975,
      "ĠOctober": 976,
      "ology": 977,
      "Ġgo": 978,
      "elf": 979,
      "Ġfamily": 980,
      "Ġuntil": 981,
      "Ġcap": 982,
      "lev": 983,
      "ĠMan": 984,
      "xt": 985,
      "Ġmusic": 986,
      "Ġmay": 987,
      "pril": 988,
      "ized": 989,
      "owever": 990,
      "ĠJune": 991,
      "au": 992,
      "rand": 993,
      "Ġown": 994,
      "fess": 995,
      "Ġno": 996,
      "Ġrep": 997,
      "ĠJanuary": 998,
      "ica": 999,
      "Ġorig": 1000,
      "ery": 1001,
      "Ġmain": 1002,
      "mber": 1003,
      "Ġmod": 1004,
      "Ġhigh": 1005,
      "ĠAss": 1006,
      "ĠJuly": 1007,
      "eng": 1008,
      "ĠAll": 1009,
      "Ġbirths": 1010,
      "embers": 1011,
      "ĠCar": 1012,
      "10": 1013,
      "lish": 1014,
      "istor": 1015,
      "Ġchar": 1016,
      "Ġboth": 1017,
      "ĠNorth": 1018,
      "Ġplayed": 1019,
      "ollege": 1020,
      "Ġmon": 1021,
      "Ġmany": 1022,
      "Ġnumber": 1023,
      "ott": 1024,
      "ets": 1025,
      "ĠCo": 1026,
      "ĠLeague": 1027,
      "Ġexp": 1028,
      "oman": 1029,
      "Ġname": 1030,
      "uth": 1031,
      "ampionship": 1032,
      "ĠApril": 1033,
      "century": 1034,
      "wards": 1035,
      "Ġback": 1036,
      "Ġ192": 1037,
      "ants": 1038,
      "ved": 1039,
      "ient": 1040,
      "ĠCanad": 1041,
      "ĠEuro": 1042,
      "itt": 1043,
      "ĠSee": 1044,
      "Ġreleased": 1045,
      "cember": 1046,
      "Ġem": 1047,
      "stru": 1048,
      "ĠGu": 1049,
      "ained": 1050,
      "ĠBo": 1051,
      "ene": 1052,
      "ior": 1053,
      "ple": 1054,
      "Ġgu": 1055,
      "gram": 1056,
      "17": 1057,
      "ĠEd": 1058,
      "isc": 1059,
      "Ġformer": 1060,
      "ĠCol": 1061,
      "ĠNovember": 1062,
      "ital": 1063,
      "Ġsever": 1064,
      "ission": 1065,
      "ĠAm": 1066,
      "ĠEnglish": 1067,
      "Ġann": 1068,
      "Ġwon": 1069,
      "ium": 1070,
      "ines": 1071,
      "ec": 1072,
      "hes": 1073,
      "ports": 1074,
      "Ġdesign": 1075,
      "por": 1076,
      "icip": 1077,
      "cept": 1078,
      "ĠReg": 1079,
      "ĠWill": 1080,
      "ĠDecember": 1081,
      "Ġmat": 1082,
      "ĠCity": 1083,
      "Ġ14": 1084,
      "ract": 1085,
      "ĠFl": 1086,
      "ajor": 1087,
      "Ġdesc": 1088,
      "yl": 1089,
      "ross": 1090,
      "Ġ13": 1091,
      "Ġlife": 1092,
      "Ġarea": 1093,
      "imes": 1094,
      "ird": 1095,
      "Ġstart": 1096,
      "ĠCal": 1097,
      "ĠAf": 1098,
      "Ġorgan": 1099,
      "ris": 1100,
      "duced": 1101,
      "Ġopen": 1102,
      "Ġfeat": 1103,
      "ared": 1104,
      "ĠState": 1105,
      "ret": 1106,
      "fl": 1107,
      "Ġgame": 1108,
      "ages": 1109,
      "Ġdif": 1110,
      "vent": 1111,
      "resident": 1112,
      "Ġrun": 1113,
      "ket": 1114,
      "ues": 1115,
      "Ġfilms": 1116,
      "led": 1117,
      "rop": 1118,
      "Ġprodu": 1119,
      "part": 1120,
      "Ġ11": 1121,
      "arm": 1122,
      "ety": 1123,
      "Ġmen": 1124,
      "Ġ2010": 1125,
      "Ġclass": 1126,
      "ography": 1127,
      "Ġ21": 1128,
      "yle": 1129,
      "Ġext": 1130,
      "apan": 1131,
      "ilt": 1132,
      "ebru": 1133,
      "Ġsm": 1134,
      "levision": 1135,
      "ebruary": 1136,
      "Ġpublic": 1137,
      "ung": 1138,
      "ĠKing": 1139,
      "ĠII": 1140,
      "Ġstate": 1141,
      "Ġsystem": 1142,
      "ĠPar": 1143,
      "Ġlong": 1144,
      "Ġob": 1145,
      "ually": 1146,
      "Ġdr": 1147,
      "arch": 1148,
      "ĠBro": 1149,
      "ful": 1150,
      "Ġfinal": 1151,
      "Ġcareer": 1152,
      "ilit": 1153,
      "ner": 1154,
      "ĠHis": 1155,
      "Ġsame": 1156,
      "ular": 1157,
      "anc": 1158,
      "ause": 1159,
      "Ġcalled": 1160,
      "amb": 1161,
      "view": 1162,
      "Ġfollowing": 1163,
      "ĠFebruary": 1164,
      "inc": 1165,
      "ze": 1166,
      "ove": 1167,
      "yn": 1168,
      "Ġreturn": 1169,
      "Ġfin": 1170,
      "ony": 1171,
      "Ġcity": 1172,
      "Ġwill": 1173,
      "ivision": 1174,
      "ĠEurope": 1175,
      "ĠSw": 1176,
      "af": 1177,
      "hip": 1178,
      "Ġchild": 1179,
      "rat": 1180,
      "ales": 1181,
      "aking": 1182,
      "Ġseveral": 1183,
      "Ġcommun": 1184,
      "rench": 1185,
      "ility": 1186,
      "Ġwomen": 1187,
      "rent": 1188,
      "oint": 1189,
      "ĠMed": 1190,
      "orks": 1191,
      "ĠJapan": 1192,
      "sp": 1193,
      "ange": 1194,
      "chn": 1195,
      "ially": 1196,
      "com": 1197,
      "con": 1198,
      "ured": 1199,
      "Ġlist": 1200,
      "Ġsuc": 1201,
      "ĠGeor": 1202,
      "ped": 1203,
      "Ġearly": 1204,
      "Ġair": 1205,
      "ĠBar": 1206,
      "Ġcontin": 1207,
      "Ġ'": 1208,
      "Ġtown": 1209,
      "Ġcompet": 1210,
      "Ġclub": 1211,
      "ĠEl": 1212,
      "Ġmin": 1213,
      "Ġresult": 1214,
      "ham": 1215,
      "ible": 1216,
      "12": 1217,
      "ĠAnd": 1218,
      "ĠHar": 1219,
      "ĠHistory": 1220,
      "ised": 1221,
      "ally": 1222,
      "Ġsince": 1223,
      "ices": 1224,
      "ains": 1225,
      "ster": 1226,
      "199": 1227,
      "ĠThey": 1228,
      "ĠPart": 1229,
      "bo": 1230,
      "ring": 1231,
      "Ġnear": 1232,
      "angu": 1233,
      "Ġnamed": 1234,
      "Ġoriginal": 1235,
      "ended": 1236,
      "ued": 1237,
      "ĠChrist": 1238,
      "ata": 1239,
      "Ġhead": 1240,
      "ĠAb": 1241,
      "16": 1242,
      "Ġbel": 1243,
      "Ġdisc": 1244,
      "Ġplace": 1245,
      "ĠFrench": 1246,
      "ided": 1247,
      "ience": 1248,
      "Ġ2011": 1249,
      "ĠRep": 1250,
      "Ġcur": 1251,
      "Ġbegan": 1252,
      "ille": 1253,
      "Ġtit": 1254,
      "Ġuse": 1255,
      "ival": 1256,
      "ane": 1257,
      "reen": 1258,
      "Ġprogram": 1259,
      "ĠUS": 1260,
      "Ġvill": 1261,
      "Ġmember": 1262,
      "Ġmembers": 1263,
      "15": 1264,
      "Ġprom": 1265,
      "Ġheld": 1266,
      "Ġany": 1267,
      "Ġland": 1268,
      "ĠComp": 1269,
      "Ġbased": 1270,
      "aint": 1271,
      "ĠRes": 1272,
      "ĠMc": 1273,
      "Ġthese": 1274,
      "Ġcomple": 1275,
      "ble": 1276,
      "Ġapp": 1277,
      "me": 1278,
      "Ġsupport": 1279,
      "ounc": 1280,
      "ĠAfric": 1281,
      "ality": 1282,
      "Ġgovernment": 1283,
      "right": 1284,
      "Ġ2008": 1285,
      "ĠRuss": 1286,
      "Ġmet": 1287,
      "Ġ2012": 1288,
      "Ġwe": 1289,
      "ĠRo": 1290,
      "augh": 1291,
      "Ġ190": 1292,
      "ĠAir": 1293,
      "Ġestablished": 1294,
      "ious": 1295,
      "Ġalong": 1296,
      "Ġeff": 1297,
      "the": 1298,
      "Ġ,": 1299,
      "ĠEast": 1300,
      "ĠChampionship": 1301,
      "Ġdescrib": 1302,
      "The": 1303,
      "iness": 1304,
      "Ġeng": 1305,
      "itions": 1306,
      "ĠCollege": 1307,
      "Ġpass": 1308,
      "ĠWilliam": 1309,
      "ĠGen": 1310,
      "ana": 1311,
      "ode": 1312,
      "..": 1313,
      "Ġdist": 1314,
      "pect": 1315,
      "alth": 1316,
      "adem": 1317,
      "Ġ2009": 1318,
      "Ġlocated": 1319,
      "urg": 1320,
      "uk": 1321,
      "ĠThere": 1322,
      "ator": 1323,
      "ically": 1324,
      "ĠHer": 1325,
      "orm": 1326,
      "aced": 1327,
      "Ġdid": 1328,
      "Ġlaw": 1329,
      "ino": 1330,
      "Ġcol": 1331,
      "Ġocc": 1332,
      "Ġcharact": 1333,
      "ches": 1334,
      "ford": 1335,
      "ĠArt": 1336,
      "col": 1337,
      "ats": 1338,
      "ien": 1339,
      "ublic": 1340,
      "ĠPeople": 1341,
      "Ġpos": 1342,
      "Ġyou": 1343,
      "Ġ2013": 1344,
      "ondon": 1345,
      "ĠNe": 1346,
      "ociation": 1347,
      "ĠItal": 1348,
      "Ġ2006": 1349,
      "Ġ2007": 1350,
      "Ġhouse": 1351,
      "Ġeach": 1352,
      "to": 1353,
      "ĠHigh": 1354,
      "ington": 1355,
      "ored": 1356,
      "Ġ2014": 1357,
      "row": 1358,
      "Ġ2016": 1359,
      "Ġserved": 1360,
      "ourt": 1361,
      "ĠFilm": 1362,
      "Ġtook": 1363,
      "que": 1364,
      "Ġsim": 1365,
      "ky": 1366,
      "ĠX": 1367,
      "14": 1368,
      "ĠRec": 1369,
      "Ġband": 1370,
      "Ġtr": 1371,
      "Ġstation": 1372,
      "Ġhome": 1373,
      "ĠDistrict": 1374,
      "Ġbus": 1375,
      "aving": 1376,
      "ĠSy": 1377,
      "ĠInternational": 1378,
      "Ġborn": 1379,
      "Ġgames": 1380,
      "Ġnational": 1381,
      "med": 1382,
      "lymp": 1383,
      "iet": 1384,
      "ĠAc": 1385,
      "Ġinst": 1386,
      "Ġ2015": 1387,
      "rew": 1388,
      "erg": 1389,
      "Ġprofess": 1390,
      "ined": 1391,
      "Ġ2018": 1392,
      "ights": 1393,
      "ps": 1394,
      "Ġcompany": 1395,
      "Ġline": 1396,
      "Ġperson": 1397,
      "13": 1398,
      "ĠOlymp": 1399,
      "Ġpopulation": 1400,
      "Ġmajor": 1401,
      "Ġ189": 1402,
      "aces": 1403,
      "ourn": 1404,
      "Ġ2020": 1405,
      "ĠDav": 1406,
      "illion": 1407,
      "ĠLiving": 1408,
      "ĠLondon": 1409,
      "Ġ2017": 1410,
      "ĠSec": 1411,
      "Ġsl": 1412,
      "Ġbas": 1413,
      "Ġjoin": 1414,
      "Ġsmall": 1415,
      "Ġleg": 1416,
      "Ġlocal": 1417,
      "ĠIndian": 1418,
      "ĠLa": 1419,
      "ards": 1420,
      "Ġvari": 1421,
      "Ġreceived": 1422,
      "Ġdeb": 1423,
      "Ġevent": 1424,
      "Ġ25": 1425,
      "Ġgeneral": 1426,
      "Ġmanag": 1427,
      "Ġpublished": 1428,
      "Ġtelevision": 1429,
      "ĠCup": 1430,
      "ett": 1431,
      "Ġcentury": 1432,
      "ĠNot": 1433,
      "ilitary": 1434,
      "side": 1435,
      "eter": 1436,
      "Ġ30": 1437,
      "ature": 1438,
      "Ġ2019": 1439,
      "Ġsingle": 1440,
      "Ġbuilt": 1441,
      "ĠSup": 1442,
      "Ġvi": 1443,
      "ĠPhil": 1444,
      "aul": 1445,
      "Ġdue": 1446,
      "Ġcould": 1447,
      "Ġvers": 1448,
      "ĠHowever": 1449,
      "Ġ$": 1450,
      "Ġappro": 1451,
      "arge": 1452,
      "Ġworld": 1453,
      "Ġspecies": 1454,
      "ara": 1455,
      "Ġcolle": 1456,
      "umn": 1457,
      "Ġsuccess": 1458,
      "ief": 1459,
      "ouncil": 1460,
      "Ġpo": 1461,
      "vers": 1462,
      "Ġstr": 1463,
      "int": 1464,
      "Ġaround": 1465,
      "ording": 1466,
      "ified": 1467,
      "ĠAng": 1468,
      "uthor": 1469,
      "ides": 1470,
      "ately": 1471,
      "omin": 1472,
      "ĠGl": 1473,
      "Ġold": 1474,
      "Ġeduc": 1475,
      "ĠTr": 1476,
      "arried": 1477,
      "ĠList": 1478,
      "ĠNo": 1479,
      "Ġterm": 1480,
      "ison": 1481,
      "rol": 1482,
      "ĠCor": 1483,
      "ummer": 1484,
      "Ġage": 1485,
      "ffic": 1486,
      "ling": 1487,
      "ĠTra": 1488,
      "ĠHouse": 1489,
      "Ġhel": 1490,
      "Ġalign": 1491,
      "Ġep": 1492,
      "ords": 1493,
      "ef": 1494,
      "ocial": 1495,
      "ĠPark": 1496,
      "ration": 1497,
      "Ġpresent": 1498,
      "ĠPre": 1499,
      "Ġleft": 1500,
      "Ġlast": 1501,
      "Ġsix": 1502,
      "ĠEn": 1503,
      "Ġhistory": 1504,
      "Ġnow": 1505,
      "iod": 1506,
      "aim": 1507,
      "Ġsaid": 1508,
      "ĠSan": 1509,
      "Ġty": 1510,
      "Ġ2000": 1511,
      "Ġrepresent": 1512,
      "reet": 1513,
      "aus": 1514,
      "idd": 1515,
      "raft": 1516,
      "tt": 1517,
      "Ġdied": 1518,
      "Ġplayer": 1519,
      "oph": 1520,
      "Ġ0": 1521,
      "Ġrest": 1522,
      "11": 1523,
      "Ġcamp": 1524,
      "ization": 1525,
      "ĠDuring": 1526,
      "Ġcar": 1527,
      "Ġla": 1528,
      "umb": 1529,
      "anguage": 1530,
      "Ġtop": 1531,
      "ney": 1532,
      "Ġpar": 1533,
      "ĠBr": 1534,
      "ones": 1535,
      "Ġvillage": 1536,
      "Ġwithin": 1537,
      "ĠMich": 1538,
      "Ġdet": 1539,
      "iven": 1540,
      "Ġstyle": 1541,
      "Ġfive": 1542,
      "Ġ2005": 1543,
      "Ġtri": 1544,
      "Ġnorth": 1545,
      "Ġshort": 1546,
      "Ġ24": 1547,
      "van": 1548,
      "ĠRoy": 1549,
      "Ġorder": 1550,
      "ideo": 1551,
      "Ġ188": 1552,
      "Ġday": 1553,
      "ink": 1554,
      "ĠDes": 1555,
      "oks": 1556,
      "ether": 1557,
      "uf": 1558,
      "Ġdescribed": 1559,
      "akes": 1560,
      "sc": 1561,
      "ows": 1562,
      "urther": 1563,
      "198": 1564,
      "ently": 1565,
      "Ġthird": 1566,
      "Ġbuilding": 1567,
      "alk": 1568,
      "Ġinclude": 1569,
      "ĠRiver": 1570,
      "Ġincluded": 1571,
      "Ġpost": 1572,
      "ument": 1573,
      "Ġdown": 1574,
      "aster": 1575,
      "iforn": 1576,
      "ĠPer": 1577,
      "Ġdiffer": 1578,
      "day": 1579,
      "hem": 1580,
      "ĠAg": 1581,
      "Ġchildren": 1582,
      "Ġreport": 1583,
      "urs": 1584,
      "ĠEngland": 1585,
      "co": 1586,
      "ĠChar": 1587,
      "Ġ2021": 1588,
      "attle": 1589,
      "Ġref": 1590,
      "vious": 1591,
      "Ġrequ": 1592,
      "ĠSch": 1593,
      "ĠAct": 1594,
      "na": 1595,
      "era": 1596,
      "ference": 1597,
      "Ġbecause": 1598,
      "key": 1599,
      "tain": 1600,
      "ifornia": 1601,
      "Ġadm": 1602,
      "ĠBy": 1603,
      "though": 1604,
      "Ġannoun": 1605,
      "Ġlarge": 1606,
      "Ġconsid": 1607,
      "ively": 1608,
      "reg": 1609,
      "ĠGro": 1610,
      "ĠMal": 1611,
      "Ġsouth": 1612,
      "ground": 1613,
      "Ġson": 1614,
      "ĠAustralia": 1615,
      "Ġ2004": 1616,
      "ico": 1617,
      "Ġdem": 1618,
      "ridge": 1619,
      "riend": 1620,
      "Ġdistrict": 1621,
      "ĠCalifornia": 1622,
      "ler": 1623,
      "color": 1624,
      "Ġstand": 1625,
      "ĠPort": 1626,
      "ĠBra": 1627,
      "Ġmark": 1628,
      "ĠMon": 1629,
      "osp": 1630,
      ".,": 1631,
      "useum": 1632,
      "cture": 1633,
      "Ġarch": 1634,
      "Ġpower": 1635,
      "inning": 1636,
      "Ġstat": 1637,
      "Ġbook": 1638,
      "uck": 1639,
      "ody": 1640,
      "ĠYou": 1641,
      "ĠParty": 1642,
      "ency": 1643,
      "Ġlo": 1644,
      "Ġdeaths": 1645,
      "ript": 1646,
      "Ġ2022": 1647,
      "Ġcrit": 1648,
      "adio": 1649,
      "iter": 1650,
      "partment": 1651,
      "lands": 1652,
      "ining": 1653,
      "Ġwar": 1654,
      "conom": 1655,
      "uman": 1656,
      "Ġappear": 1657,
      "Ġcor": 1658,
      "ĠDem": 1659,
      "Ġmale": 1660,
      "Ġlarg": 1661,
      "ka": 1662,
      "Ġiss": 1663,
      "ĠRoman": 1664,
      "rest": 1665,
      "Ġ186": 1666,
      "Ġjust": 1667,
      "ister": 1668,
      "Ġ22": 1669,
      "Ġrepl": 1670,
      "ĠBel": 1671,
      "cer": 1672,
      "ald": 1673,
      "alf": 1674,
      "Ġwater": 1675,
      "Ġservice": 1676,
      "ged": 1677,
      "Ġperiod": 1678,
      "Ġnon": 1679,
      "Ġperform": 1680,
      "Ġaddition": 1681,
      "ness": 1682,
      "Ġresp": 1683,
      "ves": 1684,
      "Ġkill": 1685,
      "ament": 1686,
      "ociety": 1687,
      "ĠAnt": 1688,
      "Ġdep": 1689,
      "eek": 1690,
      "Ġvis": 1691,
      "hel": 1692,
      "ours": 1693,
      "ele": 1694,
      "Ġrefer": 1695,
      "ĠSm": 1696,
      "aff": 1697,
      "ering": 1698,
      "ĠOne": 1699,
      "Ġmoved": 1700,
      "ĠAward": 1701,
      "ense": 1702,
      "Ġcr": 1703,
      "ĠEm": 1704,
      "Ġdifferent": 1705,
      "ize": 1706,
      "Ġcurrent": 1707,
      "ĠAustralian": 1708,
      "Ġround": 1709,
      "Ġlike": 1710,
      "ote": 1711,
      "ribut": 1712,
      "50": 1713,
      "ĠArmy": 1714,
      "Ġ23": 1715,
      "Ġincre": 1716,
      "omb": 1717,
      "Ġmillion": 1718,
      "Ġled": 1719,
      "ki": 1720,
      "line": 1721,
      "ĠNor": 1722,
      "par": 1723,
      "Ġtrad": 1724,
      "Ġbusiness": 1725,
      "ama": 1726,
      "ĠAcc": 1727,
      "tal": 1728,
      "avy": 1729,
      "hern": 1730,
      "ĠMinist": 1731,
      "Ġanother": 1732,
      "Ġthose": 1733,
      "oon": 1734,
      "Ġhistor": 1735,
      "ĠRober": 1736,
      "ops": 1737,
      "of": 1738,
      "Ġship": 1739,
      "Ġ187": 1740,
      "Ġequ": 1741,
      "Ġstill": 1742,
      "ander": 1743,
      "Ġif": 1744,
      "Ġfather": 1745,
      "Ġel": 1746,
      "Ġfield": 1747,
      "Ġwest": 1748,
      "ĠJames": 1749,
      "Ġdel": 1750,
      "ĠIndia": 1751,
      "Ġexper": 1752,
      "Ġauthor": 1753,
      "iber": 1754,
      "ĠMor": 1755,
      "ĠSte": 1756,
      "de": 1757,
      "epend": 1758,
      "Ġfac": 1759,
      "ched": 1760,
      "ivil": 1761,
      "Ġactiv": 1762,
      "Ġhand": 1763,
      "Ġcompos": 1764,
      "ĠChurch": 1765,
      "ĠMusic": 1766,
      "Ġbest": 1767,
      "ĠGeneral": 1768,
      "ĠFrance": 1769,
      "Ġport": 1770,
      "Ġkm": 1771,
      "ox": 1772,
      "Ġannounced": 1773,
      "Ġinternational": 1774,
      "Ġdebut": 1775,
      "struction": 1776,
      "Ġtitle": 1777,
      "Ġcountry": 1778,
      "dom": 1779,
      "ĠQu": 1780,
      "Ġsold": 1781,
      "Ġfem": 1782,
      "ĠThom": 1783,
      "Ġwin": 1784,
      "ases": 1785,
      "Ġ2003": 1786,
      "ville": 1787,
      "Ġ()": 1788,
      "Ġestablish": 1789,
      "ĠYear": 1790,
      "197": 1791,
      "uel": 1792,
      "Ġcharacter": 1793,
      "Ġeast": 1794,
      "Ġpolitic": 1795,
      "ĠGeorge": 1796,
      "ĠDivision": 1797,
      "field": 1798,
      "unicip": 1799,
      "ush": 1800,
      "Ġside": 1801,
      "cast": 1802,
      "Ġpat": 1803,
      "Ġdra": 1804,
      "be": 1805,
      "ĠRoyal": 1806,
      "Ġcult": 1807,
      "ournal": 1808,
      "ĠAp": 1809,
      "anish": 1810,
      "read": 1811,
      "Ġnov": 1812,
      "Ġav": 1813,
      "gcolor": 1814,
      "Ġprevious": 1815,
      "ĠMount": 1816,
      "gin": 1817,
      "Ġmake": 1818,
      "ĠEuropean": 1819,
      "Ġvery": 1820,
      "ries": 1821,
      "ael": 1822,
      "ĠQue": 1823,
      "ĠPe": 1824,
      "orthern": 1825,
      "Ġaward": 1826,
      "ĠClub": 1827,
      "ĠCanadian": 1828,
      "Ġsett": 1829,
      "ugg": 1830,
      "ĠAcadem": 1831,
      "Ġelection": 1832,
      "Ġproject": 1833,
      "ipp": 1834,
      "lin": 1835,
      "lex": 1836,
      "ĠPal": 1837,
      "Ġamong": 1838,
      "ms": 1839,
      "app": 1840,
      "abor": 1841,
      "Ġworks": 1842,
      "ĠVal": 1843,
      "ĠGr": 1844,
      "Ġ26": 1845,
      "ĠCanada": 1846,
      "Ġ2002": 1847,
      "ĠEle": 1848,
      "ius": 1849,
      "ĠRich": 1850,
      "Ġfr": 1851,
      "align": 1852,
      "Ġrole": 1853,
      "ges": 1854,
      "Ġproduced": 1855,
      "ĠWhen": 1856,
      "work": 1857,
      "ĠPaul": 1858,
      "Ġfe": 1859,
      "Ġmag": 1860,
      "ploy": 1861,
      "forman": 1862,
      "Ġlevel": 1863,
      "ĠBu": 1864,
      "off": 1865,
      "Ġoften": 1866,
      "olution": 1867,
      "Ġaff": 1868,
      "Ġlate": 1869,
      "Ġspe": 1870,
      "Ġread": 1871,
      "Ġweb": 1872,
      "ape": 1873,
      "ĠDavid": 1874,
      "ĠCouncil": 1875,
      "Ġthough": 1876,
      "Ġinvol": 1877,
      "Ġrese": 1878,
      "Ġbgcolor": 1879,
      "ĠFootball": 1880,
      "Ġpe": 1881,
      "Ġ1990": 1882,
      "itar": 1883,
      "ston": 1884,
      "atch": 1885,
      "Ġwritten": 1886,
      "Ġexpl": 1887,
      "Ġ28": 1888,
      "Ġ27": 1889,
      "ories": 1890,
      "iment": 1891,
      "ĠLou": 1892,
      "Ġengine": 1893,
      "Ġfore": 1894,
      "ĠHol": 1895,
      "Ġepis": 1896,
      "ĠAssociation": 1897,
      "Ġes": 1898,
      "stitute": 1899,
      "Ġadv": 1900,
      "back": 1901,
      "Ġtechn": 1902,
      "acks": 1903,
      "Ġ2001": 1904,
      "ĠWith": 1905,
      "ban": 1906,
      "ĠRed": 1907,
      "Ġstarted": 1908,
      "Ġeven": 1909,
      "ĠDr": 1910,
      "umni": 1911,
      "Ġyoung": 1912,
      "Ġposs": 1913,
      "Ġallow": 1914,
      "ole": 1915,
      "empt": 1916,
      "Ġclos": 1917,
      "ivid": 1918,
      "oe": 1919,
      "rote": 1920,
      "Ġmarried": 1921,
      "itor": 1922,
      "Ġgrad": 1923,
      "ĠRail": 1924,
      "val": 1925,
      "Ġcame": 1926,
      "Ġofficial": 1927,
      "Ġinit": 1928,
      "Ġcover": 1929,
      "Ġimport": 1930,
      "ĠPresident": 1931,
      "Ġcreated": 1932,
      "ĠAmerica": 1933,
      "outher": 1934,
      "Ġwent": 1935,
      "formation": 1936,
      "Ġgiven": 1937,
      "Ġsite": 1938,
      "Ġtotal": 1939,
      "olic": 1940,
      "gy": 1941,
      "irc": 1942,
      "ĠStreet": 1943,
      "alt": 1944,
      "Ġstru": 1945,
      "Ġevery": 1946,
      "ĠFirst": 1947,
      "Ġturn": 1948,
      "outhern": 1949,
      "Ġcommunity": 1950,
      "ya": 1951,
      "ĠFrom": 1952,
      "ĠSing": 1953,
      "eration": 1954,
      "west": 1955,
      "ointed": 1956,
      "ĠStud": 1957,
      "30": 1958,
      "Ġjoined": 1959,
      "rap": 1960,
      "omet": 1961,
      "Ġval": 1962,
      "Ġeffect": 1963,
      "ĠHistor": 1964,
      "itte": 1965,
      "ĠKh": 1966,
      "Ġrail": 1967,
      "ots": 1968,
      "Ġpolitical": 1969,
      "Ġchang": 1970,
      "Ġworked": 1971,
      "Ġwhat": 1972,
      "Ġpres": 1973,
      "Ġconc": 1974,
      "ij": 1975,
      "Ġvarious": 1976,
      "iron": 1977,
      "Ġfre": 1978,
      "Ġdevelopment": 1979,
      "ago": 1980,
      "bert": 1981,
      "ĠSen": 1982,
      "reek": 1983,
      "ĠTown": 1984,
      "Ġconf": 1985,
      "posed": 1986,
      "site": 1987,
      "ĠTrans": 1988,
      "bor": 1989,
      "irl": 1990,
      "Ġprocess": 1991,
      "ma": 1992,
      "Ġ100": 1993,
      "Ġtw": 1994,
      "Ġvideo": 1995,
      "eal": 1996,
      "Ġprofessional": 1997,
      "Ġelect": 1998,
      "hers": 1999,
      "Ġfact": 2000,
      "Ġmilitary": 2001,
      "ĠSl": 2002,
      "ached": 2003,
      "'t": 2004,
      "ĠUnion": 2005,
      "Ġversion": 2006,
      "atic": 2007,
      "ological": 2008,
      "atri": 2009,
      "ĠGermany": 2010,
      "ope": 2011,
      "ream": 2012,
      "ĠGroup": 2013,
      "Ġmuch": 2014,
      "self": 2015,
      "Ġprote": 2016,
      "Ġproduction": 2017,
      "Ġhaving": 2018,
      "Ġnext": 2019,
      "Ġcommon": 2020,
      "Ġbre": 2021,
      "Ġclaim": 2022,
      "Ġbecome": 2023,
      "Ġspecial": 2024,
      "Ġgr": 2025,
      "hold": 2026,
      "ĠMart": 2027,
      "Ġsent": 2028,
      "ĠHen": 2029,
      "Ġmiss": 2030,
      "Ġhost": 2031,
      "ĠBer": 2032,
      "ogn": 2033,
      "Ġsw": 2034,
      "ĠJe": 2035,
      "hib": 2036,
      "ĠVir": 2037,
      "ĠMary": 2038,
      "ĠMag": 2039,
      "Ġ1980": 2040,
      "ĠSer": 2041,
      "ĠRoad": 2042,
      "oor": 2043,
      "Ġusing": 2044,
      "ĠWe": 2045,
      "Ġpri": 2046,
      "ĠBlack": 2047,
      "ĠArch": 2048,
      "Ġ[": 2049,
      "Ġdirect": 2050,
      "Ġreturned": 2051,
      "ĠMex": 2052,
      "196": 2053,
      "Ġwrote": 2054,
      "Ġintro": 2055,
      "ĠPri": 2056,
      "Ġsit": 2057,
      "Ġpresident": 2058,
      "Ġprim": 2059,
      "men": 2060,
      "Ġtem": 2061,
      "ĠItalian": 2062,
      "ĠMy": 2063,
      "ĠJapanese": 2064,
      "Ġ1999": 2065,
      "ests": 2066,
      "Ġ29": 2067,
      "Ġgl": 2068,
      "ĠAfrican": 2069,
      "ination": 2070,
      "ĠTur": 2071,
      "Ġposition": 2072,
      "Ġmatch": 2073,
      "ha": 2074,
      "Ġant": 2075,
      "iction": 2076,
      "ĠLaw": 2077,
      "Ġdirector": 2078,
      "iography": 2079,
      "ming": 2080,
      "ĠHall": 2081,
      "oints": 2082,
      "Ġteams": 2083,
      "Ġtake": 2084,
      "ĠWomen": 2085,
      "Ġmult": 2086,
      "Ġchurch": 2087,
      "Ġsongs": 2088,
      "flu": 2089,
      "ĠThese": 2090,
      "Ġopened": 2091,
      "Ġperforman": 2092,
      "BC": 2093,
      "cts": 2094,
      "ilar": 2095,
      "ĠCommun": 2096,
      "ĠWash": 2097,
      "ĠProv": 2098,
      "ividual": 2099,
      "Ġfew": 2100,
      "Ġevents": 2101,
      "ida": 2102,
      "Ġfun": 2103,
      "ellow": 2104,
      "ĠGames": 2105,
      "Ġbeh": 2106,
      "sequ": 2107,
      "ĠSam": 2108,
      "ĠRobert": 2109,
      "arliam": 2110,
      "Ġvol": 2111,
      "aken": 2112,
      "ibr": 2113,
      "ittle": 2114,
      "ĠRussian": 2115,
      "ĠLeg": 2116,
      "ani": 2117,
      "ention": 2118,
      "ead": 2119,
      "ĠChina": 2120,
      "ocrat": 2121,
      "ule": 2122,
      "ĠBest": 2123,
      "lo": 2124,
      "arliament": 2125,
      "arian": 2126,
      "ger": 2127,
      "CA": 2128,
      "ĠScott": 2129,
      "21": 2130,
      "Ġtimes": 2131,
      "tra": 2132,
      "Ġstory": 2133,
      "Ġsol": 2134,
      "ĠOther": 2135,
      "ecut": 2136,
      "Ġparticip": 2137,
      "Ġway": 2138,
      "Ġvoc": 2139,
      "Ġfootballers": 2140,
      "ying": 2141,
      "rian": 2142,
      "Ġalbums": 2143,
      "ĠAccording": 2144,
      "aughter": 2145,
      "Ġbeg": 2146,
      "Ġhig": 2147,
      "ĠMad": 2148,
      "ested": 2149,
      "ĠCap": 2150,
      "ĠPlay": 2151,
      "unt": 2152,
      "Ġfriend": 2153,
      "Ġ1998": 2154,
      "ĠWashington": 2155,
      "itz": 2156,
      "ĠCourt": 2157,
      "ning": 2158,
      "icle": 2159,
      "Ġattack": 2160,
      "ketball": 2161,
      "ĠMiss": 2162,
      "Ġroad": 2163,
      "stitut": 2164,
      "ources": 2165,
      "ittee": 2166,
      "iles": 2167,
      "anies": 2168,
      "Ġimp": 2169,
      "Ġadminist": 2170,
      "ĠCast": 2171,
      "Ġpopular": 2172,
      "Ġbrother": 2173,
      "Ġneed": 2174,
      "Ġwithout": 2175,
      "ĠCompany": 2176,
      "isl": 2177,
      "ĠCont": 2178,
      "ĠThomas": 2179,
      "atter": 2180,
      "Ġservices": 2181,
      "rag": 2182,
      "ances": 2183,
      "aur": 2184,
      "Ġregion": 2185,
      "ending": 2186,
      "Ġpract": 2187,
      "ĠServ": 2188,
      "Ġstudents": 2189,
      "iddle": 2190,
      "Ġsk": 2191,
      "Ġsocial": 2192,
      "odes": 2193,
      "ĠCath": 2194,
      "Ġter": 2195,
      "ĠMen": 2196,
      "ership": 2197,
      "ĠSal": 2198,
      "ex": 2199,
      "wood": 2200,
      "ĠKn": 2201,
      "aign": 2202,
      "Ġhalf": 2203,
      "Ġbroad": 2204,
      "year": 2205,
      "22": 2206,
      "Ġgreat": 2207,
      "Ġfull": 2208,
      "rated": 2209,
      "Ġcontinued": 2210,
      "Ġ1970": 2211,
      "Ġlost": 2212,
      "ĠAwards": 2213,
      "ĠKingdom": 2214,
      "aining": 2215,
      "ĠCentral": 2216,
      "ĠSociety": 2217,
      "acy": 2218,
      "craft": 2219,
      "Ġcoach": 2220,
      "ym": 2221,
      "Ġmid": 2222,
      "ĠMont": 2223,
      "ĠGrand": 2224,
      "Ġalumni": 2225,
      "ĠOp": 2226,
      "used": 2227,
      "Ġeducation": 2228,
      "rab": 2229,
      "Ġresearch": 2230,
      "arent": 2231,
      "Ġ1996": 2232,
      "Ġattempt": 2233,
      "Ġsqu": 2234,
      "Ġdays": 2235,
      "ising": 2236,
      "Ġhowever": 2237,
      "ĠIr": 2238,
      "burg": 2239,
      "Ġsee": 2240,
      "ĠChin": 2241,
      "ensus": 2242,
      "ĠRecords": 2243,
      "Ġpromot": 2244,
      "aper": 2245,
      "ĠMuseum": 2246,
      "40": 2247,
      "Ġcompleted": 2248,
      "ona": 2249,
      "Ġproduc": 2250,
      "Ġelected": 2251,
      "Ġappointed": 2252,
      "ĠAlex": 2253,
      "ators": 2254,
      "ĠCharles": 2255,
      "ills": 2256,
      "ĠFlor": 2257,
      "Ġcomb": 2258,
      "ĠIsland": 2259,
      "Ġinvest": 2260,
      "Ġindust": 2261,
      "Ġinf": 2262,
      "Ġident": 2263,
      "estival": 2264,
      "ini": 2265,
      "ĠDon": 2266,
      "center": 2267,
      "Ġparty": 2268,
      "ĠMet": 2269,
      "Ġfounded": 2270,
      "Ġcontrol": 2271,
      "Ġdirected": 2272,
      "ĠEduc": 2273,
      "ĠCenter": 2274,
      "Ġrecorded": 2275,
      "ĠTex": 2276,
      "Ġlim": 2277,
      "Ġaver": 2278,
      "ification": 2279,
      "uit": 2280,
      "Ġright": 2281,
      "ĠIm": 2282,
      "rd": 2283,
      "Ġ1997": 2284,
      "Ġsigned": 2285,
      "ĠEarly": 2286,
      "Ġwife": 2287,
      "Ġeconom": 2288,
      "ĠSummer": 2289,
      "ample": 2290,
      "less": 2291,
      "Ġpoints": 2292,
      "berg": 2293,
      "Ġproper": 2294,
      "Ġleague": 2295,
      "wh": 2296,
      "asons": 2297,
      "Ġgroups": 2298,
      "Ġareas": 2299,
      "23": 2300,
      "Ġreview": 2301,
      "Ġ185": 2302,
      "Ġ/": 2303,
      "ĠDepartment": 2304,
      "Ġbase": 2305,
      "nel": 2306,
      "Ġconsidered": 2307,
      "ishing": 2308,
      "ĠSim": 2309,
      "Ġconne": 2310,
      "Ġrace": 2311,
      "ray": 2312,
      "ĠAngel": 2313,
      "ĠWestern": 2314,
      "Ġ2023": 2315,
      "ĠOffic": 2316,
      "Ġpoint": 2317,
      "ĠJew": 2318,
      "play": 2319,
      "Ġhon": 2320,
      "ĠChe": 2321,
      "Ġpartic": 2322,
      "Ġsele": 2323,
      "atural": 2324,
      "ĠFranc": 2325,
      "Ġren": 2326,
      "Ġfind": 2327,
      "Ġfurther": 2328,
      "ĠVict": 2329,
      "je": 2330,
      "Ġmar": 2331,
      "=#": 2332,
      "ĠTo": 2333,
      "Ġcoll": 2334,
      "ĠTV": 2335,
      "Ġrelations": 2336,
      "ĠInstitute": 2337,
      "Ġcaus": 2338,
      "aries": 2339,
      "Ġvict": 2340,
      "ĠGold": 2341,
      "ĠAcademy": 2342,
      "ĠLouis": 2343,
      "ells": 2344,
      "Ġsimilar": 2345,
      "ĠOlympics": 2346,
      "ili": 2347,
      "Ġdeg": 2348,
      "ĠBay": 2349,
      "thlet": 2350,
      "Ġhold": 2351,
      "ĠMichael": 2352,
      "Ġindividual": 2353,
      "ways": 2354,
      "Ġtog": 2355,
      "Ġreal": 2356,
      "Ġpriv": 2357,
      "ĠGreat": 2358,
      "Ġview": 2359,
      "ĠMac": 2360,
      "Ġwebsite": 2361,
      "Ġz": 2362,
      "idence": 2363,
      "ĠZeal": 2364,
      "Ġten": 2365,
      "ĠPress": 2366,
      "Ġtogether": 2367,
      "Ġ1995": 2368,
      "uation": 2369,
      "ump": 2370,
      "Ġrelease": 2371,
      "rain": 2372,
      "ĠPat": 2373,
      "ĠCong": 2374,
      "ĠZealand": 2375,
      "Ġ1992": 2376,
      "rick": 2377,
      "Ġinflu": 2378,
      "ota": 2379,
      "ĠVirgin": 2380,
      "ĠVol": 2381,
      "Ġreported": 2382,
      "ĠChristian": 2383,
      "Ġcase": 2384,
      "Ġappeared": 2385,
      "ĠMus": 2386,
      "ĠRepublic": 2387,
      "ĠMer": 2388,
      "ĠUK": 2389,
      "etwork": 2390,
      "Ġ1994": 2391,
      "||": 2392,
      "arter": 2393,
      "arth": 2394,
      "Ġsports": 2395,
      "Ġoffice": 2396,
      "ĠSpanish": 2397,
      "ĠChinese": 2398,
      "Ġmother": 2399,
      "oul": 2400,
      "ederal": 2401,
      "ĠAfrica": 2402,
      "Ġtrack": 2403,
      "ĠKore": 2404,
      "mar": 2405,
      "Ġweek": 2406,
      "25": 2407,
      "Ġ31": 2408,
      "cks": 2409,
      "ĠTom": 2410,
      "Ġ50": 2411,
      "Ġmy": 2412,
      "Ġke": 2413,
      "ique": 2414,
      "Ġmeet": 2415,
      "Ġnovel": 2416,
      "Ġcond": 2417,
      "Ġbirth": 2418,
      "Ġdeveloped": 2419,
      "enc": 2420,
      "Ġformed": 2421,
      "Ġins": 2422,
      "Ġhous": 2423,
      "itive": 2424,
      "yd": 2425,
      "aker": 2426,
      "Ġ1960": 2427,
      "iting": 2428,
      "Ġmedal": 2429,
      "ĠBur": 2430,
      "Ġhelp": 2431,
      "Ġaut": 2432,
      "ĠCarol": 2433,
      "Ġguitar": 2434,
      "ades": 2435,
      "Ġlaun": 2436,
      "Ġassist": 2437,
      "ĠBen": 2438,
      "Ġphot": 2439,
      "ĠInter": 2440,
      "ĠTer": 2441,
      "ula": 2442,
      "kn": 2443,
      "ĠDan": 2444,
      "apt": 2445,
      "Ġworking": 2446,
      "eh": 2447,
      "duction": 2448,
      "Ġdoc": 2449,
      "Ġarr": 2450,
      "Ġmaking": 2451,
      "Ġimportant": 2452,
      "Ġtourn": 2453,
      "cle": 2454,
      "ĠGreen": 2455,
      "iers": 2456,
      "Ġarchite": 2457,
      "ĠHam": 2458,
      "ĠTexas": 2459,
      "ailed": 2460,
      "ude": 2461,
      "reland": 2462,
      "Ġartist": 2463,
      "Ġcast": 2464,
      "ĠWhite": 2465,
      "ĠPet": 2466,
      "Ġgrow": 2467,
      "edy": 2468,
      "Ġmunicip": 2469,
      "Ġappl": 2470,
      "Ġgood": 2471,
      "imately": 2472,
      "itted": 2473,
      "ĠWhile": 2474,
      "ĠDel": 2475,
      "Ġvot": 2476,
      "band": 2477,
      "ĠPublic": 2478,
      "Ġoffer": 2479,
      "ta": 2480,
      "iding": 2481,
      "ĠKe": 2482,
      "ĠBas": 2483,
      "cial": 2484,
      "ĠSports": 2485,
      "go": 2486,
      "Ġless": 2487,
      "Ġtradition": 2488,
      "Ġschools": 2489,
      "mon": 2490,
      "ertain": 2491,
      "icles": 2492,
      "ĠMinister": 2493,
      "ras": 2494,
      "ĠJose": 2495,
      "Ġlive": 2496,
      "idae": 2497,
      "ala": 2498,
      "ĠCons": 2499,
      "Ġdata": 2500,
      "roll": 2501,
      "oney": 2502,
      "ither": 2503,
      "Ġphys": 2504,
      "Ġfund": 2505,
      "Ġ1993": 2506,
      "ĠDemocrat": 2507,
      "Ġtyp": 2508,
      "Ġothers": 2509,
      "ensive": 2510,
      "Ġhuman": 2511,
      "Ġshould": 2512,
      "Ġdaughter": 2513,
      "ola": 2514,
      "ĠTor": 2515,
      "ably": 2516,
      "ependent": 2517,
      "atives": 2518,
      "Ġemploy": 2519,
      "Ġrock": 2520,
      "Ġdi": 2521,
      "Ġground": 2522,
      "ĠPeter": 2523,
      "ospital": 2524,
      "Ġrev": 2525,
      "ĠFrank": 2526,
      "Ġrecogn": 2527,
      "Ġmater": 2528,
      "Ġhimself": 2529,
      "Ġstar": 2530,
      "overnor": 2531,
      "alls": 2532,
      "viron": 2533,
      "Ġbuildings": 2534,
      "Ġdecl": 2535,
      "Ġ=": 2536,
      "rey": 2537,
      "ĠCatholic": 2538,
      "ĠMel": 2539,
      "ĠSong": 2540,
      "uty": 2541,
      "ĠRichard": 2542,
      "leg": 2543,
      "Ġrul": 2544,
      "):": 2545,
      "Ġacross": 2546,
      "azine": 2547,
      "Ġavail": 2548,
      "Ġfire": 2549,
      "Ġcompanies": 2550,
      "ĠSur": 2551,
      "gen": 2552,
      "hi": 2553,
      "ication": 2554,
      "ĠSwed": 2555,
      "195": 2556,
      "aly": 2557,
      "ĠBill": 2558,
      "Ġbody": 2559,
      "pite": 2560,
      "sy": 2561,
      "ena": 2562,
      "ateg": 2563,
      "olf": 2564,
      "Ġanim": 2565,
      "anted": 2566,
      "Ġcampaign": 2567,
      "Ġstations": 2568,
      "anding": 2569,
      "atre": 2570,
      "Ġlanguage": 2571,
      "shire": 2572,
      "most": 2573,
      "ria": 2574,
      "Ġeight": 2575,
      "194": 2576,
      "ume": 2577,
      "Ġdoes": 2578,
      "ĠWil": 2579,
      "bour": 2580,
      "Ġaverage": 2581,
      "ĠMass": 2582,
      "ĠLu": 2583,
      "ĠUp": 2584,
      "ĠFore": 2585,
      "Ġmot": 2586,
      "Ġ1991": 2587,
      "ceed": 2588,
      "Ġblack": 2589,
      "Ġqual": 2590,
      "Ġexist": 2591,
      "Ġbecom": 2592,
      "ĠParis": 2593,
      "ĠSecond": 2594,
      "Ġplaying": 2595,
      "utes": 2596,
      "ricket": 2597,
      "oice": 2598,
      "rael": 2599,
      "ĠLat": 2600,
      "Ġtro": 2601,
      "gress": 2602,
      "Ġmodern": 2603,
      "Ġlow": 2604,
      "ĠHenry": 2605,
      "emor": 2606,
      "Ġdefe": 2607,
      "ĠSuper": 2608,
      "ĠVictor": 2609,
      "heast": 2610,
      "193": 2611,
      "Ġhow": 2612,
      "ĠSant": 2613,
      "Ġepisode": 2614,
      "Ġ184": 2615,
      "Ġpaint": 2616,
      "stro": 2617,
      "Ġcle": 2618,
      "Ġet": 2619,
      "ĠCro": 2620,
      "Ġgradu": 2621,
      "ores": 2622,
      "St": 2623,
      "zil": 2624,
      "Ġstage": 2625,
      "Ġdivision": 2626,
      "Ġdram": 2627,
      "Ġexample": 2628,
      "Ġder": 2629,
      "ĠGeorg": 2630,
      "Ġcross": 2631,
      "ements": 2632,
      "Ġ40": 2633,
      "writ": 2634,
      "udd": 2635,
      "Ġradio": 2636,
      "ada": 2637,
      "Ġnever": 2638,
      "Ġliving": 2639,
      "airs": 2640,
      "ĠDire": 2641,
      "Ġperformed": 2642,
      "hood": 2643,
      "Ġfoc": 2644,
      "ĠLos": 2645,
      "Ġfemale": 2646,
      "embly": 2647,
      "chie": 2648,
      "ockey": 2649,
      "andid": 2650,
      "Ġwinn": 2651,
      "ethod": 2652,
      "ĠHon": 2653,
      "Ġlight": 2654,
      "ĠSome": 2655,
      "Ġsepar": 2656,
      "Ġartists": 2657,
      "Ġbelie": 2658,
      "ĠRev": 2659,
      "Ġfree": 2660,
      "ĠSmith": 2661,
      "Ġpolitician": 2662,
      "Ġacqu": 2663,
      "ĠPenn": 2664,
      "Ġassoci": 2665,
      "ware": 2666,
      "ĠOrder": 2667,
      "Ġfight": 2668,
      "time": 2669,
      "ura": 2670,
      "ential": 2671,
      "Ġcontract": 2672,
      "oviet": 2673,
      "24": 2674,
      "ĠChampionships": 2675,
      "ĠLake": 2676,
      "ĠBut": 2677,
      "ibrary": 2678,
      "ought": 2679,
      "Ġstrong": 2680,
      "igned": 2681,
      "Ġsuccessful": 2682,
      "Ġmonths": 2683,
      "ĠFC": 2684,
      "Ġred": 2685,
      "Ġkilled": 2686,
      "atory": 2687,
      "imate": 2688,
      "Ġfinished": 2689,
      "ĠEducation": 2690,
      "aval": 2691,
      "Ġplaces": 2692,
      "idents": 2693,
      "Ġconstruction": 2694,
      "ĠChic": 2695,
      "head": 2696,
      "people": 2697,
      "ked": 2698,
      "ĠIreland": 2699,
      "ĠOl": 2700,
      "Ġgave": 2701,
      "Ġestablishments": 2702,
      "Ġ1988": 2703,
      "ĠCamp": 2704,
      "Ġmus": 2705,
      "aves": 2706,
      "ĠGo": 2707,
      "Ġavailable": 2708,
      "ĠDef": 2709,
      "Ġcondu": 2710,
      "Ġaway": 2711,
      "Ġgoal": 2712,
      "Ġ1989": 2713,
      "va": 2714,
      "Ġperformance": 2715,
      "iff": 2716,
      "elling": 2717,
      "ĠOb": 2718,
      "ĠSaint": 2719,
      "Ġtre": 2720,
      "Ġalthough": 2721,
      "ids": 2722,
      "ĠPan": 2723,
      "asc": 2724,
      "ishop": 2725,
      "Ġprot": 2726,
      "Ġbooks": 2727,
      "ranch": 2728,
      "ilities": 2729,
      "vironment": 2730,
      "ita": 2731,
      "ĠSpec": 2732,
      "Ġjournal": 2733,
      "ano": 2734,
      "Ġinformation": 2735,
      "Ġide": 2736,
      "ĠDay": 2737,
      "ado": 2738,
      "inals": 2739,
      "za": 2740,
      "icated": 2741,
      "ĠFilms": 2742,
      "here": 2743,
      "ĠOlympic": 2744,
      "Ġdam": 2745,
      "ĠCur": 2746,
      "Ġtaken": 2747,
      "ĠVill": 2748,
      "ĠWin": 2749,
      "ĠNotes": 2750,
      "left": 2751,
      "ella": 2752,
      "Ġcapt": 2753,
      "itch": 2754,
      "iqu": 2755,
      "ĠBrazil": 2756,
      "ĠIsrael": 2757,
      "ĠDu": 2758,
      "ificant": 2759,
      "Ġshows": 2760,
      "Ġfollowed": 2761,
      ",\"": 2762,
      "Ġrank": 2763,
      "oo": 2764,
      "Ġagre": 2765,
      "ĠRob": 2766,
      "ĠCareer": 2767,
      "Ġtour": 2768,
      "ugby": 2769,
      "Ġcost": 2770,
      "Ġmix": 2771,
      "ĠVirginia": 2772,
      "Ġhealth": 2773,
      "Ġfront": 2774,
      "Ġjud": 2775,
      "oma": 2776,
      "ĠGovernment": 2777,
      "Ġincludes": 2778,
      "Ġawarded": 2779,
      "Ġcirc": 2780,
      "utch": 2781,
      "Ġtournament": 2782,
      "Ġcour": 2783,
      "ĠMa": 2784,
      "ĠLife": 2785,
      "ĠMin": 2786,
      "\"|": 2787,
      "Ġfeatures": 2788,
      "igan": 2789,
      "Ġ:": 2790,
      "ĠJust": 2791,
      "II": 2792,
      "Ġviol": 2793,
      "Ġoriginally": 2794,
      "Ġdesigned": 2795,
      "serv": 2796,
      "ĠTour": 2797,
      "ĠAtl": 2798,
      "Ġhousehold": 2799,
      "ĠHill": 2800,
      "aged": 2801,
      "nder": 2802,
      "ny": 2803,
      "ios": 2804,
      "Ġaccess": 2805,
      "Ġmaterial": 2806,
      "ĠTeam": 2807,
      "Ġseven": 2808,
      "sec": 2809,
      "Ġsen": 2810,
      "vey": 2811,
      "Ġcourt": 2812,
      "ĠEmp": 2813,
      "eg": 2814,
      "ĠCarl": 2815,
      "ĠIts": 2816,
      "ĠMr": 2817,
      "Ġimpro": 2818,
      "Ġput": 2819,
      "oms": 2820,
      "Ġcivil": 2821,
      "Ġrelig": 2822,
      "26": 2823,
      "Ġremained": 2824,
      "ĠPerson": 2825,
      "ĠHistoric": 2826,
      "Ġsound": 2827,
      "ĠArts": 2828,
      "Ġsil": 2829,
      "istan": 2830,
      "Ġstudy": 2831,
      "Ġlab": 2832,
      "ened": 2833,
      "ĠGall": 2834,
      "ĠRock": 2835,
      "Ġonce": 2836,
      "ĠGra": 2837,
      "27": 2838,
      "Ġfeatured": 2839,
      "Ġinj": 2840,
      "Ġdou": 2841,
      "ĠRailway": 2842,
      "erous": 2843,
      "aria": 2844,
      "ĠSqu": 2845,
      "Ġforces": 2846,
      "atriate": 2847,
      "Ġscored": 2848,
      "ĠLand": 2849,
      "urity": 2850,
      "Ġcy": 2851,
      "Ġill": 2852,
      "omm": 2853,
      "Ġtest": 2854,
      "Ġ#": 2855,
      "Ġpress": 2856,
      "aches": 2857,
      "Ġ1987": 2858,
      "olk": 2859,
      "Ġbar": 2860,
      "ĠChicago": 2861,
      "28": 2862,
      "hest": 2863,
      "ites": 2864,
      "Ġmarket": 2865,
      "Ġbasketball": 2866,
      "iple": 2867,
      "Ġdev": 2868,
      "Ġreb": 2869,
      "Ġsinger": 2870,
      "Ġsignificant": 2871,
      "ĠMo": 2872,
      "aching": 2873,
      "aps": 2874,
      "ilies": 2875,
      "Ġplan": 2876,
      "ender": 2877,
      "Ġexecut": 2878,
      "ror": 2879,
      "ĠSoviet": 2880,
      "ications": 2881,
      "rel": 2882,
      "Ġleading": 2883,
      "Ġtraining": 2884,
      "ems": 2885,
      "ĠScot": 2886,
      "vin": 2887,
      "Ġpolice": 2888,
      "Ġmedia": 2889,
      "ĠForce": 2890,
      "Ġearn": 2891,
      "vert": 2892,
      "ĠSub": 2893,
      "ye": 2894,
      "icy": 2895,
      "Ġ1950": 2896,
      "ĠMil": 2897,
      "Ch": 2898,
      "Ġmount": 2899,
      "Ġlargest": 2900,
      "Ġrights": 2901,
      "ĠSir": 2902,
      "earch": 2903,
      "ĠCommission": 2904,
      "aught": 2905,
      "ĠTwo": 2906,
      "ĠItaly": 2907,
      "mier": 2908,
      "Amer": 2909,
      "ĠSo": 2910,
      "ĠProfess": 2911,
      "Ġ1986": 2912,
      "ource": 2913,
      "Ġmust": 2914,
      "Ġaircraft": 2915,
      "Ġstri": 2916,
      "ĠMod": 2917,
      "Ġmodel": 2918,
      "uter": 2919,
      "ĠMexico": 2920,
      "Ġ1984": 2921,
      "Ġchart": 2922,
      "Ġenc": 2923,
      "yp": 2924,
      "Ġsem": 2925,
      "ĠClass": 2926,
      "ĠIll": 2927,
      "Ġthroughout": 2928,
      "ĠPolit": 2929,
      "Ġliter": 2930,
      "istics": 2931,
      "ĠParliament": 2932,
      "Ġgold": 2933,
      "Ġtransfer": 2934,
      "Ġconsist": 2935,
      "ving": 2936,
      "ĠSince": 2937,
      "ĠMark": 2938,
      "Ġinvolved": 2939,
      "Ġcou": 2940,
      "ĠCat": 2941,
      "Ġlisted": 2942,
      "Ġsubsequ": 2943,
      "order": 2944,
      "Ġstated": 2945,
      "iences": 2946,
      "Ġwhite": 2947,
      "ĠOff": 2948,
      "ĠAnn": 2949,
      "Ġwid": 2950,
      "unk": 2951,
      "Ġboard": 2952,
      "sel": 2953,
      "Ġintroduced": 2954,
      "Ġreplaced": 2955,
      "ĠIrish": 2956,
      "Ġsugg": 2957,
      "annel": 2958,
      "Ġearl": 2959,
      "Ġseen": 2960,
      "Ġcompetition": 2961,
      "Ġbi": 2962,
      "Ġ183": 2963,
      "uns": 2964,
      "ĠEr": 2965,
      "ĠProvince": 2966,
      "ĠFlorida": 2967,
      "Ġcandid": 2968,
      "Ġdiv": 2969,
      "ift": 2970,
      "60": 2971,
      "29": 2972,
      "Ġtransl": 2973,
      "ĠNavy": 2974,
      "ĠMur": 2975,
      "Ġ1985": 2976,
      "Ġwriter": 2977,
      "Ġeventually": 2978,
      "Ġprivate": 2979,
      "Ġvia": 2980,
      "Ġrespons": 2981,
      "ribution": 2982,
      "uture": 2983,
      "ĠTechn": 2984,
      "Ġcritic": 2985,
      "Ġresults": 2986,
      "Ġentire": 2987,
      "uff": 2988,
      "Ġvocals": 2989,
      "cher": 2990,
      "Ġable": 2991,
      "uz": 2992,
      "umm": 2993,
      "ĠDo": 2994,
      "text": 2995,
      "Ġran": 2996,
      "Ġadded": 2997,
      "retary": 2998,
      "ĠAlthough": 2999,
      "Ġcollege": 3000,
      "ĠDen": 3001,
      "Ġproble": 3002,
      "ĠOper": 3003,
      "ĠCommittee": 3004,
      "ĠFestival": 3005,
      "Ġfourth": 3006,
      "ĠSil": 3007,
      "och": 3008,
      "Ġpast": 3009,
      "Ġcountries": 3010,
      "ĠFin": 3011,
      "ask": 3012,
      "ĠBus": 3013,
      "road": 3014,
      "AS": 3015,
      "elt": 3016,
      "ĠWales": 3017,
      "cript": 3018,
      "Ġwind": 3019,
      "ĠAngeles": 3020,
      "yr": 3021,
      "ĠOver": 3022,
      "Ġcentral": 3023,
      "Ġste": 3024,
      "Ġactress": 3025,
      "mb": 3026,
      "ufact": 3027,
      "Ġsurv": 3028,
      "asing": 3029,
      "ularly": 3030,
      "Ġaud": 3031,
      "Ġwriters": 3032,
      "ua": 3033,
      "iano": 3034,
      "Ġcommand": 3035,
      "Ġassociation": 3036,
      "Ġleast": 3037,
      "min": 3038,
      "Ġrespect": 3039,
      "ires": 3040,
      "ĠBrown": 3041,
      "ĠEv": 3042,
      "Ġloss": 3043,
      "ylvan": 3044,
      "American": 3045,
      "Ġspace": 3046,
      "porary": 3047,
      "Ġser": 3048,
      "AR": 3049,
      "ĠScience": 3050,
      "ĠOut": 3051,
      "mercial": 3052,
      "80": 3053,
      "ĠNorthern": 3054,
      "Ġunits": 3055,
      "ĠMost": 3056,
      "ability": 3057,
      "fic": 3058,
      "ĠRh": 3059,
      "Ġnomin": 3060,
      "ĠFound": 3061,
      "ĠStar": 3062,
      "ĠRussia": 3063,
      "Ġminist": 3064,
      "Ġsch": 3065,
      "bb": 3066,
      "oke": 3067,
      "ĠUk": 3068,
      "ĠGod": 3069,
      "rup": 3070,
      "Ġdegree": 3071,
      "iro": 3072,
      "ĠCongress": 3073,
      "ĠCarolina": 3074,
      "Ġstaff": 3075,
      "Ġdiscover": 3076,
      "Ġ1983": 3077,
      "Ġrange": 3078,
      "Ġstates": 3079,
      "ibl": 3080,
      "ĠArg": 3081,
      "rial": 3082,
      "Ġclose": 3083,
      "ĠRos": 3084,
      "Ġdocument": 3085,
      "raw": 3086,
      "ĠJun": 3087,
      "Ġbroadcast": 3088,
      "now": 3089,
      "Ġfig": 3090,
      "Ġabove": 3091,
      "ples": 3092,
      "Ġreached": 3093,
      "medi": 3094,
      "gian": 3095,
      "lor": 3096,
      "Ġcensus": 3097,
      "ĠService": 3098,
      "ste": 3099,
      "antic": 3100,
      "Ġplant": 3101,
      "ĠColumb": 3102,
      "ĠLiber": 3103,
      "ĠEs": 3104,
      "ĠCr": 3105,
      "Ġchange": 3106,
      "erve": 3107,
      "TV": 3108,
      "Ġprovided": 3109,
      "ĠJoseph": 3110,
      "ĠOh": 3111,
      "Ġseasons": 3112,
      "Ġtreat": 3113,
      "Ġcurrently": 3114,
      "oys": 3115,
      "Ġexhib": 3116,
      "ĠOld": 3117,
      "ients": 3118,
      "bur": 3119,
      "rought": 3120,
      "Ġget": 3121,
      "Ġcontribut": 3122,
      "Ġexpress": 3123,
      "ylvania": 3124,
      "lim": 3125,
      "Ġpur": 3126,
      "Ġeither": 3127,
      "Ġfav": 3128,
      "Ġ(\"": 3129,
      "Ġchampionship": 3130,
      "rative": 3131,
      "ĠSa": 3132,
      "face": 3133,
      "Ġtravel": 3134,
      "orpor": 3135,
      "Ġaccept": 3136,
      "Ġplaced": 3137,
      "ux": 3138,
      "sych": 3139,
      "Ġmissing": 3140,
      "Ġupon": 3141,
      "ĠFre": 3142,
      "aled": 3143,
      "FA": 3144,
      "Ġrailway": 3145,
      ");": 3146,
      "board": 3147,
      "ĠSeries": 3148,
      "Ġsaw": 3149,
      "adium": 3150,
      "Ġinterest": 3151,
      "stant": 3152,
      "iana": 3153,
      "Ġstruct": 3154,
      "ĠCam": 3155,
      "FL": 3156,
      "ĠPac": 3157,
      "abit": 3158,
      "istic": 3159,
      "ipl": 3160,
      "Ġ1982": 3161,
      "Ġcenter": 3162,
      "Ġmur": 3163,
      "well": 3164,
      "Ġkey": 3165,
      "Ġ!": 3166,
      "Ġaction": 3167,
      "ĠAssembly": 3168,
      "aut": 3169,
      "ĠFort": 3170,
      "ĠDou": 3171,
      "Ġoccur": 3172,
      "eds": 3173,
      "Ġtype": 3174,
      "ĠMos": 3175,
      "ception": 3176,
      "Ġpot": 3177,
      "ĠMic": 3178,
      "known": 3179,
      "ply": 3180,
      "ises": 3181,
      "Ġcop": 3182,
      "ĠFurther": 3183,
      "ĠFollow": 3184,
      "Ġnight": 3185,
      "Ġachie": 3186,
      "iger": 3187,
      "gl": 3188,
      "ĠSk": 3189,
      "Ġdu": 3190,
      "ĠRam": 3191,
      "Ġattended": 3192,
      "Ġ1979": 3193,
      "stitution": 3194,
      "Ġlearn": 3195,
      "ĠMill": 3196,
      "Ġcharacters": 3197,
      "ĠBre": 3198,
      "language": 3199,
      "ĠBattle": 3200,
      "ĠArab": 3201,
      "Ġsex": 3202,
      "ublican": 3203,
      "aying": 3204,
      "ĠMat": 3205,
      "azz": 3206,
      "Ġcapital": 3207,
      "press": 3208,
      "ĠPopul": 3209,
      "ette": 3210,
      "Ġmeas": 3211,
      "Ġdecided": 3212,
      "ĠMain": 3213,
      "ĠWood": 3214,
      "Ġfif": 3215,
      "lam": 3216,
      "ih": 3217,
      "ĠMajor": 3218,
      "ĠTro": 3219,
      "eleb": 3220,
      "Ġarg": 3221,
      "Ġdecision": 3222,
      ".)": 3223,
      "ultural": 3224,
      "Ġpreviously": 3225,
      "Ġdraw": 3226,
      "ĠResearch": 3227,
      "ength": 3228,
      "arily": 3229,
      "ĠEmpire": 3230,
      "ĠGreek": 3231,
      "ĠFred": 3232,
      "ulture": 3233,
      "ca": 3234,
      "Ġstre": 3235,
      "Ġdestro": 3236,
      "Ġneigh": 3237,
      "Ġ1972": 3238,
      "Ġleader": 3239,
      "Ġhom": 3240,
      "den": 3241,
      "ĠDemocratic": 3242,
      "gr": 3243,
      "Ġapprox": 3244,
      "amily": 3245,
      "Ġstudio": 3246,
      "Ġsection": 3247,
      "ero": 3248,
      "Ġusually": 3249,
      "Ġmean": 3250,
      "ĠPenns": 3251,
      "Ġ1976": 3252,
      "oring": 3253,
      "Ġmass": 3254,
      "ĠSol": 3255,
      "Ġdefeated": 3256,
      "ĠOfficial": 3257,
      "ĠHa": 3258,
      "Ġsingles": 3259,
      "anda": 3260,
      "Ġedition": 3261,
      "ĠMartin": 3262,
      "uan": 3263,
      "ĠDutch": 3264,
      "Ġreve": 3265,
      "Ġoccup": 3266,
      "owers": 3267,
      "stra": 3268,
      "reme": 3269,
      "ĠCle": 3270,
      "ĠSun": 3271,
      "ping": 3272,
      "ĠFollowing": 3273,
      "Ġknow": 3274,
      "Ġgrand": 3275,
      "Ġnatural": 3276,
      "Ġinstead": 3277,
      "Ġeffort": 3278,
      "ĠMedal": 3279,
      "ĠJim": 3280,
      "ĠScottish": 3281,
      "Ġpain": 3282,
      "Ġpoet": 3283,
      "Ġactor": 3284,
      "Ġriver": 3285,
      "ĠSpain": 3286,
      "chan": 3287,
      "Ġfarm": 3288,
      "Ġparent": 3289,
      "Ġaccount": 3290,
      "ils": 3291,
      "iga": 3292,
      "ĠSocial": 3293,
      "ĠPennsylvania": 3294,
      "Ġbur": 3295,
      "BA": 3296,
      "ora": 3297,
      "Ġsubject": 3298,
      "str": 3299,
      "cel": 3300,
      "cell": 3301,
      "Ġ1981": 3302,
      "Ġwinning": 3303,
      "Ġproducer": 3304,
      "ĠGar": 3305,
      "incip": 3306,
      "ansas": 3307,
      "ĠMembers": 3308,
      "Ġinvestig": 3309,
      "Ġwhose": 3310,
      "ulty": 3311,
      "ults": 3312,
      "Ġmethod": 3313,
      "ĠWal": 3314,
      "uments": 3315,
      "Ġplann": 3316,
      "Ġ1978": 3317,
      "ĠLove": 3318,
      "Ġparts": 3319,
      "ĠInc": 3320,
      "Ġactive": 3321,
      "Ġ1974": 3322,
      "Ġrepresented": 3323,
      "inent": 3324,
      "ĠMilitary": 3325,
      "Ġmovement": 3326,
      "ato": 3327,
      "Ġge": 3328,
      "ĠHow": 3329,
      "Ġprimary": 3330,
      "Ġprovide": 3331,
      "ĠAsian": 3332,
      "Ġfamilies": 3333,
      "Ġculture": 3334,
      "Ġ1968": 3335,
      "ĠPak": 3336,
      "wan": 3337,
      "Ġrelationship": 3338,
      "Ġplays": 3339,
      "90": 3340,
      "ĠLater": 3341,
      "ĠFinal": 3342,
      "based": 3343,
      "Ġfar": 3344,
      "Ġpark": 3345,
      "ĠRadio": 3346,
      "Ġscient": 3347,
      "Ġorganiz": 3348,
      "ption": 3349,
      "Ġprison": 3350,
      "ĠJud": 3351,
      "Ġdeal": 3352,
      "ĠLee": 3353,
      "Ġpred": 3354,
      "Ġnorthern": 3355,
      "Ġ1940": 3356,
      "Ġsouthern": 3357,
      "Ġbehind": 3358,
      "Ġpurch": 3359,
      "ĠEp": 3360,
      "position": 3361,
      "rig": 3362,
      "Ġtax": 3363,
      "ĠHot": 3364,
      "clus": 3365,
      "ĠTw": 3366,
      "ario": 3367,
      "Ġ1975": 3368,
      "ugu": 3369,
      "ĠCross": 3370,
      "la": 3371,
      "ĠIran": 3372,
      "ĠYoung": 3373,
      "igital": 3374,
      "Ġmusical": 3375,
      "ĠBuild": 3376,
      "ady": 3377,
      "ension": 3378,
      "Ġsize": 3379,
      "yer": 3380,
      "ĠCivil": 3381,
      "ĠChief": 3382,
      "Ġbank": 3383,
      "Ġlik": 3384,
      "70": 3385,
      "ometimes": 3386,
      "Ġ1977": 3387,
      "see": 3388,
      "rie": 3389,
      "Ġlower": 3390,
      "ĠBul": 3391,
      "ingu": 3392,
      "ĠBoard": 3393,
      "wer": 3394,
      "ĠBet": 3395,
      "...": 3396,
      "Ġgoals": 3397,
      "isco": 3398,
      "ĠSar": 3399,
      "ĠSpace": 3400,
      "Ġbrought": 3401,
      "ĠPost": 3402,
      "Ġreading": 3403,
      "Ġcoast": 3404,
      "Ġnewsp": 3405,
      "ĠBig": 3406,
      "ĠBase": 3407,
      "ergy": 3408,
      "Ġoutside": 3409,
      "ĠLoc": 3410,
      "Ġacadem": 3411,
      "ĠHel": 3412,
      "Ġsus": 3413,
      "sk": 3414,
      "ĠSouthern": 3415,
      "ĠRegister": 3416,
      "\")": 3417,
      "not": 3418,
      "Ġpers": 3419,
      "Ġcollection": 3420,
      "Ġhard": 3421,
      "Ġorganization": 3422,
      "imb": 3423,
      "aring": 3424,
      "Ġcut": 3425,
      "Ġi": 3426,
      "ĠCD": 3427,
      "ends": 3428,
      "ĠHaw": 3429,
      "Ġrather": 3430,
      "alled": 3431,
      "ĠBack": 3432,
      "ersey": 3433,
      "Ġ1973": 3434,
      "Ġfall": 3435,
      "mark": 3436,
      "Ġclosed": 3437,
      "ao": 3438,
      "Ġindustry": 3439,
      "Ġruns": 3440,
      "Ġwriting": 3441,
      "ali": 3442,
      "Ġnetwork": 3443,
      "Ġgirl": 3444,
      "Ġended": 3445,
      "NA": 3446,
      "Ġcricket": 3447,
      "ĠJack": 3448,
      "Ġmanufact": 3449,
      "Ġcare": 3450,
      "han": 3451,
      "Ġdrama": 3452,
      "Ġking": 3453,
      "ĠLuc": 3454,
      "orse": 3455,
      "Ġforce": 3456,
      "Ġshot": 3457,
      "irm": 3458,
      "Ġfootballer": 3459,
      "Ġ1930": 3460,
      "ĠAdm": 3461,
      "itan": 3462,
      "Ġsystems": 3463,
      "ancial": 3464,
      "pan": 3465,
      "ati": 3466,
      "pecially": 3467,
      "het": 3468,
      "awa": 3469,
      "ĠOx": 3470,
      "ID": 3471,
      "ĠEdward": 3472,
      "ĠEngine": 3473,
      "ctive": 3474,
      "Ġhit": 3475,
      "ĠLong": 3476,
      "Ġesc": 3477,
      "ulation": 3478,
      "ounter": 3479,
      "Ġpossible": 3480,
      "Ġwood": 3481,
      "Ġimm": 3482,
      "ĠValley": 3483,
      "ĠRel": 3484,
      "Ġregard": 3485,
      "ĠUnder": 3486,
      "ĠTri": 3487,
      "Ġ1945": 3488,
      "Ġmatches": 3489,
      "mond": 3490,
      "Ġallowed": 3491,
      "Ġstudies": 3492,
      "ĠVer": 3493,
      "ĠUr": 3494,
      "ĠSpr": 3495,
      "ĠTimes": 3496,
      "Ġneg": 3497,
      "Ġalmost": 3498,
      "itors": 3499,
      "ĠRepublican": 3500,
      "Ġregular": 3501,
      "Ġ1969": 3502,
      "venue": 3503,
      "ider": 3504,
      "Ġstructure": 3505,
      "Ġstop": 3506,
      "inary": 3507,
      "Ġ1971": 3508,
      "Ġmagazine": 3509,
      "ĠJewish": 3510,
      "emic": 3511,
      "urb": 3512,
      "Ġchanged": 3513,
      "Ġcommission": 3514,
      "Ġfrequ": 3515,
      "cient": 3516,
      "ennis": 3517,
      "ĠTelevision": 3518,
      "inated": 3519,
      "like": 3520,
      "ĠJul": 3521,
      "enth": 3522,
      "Ġcat": 3523,
      "ĠBob": 3524,
      "background": 3525,
      "ĠPo": 3526,
      "ĠBank": 3527,
      "Ġden": 3528,
      "ĠMichigan": 3529,
      "Ġisland": 3530,
      "cing": 3531,
      "Ġplat": 3532,
      "Ġsettle": 3533,
      "Ġschol": 3534,
      "ĠDisc": 3535,
      "Ġlaunched": 3536,
      "Ġball": 3537,
      "ĠMah": 3538,
      "Ġoperations": 3539,
      "itiz": 3540,
      "ĠCamb": 3541,
      "airman": 3542,
      "overs": 3543,
      "Ġwoman": 3544,
      "ĠPlaces": 3545,
      "velopment": 3546,
      "Ġbeginning": 3547,
      "acing": 3548,
      "Ġpersonal": 3549,
      "ĠJer": 3550,
      "ĠOs": 3551,
      "Ġterrit": 3552,
      "ko": 3553,
      "Ġtowards": 3554,
      "35": 3555,
      "onn": 3556,
      "Ġtext": 3557,
      "ias": 3558,
      "Ġtransport": 3559,
      "ĠMcC": 3560,
      "Ġgenus": 3561,
      "ĠAthlet": 3562,
      "Ġowned": 3563,
      "Ġdeterm": 3564,
      "Ġtaking": 3565,
      "Ġnar": 3566,
      "Ġfood": 3567,
      "ĠOpen": 3568,
      "Ġmanager": 3569,
      "etts": 3570,
      "Ġaccording": 3571,
      "ees": 3572,
      "Ġ1967": 3573,
      "Ġcases": 3574,
      "ĠTim": 3575,
      "Ġmer": 3576,
      "ĠHung": 3577,
      "ĠHealth": 3578,
      "ips": 3579,
      "yan": 3580,
      "Ġnames": 3581,
      "aka": 3582,
      "Ġindependent": 3583,
      "Ġconstru": 3584,
      "Ġwhom": 3585,
      "Ġpay": 3586,
      "usband": 3587,
      "ĠVi": 3588,
      "lying": 3589,
      "Ġ1964": 3590,
      "ols": 3591,
      "Ġscience": 3592,
      "Ġfa": 3593,
      "Ġremov": 3594,
      "Ġofficer": 3595,
      "Ġcred": 3596,
      "ĠPhilipp": 3597,
      "Ġ)": 3598,
      "ĠOhio": 3599,
      "ĠBh": 3600,
      "Ġscore": 3601,
      "state": 3602,
      "ĠKent": 3603,
      "Ġapproximately": 3604,
      "ĠInf": 3605,
      "Ġminor": 3606,
      "Ġveh": 3607,
      "ĠTop": 3608,
      "Ġobserv": 3609,
      "ĠLine": 3610,
      "ĠFr": 3611,
      "75": 3612,
      "ĠUnivers": 3613,
      "Ġcomplet": 3614,
      "Ġbreak": 3615,
      "ĠRou": 3616,
      "ima": 3617,
      "ĠPoland": 3618,
      "Ġfunction": 3619,
      "ibility": 3620,
      "ĠJo": 3621,
      "bury": 3622,
      "inois": 3623,
      "Ġever": 3624,
      "Ġscreen": 3625,
      "bon": 3626,
      "Ġconcern": 3627,
      "Ġspent": 3628,
      "Ġarmy": 3629,
      "ĠGal": 3630,
      "ĠArgent": 3631,
      "Ġadditional": 3632,
      "cting": 3633,
      "ga": 3634,
      "pected": 3635,
      "Ġsquad": 3636,
      "Ġ60": 3637,
      "ĠDis": 3638,
      "oid": 3639,
      "Ġphil": 3640,
      "ĠIII": 3641,
      "ĠAre": 3642,
      "oir": 3643,
      "Ġnoted": 3644,
      "inet": 3645,
      "ĠScotland": 3646,
      "ĠMot": 3647,
      "ĠGh": 3648,
      "Ġself": 3649,
      "Ġobject": 3650,
      "enced": 3651,
      "Ġcomplex": 3652,
      "Ġbox": 3653,
      "ira": 3654,
      "Ġceleb": 3655,
      "ampions": 3656,
      "ĠTre": 3657,
      "achus": 3658,
      "ĠLord": 3659,
      "ify": 3660,
      "ww": 3661,
      "Ġissues": 3662,
      "Ġcounty": 3663,
      "ĠPolish": 3664,
      "Ġ1920": 3665,
      "osh": 3666,
      "iled": 3667,
      "Ġchief": 3668,
      "ĠBor": 3669,
      "ences": 3670,
      "Ġsenior": 3671,
      "esh": 3672,
      "king": 3673,
      "ĠQueen": 3674,
      "Ġche": 3675,
      "Ġmonth": 3676,
      "Ġbattle": 3677,
      ":#": 3678,
      "Ġcommercial": 3679,
      "oston": 3680,
      "Ġlived": 3681,
      "Ġsummer": 3682,
      "Ġelections": 3683,
      "45": 3684,
      "Ġitself": 3685,
      "Ġdate": 3686,
      "Ġmultiple": 3687,
      "Ġrelated": 3688,
      "uffer": 3689,
      "ĠPacific": 3690,
      "Ġsat": 3691,
      "ready": 3692,
      "Ġpoliticians": 3693,
      "Ġfocus": 3694,
      "Ġhighest": 3695,
      "Ġroute": 3696,
      "ĠNews": 3697,
      "Ġsoon": 3698,
      "ĠMatt": 3699,
      "ĠJr": 3700,
      "ĠIllinois": 3701,
      "Ġtraditional": 3702,
      "down": 3703,
      "Ġtoo": 3704,
      "Ġlittle": 3705,
      "Ġfuture": 3706,
      "Ġlet": 3707,
      "Ġquest": 3708,
      "Ġespecially": 3709,
      "ĠDirector": 3710,
      "Ġhigher": 3711,
      "Ġopening": 3712,
      "aya": 3713,
      "arden": 3714,
      "Ġsuper": 3715,
      "Ġlook": 3716,
      "ĠEnd": 3717,
      "Ġ1965": 3718,
      "ums": 3719,
      "Ġmoney": 3720,
      "Ġcal": 3721,
      "acher": 3722,
      "ĠOk": 3723,
      "ĠBritain": 3724,
      "Ġrequired": 3725,
      "ĠRepresent": 3726,
      "achusetts": 3727,
      "fect": 3728,
      "Ġinterview": 3729,
      "Ġunion": 3730,
      "ĠConference": 3731,
      "ĠDi": 3732,
      "ĠJersey": 3733,
      "Ġ1966": 3734,
      "burgh": 3735,
      "emporary": 3736,
      "ĠSand": 3737,
      "ĠGeorgia": 3738,
      "Ġenvironment": 3739,
      "rich": 3740,
      "ador": 3741,
      "Ġeditor": 3742,
      "ctic": 3743,
      "obal": 3744,
      "Ġcontains": 3745,
      "Ġappearance": 3746,
      "ĠCy": 3747,
      "ĠAsia": 3748,
      "Ġbelow": 3749,
      "Ġ180": 3750,
      "kins": 3751,
      "Ġproperty": 3752,
      "Ġprior": 3753,
      "ĠGovernor": 3754,
      "ĠAz": 3755,
      "190": 3756,
      "ĠColle": 3757,
      "ĠLab": 3758,
      "ĠMassachusetts": 3759,
      "Ġvictory": 3760,
      "house": 3761,
      "Ġmeans": 3762,
      "Ġselected": 3763,
      "Ġentered": 3764,
      "change": 3765,
      "onse": 3766,
      "ĠBoston": 3767,
      "ĠFer": 3768,
      "Ġstudied": 3769,
      "ds": 3770,
      "Ġprof": 3771,
      "igr": 3772,
      "put": 3773,
      "Ġhusband": 3774,
      "ĠLo": 3775,
      "ĠBook": 3776,
      "Ġpractice": 3777,
      "ĠEastern": 3778,
      "SA": 3779,
      "Ġemer": 3780,
      "Ġsurround": 3781,
      "Ġlocation": 3782,
      "alys": 3783,
      "standing": 3784,
      "Ġexam": 3785,
      "uten": 3786,
      "Ġassociated": 3787,
      "emorial": 3788,
      "ĠThat": 3789,
      "Ġunit": 3790,
      "ĠCO": 3791,
      "ĠJournal": 3792,
      "vention": 3793,
      "Ġmission": 3794,
      "Ġstructures": 3795,
      "Ġbass": 3796,
      "Ġrad": 3797,
      "ĠHead": 3798,
      "Ġmurder": 3799,
      "Ġtrade": 3800,
      "ja": 3801,
      "Ġ35": 3802,
      "Ġdon": 3803,
      "wa": 3804,
      "Ġprofessor": 3805,
      "ĠLibrary": 3806,
      "ĠColumbia": 3807,
      "ĠBang": 3808,
      "Ġcertain": 3809,
      "Ġcentre": 3810,
      "ĠJac": 3811,
      "Ġstandard": 3812,
      "Ġships": 3813,
      "ĠGre": 3814,
      "FC": 3815,
      "Ġretired": 3816,
      "oper": 3817,
      "Ġseat": 3818,
      "Ġadop": 3819,
      "Ġearlier": 3820,
      "ĠPrince": 3821,
      "Ġarran": 3822,
      "Ġens": 3823,
      "33": 3824,
      "ii": 3825,
      "Ġrunning": 3826,
      "Ġmanagement": 3827,
      "ĠMore": 3828,
      "Ġer": 3829,
      "Ġbecoming": 3830,
      "Ġdom": 3831,
      "ĠJean": 3832,
      "Ġdepartment": 3833,
      "ĠGame": 3834,
      "with": 3835,
      "ĠField": 3836,
      "Ġstudent": 3837,
      "rying": 3838,
      "Ġ1944": 3839,
      "ĠMP": 3840,
      "Ġactivities": 3841,
      "tained": 3842,
      "Ġsoft": 3843,
      "Ġtrib": 3844,
      "ĠTheatre": 3845,
      "ĠJones": 3846,
      "Ġclubs": 3847,
      "Ġcome": 3848,
      "ĠWilliams": 3849,
      "Ġlength": 3850,
      "anks": 3851,
      "Ġemb": 3852,
      "Ġmunicipality": 3853,
      "ila": 3854,
      "Ġlegal": 3855,
      "anded": 3856,
      "iy": 3857,
      "alle": 3858,
      "Ġcollabor": 3859,
      "ĠStan": 3860,
      "ails": 3861,
      "igg": 3862,
      "ĠDevelopment": 3863,
      "Ġmedical": 3864,
      "Ġactors": 3865,
      "Ġsuffer": 3866,
      "Ġcomedy": 3867,
      "arriage": 3868,
      "inem": 3869,
      "NE": 3870,
      "ĠMiddle": 3871,
      "gypt": 3872,
      "iance": 3873,
      "Ġlegisl": 3874,
      "Ġinitially": 3875,
      "omy": 3876,
      "ĠWeb": 3877,
      "Ġquarter": 3878,
      "Ġcaused": 3879,
      "99": 3880,
      "ĠMany": 3881,
      "Ġalready": 3882,
      "adel": 3883,
      "Ġsometimes": 3884,
      "Ġpie": 3885,
      "sen": 3886,
      "bre": 3887,
      "ĠSoc": 3888,
      "Ġpen": 3889,
      "Ġthus": 3890,
      "Ġtrain": 3891,
      "ĠCoast": 3892,
      "ĠFrancisco": 3893,
      "ĠEconom": 3894,
      "ĠVan": 3895,
      "Ġdestroy": 3896,
      "Ġmove": 3897,
      "Ġoperated": 3898,
      "etic": 3899,
      "ĠIf": 3900,
      "Ġfeature": 3901,
      "ĠBow": 3902,
      "ĠHong": 3903,
      "Ġgenerally": 3904,
      "ĠStep": 3905,
      "ĠKong": 3906,
      "Ġarrest": 3907,
      "Ġforest": 3908,
      "Ġincreased": 3909,
      "Ġequip": 3910,
      "ĠDet": 3911,
      "ĠSat": 3912,
      "Ġolder": 3913,
      "Ġhockey": 3914,
      "Ġlove": 3915,
      "ĠKar": 3916,
      "ĠWater": 3917,
      "antry": 3918,
      "Ġcourse": 3919,
      "Ġwide": 3920,
      "ĠOrgan": 3921,
      "track": 3922,
      "Ġwestern": 3923,
      "ĠMu": 3924,
      "ĠWind": 3925,
      "span": 3926,
      "Ġnumerous": 3927,
      "ĠAlbert": 3928,
      "amm": 3929,
      "ĠBlue": 3930,
      "Ġconv": 3931,
      "Ġuses": 3932,
      "Ġcompeted": 3933,
      "no": 3934,
      "Ġcouncil": 3935,
      "Ġnews": 3936,
      "Ġrap": 3937,
      "ĠManag": 3938,
      "Ġgra": 3939,
      "Ġannual": 3940,
      "Ġdiffic": 3941,
      "ares": 3942,
      "eeks": 3943,
      "Ġsaf": 3944,
      "ĠFed": 3945,
      "isation": 3946,
      "ĠJohnson": 3947,
      "ĠPres": 3948,
      "Ġ1963": 3949,
      "Ġchanges": 3950,
      "ĠConserv": 3951,
      "ands": 3952,
      "ken": 3953,
      "Ġvir": 3954,
      "ĠEll": 3955,
      "ĠDie": 3956,
      "ĠMid": 3957,
      "ĠChild": 3958,
      "onia": 3959,
      "ĠPersonal": 3960,
      "ĠSystem": 3961,
      "ela": 3962,
      "Ġmajority": 3963,
      "ograp": 3964,
      "Ġsu": 3965,
      "ĠDeath": 3966,
      "illa": 3967,
      "Ġterms": 3968,
      "Ġserving": 3969,
      "ĠBC": 3970,
      "ĠCentre": 3971,
      "rief": 3972,
      "Ġissue": 3973,
      "ulpt": 3974,
      "Ġfederal": 3975,
      "ĠAk": 3976,
      "attal": 3977,
      "stitu": 3978,
      "Ġabs": 3979,
      "ĠBiography": 3980,
      "Ġanti": 3981,
      "add": 3982,
      "Ġindic": 3983,
      "plement": 3984,
      "Ġpersonnel": 3985,
      "Ġbetter": 3986,
      "Ġcolon": 3987,
      "Ġuniversity": 3988,
      "abeth": 3989,
      "ĠBroad": 3990,
      "Ġ1962": 3991,
      "ulf": 3992,
      "Ġthreat": 3993,
      "ĠSerb": 3994,
      "elle": 3995,
      "Ġreligious": 3996,
      "ĠAri": 3997,
      "Ġsea": 3998,
      "pre": 3999,
      "Ġcust": 4000,
      "Ġsister": 4001,
      "ĠTime": 4002,
      "ĠEgypt": 4003,
      "In": 4004,
      "ĠBal": 4005,
      "Ġkeep": 4006,
      "itation": 4007,
      "ĠOxford": 4008,
      "akh": 4009,
      "ĠBir": 4010,
      "ĠStation": 4011,
      "ĠTem": 4012,
      "Ġprob": 4013,
      "ĠGood": 4014,
      "ĠTransport": 4015,
      "ĠOffice": 4016,
      "AC": 4017,
      "ĠInt": 4018,
      "ĠWrit": 4019,
      "Ġdrop": 4020,
      "Ġlines": 4021,
      "ĠSpe": 4022,
      "Ġpassed": 4023,
      "ĠHome": 4024,
      "ĠTam": 4025,
      "asy": 4026,
      "ĠAdam": 4027,
      "Ġded": 4028,
      "ĠSpecial": 4029,
      "Ġlack": 4030,
      "ĠIslam": 4031,
      "ĠWild": 4032,
      "Ġaccom": 4033,
      "chen": 4034,
      "ĠAlexander": 4035,
      "ĠLittle": 4036,
      "ĠTrack": 4037,
      "ties": 4038,
      "ĠCommon": 4039,
      "Ġhot": 4040,
      "Ġexpatriate": 4041,
      "Ġthought": 4042,
      "Ġord": 4043,
      "ĠSwedish": 4044,
      "mann": 4045,
      "arters": 4046,
      "Ġofficers": 4047,
      "ĠFour": 4048,
      "ieuten": 4049,
      "ĠLy": 4050,
      "irit": 4051,
      "isher": 4052,
      "cean": 4053,
      "Ġrecording": 4054,
      "Ġclaimed": 4055,
      "Ġhum": 4056,
      "Ġforced": 4057,
      "urban": 4058,
      "ĠUl": 4059,
      "Ġprograms": 4060,
      "95": 4061,
      "ĠMax": 4062,
      "Ġeconomic": 4063,
      "Ġstatus": 4064,
      "Ġdiscuss": 4065,
      "Ġ45": 4066,
      "ĠKen": 4067,
      "war": 4068,
      "ĠFoundation": 4069,
      "Ġnine": 4070,
      "Ġinstr": 4071,
      "Ġlimited": 4072,
      "unn": 4073,
      "orporated": 4074,
      ";\"": 4075,
      "Ġmuseum": 4076,
      "action": 4077,
      "Ġsupported": 4078,
      "itage": 4079,
      "Ġimmedi": 4080,
      "ĠBern": 4081,
      "Ġ1942": 4082,
      "Ġminutes": 4083,
      "ĠSenate": 4084,
      "Ġcomplete": 4085,
      "Ġpil": 4086,
      "ackson": 4087,
      "ube": 4088,
      "Ġcreate": 4089,
      "bl": 4090,
      "Ġgener": 4091,
      "ĠCorps": 4092,
      "Ġoverall": 4093,
      "Ġhours": 4094,
      "Ġsubsequently": 4095,
      "hire": 4096,
      "Ġshoot": 4097,
      "Ġpresented": 4098,
      "Ġbene": 4099,
      "88": 4100,
      "Ġmeeting": 4101,
      "ĠTheir": 4102,
      "phy": 4103,
      "ĠEnter": 4104,
      "ĠLatin": 4105,
      "Ġremains": 4106,
      "ĠFar": 4107,
      "ĠGallery": 4108,
      "ĠCard": 4109,
      "ĠRay": 4110,
      "Ġ1948": 4111,
      "rown": 4112,
      "Ġice": 4113,
      "inger": 4114,
      "ĠAdd": 4115,
      "iginal": 4116,
      "ĠAndrew": 4117,
      "Ġdescent": 4118,
      "Ġraised": 4119,
      "ucle": 4120,
      "Ġearned": 4121,
      "Ġinstitut": 4122,
      "vis": 4123,
      "Ġlic": 4124,
      "Ġoccas": 4125,
      "ĠBibl": 4126,
      "AT": 4127,
      "Ġbelong": 4128,
      "ctors": 4129,
      "Ġevidence": 4130,
      "nam": 4131,
      "Ġcommunities": 4132,
      "ĠAsh": 4133,
      "Ġchall": 4134,
      "ĠVictoria": 4135,
      "Ġgoing": 4136,
      "Ġ1943": 4137,
      "ĠOf": 4138,
      "ĠFI": 4139,
      "36": 4140,
      "izing": 4141,
      "Ġplatform": 4142,
      "Ġmostly": 4143,
      "una": 4144,
      "apers": 4145,
      "Ġ1956": 4146,
      "Ġjob": 4147,
      "ĠCreek": 4148,
      "isk": 4149,
      "Ġ1961": 4150,
      "ĠSea": 4151,
      "Ġhistorical": 4152,
      "uge": 4153,
      "umber": 4154,
      "Ġweeks": 4155,
      "Ġaltern": 4156,
      "mi": 4157,
      "Ġfle": 4158,
      "Ġappearances": 4159,
      "ĠEliz": 4160,
      "Ġsequ": 4161,
      "wide": 4162,
      "aters": 4163,
      "ĠSyd": 4164,
      "ĠBerlin": 4165,
      "aily": 4166,
      "Ġ65": 4167,
      "ĠMinn": 4168,
      "urt": 4169,
      "ĠDev": 4170,
      "Ġresponse": 4171,
      "ĠSund": 4172,
      "ĠCorpor": 4173,
      "ĠTy": 4174,
      "Ġgive": 4175,
      "47": 4176,
      "Ġsom": 4177,
      "ĠJackson": 4178,
      "AF": 4179,
      "zech": 4180,
      "ieutenant": 4181,
      "Ġpercent": 4182,
      "ĠCorn": 4183,
      "ĠKorean": 4184,
      "Ġprop": 4185,
      "Ġbound": 4186,
      "Ġshown": 4187,
      "Ġarm": 4188,
      "ĠCop": 4189,
      "Ġinsp": 4190,
      "win": 4191,
      "ims": 4192,
      "Ġconcept": 4193,
      "Ġ1958": 4194,
      "iring": 4195,
      "Ġopt": 4196,
      "BS": 4197,
      "Ġregional": 4198,
      "ĠDaniel": 4199,
      "Ġparticularly": 4200,
      "Ġincome": 4201,
      "gu": 4202,
      "ĠAlbum": 4203,
      "ĠWeek": 4204,
      "Ġacquired": 4205,
      "Ġparents": 4206,
      "Ġforeign": 4207,
      "ĠRaj": 4208,
      "Ġbomb": 4209,
      "ĠSecretary": 4210,
      "ĠElect": 4211,
      "ĠIslands": 4212,
      "Ġmention": 4213,
      "Ġpolicy": 4214,
      "Ġyouth": 4215,
      "ĠNight": 4216,
      "imum": 4217,
      "onto": 4218,
      "Ġcell": 4219,
      "alysis": 4220,
      "Ġ1959": 4221,
      "stein": 4222,
      "Ġmiddle": 4223,
      "encies": 4224,
      "38": 4225,
      "chester": 4226,
      "Ġdise": 4227,
      "rem": 4228,
      "Ġrecords": 4229,
      "enty": 4230,
      "ĠPolice": 4231,
      "Ġinn": 4232,
      "Ġtakes": 4233,
      "osoph": 4234,
      "48": 4235,
      "Ġlonger": 4236,
      "ĠBBC": 4237,
      "Ġlos": 4238,
      "Ġgot": 4239,
      "Ġhelped": 4240,
      "elled": 4241,
      "Ġparticular": 4242,
      "Ġfailed": 4243,
      "ried": 4244,
      "Ġappears": 4245,
      "ĠGirl": 4246,
      "Ġver": 4247,
      "Ġpromoted": 4248,
      "ĠDespite": 4249,
      "Ġawards": 4250,
      "onic": 4251,
      "Ġprincip": 4252,
      "Ġstep": 4253,
      "Ġ1946": 4254,
      "ĠThree": 4255,
      "ental": 4256,
      "stone": 4257,
      "Ġfamous": 4258,
      "Ġblock": 4259,
      "ĠKorea": 4260,
      "Ġremain": 4261,
      "outheast": 4262,
      "Ġtheory": 4263,
      "ĠRod": 4264,
      "ologist": 4265,
      "Ġinte": 4266,
      "agn": 4267,
      "Ġvote": 4268,
      "Ġfinancial": 4269,
      "Ġorganizations": 4270,
      "akers": 4271,
      "Ġleaving": 4272,
      "ĠAtt": 4273,
      "Ġtracks": 4274,
      "ĠMov": 4275,
      "ĠRog": 4276,
      "Ġeastern": 4277,
      "oz": 4278,
      "ledge": 4279,
      "Ġgovern": 4280,
      "Ġbaseball": 4281,
      "ĠBi": 4282,
      "Ġpsych": 4283,
      "Ġ1941": 4284,
      "Ġmem": 4285,
      "ĠWork": 4286,
      "Ġtechnology": 4287,
      "Ġ32": 4288,
      "Ġenergy": 4289,
      "vement": 4290,
      "class": 4291,
      "omer": 4292,
      "Ġsched": 4293,
      "Ġvon": 4294,
      "ifying": 4295,
      "Ġmach": 4296,
      "yo": 4297,
      "Ġcomposed": 4298,
      "ronze": 4299,
      "Ġhapp": 4300,
      "46": 4301,
      "Ġreferred": 4302,
      "bers": 4303,
      "ĠWall": 4304,
      "ĠTax": 4305,
      "ĠRegiment": 4306,
      "Ġspecific": 4307,
      "Ġcrew": 4308,
      "ĠSydney": 4309,
      "ĠFamily": 4310,
      "37": 4311,
      "Ġquick": 4312,
      "emet": 4313,
      "ĠHospital": 4314,
      "Ġincrease": 4315,
      "cul": 4316,
      "ĠMunicip": 4317,
      "ĠKenn": 4318,
      "Ġcitiz": 4319,
      "Ġbelieved": 4320,
      "Ġremaining": 4321,
      "Ġword": 4322,
      "ĠColl": 4323,
      "ĠShow": 4324,
      "Ġprovince": 4325,
      "Ġcateg": 4326,
      "Ġlarger": 4327,
      "ĠJoe": 4328,
      "Ġhouses": 4329,
      "ĠCharl": 4330,
      "ropol": 4331,
      "ĠViet": 4332,
      "ĠCzech": 4333,
      "teen": 4334,
      "Ġhospital": 4335,
      "vest": 4336,
      "can": 4337,
      "Ġcarried": 4338,
      "ĠOtt": 4339,
      "ĠLim": 4340,
      "Ġeth": 4341,
      "Th": 4342,
      "ĠVen": 4343,
      "rice": 4344,
      "illy": 4345,
      "ouri": 4346,
      "ĠBusiness": 4347,
      "Ġamount": 4348,
      "Ġlatter": 4349,
      "ĠHy": 4350,
      "ĠWay": 4351,
      "Ġtroops": 4352,
      "ĠFederal": 4353,
      "thur": 4354,
      "istricts": 4355,
      "Ġ1957": 4356,
      "Ġdiss": 4357,
      "Ġ1939": 4358,
      "CC": 4359,
      "Ġ(),": 4360,
      "ĠArm": 4361,
      "Ġstarting": 4362,
      "ĠTurk": 4363,
      "Ġarchitect": 4364,
      "ova": 4365,
      "ĠPen": 4366,
      "96": 4367,
      "Ġ1947": 4368,
      "selves": 4369,
      "mentary": 4370,
      "imated": 4371,
      "Ġthemselves": 4372,
      "Ġlay": 4373,
      "Ġbrand": 4374,
      "ĠQueens": 4375,
      "ĠDer": 4376,
      "Ġtarg": 4377,
      "lav": 4378,
      "rupt": 4379,
      "Ġproposed": 4380,
      "Ġcharg": 4381,
      "Ġnorm": 4382,
      "98": 4383,
      "Ġfort": 4384,
      "uts": 4385,
      "Ġroom": 4386,
      "Ġbring": 4387,
      "Ġepisodes": 4388,
      "Ġnative": 4389,
      "ĠRet": 4390,
      "Ġcer": 4391,
      "Ġ1952": 4392,
      "Ġrate": 4393,
      "ĠForm": 4394,
      "ĠBoth": 4395,
      "ĠOnt": 4396,
      "Ġindividuals": 4397,
      "ĠWorks": 4398,
      "ĠBand": 4399,
      "enger": 4400,
      "Ġgraduated": 4401,
      "Ġassistant": 4402,
      "Ġ36": 4403,
      "more": 4404,
      "ech": 4405,
      "utt": 4406,
      "uries": 4407,
      "Ġpra": 4408,
      "Ġlog": 4409,
      "ĠBab": 4410,
      "Ġwinner": 4411,
      "Ġforms": 4412,
      "Ġcultural": 4413,
      "pose": 4414,
      "Ġdepart": 4415,
      "ĠPrize": 4416,
      "Ġ1955": 4417,
      "Ġcities": 4418,
      "itting": 4419,
      "Ġsurface": 4420,
      "Ġchem": 4421,
      "hew": 4422,
      "ĠPrime": 4423,
      "ji": 4424,
      "Ġoffered": 4425,
      "ĠEarth": 4426,
      "ĠJon": 4427,
      "Ġven": 4428,
      "ais": 4429,
      "Ġdeliver": 4430,
      "phia": 4431,
      "ĠColor": 4432,
      "Ġmerg": 4433,
      "erb": 4434,
      "Ġheavy": 4435,
      "ĠBoy": 4436,
      "ĠTownship": 4437,
      "ĠTay": 4438,
      "ously": 4439,
      "ĠTod": 4440,
      "esota": 4441,
      "Ġexecutive": 4442,
      "Ġonline": 4443,
      "edd": 4444,
      "97": 4445,
      "Ġspl": 4446,
      "Ġprevent": 4447,
      "ĠJeff": 4448,
      "ĠBooks": 4449,
      "Ġmarriage": 4450,
      "Ġmeaning": 4451,
      "ĠPremier": 4452,
      "anguages": 4453,
      "Ar": 4454,
      "Ġadj": 4455,
      "//": 4456,
      "Ġtable": 4457,
      "ennes": 4458,
      "ĠLes": 4459,
      "ĠRoute": 4460,
      "Ġnewspaper": 4461,
      "ĠNether": 4462,
      "ĠMir": 4463,
      "ĠMinistry": 4464,
      "Ġseparate": 4465,
      "Ġsociety": 4466,
      "Ġdyn": 4467,
      "verse": 4468,
      "Ġconsists": 4469,
      "ounds": 4470,
      "ellig": 4471,
      "ĠSem": 4472,
      "ĠDist": 4473,
      "Ġfifth": 4474,
      "ci": 4475,
      "ione": 4476,
      "ĠNotable": 4477,
      "peror": 4478,
      "ĠElizabeth": 4479,
      "oura": 4480,
      "Ġbridge": 4481,
      "ĠJes": 4482,
      "ĠBell": 4483,
      "Ġpeak": 4484,
      "ĠEst": 4485,
      "icted": 4486,
      "ĠAnton": 4487,
      "IS": 4488,
      "Ġtoday": 4489,
      "ĠMinnesota": 4490,
      "rovers": 4491,
      "Ġsucceed": 4492,
      "Ġess": 4493,
      "ĠBol": 4494,
      "adelphia": 4495,
      "Ġexperience": 4496,
      "ĠBaseball": 4497,
      "rane": 4498,
      "Ġfail": 4499,
      "Ġserve": 4500,
      "fit": 4501,
      "ĠPubl": 4502,
      "Ġconditions": 4503,
      "Ġvariety": 4504,
      "ĠJustice": 4505,
      "Ġcompl": 4506,
      "Ġbrief": 4507,
      "itude": 4508,
      "Ġfoot": 4509,
      "hy": 4510,
      "ĠToronto": 4511,
      "Ġlabel": 4512,
      "Ġtransferred": 4513,
      "ker": 4514,
      "uated": 4515,
      "34": 4516,
      "Ġtemper": 4517,
      "ession": 4518,
      "Ġcandidate": 4519,
      "Ġborder": 4520,
      "mas": 4521,
      "Ġsource": 4522,
      "ĠHuman": 4523,
      "ronic": 4524,
      "icine": 4525,
      "ĠOntario": 4526,
      "Ġhouseholds": 4527,
      "resp": 4528,
      "Ġpartn": 4529,
      "rance": 4530,
      "Ġmainly": 4531,
      "Ġmovie": 4532,
      "alog": 4533,
      "ĠSquad": 4534,
      "ĠSupreme": 4535,
      "Ġalongside": 4536,
      "ĠHind": 4537,
      "ĠAut": 4538,
      "zy": 4539,
      "ĠMike": 4540,
      "Ġdespite": 4541,
      "://": 4542,
      "ĠChap": 4543,
      "Ġsculpt": 4544,
      "Ġrequire": 4545,
      "ĠLem": 4546,
      "inct": 4547,
      "Ġalways": 4548,
      "ĠSom": 4549,
      "ault": 4550,
      "ĠRegion": 4551,
      "ĠBad": 4552,
      "ĠBorn": 4553,
      "ĠLew": 4554,
      "ĠLight": 4555,
      "ĠNations": 4556,
      "ĠTok": 4557,
      "ĠBa": 4558,
      "ĠSongs": 4559,
      "rics": 4560,
      "Ġparties": 4561,
      "weight": 4562,
      "ev": 4563,
      "Ġ1949": 4564,
      "Ġ1954": 4565,
      "uing": 4566,
      "Ġoperation": 4567,
      "Ġissued": 4568,
      "Ġdouble": 4569,
      "icks": 4570,
      "ĠProgram": 4571,
      "Ġ(,": 4572,
      "ĠId": 4573,
      "anth": 4574,
      "ĠWel": 4575,
      "attalion": 4576,
      "Ġpoor": 4577,
      "bit": 4578,
      "nes": 4579,
      "31": 4580,
      "ĠAnother": 4581,
      "Ġextended": 4582,
      "secut": 4583,
      "Ġbr": 4584,
      "Ġdemon": 4585,
      "ortheast": 4586,
      "Ġmechan": 4587,
      "ĠAnth": 4588,
      "Ġplans": 4589,
      "Ġface": 4590,
      "ĠDun": 4591,
      "Ġprovides": 4592,
      "ĠCE": 4593,
      "ĠAff": 4594,
      "Ġsoldiers": 4595,
      "Ġmakes": 4596,
      "Ġarticle": 4597,
      "Ġturned": 4598,
      "Ġinfluence": 4599,
      "RA": 4600,
      "Ġ80": 4601,
      "Ġdefeat": 4602,
      "Ġresponsible": 4603,
      "Ġsilver": 4604,
      "bourne": 4605,
      "Ġdone": 4606,
      "Ġrow": 4607,
      "Ġjun": 4608,
      "Ġsn": 4609,
      "ĠHarris": 4610,
      "Ġ1953": 4611,
      "ĠAh": 4612,
      "Ġarrived": 4613,
      "raine": 4614,
      "ĠStephen": 4615,
      "erland": 4616,
      "illed": 4617,
      "Ġfeaturing": 4618,
      "ĠBrad": 4619,
      "Ġhar": 4620,
      "ĠMexican": 4621,
      "Ġdifficult": 4622,
      "ĠPhiladelphia": 4623,
      "worth": 4624,
      "ĠStadium": 4625,
      "Ġrugby": 4626,
      "chestra": 4627,
      "osa": 4628,
      "Ġstories": 4629,
      "Ġnearby": 4630,
      "85": 4631,
      "Ġmaster": 4632,
      "Ġspeed": 4633,
      "onsin": 4634,
      "Ġunivers": 4635,
      "Ġexcept": 4636,
      "Ġathlet": 4637,
      "pton": 4638,
      "ĠStat": 4639,
      "ĠAirport": 4640,
      "ĠAv": 4641,
      "Ġcapac": 4642,
      "ĠChart": 4643,
      "lers": 4644,
      "Ġcorn": 4645,
      "Ġhonor": 4646,
      "ĠPakistan": 4647,
      "omot": 4648,
      "isconsin": 4649,
      "ĠTai": 4650,
      "aven": 4651,
      "rif": 4652,
      "writer": 4653,
      "bass": 4654,
      "ĠSanta": 4655,
      "ĠNetherlands": 4656,
      "Ġparticipated": 4657,
      "Ġoil": 4658,
      "agon": 4659,
      "Ġresidents": 4660,
      "atively": 4661,
      "ĠCrit": 4662,
      "Ġ70": 4663,
      "Ġsaying": 4664,
      "mission": 4665,
      "Ġwinners": 4666,
      "ava": 4667,
      "Ġmanaged": 4668,
      "Ġstay": 4669,
      "Ġfellow": 4670,
      "ection": 4671,
      "Ġadministrative": 4672,
      "ĠKir": 4673,
      "ĠDam": 4674,
      "light": 4675,
      "obile": 4676,
      "Ġelectric": 4677,
      "pon": 4678,
      "Ġorigin": 4679,
      "ba": 4680,
      "Ġconstitu": 4681,
      "ĠMedia": 4682,
      "Ġdiscovered": 4683,
      "Ġmight": 4684,
      "umed": 4685,
      "undred": 4686,
      "Ġcovered": 4687,
      "ropical": 4688,
      "ĠRevolution": 4689,
      "ĠProfessor": 4690,
      "ĠBrig": 4691,
      "Ġrenamed": 4692,
      "Ġsurn": 4693,
      "ns": 4694,
      "org": 4695,
      "ĠIndones": 4696,
      "Ġbackground": 4697,
      "Ġmunicipal": 4698,
      "86": 4699,
      "ĠWisconsin": 4700,
      "Ġlikely": 4701,
      "ĠHo": 4702,
      "Ġcontra": 4703,
      "dis": 4704,
      "ĠChris": 4705,
      "Ġinh": 4706,
      "ĠAvenue": 4707,
      "Ġrecent": 4708,
      "ĠGuard": 4709,
      "Ġmusicians": 4710,
      "ĠPeak": 4711,
      "ĠRome": 4712,
      "Ġ1951": 4713,
      "Ġparish": 4714,
      "44": 4715,
      "Ġelements": 4716,
      "ĠCub": 4717,
      "Ġtold": 4718,
      "igen": 4719,
      "range": 4720,
      "quarters": 4721,
      "achel": 4722,
      "Ġvan": 4723,
      "ancy": 4724,
      "Ġasked": 4725,
      "Ġgun": 4726,
      "Ġ+": 4727,
      "ighter": 4728,
      "Ġconstructed": 4729,
      "Ġconfl": 4730,
      "ĠPrim": 4731,
      "Ġproblems": 4732,
      "ĠTechnology": 4733,
      "ĠKim": 4734,
      "Ġult": 4735,
      "Ġfinally": 4736,
      "owa": 4737,
      "76": 4738,
      "ĠSus": 4739,
      "Ġheart": 4740,
      "ĠSher": 4741,
      "Ġleave": 4742,
      "Ġour": 4743,
      "ocks": 4744,
      "establ": 4745,
      "Ġnature": 4746,
      "emetery": 4747,
      "Ġneighbor": 4748,
      "irmed": 4749,
      "ĠPers": 4750,
      "kee": 4751,
      "Ġprogress": 4752,
      "Ġproducts": 4753,
      "ĠMuslim": 4754,
      "ĠCambridge": 4755,
      "ĠLi": 4756,
      "Ġthr": 4757,
      "Ġpick": 4758,
      "ctoral": 4759,
      "wegian": 4760,
      "Ġhere": 4761,
      "oration": 4762,
      "ĠIndust": 4763,
      "oto": 4764,
      "Ġimpact": 4765,
      "Ġnearly": 4766,
      "ĠForest": 4767,
      "Ġdrug": 4768,
      "Ġpaper": 4769,
      "ĠDuke": 4770,
      "ĠBishop": 4771,
      "Ġcause": 4772,
      "55": 4773,
      "Ġpage": 4774,
      "Ġenough": 4775,
      "Ġpath": 4776,
      "ging": 4777,
      "Ġwanted": 4778,
      "ĠLady": 4779,
      "Ġsubs": 4780,
      "met": 4781,
      "Ġdead": 4782,
      "amber": 4783,
      "Ġmedalists": 4784,
      "wick": 4785,
      "ĠSlov": 4786,
      "perial": 4787,
      "ĠLegisl": 4788,
      "rim": 4789,
      "Ġrevealed": 4790,
      "aped": 4791,
      "Ġarchitecture": 4792,
      "ĠExp": 4793,
      "ĠPu": 4794,
      "Ġraces": 4795,
      "rict": 4796,
      "ĠCa": 4797,
      "Ġnecess": 4798,
      "Ġchampion": 4799,
      "Ġsecurity": 4800,
      "nic": 4801,
      "ss": 4802,
      "ĠCommunity": 4803,
      "istance": 4804,
      "Ġdirectly": 4805,
      "ensity": 4806,
      "Ġsolo": 4807,
      "ĠStr": 4808,
      "get": 4809,
      "Ġvoice": 4810,
      "ĠWilson": 4811,
      "32": 4812,
      "Ġpit": 4813,
      "ependence": 4814,
      "inson": 4815,
      "ĠProject": 4816,
      "Ġaddress": 4817,
      "Ġsusp": 4818,
      "ĠSab": 4819,
      "ĠPower": 4820,
      "orning": 4821,
      "ĠAdminist": 4822,
      "Ġlives": 4823,
      "Ġancient": 4824,
      "Ġleaders": 4825,
      "Ġ1936": 4826,
      "Ġminister": 4827,
      "ĠCorporation": 4828,
      "Ġofficially": 4829,
      "Ġincreasing": 4830,
      "Ġcycl": 4831,
      "Ġprojects": 4832,
      "ĠColon": 4833,
      "ĠMedical": 4834,
      "ĠMarg": 4835,
      "Le": 4836,
      "living": 4837,
      "Ġdisplay": 4838,
      "Ġprimarily": 4839,
      "Ġrural": 4840,
      "ading": 4841,
      "ĠBarb": 4842,
      "Ġadministration": 4843,
      "enge": 4844,
      "94": 4845,
      "vanced": 4846,
      "oud": 4847,
      "Ġconducted": 4848,
      "Ġiniti": 4849,
      "Ġfriends": 4850,
      "Ġlevels": 4851,
      "ĠHay": 4852,
      "anga": 4853,
      "rolled": 4854,
      "Ġpositive": 4855,
      "ening": 4856,
      "Ġsport": 4857,
      "Ġmountain": 4858,
      "ensis": 4859,
      "ected": 4860,
      "ĠDar": 4861,
      "ĠNorwegian": 4862,
      "Ġcard": 4863,
      "ĠSweden": 4864,
      "SS": 4865,
      "ĠFair": 4866,
      "Ġchap": 4867,
      "ĠIra": 4868,
      "inity": 4869,
      "Ġly": 4870,
      "iat": 4871,
      "ĠMoh": 4872,
      "ĠFire": 4873,
      "ĠLt": 4874,
      "Ġinitial": 4875,
      "ydro": 4876,
      "ĠVideo": 4877,
      "ĠShort": 4878,
      "ully": 4879,
      "Ġacademic": 4880,
      "ĠIndiana": 4881,
      "ĠGolden": 4882,
      "ucky": 4883,
      "Ġpan": 4884,
      "ĠFle": 4885,
      "Ġ90": 4886,
      "een": 4887,
      "Ġpp": 4888,
      "ĠMountain": 4889,
      "ĠWinn": 4890,
      "Ġfirm": 4891,
      "ĠMun": 4892,
      "aki": 4893,
      "Ġchannel": 4894,
      "Ġdisp": 4895,
      "ĠBibliography": 4896,
      "Ġsources": 4897,
      "Ġreplace": 4898,
      "book": 4899,
      "ĠWinter": 4900,
      "Ġwhole": 4901,
      "ĠArthur": 4902,
      "Ġlisting": 4903,
      "Ġworkers": 4904,
      "Ġ1938": 4905,
      "ĠSciences": 4906,
      "Ġletter": 4907,
      "cription": 4908,
      "Ġnumbers": 4909,
      "ĠRad": 4910,
      "ributed": 4911,
      "ĠNiger": 4912,
      "Ġconsider": 4913,
      "ĠAlf": 4914,
      "ĠPlace": 4915,
      "Ġmic": 4916,
      "Ġvalue": 4917,
      "ĠDesign": 4918,
      "ĠReview": 4919,
      "ĠBudd": 4920,
      "Ġdeep": 4921,
      "ĠSu": 4922,
      "LA": 4923,
      "Ġlaws": 4924,
      "urches": 4925,
      "ĠHu": 4926,
      "emy": 4927,
      "edom": 4928,
      "ĠKansas": 4929,
      "anta": 4930,
      "ĠAlso": 4931,
      "Ġliterature": 4932,
      "Ġwhether": 4933,
      "Ġremoved": 4934,
      "thing": 4935,
      "ĠLive": 4936,
      "Ġ1918": 4937,
      "gal": 4938,
      "heim": 4939,
      "Ġsal": 4940,
      "ĠMaria": 4941,
      "Ġwithd": 4942,
      "Al": 4943,
      "Ġdedicated": 4944,
      "eld": 4945,
      "iest": 4946,
      "ĠGeography": 4947,
      "ĠCaptain": 4948,
      "ĠUs": 4949,
      "portun": 4950,
      "erto": 4951,
      "ĠDep": 4952,
      "Ġsyn": 4953,
      "Ġgrew": 4954,
      "onym": 4955,
      "Ġdomin": 4956,
      "Ġwords": 4957,
      "ĠBaron": 4958,
      "FF": 4959,
      "Ġplanned": 4960,
      "ĠPopulated": 4961,
      "ĠPolitical": 4962,
      "rical": 4963,
      "Ġstars": 4964,
      "ĠJunior": 4965,
      "ĠResults": 4966,
      "78": 4967,
      "Ġnotable": 4968,
      "Ġeffects": 4969,
      "ĠUSA": 4970,
      "Ġshare": 4971,
      "jected": 4972,
      "ĠUt": 4973,
      "Ġkind": 4974,
      "itter": 4975,
      "ez": 4976,
      "iced": 4977,
      "Ġrule": 4978,
      "ĠMissouri": 4979,
      "present": 4980,
      "Ġdark": 4981,
      "EC": 4982,
      "Ġcomputer": 4983,
      "Ġpiano": 4984,
      "Ġordered": 4985,
      "ĠTaylor": 4986,
      "Ġregist": 4987,
      "Ġsettlement": 4988,
      "athan": 4989,
      "ĠMaster": 4990,
      "respond": 4991,
      "ĠHan": 4992,
      "Ġprominent": 4993,
      "ika": 4994,
      "MA": 4995,
      "Ġspread": 4996,
      "ĠRugby": 4997,
      "Ġcontinue": 4998,
      "ĠBridge": 4999,
      "ishes": 5000,
      "ĠPit": 5001,
      "ĠColorado": 5002,
      "regon": 5003,
      "yal": 5004,
      "Ġrecover": 5005,
      "ables": 5006,
      "restling": 5007,
      "Ġrefle": 5008,
      "ĠFrancis": 5009,
      "Ġuns": 5010,
      "resh": 5011,
      "sex": 5012,
      "eller": 5013,
      "ĠEP": 5014,
      "aging": 5015,
      "Ġvac": 5016,
      "OS": 5017,
      "Ġ34": 5018,
      "Ġvotes": 5019,
      "force": 5020,
      "Ġscene": 5021,
      "Ġfollows": 5022,
      "Ġweap": 5023,
      "Ġdirection": 5024,
      "ternet": 5025,
      "ilton": 5026,
      "66": 5027,
      "greg": 5028,
      "ĠSteve": 5029,
      "ĠRem": 5030,
      "isted": 5031,
      "Ġmixed": 5032,
      "Ġtouch": 5033,
      "Ġbranch": 5034,
      "Ġhosted": 5035,
      "Ġextra": 5036,
      "ĠConne": 5037,
      "Ġdigital": 5038,
      "Ġgas": 5039,
      "Ġreform": 5040,
      "Ġlanguages": 5041,
      "ĠWalk": 5042,
      "Ġgreen": 5043,
      "Ġarticles": 5044,
      "Ġrules": 5045,
      "Ġpotential": 5046,
      "Ġ1937": 5047,
      "Ġimplement": 5048,
      "Ġreason": 5049,
      "hens": 5050,
      "Ġintended": 5051,
      "Ġpurs": 5052,
      "Ġillust": 5053,
      "ĠStudies": 5054,
      "Ġconserv": 5055,
      "enes": 5056,
      "gn": 5057,
      "hemat": 5058,
      "Ġnation": 5059,
      "Ġang": 5060,
      "zona": 5061,
      "enna": 5062,
      "ĠRepresentatives": 5063,
      "Ġhistoric": 5064,
      "Ġera": 5065,
      "39": 5066,
      "ĠCastle": 5067,
      "ĠCirc": 5068,
      "yard": 5069,
      "ĠLind": 5070,
      "ĠEarl": 5071,
      "Ġtrial": 5072,
      "ulated": 5073,
      "Ġdivided": 5074,
      "ĠGree": 5075,
      "Ġcapacity": 5076,
      "Ġidea": 5077,
      "ĠMember": 5078,
      "Ġut": 5079,
      "ĠNaz": 5080,
      "grad": 5081,
      "Ġcolor": 5082,
      "Ġforward": 5083,
      "ropolitan": 5084,
      "Ġtal": 5085,
      "Ġtitled": 5086,
      "ographic": 5087,
      "nce": 5088,
      "Ġrespectively": 5089,
      "Ġfloor": 5090,
      "Ġdestroyed": 5091,
      "Ġtitles": 5092,
      "Ġtreatment": 5093,
      "Ġsoc": 5094,
      "ĠOregon": 5095,
      "oles": 5096,
      "ĠJos": 5097,
      "Ġassigned": 5098,
      "ĠKal": 5099,
      "ĠMarsh": 5100,
      "Ġengineer": 5101,
      "ĠKel": 5102,
      "Ġ64": 5103,
      "2010": 5104,
      "itled": 5105,
      "ĠFe": 5106,
      "Ġtowns": 5107,
      "77": 5108,
      "gg": 5109,
      "illery": 5110,
      "urd": 5111,
      "ĠTurkey": 5112,
      "ĠWars": 5113,
      "ĠMalays": 5114,
      "ĠPier": 5115,
      "Ġinside": 5116,
      "Ġparliament": 5117,
      "oral": 5118,
      "apore": 5119,
      "ĠFreder": 5120,
      "ĠHal": 5121,
      "ĠRom": 5122,
      "lyn": 5123,
      "kh": 5124,
      "ĠZh": 5125,
      "Ġagric": 5126,
      "ixed": 5127,
      "%)": 5128,
      "Ġbasis": 5129,
      "Ġdance": 5130,
      "Ġactivity": 5131,
      "65": 5132,
      "Ġsemi": 5133,
      "Ġnovels": 5134,
      "Ġrepe": 5135,
      "andon": 5136,
      "Ġcomposer": 5137,
      "Ġbehav": 5138,
      "2007": 5139,
      "Ġunknown": 5140,
      "Ġreviews": 5141,
      "Ġsites": 5142,
      "ĠEth": 5143,
      "Ġ...": 5144,
      "ĠBrazilian": 5145,
      "ĠCommand": 5146,
      "Ġcounter": 5147,
      "real": 5148,
      "cow": 5149,
      "ivity": 5150,
      "Ġgrowth": 5151,
      "bec": 5152,
      "Ġclear": 5153,
      "Ġstreet": 5154,
      "ĠDavis": 5155,
      "Ġcontrovers": 5156,
      "Ġmetal": 5157,
      "ĠConf": 5158,
      "Ġfemales": 5159,
      "ĠPass": 5160,
      "bu": 5161,
      "MS": 5162,
      "Ġefforts": 5163,
      "Ġpurchased": 5164,
      "Ġpal": 5165,
      "Ġplants": 5166,
      "Ġbecomes": 5167,
      "ennessee": 5168,
      "bell": 5169,
      "Ġmoving": 5170,
      "Ġpet": 5171,
      "Ġupper": 5172,
      "ĠBrook": 5173,
      "ĠConc": 5174,
      "ĠAtlantic": 5175,
      "ears": 5176,
      "Ġcontest": 5177,
      "Ġproduce": 5178,
      "izes": 5179,
      "ĠCountry": 5180,
      "Ġfeel": 5181,
      "ĠStand": 5182,
      "asty": 5183,
      "ĠTal": 5184,
      "ĠBeach": 5185,
      "ĠCre": 5186,
      "ĠBall": 5187,
      "Ġfacilities": 5188,
      "Ġlies": 5189,
      "ĠArizona": 5190,
      "aud": 5191,
      "ĠGreg": 5192,
      "unct": 5193,
      "eman": 5194,
      "Ġquestion": 5195,
      "ĠPhilippines": 5196,
      "Ġcerem": 5197,
      "ĠTa": 5198,
      "iant": 5199,
      "ito": 5200,
      "2009": 5201,
      "ĠNic": 5202,
      "aded": 5203,
      "Ġtypes": 5204,
      "Ġequipment": 5205,
      "ĠForeign": 5206,
      "Ġcaptured": 5207,
      "IA": 5208,
      "ĠFree": 5209,
      "Ġproduct": 5210,
      "fort": 5211,
      "Ġsmaller": 5212,
      "Ġattend": 5213,
      "estic": 5214,
      "Ġquickly": 5215,
      "Ġstore": 5216,
      "Ġyet": 5217,
      "ĠKr": 5218,
      "bro": 5219,
      "water": 5220,
      "Ġhighly": 5221,
      "2000": 5222,
      "ek": 5223,
      "Ġleaves": 5224,
      "ĠSever": 5225,
      "Ġcontact": 5226,
      "Ġcitizens": 5227,
      "Ġ500": 5228,
      "ĠSon": 5229,
      "arp": 5230,
      "ounded": 5231,
      "Ġformat": 5232,
      "bles": 5233,
      "Ġdocumentary": 5234,
      "Ġ44": 5235,
      "Ġestate": 5236,
      "astic": 5237,
      "style": 5238,
      "ĠTennessee": 5239,
      "Ġimmediately": 5240,
      "Ġ(;": 5241,
      "ĠLeon": 5242,
      "rence": 5243,
      "Ġorganized": 5244,
      "iform": 5245,
      "Ġaccepted": 5246,
      "Ġsumm": 5247,
      "ĠMarc": 5248,
      "Ġgre": 5249,
      "bed": 5250,
      "edia": 5251,
      "kin": 5252,
      "iplom": 5253,
      "watch": 5254,
      "Ġopportun": 5255,
      "ĠNorway": 5256,
      "jan": 5257,
      "Ġconver": 5258,
      "ĠMas": 5259,
      "aug": 5260,
      "2011": 5261,
      "efe": 5262,
      "ĠSri": 5263,
      "Ġmax": 5264,
      "Ġowner": 5265,
      "uled": 5266,
      "Ġconference": 5267,
      "Ġflight": 5268,
      "Ġrat": 5269,
      "ĠCas": 5270,
      "iang": 5271,
      "sky": 5272,
      "urer": 5273,
      "Ġ1935": 5274,
      "ĠNetwork": 5275,
      "Ġ1919": 5276,
      "Ġphysical": 5277,
      "Ġfavor": 5278,
      "Ġfaculty": 5279,
      "Ġroles": 5280,
      "2006": 5281,
      "gers": 5282,
      "ois": 5283,
      "2008": 5284,
      "Ġstra": 5285,
      "Ġsymb": 5286,
      "Ġautom": 5287,
      "Ġbronze": 5288,
      "erc": 5289,
      "Ġdeclared": 5290,
      "ĠMaryland": 5291,
      "ambig": 5292,
      "Ġconfirmed": 5293,
      "Ġsoftware": 5294,
      "sey": 5295,
      "ami": 5296,
      "ĠCra": 5297,
      "ĠSav": 5298,
      "Ġmotor": 5299,
      "Ġteacher": 5300,
      "Ġcharge": 5301,
      "Ġreach": 5302,
      "oln": 5303,
      "Ġcommonly": 5304,
      "ĠUkraine": 5305,
      "Ġpositions": 5306,
      "anna": 5307,
      "Ġaffili": 5308,
      "Ġgovernor": 5309,
      "Ġ1914": 5310,
      "Ġhousing": 5311,
      "Ġoperating": 5312,
      "ĠHighway": 5313,
      "Ġvs": 5314,
      "ĠOd": 5315,
      "Ġ33": 5316,
      "eather": 5317,
      "ĠBat": 5318,
      "ĠBefore": 5319,
      "Ġprogramming": 5320,
      "Ġperman": 5321,
      "Ġbeat": 5322,
      "imal": 5323,
      "Ġhtt": 5324,
      "Ġstreng": 5325,
      "ĠIraq": 5326,
      "Un": 5327,
      "ĠSources": 5328,
      "Ġelev": 5329,
      "amin": 5330,
      "cest": 5331,
      "Ġcompared": 5332,
      "rate": 5333,
      "ĠFormer": 5334,
      "Ġcomes": 5335,
      "hat": 5336,
      "ĠBackground": 5337,
      "ĠSingapore": 5338,
      "Ġterritory": 5339,
      "ĠFederation": 5340,
      "aret": 5341,
      "Ġability": 5342,
      "ĠModern": 5343,
      "Ġagreement": 5344,
      "Ġdistricts": 5345,
      "bs": 5346,
      "Ġcomment": 5347,
      "Ġtarget": 5348,
      "ĠKl": 5349,
      "CAA": 5350,
      "Ġstone": 5351,
      "Ġ1910": 5352,
      "ĠMemorial": 5353,
      "Ġfounder": 5354,
      "ĠRoss": 5355,
      "ĠLiter": 5356,
      "Ġwa": 5357,
      "Ġpop": 5358,
      "ĠDec": 5359,
      "Ġswim": 5360,
      "elligence": 5361,
      "Ġ1917": 5362,
      "Ġgiving": 5363,
      "aga": 5364,
      "ĠDor": 5365,
      "Ġagreed": 5366,
      "ĠFox": 5367,
      "Ġattention": 5368,
      "ĠChile": 5369,
      "Ġmodels": 5370,
      "arc": 5371,
      "Ġapproach": 5372,
      "Ġengineering": 5373,
      "58": 5374,
      "Ġnucle": 5375,
      "93": 5376,
      "incial": 5377,
      "venth": 5378,
      "ĠHor": 5379,
      "Ġcampus": 5380,
      "ĠOcean": 5381,
      "ĠSound": 5382,
      "SP": 5383,
      "Ġpeace": 5384,
      "ĠEach": 5385,
      "mad": 5386,
      "western": 5387,
      "ighth": 5388,
      "duce": 5389,
      "Ġleadership": 5390,
      "Ġinstitutions": 5391,
      "Ġwalk": 5392,
      "Ġattra": 5393,
      "Ġcars": 5394,
      "odies": 5395,
      "SC": 5396,
      "aph": 5397,
      "Ġlif": 5398,
      "Ġapart": 5399,
      "ription": 5400,
      "Ġ1928": 5401,
      "Ġyards": 5402,
      "Ġestimated": 5403,
      "Ġelim": 5404,
      "zo": 5405,
      "ĠBru": 5406,
      "igrants": 5407,
      "oli": 5408,
      "Ġseats": 5409,
      "Ġthink": 5410,
      "Ġoccurred": 5411,
      "Ġblood": 5412,
      "ĠRen": 5413,
      "unte": 5414,
      "Ġwing": 5415,
      "ĠWat": 5416,
      "ambiguation": 5417,
      "opher": 5418,
      "ĠDiv": 5419,
      "ĠEntertain": 5420,
      "ĠHart": 5421,
      "ĠSport": 5422,
      "Ġgained": 5423,
      "ader": 5424,
      "2005": 5425,
      "Ġneeded": 5426,
      "oti": 5427,
      "Ġchairman": 5428,
      "Ġmedian": 5429,
      "ĠPhilip": 5430,
      "Ġx": 5431,
      "Ġacting": 5432,
      "ĠFa": 5433,
      "ĠLewis": 5434,
      "Ġsuffered": 5435,
      "Ġconclud": 5436,
      "Ġdisease": 5437,
      "Ġfigure": 5438,
      "Ġadopted": 5439,
      "Ġrecon": 5440,
      "Ġbad": 5441,
      "ĠBos": 5442,
      "ĠMelbourne": 5443,
      "Ġflag": 5444,
      "Ġ1929": 5445,
      "Ġsens": 5446,
      "Ġcrime": 5447,
      "inus": 5448,
      "Ġcoin": 5449,
      "eder": 5450,
      "wealth": 5451,
      "Ġdistribution": 5452,
      "Ġserves": 5453,
      "ĠTs": 5454,
      "500": 5455,
      "ĠMoscow": 5456,
      "ĠTen": 5457,
      "Ġstream": 5458,
      "Ġpoll": 5459,
      "Ġenter": 5460,
      "itness": 5461,
      "Ġfell": 5462,
      "uls": 5463,
      "Ġanalysis": 5464,
      "HL": 5465,
      "ĠProduction": 5466,
      "rainian": 5467,
      "Ġcombined": 5468,
      "iminal": 5469,
      "lah": 5470,
      "Ġcommittee": 5471,
      "Ġjournalist": 5472,
      "',": 5473,
      "spe": 5474,
      "Ġ38": 5475,
      "ĠTest": 5476,
      "ansion": 5477,
      "Ġcontent": 5478,
      "Ġcorrespond": 5479,
      "Ġjoint": 5480,
      "TA": 5481,
      "ĠAbb": 5482,
      "agh": 5483,
      "orter": 5484,
      "ĠSeason": 5485,
      "Ġquality": 5486,
      "Ġcancer": 5487,
      "Ġvess": 5488,
      "Ġprec": 5489,
      "2012": 5490,
      "2004": 5491,
      "ingham": 5492,
      "Ġ1933": 5493,
      "Ġpolitics": 5494,
      "ĠStock": 5495,
      "yes": 5496,
      "Ġresident": 5497,
      "Ġ1934": 5498,
      "ĠCroat": 5499,
      "orph": 5500,
      "ancing": 5501,
      "Ġrare": 5502,
      "ĠSpring": 5503,
      "Sh": 5504,
      "oster": 5505,
      "ĠAbd": 5506,
      "Ġcontemporary": 5507,
      "ĠEngineering": 5508,
      "Ġproblem": 5509,
      "uguese": 5510,
      "olid": 5511,
      "asters": 5512,
      "Ġurban": 5513,
      "Ġperformances": 5514,
      "Ġtypically": 5515,
      "An": 5516,
      "Ġhabit": 5517,
      "yond": 5518,
      "alo": 5519,
      "ĠRound": 5520,
      "pet": 5521,
      "Ġretire": 5522,
      "place": 5523,
      "Ġmentioned": 5524,
      "ething": 5525,
      "Ġofficials": 5526,
      "law": 5527,
      "Ġnominated": 5528,
      "ĠHeart": 5529,
      "Ġbig": 5530,
      "Ġindustrial": 5531,
      "91": 5532,
      "Ġcoming": 5533,
      "Ġunc": 5534,
      "ibly": 5535,
      "ĠHard": 5536,
      "ashion": 5537,
      "ĠBon": 5538,
      "Ġhundred": 5539,
      "Ġfiction": 5540,
      "idi": 5541,
      "works": 5542,
      "Ġpresence": 5543,
      "Ġlabor": 5544,
      "ovi": 5545,
      "ĠTurkish": 5546,
      "Ġblue": 5547,
      "ĠQueensland": 5548,
      "ĠKhan": 5549,
      "ĠVo": 5550,
      "pass": 5551,
      "Ġeducated": 5552,
      "ante": 5553,
      "92": 5554,
      "iti": 5555,
      "wing": 5556,
      "Ġexc": 5557,
      "gar": 5558,
      "Ġhor": 5559,
      "2013": 5560,
      "iral": 5561,
      "ĠJews": 5562,
      "ĠHou": 5563,
      "olved": 5564,
      "vard": 5565,
      "Ġfast": 5566,
      "li": 5567,
      "iders": 5568,
      "isa": 5569,
      "ĠAddition": 5570,
      "VID": 5571,
      "Ġprin": 5572,
      "iling": 5573,
      "ician": 5574,
      "ĠBalt": 5575,
      "Ġcolumn": 5576,
      "hedral": 5577,
      "Ġcoal": 5578,
      "gi": 5579,
      "Ġlargely": 5580,
      "Ġresulted": 5581,
      "disambiguation": 5582,
      "Ġrecognized": 5583,
      "osophy": 5584,
      "oted": 5585,
      "Ġprobably": 5586,
      "ĠIowa": 5587,
      "ĠAustria": 5588,
      "mouth": 5589,
      "Ġec": 5590,
      "Ġir": 5591,
      "aks": 5592,
      "ĠGil": 5593,
      "ĠArk": 5594,
      "ĠCommonwealth": 5595,
      "former": 5596,
      "Ġabandon": 5597,
      "Ġ1924": 5598,
      "Ġboy": 5599,
      "Ġdamage": 5600,
      "da": 5601,
      "Ġreserv": 5602,
      "ĠRang": 5603,
      "pson": 5604,
      "Ġmiles": 5605,
      "Ġconcent": 5606,
      "ĠKentucky": 5607,
      "Ġhop": 5608,
      "ĠBrother": 5609,
      "osen": 5610,
      "ĠOt": 5611,
      "Ġburied": 5612,
      "ĠEc": 5613,
      "Ġcab": 5614,
      "uate": 5615,
      "Ġpainting": 5616,
      "Ġscholar": 5617,
      "ĠDown": 5618,
      "ĠBah": 5619,
      "vo": 5620,
      "ĠCab": 5621,
      "Ġcam": 5622,
      "ĠSportspeople": 5623,
      "Ġwidely": 5624,
      "acter": 5625,
      "Ġscoring": 5626,
      "GB": 5627,
      "Ġexpanded": 5628,
      "56": 5629,
      "Ġcode": 5630,
      "Ġ1900": 5631,
      "Ġvillages": 5632,
      "zh": 5633,
      "Ġarts": 5634,
      "Ġexpected": 5635,
      "Ġranked": 5636,
      "olis": 5637,
      "Ġ1932": 5638,
      "Ġ37": 5639,
      "Ġsexual": 5640,
      "ĠEntertainment": 5641,
      "Ġclassical": 5642,
      "Ġsportspeople": 5643,
      "Ġbra": 5644,
      "ĠSquadron": 5645,
      "ĠKitt": 5646,
      "Ġnewly": 5647,
      "Ġrecomm": 5648,
      "Ġidentified": 5649,
      "ĠHarry": 5650,
      "Ġmm": 5651,
      "Ġcritical": 5652,
      "Ġfelt": 5653,
      "Ġgranted": 5654,
      "Ġmill": 5655,
      "Ġdefend": 5656,
      "ĠArea": 5657,
      "ocese": 5658,
      "iques": 5659,
      "aro": 5660,
      "ĠCape": 5661,
      "Ġpict": 5662,
      "ui": 5663,
      "formed": 5664,
      "aine": 5665,
      "cles": 5666,
      "Ġsearch": 5667,
      "ĠWalter": 5668,
      "Ġsecondary": 5669,
      "ĠBelg": 5670,
      "Ġrom": 5671,
      "Ġfish": 5672,
      "Ġadapt": 5673,
      "Ġsquare": 5674,
      "ĠHur": 5675,
      "ĠManagement": 5676,
      "ĠTony": 5677,
      "ĠDanish": 5678,
      "ĠGi": 5679,
      "Ġcouple": 5680,
      "Ġdrums": 5681,
      "Ġstarring": 5682,
      "Ġalle": 5683,
      "mitted": 5684,
      "rog": 5685,
      "usion": 5686,
      "ĠLike": 5687,
      "Ġlosing": 5688,
      "Ġbillion": 5689,
      "Ġweight": 5690,
      "Ġconcert": 5691,
      "2014": 5692,
      "kes": 5693,
      "season": 5694,
      "ĠSwiss": 5695,
      "last": 5696,
      "Ġsales": 5697,
      "Ġtaught": 5698,
      "ting": 5699,
      "ilation": 5700,
      "Ġcreation": 5701,
      "Ġcondition": 5702,
      "Ġreduced": 5703,
      "Ġmess": 5704,
      "etting": 5705,
      "ĠVietnam": 5706,
      "ĠNick": 5707,
      "Ġcoaches": 5708,
      "Ġdistance": 5709,
      "Ġtheatre": 5710,
      "viation": 5711,
      "Ġcommander": 5712,
      "Ġpressure": 5713,
      "87": 5714,
      "Ġresulting": 5715,
      "Ġwild": 5716,
      "Ġ1927": 5717,
      "Ġbal": 5718,
      "Ġpremier": 5719,
      "orship": 5720,
      "Ġtherefore": 5721,
      "Ġoffers": 5722,
      "ĠCOVID": 5723,
      "05": 5724,
      "ĠRon": 5725,
      "itzerland": 5726,
      "iot": 5727,
      "ĠInfantry": 5728,
      "ĠProfessional": 5729,
      "ĠPortuguese": 5730,
      "ST": 5731,
      "Ġcaptain": 5732,
      "2003": 5733,
      "ĠGord": 5734,
      "ĠRecord": 5735,
      "claim": 5736,
      "ĠRegional": 5737,
      "Ġinstrument": 5738,
      "ĠSix": 5739,
      "Ġloan": 5740,
      "ocated": 5741,
      "ĠThrough": 5742,
      "ĠTan": 5743,
      "Ġ1912": 5744,
      "pur": 5745,
      "Ġspons": 5746,
      "41": 5747,
      "ĠAmong": 5748,
      "Ġsecret": 5749,
      "2015": 5750,
      "ĠSimon": 5751,
      "ĠUkrainian": 5752,
      "ĠAst": 5753,
      "ĠBeng": 5754,
      "ĠSele": 5755,
      "Ġtim": 5756,
      "ĠTreat": 5757,
      "mes": 5758,
      "Ġtwice": 5759,
      "Ġauthorities": 5760,
      "ĠAlb": 5761,
      "ĠHand": 5762,
      "Ġrecently": 5763,
      "aling": 5764,
      "Ġarrested": 5765,
      "ĠFinn": 5766,
      "Ġsurname": 5767,
      "VD": 5768,
      "Ġ1931": 5769,
      "42": 5770,
      "ads": 5771,
      "Ġstrugg": 5772,
      "ictional": 5773,
      "orney": 5774,
      "ho": 5775,
      "ĠNik": 5776,
      "Ġyounger": 5777,
      "Ġformation": 5778,
      "pa": 5779,
      "IC": 5780,
      "ĠNCAA": 5781,
      "Ġprep": 5782,
      "Ġinjury": 5783,
      "ordin": 5784,
      "Ġbegins": 5785,
      "ĠLabor": 5786,
      "umes": 5787,
      "ĠArmen": 5788,
      "ipe": 5789,
      "Ġformerly": 5790,
      "Ġ1922": 5791,
      "ĠBulg": 5792,
      "Ġracing": 5793,
      "ymn": 5794,
      "07": 5795,
      "Ġattacks": 5796,
      "Ġgraph": 5797,
      "ĠHans": 5798,
      "ĠDrag": 5799,
      "Ġversions": 5800,
      "Ġwall": 5801,
      "ĠGreece": 5802,
      "miss": 5803,
      "ĠIl": 5804,
      "lahoma": 5805,
      "ĠStaff": 5806,
      "06": 5807,
      "Ġfinish": 5808,
      "ĠIsraeli": 5809,
      "ĠAffairs": 5810,
      "ĠPlan": 5811,
      "Ġthous": 5812,
      "Ġsurrounding": 5813,
      "Ġproviding": 5814,
      "ĠGer": 5815,
      "ĠAnne": 5816,
      "ĠArchite": 5817,
      "Ġcritics": 5818,
      "ĠPhys": 5819,
      "ayer": 5820,
      "ĠSpacewatch": 5821,
      "Ġrestaur": 5822,
      "Ġdisestabl": 5823,
      "bra": 5824,
      "osis": 5825,
      "Ġce": 5826,
      "Ġserious": 5827,
      "08": 5828,
      "mont": 5829,
      "rell": 5830,
      "ĠAud": 5831,
      "ĠReal": 5832,
      "Ġ1921": 5833,
      "ĠTokyo": 5834,
      "ĠAli": 5835,
      "Ġvocal": 5836,
      "2001": 5837,
      "Ġtree": 5838,
      "Ġpattern": 5839,
      "asion": 5840,
      "Ġknowledge": 5841,
      "ĠBillboard": 5842,
      "pool": 5843,
      "ĠMiller": 5844,
      "Ġ1925": 5845,
      "bi": 5846,
      "ĠBec": 5847,
      "Ġshowed": 5848,
      "ĠKat": 5849,
      "TC": 5850,
      "ĠTrust": 5851,
      "Ġobtained": 5852,
      "Ġstatistics": 5853,
      "Ġcarri": 5854,
      "ĠJacob": 5855,
      "Ġsplit": 5856,
      "ĠNap": 5857,
      "Ġregions": 5858,
      "Ġinteg": 5859,
      "Ġ1926": 5860,
      "anning": 5861,
      "ĠBetween": 5862,
      "ogue": 5863,
      "ĠGab": 5864,
      "Ġpaid": 5865,
      "ĠOriginal": 5866,
      "Ġreceive": 5867,
      "aints": 5868,
      "ĠSwitzerland": 5869,
      "ĠDomin": 5870,
      "Ġlibrary": 5871,
      "incoln": 5872,
      "Ġtrains": 5873,
      "ivals": 5874,
      "ĠManchester": 5875,
      "ographer": 5876,
      "gro": 5877,
      "ĠHoly": 5878,
      "ĠPict": 5879,
      "ĠThird": 5880,
      "ĠAlab": 5881,
      "Ġbow": 5882,
      "Ġfestival": 5883,
      "ĠJane": 5884,
      "ruit": 5885,
      "ĠEmperor": 5886,
      "ĠAnderson": 5887,
      "Ġpropos": 5888,
      "pri": 5889,
      "ori": 5890,
      "ĠSenior": 5891,
      "Ġnotes": 5892,
      "ĠChristmas": 5893,
      "Ġcells": 5894,
      "ugal": 5895,
      "Ġdesignated": 5896,
      "ĠOklahoma": 5897,
      "ĠBuildings": 5898,
      "Ġspring": 5899,
      "ogs": 5900,
      "ĠServices": 5901,
      "lines": 5902,
      "Ġnet": 5903,
      "Ġsuppl": 5904,
      "iny": 5905,
      "Ġpack": 5906,
      "ĠRa": 5907,
      "iller": 5908,
      "Ġliber": 5909,
      "ĠFac": 5910,
      "ĠChampions": 5911,
      "2016": 5912,
      "Ġmayor": 5913,
      "Ġimage": 5914,
      "Ġkept": 5915,
      "Ġsuggested": 5916,
      "eline": 5917,
      "mun": 5918,
      "Ġmarked": 5919,
      "ĠBrian": 5920,
      "Ġclaims": 5921,
      "ifications": 5922,
      "Ġtwenty": 5923,
      "Ġlaunch": 5924,
      "Ġtrue": 5925,
      "ĠTurn": 5926,
      "ouses": 5927,
      "Ġmanagers": 5928,
      "Ġregul": 5929,
      "ĠProte": 5930,
      "icians": 5931,
      "ĠKam": 5932,
      "Ġhy": 5933,
      "ĠBarn": 5934,
      "Ġdial": 5935,
      "fef": 5936,
      "ĠAle": 5937,
      "Ġconflict": 5938,
      "Ġvehicles": 5939,
      "Ġpainter": 5940,
      "ĠChildren": 5941,
      "ĠLar": 5942,
      "Ġentry": 5943,
      "Ġinspired": 5944,
      "ĠLemmon": 5945,
      "Ġfigures": 5946,
      "2002": 5947,
      "Ġ1923": 5948,
      "Ġhall": 5949,
      "ĠPoint": 5950,
      "Ġspirit": 5951,
      "Ġreports": 5952,
      "Ġ1916": 5953,
      "Ġexperiment": 5954,
      "ateur": 5955,
      "49": 5956,
      "Ġsupply": 5957,
      "ĠDue": 5958,
      "Ġmales": 5959,
      "Ġsixth": 5960,
      "Ġheadquarters": 5961,
      "ĠNaval": 5962,
      "Ġbott": 5963,
      "ĠFront": 5964,
      "andy": 5965,
      "ĠReception": 5966,
      "Ġroyal": 5967,
      "Ġcontinues": 5968,
      "Ġconnected": 5969,
      "100": 5970,
      "ĠMcG": 5971,
      "room": 5972,
      "Ġwins": 5973,
      "ĠFord": 5974,
      "Ġshop": 5975,
      "Ġtraffic": 5976,
      "Ġdensity": 5977,
      "Ġgives": 5978,
      "ĠFil": 5979,
      "ublin": 5980,
      "89": 5981,
      "ooth": 5982,
      "ĠKy": 5983,
      "43": 5984,
      "Ġportray": 5985,
      "New": 5986,
      "ĠRun": 5987,
      "ĠPrin": 5988,
      "Ġ1915": 5989,
      "fefefe": 5990,
      "ques": 5991,
      "Ġslight": 5992,
      "cha": 5993,
      "rip": 5994,
      "Ġjudge": 5995,
      "Ġmaterials": 5996,
      "Ġactually": 5997,
      "Ġnortheast": 5998,
      "Ġtheme": 5999,
      "lywood": 6000,
      "also": 6001,
      "oking": 6002,
      "ER": 6003,
      "Ġpartner": 6004,
      "Ġaim": 6005,
      "Ġ75": 6006,
      ";\"|": 6007,
      "2017": 6008,
      "oths": 6009,
      "Ġopposition": 6010,
      "Ġcompon": 6011,
      "ĠPop": 6012,
      "rator": 6013,
      "ĠAlabama": 6014,
      "ĠLabour": 6015,
      "ĠHoward": 6016,
      "Ġpromotion": 6017,
      "Ġsucceeded": 6018,
      "Ġpurpose": 6019,
      "Ġclimate": 6020,
      "ĠBasketball": 6021,
      "ĠAlbums": 6022,
      "ĠLow": 6023,
      "olished": 6024,
      "uous": 6025,
      "ĠRose": 6026,
      "rin": 6027,
      "enez": 6028,
      "ĠFame": 6029,
      "ĠLincoln": 6030,
      "Ġteaching": 6031,
      "ĠIV": 6032,
      "roit": 6033,
      "Ġgreater": 6034,
      "ĠHamilton": 6035,
      "ĠEric": 6036,
      "ĠSingles": 6037,
      "vens": 6038,
      "ĠNative": 6039,
      "Ġtried": 6040,
      "ĠLieutenant": 6041,
      "Ġcompetitions": 6042,
      "Ġetc": 6043,
      "67": 6044,
      "Ġfacility": 6045,
      "AA": 6046,
      "ĠPlot": 6047,
      "ĠBattalion": 6048,
      "ĠTel": 6049,
      "lan": 6050,
      "Ġallowing": 6051,
      "ionally": 6052,
      "life": 6053,
      "ĠMississ": 6054,
      "Ġbatt": 6055,
      "bot": 6056,
      "ĠBurn": 6057,
      "ĠSurvey": 6058,
      "Ġtalk": 6059,
      "Ġpreserv": 6060,
      "Ġsays": 6061,
      "ĠAustrian": 6062,
      "ĠDougl": 6063,
      "offs": 6064,
      "ĠKaz": 6065,
      "ĠYouth": 6066,
      "01": 6067,
      "Ġmusician": 6068,
      "ĠNich": 6069,
      "ecutive": 6070,
      "ĠSn": 6071,
      "ĠMarine": 6072,
      "Ġaccident": 6073,
      "agu": 6074,
      "ikh": 6075,
      "hess": 6076,
      "Ġ42": 6077,
      "Ġcert": 6078,
      "ĠForces": 6079,
      "Ġscript": 6080,
      "Ġvisit": 6081,
      "which": 6082,
      "ippi": 6083,
      "eding": 6084,
      "Ġhistorian": 6085,
      "east": 6086,
      "Ġtower": 6087,
      "Ġsingers": 6088,
      "Ġpublication": 6089,
      "Ġscientific": 6090,
      "urance": 6091,
      "Ġtells": 6092,
      "Ġ@": 6093,
      "ĠChannel": 6094,
      "ĠMountains": 6095,
      "Ġcannot": 6096,
      "uv": 6097,
      "ĠDescription": 6098,
      "ordan": 6099,
      "Ġreturning": 6100,
      "Ġgrowing": 6101,
      "Ġexisting": 6102,
      "ĠExpatriate": 6103,
      "Ġfully": 6104,
      "ĠLocal": 6105,
      "cticut": 6106,
      "ĠHarvard": 6107,
      "achelor": 6108,
      "ĠBuilding": 6109,
      "ĠArgentina": 6110,
      "Ġple": 6111,
      "Ġapplied": 6112,
      "Ġslow": 6113,
      "Ġpair": 6114,
      "ureau": 6115,
      "Ġlett": 6116,
      "Ġsituation": 6117,
      "Ġalone": 6118,
      "ĠCurrent": 6119,
      "adi": 6120,
      "Ġmom": 6121,
      "uther": 6122,
      "2018": 6123,
      "ĠHonor": 6124,
      "Ġallows": 6125,
      "related": 6126,
      "stic": 6127,
      "Ġmagn": 6128,
      "idge": 6129,
      "Ġaired": 6130,
      "ĠTemple": 6131,
      "ologists": 6132,
      "Ġmetres": 6133,
      "Ġdraft": 6134,
      "Ġoppos": 6135,
      "Ġspot": 6136,
      "ĠCost": 6137,
      "ĠNow": 6138,
      "dam": 6139,
      "ĠPrix": 6140,
      "stan": 6141,
      "Ġfighting": 6142,
      "ĠWolf": 6143,
      "inth": 6144,
      "ĠDom": 6145,
      "ĠMit": 6146,
      "finals": 6147,
      "istry": 6148,
      "Ġmut": 6149,
      "ĠRoll": 6150,
      "ĠGram": 6151,
      "57": 6152,
      "Ġyellow": 6153,
      "Ġcart": 6154,
      "iser": 6155,
      "ĠProt": 6156,
      "ĠMorris": 6157,
      "Ġdiplom": 6158,
      "'.": 6159,
      "wich": 6160,
      "Ġmeasure": 6161,
      "ardo": 6162,
      "Ġsituated": 6163,
      "Don": 6164,
      "Ġsuit": 6165,
      "Ġunique": 6166,
      "Ġmap": 6167,
      "ials": 6168,
      "Ġ1913": 6169,
      "ĠAuthor": 6170,
      "Ġsafety": 6171,
      "ĠConnecticut": 6172,
      "ĠStone": 6173,
      "Ġsons": 6174,
      "Ġbrothers": 6175,
      "ĠAnthony": 6176,
      "2019": 6177,
      "Ġprint": 6178,
      "aste": 6179,
      "Ġadvanced": 6180,
      "ĠLas": 6181,
      "ĠJam": 6182,
      "Ġwant": 6183,
      "Ġearth": 6184,
      "Ġmaintain": 6185,
      "Ġheav": 6186,
      "olas": 6187,
      "ĠHistorical": 6188,
      "ĠNag": 6189,
      "organ": 6190,
      "Ġguest": 6191,
      "cluding": 6192,
      "Ġfeet": 6193,
      "inguished": 6194,
      "ĠLank": 6195,
      "ĠSecurity": 6196,
      "ĠColomb": 6197,
      "ĠBrand": 6198,
      "igenous": 6199,
      "ĠJay": 6200,
      "Ġoldest": 6201,
      "Ġagent": 6202,
      "ĠPatrick": 6203,
      "erald": 6204,
      "chi": 6205,
      "ĠTaiwan": 6206,
      "Ġhands": 6207,
      "Ġclasses": 6208,
      "onom": 6209,
      "ĠStory": 6210,
      "ĠQuebec": 6211,
      "atal": 6212,
      "outs": 6213,
      "ĠSilver": 6214,
      "ello": 6215,
      "ester": 6216,
      "ĠKarl": 6217,
      "Ġsides": 6218,
      "hol": 6219,
      "Ġbill": 6220,
      "Ġlyrics": 6221,
      "ĠNFL": 6222,
      "sort": 6223,
      "Ġcharts": 6224,
      "cont": 6225,
      "ĠDur": 6226,
      "Ġflood": 6227,
      "ĠSunday": 6228,
      "ĠWell": 6229,
      "anton": 6230,
      "ĠCulture": 6231,
      "Ġgoes": 6232,
      "Ġnarrow": 6233,
      "Ġthings": 6234,
      "Ġvice": 6235,
      "ĠErn": 6236,
      "Ġlot": 6237,
      "ĠNa": 6238,
      "ĠMagazine": 6239,
      "ĠJuan": 6240,
      "Ġhorse": 6241,
      "ĠRural": 6242,
      "Ġchosen": 6243,
      "joy": 6244,
      "Ġpun": 6245,
      "ĠTar": 6246,
      "ĠLin": 6247,
      "inema": 6248,
      "Ġgall": 6249,
      "ĠVis": 6250,
      "Ġarms": 6251,
      "Ġmeant": 6252,
      "atus": 6253,
      "68": 6254,
      "ĠPot": 6255,
      "Ġsets": 6256,
      "Ġlocomot": 6257,
      "Ġtemple": 6258,
      "oslav": 6259,
      "Ġexchange": 6260,
      "imens": 6261,
      "ĠCensus": 6262,
      "ĠNon": 6263,
      "ression": 6264,
      "ĠBecause": 6265,
      "ĠHouston": 6266,
      "Ġrisk": 6267,
      "ĠWy": 6268,
      "died": 6269,
      "Ġcorpor": 6270,
      "ĠHun": 6271,
      "Ġeas": 6272,
      "ĠHamp": 6273,
      "ĠLouisiana": 6274,
      "Ġsail": 6275,
      "Ġthir": 6276,
      "ĠBrigade": 6277,
      "Ġportion": 6278,
      "Ġcommissioned": 6279,
      "Ġproceed": 6280,
      "zz": 6281,
      "yers": 6282,
      "Ġalt": 6283,
      "ĠDiego": 6284,
      "ĠNY": 6285,
      "Ġsuggest": 6286,
      "ĠLiberal": 6287,
      "zen": 6288,
      "Ġchalleng": 6289,
      "hr": 6290,
      "value": 6291,
      "Ġbought": 6292,
      "Ġprincipal": 6293,
      "Ġauthority": 6294,
      "Ġ1911": 6295,
      "rait": 6296,
      "igration": 6297,
      "Ġnob": 6298,
      "Ġroll": 6299,
      "lades": 6300,
      "Ġfolk": 6301,
      "ĠFellow": 6302,
      "ĠTun": 6303,
      "Ġcompletely": 6304,
      "Ġneighborhood": 6305,
      "Ġachieved": 6306,
      "Ġsoutheast": 6307,
      "Ġanimals": 6308,
      "ĠAllen": 6309,
      "Ġreference": 6310,
      "Ġholds": 6311,
      "Ġcustom": 6312,
      "ĠBelgium": 6313,
      "ĠLtd": 6314,
      "elve": 6315,
      "ĠDream": 6316,
      "ĠSeveral": 6317,
      "ĠChall": 6318,
      "ĠHockey": 6319,
      "ĠAbout": 6320,
      "Ġglobal": 6321,
      "pects": 6322,
      "ĠCemetery": 6323,
      "ĠRace": 6324,
      "1999": 6325,
      "Ġrefused": 6326,
      "des": 6327,
      "Ġprotection": 6328,
      "box": 6329,
      "ĠVin": 6330,
      "Se": 6331,
      "ĠKu": 6332,
      "ĠPuerto": 6333,
      "aming": 6334,
      "ĠToday": 6335,
      "Ġexhibition": 6336,
      "ĠBry": 6337,
      "ager": 6338,
      "under": 6339,
      "oes": 6340,
      "uccess": 6341,
      "Ġapproved": 6342,
      "ĠAmericans": 6343,
      "Ġattempted": 6344,
      "51": 6345,
      "Ġrapid": 6346,
      "jo": 6347,
      "Ġinters": 6348,
      "Ġ48": 6349,
      "ĠSin": 6350,
      "aux": 6351,
      "ĠVice": 6352,
      "Ġcontain": 6353,
      "Ġvehicle": 6354,
      "Ġsettled": 6355,
      "Ġtennis": 6356,
      "Ġsoccer": 6357,
      "Ġsym": 6358,
      "Ġfans": 6359,
      "Ġactions": 6360,
      "ĠPap": 6361,
      "Ġcreating": 6362,
      "ĠGib": 6363,
      "ĠGordon": 6364,
      "ĠHungarian": 6365,
      "Ġadvert": 6366,
      "Ġ41": 6367,
      "ĠDetroit": 6368,
      "Ġlake": 6369,
      "Ġvisited": 6370,
      "ĠDouglas": 6371,
      "64": 6372,
      "Ġdefined": 6373,
      "ĠLegislative": 6374,
      "ifically": 6375,
      "Ġending": 6376,
      "ĠPortugal": 6377,
      "inder": 6378,
      "Ġnecessary": 6379,
      "ĠAntonio": 6380,
      "Ġcombat": 6381,
      "ressed": 6382,
      "Ġfair": 6383,
      "iami": 6384,
      "prise": 6385,
      "Ġattacked": 6386,
      "IT": 6387,
      "ĠTerrit": 6388,
      "car": 6389,
      "ridges": 6390,
      "ĠDenmark": 6391,
      "iva": 6392,
      "agen": 6393,
      "ĠHeritage": 6394,
      "ĠPed": 6395,
      "iversary": 6396,
      "Ġpilot": 6397,
      "SR": 6398,
      "aren": 6399,
      "Ġsimply": 6400,
      "achers": 6401,
      "Ġreceiving": 6402,
      "ĠPlayer": 6403,
      "ĠMississippi": 6404,
      "Ġaudience": 6405,
      "bar": 6406,
      "Ġ1908": 6407,
      "Ġconsisted": 6408,
      "Ġcontaining": 6409,
      "ĠSel": 6410,
      "ti": 6411,
      "Ġaged": 6412,
      "Ġopera": 6413,
      "Ġadvance": 6414,
      "uri": 6415,
      "Ġresources": 6416,
      "Ġstorm": 6417,
      "Ġfounding": 6418,
      "Ġunable": 6419,
      "uma": 6420,
      "ĠNar": 6421,
      "Ġdirectors": 6422,
      "oured": 6423,
      "ĠBanglades": 6424,
      "ĠAD": 6425,
      "ĠTrib": 6426,
      "ĠIslamic": 6427,
      "Ġmethods": 6428,
      "ĠMand": 6429,
      "Ġrepresentative": 6430,
      "ĠOak": 6431,
      "secutive": 6432,
      "ĠEnvironment": 6433,
      "Ġexpansion": 6434,
      "Ġrepresenting": 6435,
      "Ġflow": 6436,
      "ĠAC": 6437,
      "Ġvolume": 6438,
      "Ġconsum": 6439,
      "gor": 6440,
      "Ġsubsequent": 6441,
      "Ġdaily": 6442,
      "Ġinhabit": 6443,
      "Ġactresses": 6444,
      "ĠOfficer": 6445,
      "Ġlocations": 6446,
      "Ġproperties": 6447,
      "ĠFrederick": 6448,
      "ĠSamuel": 6449,
      "Ġgod": 6450,
      "Ġfought": 6451,
      "09": 6452,
      "Ġattempts": 6453,
      "agan": 6454,
      "weet": 6455,
      "ĠNatural": 6456,
      "ĠBerg": 6457,
      "Ġroof": 6458,
      "Ġbroke": 6459,
      "Ġrain": 6460,
      "ĠIndependent": 6461,
      "ĠAlan": 6462,
      "Ġmachine": 6463,
      "ghan": 6464,
      "Ġtele": 6465,
      "Ġsimple": 6466,
      "ista": 6467,
      "ĠDal": 6468,
      "enh": 6469,
      "ĠFern": 6470,
      "Ġtrees": 6471,
      "ĠSky": 6472,
      "agues": 6473,
      "ĠExpress": 6474,
      "Ġscheduled": 6475,
      "risis": 6476,
      "lets": 6477,
      "Ġvent": 6478,
      "ĠRivers": 6479,
      "Ġfrequently": 6480,
      "Ġrespond": 6481,
      "ĠInformation": 6482,
      "ĠRab": 6483,
      "ĠMusical": 6484,
      "Ġshared": 6485,
      "po": 6486,
      "Ġburn": 6487,
      "abad": 6488,
      "ĠBan": 6489,
      "Ġretirement": 6490,
      "iments": 6491,
      "ĠPitts": 6492,
      "Ġcandidates": 6493,
      "ĠMaur": 6494,
      "iley": 6495,
      "Ġwear": 6496,
      "Ġexclus": 6497,
      "ĠWhit": 6498,
      "Ġjazz": 6499,
      "Ġoppon": 6500,
      "Ġstock": 6501,
      "Ġ;": 6502,
      "iner": 6503,
      "ĠRoc": 6504,
      "PA": 6505,
      "ĠYour": 6506,
      "PS": 6507,
      "52": 6508,
      "ĠClark": 6509,
      "ĠAndre": 6510,
      "Ġmemory": 6511,
      "53": 6512,
      "osed": 6513,
      "Ġpiece": 6514,
      "Ġspect": 6515,
      "don": 6516,
      "Ġconverted": 6517,
      "Ġrelatively": 6518,
      "ania": 6519,
      "Ġdriver": 6520,
      "Ġsomething": 6521,
      "ĠWelsh": 6522,
      "actions": 6523,
      "Ġstraight": 6524,
      "Ġchampions": 6525,
      "Ġliterary": 6526,
      "Ġpresidential": 6527,
      "Ġqualified": 6528,
      "Ġeffective": 6529,
      "ĠPhill": 6530,
      "ĠJordan": 6531,
      "Ġcopies": 6532,
      "Ġdefin": 6533,
      "Ġguns": 6534,
      "54": 6535,
      "igation": 6536,
      "Ġunderst": 6537,
      "uses": 6538,
      "Ġmis": 6539,
      "Ġwinter": 6540,
      "stitutional": 6541,
      "ĠBird": 6542,
      "Ġlit": 6543,
      "ĠPun": 6544,
      "ĠUN": 6545,
      "long": 6546,
      "ĠLI": 6547,
      "ĠDh": 6548,
      "ĠKa": 6549,
      "ĠExecutive": 6550,
      "Ġchurches": 6551,
      "Ġ300": 6552,
      "ieval": 6553,
      "Ġmorning": 6554,
      "Ġdrive": 6555,
      "Ġultimately": 6556,
      "enny": 6557,
      "ĠAlban": 6558,
      "Ġincident": 6559,
      "ipients": 6560,
      "ni": 6561,
      "opter": 6562,
      "ĠBou": 6563,
      "ĠDoctor": 6564,
      "oen": 6565,
      "Ġinaug": 6566,
      "Ġgirls": 6567,
      "rum": 6568,
      "ĠIndonesia": 6569,
      "Ġfocused": 6570,
      "ĠInternet": 6571,
      "Ġappoint": 6572,
      "Ġdropped": 6573,
      "ĠAge": 6574,
      "Ġpolic": 6575,
      "Ġtrust": 6576,
      "Ġdomestic": 6577,
      "Ġresc": 6578,
      "Ġoccupied": 6579,
      "ĠHotel": 6580,
      "Ġdefense": 6581,
      "Ġcovers": 6582,
      "Ġends": 6583,
      "84": 6584,
      "ĠGard": 6585,
      "Ġfaced": 6586,
      "ĠMiami": 6587,
      "udi": 6588,
      "ĠVillage": 6589,
      "Ġperforming": 6590,
      "inburgh": 6591,
      "ented": 6592,
      "gment": 6593,
      "Ġshortly": 6594,
      "ĠCompet": 6595,
      "Ġnegoti": 6596,
      "ĠLam": 6597,
      "ĠEag": 6598,
      "Ġcategory": 6599,
      "Ġrang": 6600,
      "ĠCricket": 6601,
      "Ġentitled": 6602,
      "Ġprofile": 6603,
      "ĠBox": 6604,
      "odox": 6605,
      "ĠSchools": 6606,
      "fall": 6607,
      "Ġalleged": 6608,
      "phas": 6609,
      "ĠSquare": 6610,
      "ĠAdministration": 6611,
      "oa": 6612,
      "aza": 6613,
      "lad": 6614,
      "Ġrecognition": 6615,
      "ĠCultural": 6616,
      "orders": 6617,
      "Ġ46": 6618,
      "Ġconsecutive": 6619,
      "wise": 6620,
      "Ġopposed": 6621,
      "AM": 6622,
      "04": 6623,
      "US": 6624,
      "Ġrear": 6625,
      "ĠDave": 6626,
      "Ġast": 6627,
      "ĠUC": 6628,
      "Ġcho": 6629,
      "Ġseem": 6630,
      "anes": 6631,
      "ige": 6632,
      "Ġharm": 6633,
      "Ġprotest": 6634,
      "ĠPrior": 6635,
      "ĠPalest": 6636,
      "structure": 6637,
      "alty": 6638,
      "ĠFund": 6639,
      "Ġiron": 6640,
      "ĠKey": 6641,
      "Ġsetting": 6642,
      "Ġconsult": 6643,
      "Ġtouchdown": 6644,
      "Ġ43": 6645,
      "ĠCall": 6646,
      "Ġdecor": 6647,
      "ĠVillages": 6648,
      "Ġlearning": 6649,
      "ĠImperial": 6650,
      "ĠKer": 6651,
      "ĠDak": 6652,
      "fficient": 6653,
      "ogen": 6654,
      "Ġinternal": 6655,
      "iki": 6656,
      "Ġidentity": 6657,
      "ĠDublin": 6658,
      "1998": 6659,
      "ĠAcademic": 6660,
      "udget": 6661,
      "ĠBureau": 6662,
      "Ġheight": 6663,
      "Ġsum": 6664,
      "Ġkilling": 6665,
      "Ġinvestigation": 6666,
      "orough": 6667,
      "ĠPope": 6668,
      "ĠFarm": 6669,
      "pret": 6670,
      "Ġmicro": 6671,
      "Ġacts": 6672,
      "Ġpermanent": 6673,
      "fully": 6674,
      "Ġmaximum": 6675,
      "Ġ1890": 6676,
      "ĠOrth": 6677,
      "Ġairport": 6678,
      "awn": 6679,
      "ĠLanc": 6680,
      "ook": 6681,
      "72": 6682,
      "Ġprepar": 6683,
      "ĠBuddh": 6684,
      "enz": 6685,
      "Ġguard": 6686,
      "ĠDa": 6687,
      "lov": 6688,
      "Ġbul": 6689,
      "dale": 6690,
      "Ġconvers": 6691,
      "Ġcontributed": 6692,
      "Ġemployed": 6693,
      "stream": 6694,
      "Bl": 6695,
      "ĠAthletics": 6696,
      "Ġfields": 6697,
      "Ġ400": 6698,
      "Ġhotel": 6699,
      "ĠMach": 6700,
      "ĠProf": 6701,
      "Ġapplication": 6702,
      "ĠUpon": 6703,
      "ĠOnly": 6704,
      "oria": 6705,
      "ĠMoore": 6706,
      "scape": 6707,
      "ĠPriv": 6708,
      "Ġletters": 6709,
      "mit": 6710,
      "Ġlawyer": 6711,
      "Ġcorner": 6712,
      "2020": 6713,
      "ĠStudios": 6714,
      "ĠLast": 6715,
      "acent": 6716,
      "\"),": 6717,
      "59": 6718,
      "ĠIS": 6719,
      "Ġhero": 6720,
      "Ġenvironmental": 6721,
      "ownt": 6722,
      "ayan": 6723,
      "ĠInn": 6724,
      "Ġkil": 6725,
      "ĠTamil": 6726,
      "Ġ49": 6727,
      "74": 6728,
      "Ġnormal": 6729,
      "Ġlands": 6730,
      "Ġherself": 6731,
      "ĠMrs": 6732,
      "Ġpaintings": 6733,
      "Ġoffices": 6734,
      "ĠArkansas": 6735,
      "ĠDark": 6736,
      "Ġinstall": 6737,
      "otte": 6738,
      "gency": 6739,
      "ĠFM": 6740,
      "ailand": 6741,
      "ĠSud": 6742,
      "ĠTig": 6743,
      "Ġdetermined": 6744,
      "Ġonto": 6745,
      "Ġeconomy": 6746,
      "Ġsust": 6747,
      "aver": 6748,
      "Gen": 6749,
      "Ġrein": 6750,
      "ĠDall": 6751,
      "Ġviolence": 6752,
      "Ġsense": 6753,
      "ĠRoberts": 6754,
      "ĠShar": 6755,
      "Ġspeech": 6756,
      "ĠCru": 6757,
      "ĠMalaysia": 6758,
      "ĠMem": 6759,
      "Ġcollected": 6760,
      "Ġtechnical": 6761,
      "Ġoccurs": 6762,
      "Ġestablishment": 6763,
      "Ġmulti": 6764,
      "Ġvirt": 6765,
      "Ġrot": 6766,
      "ĠClin": 6767,
      "Ġbegin": 6768,
      "Ġsynt": 6769,
      "ĠDC": 6770,
      "81": 6771,
      "ĠVenez": 6772,
      "ĠFriend": 6773,
      "Ġextensive": 6774,
      "ĠCer": 6775,
      "ĠAnna": 6776,
      "Ġalternative": 6777,
      "ĠLang": 6778,
      "ĠDeputy": 6779,
      "redited": 6780,
      "ĠMatthew": 6781,
      "ĠEdinburgh": 6782,
      "ĠGlobal": 6783,
      "Ġcompris": 6784,
      "icts": 6785,
      "Ġcompar": 6786,
      "ĠHawai": 6787,
      "appe": 6788,
      "ĠCour": 6789,
      "ĠEner": 6790,
      "ĠLith": 6791,
      "1997": 6792,
      "leep": 6793,
      "ĠBart": 6794,
      "Ġmerch": 6795,
      "ĠLyn": 6796,
      "ĠCommunist": 6797,
      "ĠFem": 6798,
      "79": 6799,
      "61": 6800,
      "Ġimpr": 6801,
      "ĠBelgian": 6802,
      "ĠBowl": 6803,
      "ĠNel": 6804,
      "rac": 6805,
      "Ġencoura": 6806,
      "Ġsay": 6807,
      "Ġmerged": 6808,
      "www": 6809,
      "atab": 6810,
      "olo": 6811,
      "Ġsan": 6812,
      "point": 6813,
      "ĠDVD": 6814,
      "Ġdoctor": 6815,
      "fe": 6816,
      "seud": 6817,
      "ĠStew": 6818,
      "71": 6819,
      "lease": 6820,
      "veland": 6821,
      "ĠGarden": 6822,
      "ĠPlayers": 6823,
      "Ġjur": 6824,
      "Ġhighway": 6825,
      "Ġpowerful": 6826,
      "Ġsupporting": 6827,
      "ĠSingh": 6828,
      "Ġpoetry": 6829,
      "Ġstrike": 6830,
      "ĠOrchestra": 6831,
      "oly": 6832,
      "ĠKevin": 6833,
      "Ġdynasty": 6834,
      "Ġarrang": 6835,
      "olley": 6836,
      "illing": 6837,
      "GBT": 6838,
      "Ġsector": 6839,
      "issance": 6840,
      "Ġcas": 6841,
      "ĠFinland": 6842,
      "Ġenjoy": 6843,
      "di": 6844,
      "Ġavoid": 6845,
      "Ġcenturies": 6846,
      "Ġstadium": 6847,
      "ĠGian": 6848,
      "ĠCow": 6849,
      "Ġgeneration": 6850,
      "ĠCommander": 6851,
      "ĠMayor": 6852,
      "Ġox": 6853,
      "Ġexpressed": 6854,
      "Ġfranch": 6855,
      "ĠRow": 6856,
      "imore": 6857,
      "ĠMoon": 6858,
      "Ġ1909": 6859,
      "ĠAlfred": 6860,
      "Ġglass": 6861,
      "ĠPra": 6862,
      "ographical": 6863,
      "Ġfashion": 6864,
      "Ġresigned": 6865,
      "Ġcreat": 6866,
      "adow": 6867,
      "ĠScient": 6868,
      "ĠTit": 6869,
      "die": 6870,
      "Ġreign": 6871,
      "ĠDick": 6872,
      "Sp": 6873,
      "Ġholding": 6874,
      "Ġpartnership": 6875,
      "2021": 6876,
      "Ġ1905": 6877,
      "83": 6878,
      "Ġcontrast": 6879,
      "Ġpatients": 6880,
      "ĠDonald": 6881,
      "Ġapparent": 6882,
      "Ġmatter": 6883,
      "Ġ1906": 6884,
      "Ġpand": 6885,
      "03": 6886,
      "ĠPa": 6887,
      "ĠJohann": 6888,
      "Ġplanning": 6889,
      "Ġauth": 6890,
      "Ġbeyond": 6891,
      "De": 6892,
      "Ġring": 6893,
      "ĠHills": 6894,
      "Ġdecre": 6895,
      "Ġmand": 6896,
      "rena": 6897,
      "ache": 6898,
      "incorporated": 6899,
      "engers": 6900,
      "Ġ39": 6901,
      "oyd": 6902,
      "Ġspok": 6903,
      "Ġmarg": 6904,
      "ĠShah": 6905,
      "Ġfinishing": 6906,
      "Ġphase": 6907,
      "Ġpieces": 6908,
      "ourney": 6909,
      "Ġreasons": 6910,
      "Ġabandoned": 6911,
      "note": 6912,
      "Ġceremony": 6913,
      "Ġenemy": 6914,
      "ĠProdu": 6915,
      "Ġfuel": 6916,
      "Ġsought": 6917,
      "rine": 6918,
      "ĠGon": 6919,
      "Ġweapons": 6920,
      "ĠHonours": 6921,
      "EA": 6922,
      "ĠQual": 6923,
      "Ġindependence": 6924,
      "ryst": 6925,
      "Ġneeds": 6926,
      "Ġvalley": 6927,
      "''": 6928,
      "ĠFootballers": 6929,
      "ĠAlexand": 6930,
      "82": 6931,
      "Ġfunctions": 6932,
      "azines": 6933,
      "Ġvisual": 6934,
      "equ": 6935,
      "isms": 6936,
      "Ġinjured": 6937,
      "Ġkick": 6938,
      "stead": 6939,
      "Ġcastle": 6940,
      "ĠWhe": 6941,
      "Ġsuccessfully": 6942,
      "ĠHunt": 6943,
      "ĠLawrence": 6944,
      "Ġfailure": 6945,
      "Ġ1907": 6946,
      "Ġjunior": 6947,
      "Ġflu": 6948,
      "set": 6949,
      "ĠAtlanta": 6950,
      "Ġeducational": 6951,
      "ĠFu": 6952,
      "Ġwalls": 6953,
      "rama": 6954,
      "ĠRyan": 6955,
      "found": 6956,
      "Ġbrown": 6957,
      "Ġpraised": 6958,
      "Ġsecretary": 6959,
      "ĠThailand": 6960,
      "icide": 6961,
      "uration": 6962,
      "ĠGri": 6963,
      "ĠMontreal": 6964,
      "raf": 6965,
      "ologies": 6966,
      "ĠHug": 6967,
      "istant": 6968,
      "ĠMicro": 6969,
      "Ġstating": 6970,
      "Ġfinds": 6971,
      "ĠMale": 6972,
      "obe": 6973,
      "Ġrival": 6974,
      "Ġwrite": 6975,
      "isters": 6976,
      "iab": 6977,
      "ĠWalker": 6978,
      "Ġcriminal": 6979,
      "Ġsac": 6980,
      "ĠTourn": 6981,
      "02": 6982,
      "ĠLaure": 6983,
      "Ġmind": 6984,
      "fr": 6985,
      "ĠEven": 6986,
      "Ġconstituency": 6987,
      "ĠRub": 6988,
      "ĠThen": 6989,
      "Ġdeploy": 6990,
      "ĠAlumni": 6991,
      "ĠUtah": 6992,
      "Ġimpl": 6993,
      "ĠNob": 6994,
      "borough": 6995,
      "Ġslightly": 6996,
      "rome": 6997,
      "ĠLog": 6998,
      "Ġinhabitants": 6999,
      "while": 7000,
      "cycl": 7001,
      "Ġethnic": 7002,
      "Ġconnection": 7003,
      "ĠMunicipal": 7004,
      "ĠWhat": 7005,
      "rect": 7006,
      "apted": 7007,
      "Ġinvited": 7008,
      "Ġrough": 7009,
      "Ġtry": 7010,
      "1996": 7011,
      "ĠAgric": 7012,
      "1990": 7013,
      "ĠLiga": 7014,
      "Ġregarding": 7015,
      "Ġbacking": 7016,
      "ogy": 7017,
      "allel": 7018,
      "Ġways": 7019,
      "ĠEnt": 7020,
      "Ġinvasion": 7021,
      "Ġwealth": 7022,
      "Ġfunding": 7023,
      "Ġprovision": 7024,
      "ĠFal": 7025,
      "Ġsand": 7026,
      "ĠLGBT": 7027,
      "from": 7028,
      "Ġrefers": 7029,
      "IN": 7030,
      "Ġhydro": 7031,
      "ĠKings": 7032,
      "Ġprogramme": 7033,
      "Ġfresh": 7034,
      "friend": 7035,
      "ĠAfghan": 7036,
      "active": 7037,
      "ĠRelig": 7038,
      "iful": 7039,
      "ĠCleveland": 7040,
      "ĠNav": 7041,
      "Ġsteel": 7042,
      "oni": 7043,
      "ĠIce": 7044,
      "ĠArgentine": 7045,
      "Ġdeveloping": 7046,
      "Ġpoly": 7047,
      "63": 7048,
      "Ġvoted": 7049,
      "1995": 7050,
      "Ġhyp": 7051,
      "ules": 7052,
      "Ġderived": 7053,
      "DP": 7054,
      "Ġpriest": 7055,
      "Ġorders": 7056,
      "ĠMcK": 7057,
      "antasy": 7058,
      "chell": 7059,
      "ĠChampion": 7060,
      "ĠNep": 7061,
      "Ġentrance": 7062,
      "Ġtownship": 7063,
      "come": 7064,
      "Ġreligion": 7065,
      "RC": 7066,
      "Ġadult": 7067,
      "Ġhired": 7068,
      "ĠLiver": 7069,
      "It": 7070,
      "ĠMPs": 7071,
      "ĠPittsburgh": 7072,
      "Ġpublications": 7073,
      "Ġamb": 7074,
      "ĠPas": 7075,
      "Ġpassenger": 7076,
      "Ġtemperature": 7077,
      "Ġadvant": 7078,
      "ĠHop": 7079,
      "ĠOw": 7080,
      "ĠSym": 7081,
      "ĠYug": 7082,
      "Ġpassing": 7083,
      "ĠBoys": 7084,
      "run": 7085,
      "ĠPur": 7086,
      "father": 7087,
      "Ġpremiered": 7088,
      "ĠRoger": 7089,
      "fecture": 7090,
      "ĠReserve": 7091,
      "ĠStage": 7092,
      "Ġcalls": 7093,
      "ĠChem": 7094,
      "ĠProm": 7095,
      "nia": 7096,
      "Ġnuclear": 7097,
      "ĠMission": 7098,
      "hard": 7099,
      "ĠMargaret": 7100,
      "ando": 7101,
      "iamond": 7102,
      "ĠMetropolitan": 7103,
      "Ġ1904": 7104,
      "Ġpowers": 7105,
      "Ġmel": 7106,
      "Ġinstru": 7107,
      "ĠDigital": 7108,
      "vements": 7109,
      "Ġcausing": 7110,
      "ĠWard": 7111,
      "election": 7112,
      "BI": 7113,
      "orage": 7114,
      "ĠEqu": 7115,
      "Ġequal": 7116,
      "ĠSerbian": 7117,
      "73": 7118,
      "Ġclin": 7119,
      "ishops": 7120,
      "ĠAM": 7121,
      "otic": 7122,
      "ĠIron": 7123,
      "ourses": 7124,
      "ĠOttoman": 7125,
      "ĠGene": 7126,
      "ĠGran": 7127,
      "zer": 7128,
      "Ġreserve": 7129,
      "ĠRomanian": 7130,
      "ĠPeters": 7131,
      "Ġgenera": 7132,
      "Ġinvolving": 7133,
      "ĠLl": 7134,
      "Ġda": 7135,
      "Ġdates": 7136,
      "ĠBeat": 7137,
      "62": 7138,
      "ĠYan": 7139,
      "ĠDisney": 7140,
      "apolis": 7141,
      "Ġfunds": 7142,
      "ĠLet": 7143,
      "Ġboat": 7144,
      "Ġemphas": 7145,
      "ĠRailroad": 7146,
      "Ġcrow": 7147,
      "ĠSac": 7148,
      "Ġbasic": 7149,
      "ĠHungary": 7150,
      "ĠFel": 7151,
      "Ġgar": 7152,
      "Ġescape": 7153,
      "\").": 7154,
      "ĠRomania": 7155,
      "ĠJesus": 7156,
      "uties": 7157,
      "Ġpasses": 7158,
      "Ġ*": 7159,
      "Ġselection": 7160,
      "ĠComics": 7161,
      "Ġdecades": 7162,
      "ĠVenezuel": 7163,
      "ĠRick": 7164,
      "usal": 7165,
      "ĠFight": 7166,
      "ĠNAS": 7167,
      "Ġprotect": 7168,
      "ĠMult": 7169,
      "uster": 7170,
      "Ġfleet": 7171,
      "Ġconcluded": 7172,
      "Ġvo": 7173,
      "Ġcontained": 7174,
      "poses": 7175,
      "ĠImp": 7176,
      "term": 7177,
      "Ġpandemic": 7178,
      "Ġvarian": 7179,
      "Ġincorporated": 7180,
      "burn": 7181,
      "ĠGirls": 7182,
      "Ġyour": 7183,
      "ĠMes": 7184,
      "Ġped": 7185,
      "ĠTransportation": 7186,
      "Ġ52": 7187,
      "clusion": 7188,
      "Ġcompete": 7189,
      "Ġbishop": 7190,
      "ĠRio": 7191,
      "Ġcomposition": 7192,
      "Ġtrav": 7193,
      "ĠFinnish": 7194,
      "Ġmart": 7195,
      "ĠSC": 7196,
      "Ġdoing": 7197,
      "ĠBuff": 7198,
      "mers": 7199,
      "Ġregistered": 7200,
      "ĠWho": 7201,
      "isf": 7202,
      "after": 7203,
      "ĠFlora": 7204,
      "onomy": 7205,
      "Ġadvoc": 7206,
      "mat": 7207,
      "ski": 7208,
      "Ġinfluenced": 7209,
      "Ġinstalled": 7210,
      "ĠDance": 7211,
      "song": 7212,
      "anger": 7213,
      "ĠFall": 7214,
      "ĠInvest": 7215,
      "'m": 7216,
      "ĠHollywood": 7217,
      "ĠMichel": 7218,
      "aved": 7219,
      "Ġcru": 7220,
      "ĠSeattle": 7221,
      "ĠNeb": 7222,
      "Ġrise": 7223,
      "Ġtranslation": 7224,
      "Ġrequest": 7225,
      "ĠGrant": 7226,
      "Ġsomeone": 7227,
      "othing": 7228,
      "Ġ1880": 7229,
      "%.": 7230,
      "Ġshape": 7231,
      "Ġemp": 7232,
      "AP": 7233,
      "apes": 7234,
      "hing": 7235,
      "Ġexistence": 7236,
      "Ġovers": 7237,
      "ners": 7238,
      "Ġwarn": 7239,
      "net": 7240,
      "uki": 7241,
      "Ġworldwide": 7242,
      "Ġjoining": 7243,
      "rees": 7244,
      "Ġlaid": 7245,
      "ĠRy": 7246,
      "night": 7247,
      "ĠRights": 7248,
      "Ġaid": 7249,
      "racy": 7250,
      "orf": 7251,
      "ographics": 7252,
      "Ġobserved": 7253,
      "ĠMetro": 7254,
      "III": 7255,
      "Ġargued": 7256,
      "Ġformal": 7257,
      "Ġscenes": 7258,
      "We": 7259,
      "Ġviews": 7260,
      "Ġemployees": 7261,
      "ĠNet": 7262,
      "Ġwatch": 7263,
      "Ġdetails": 7264,
      "zi": 7265,
      "Ġpione": 7266,
      "Ġconsisting": 7267,
      "Ġexperien": 7268,
      "ĠVeg": 7269,
      "Ġmaintained": 7270,
      ")\"": 7271,
      "ĠPrad": 7272,
      "rete": 7273,
      "ĠCamer": 7274,
      "ĠDefense": 7275,
      "Ġhomes": 7276,
      "ĠTak": 7277,
      "hematics": 7278,
      "ĠBaltimore": 7279,
      "ĠFive": 7280,
      "rik": 7281,
      "Ġpromote": 7282,
      "Ġbodies": 7283,
      "ĠBull": 7284,
      "orro": 7285,
      "ĠOblast": 7286,
      "Ġanth": 7287,
      "eland": 7288,
      "Ġengaged": 7289,
      "Ġanaly": 7290,
      "ĠEnergy": 7291,
      "Ġrecordings": 7292,
      "owntown": 7293,
      "rett": 7294,
      "Ġcarry": 7295,
      "Ġ1903": 7296,
      "Ġsuperv": 7297,
      "ĠPublishing": 7298,
      "cia": 7299,
      "Ġanimal": 7300,
      "ĠSection": 7301,
      "LC": 7302,
      "ĠBruce": 7303,
      "Ġdrivers": 7304,
      "Ġsoci": 7305,
      "Ġsolid": 7306,
      "unction": 7307,
      "Ġbirds": 7308,
      "ĠMarie": 7309,
      "ĠArn": 7310,
      "ĠChamber": 7311,
      "Ġscale": 7312,
      "Ġstarts": 7313,
      "Ġanimated": 7314,
      "har": 7315,
      "ĠGa": 7316,
      "ĠSaf": 7317,
      "Sc": 7318,
      "ĠMorgan": 7319,
      "Ġstatement": 7320,
      "Ġcricketers": 7321,
      "Ġtor": 7322,
      "ĠUE": 7323,
      "Ġaccused": 7324,
      "rastructure": 7325,
      "asa": 7326,
      "Ġbands": 7327,
      "Ġopin": 7328,
      "69": 7329,
      "ĠPalace": 7330,
      "ĠThough": 7331,
      "Ġconstant": 7332,
      "ĠColonel": 7333,
      "rations": 7334,
      "ĠAy": 7335,
      "idden": 7336,
      "Ġheavily": 7337,
      "ĠKan": 7338,
      "ĠFried": 7339,
      "ĠRacing": 7340,
      "Ġsurvey": 7341,
      "Ġpull": 7342,
      "Ġquant": 7343,
      "OR": 7344,
      "Ġnom": 7345,
      "Ġ51": 7346,
      "ĠRussell": 7347,
      "bassador": 7348,
      "unc": 7349,
      "emble": 7350,
      "ĠWriters": 7351,
      "Ġchair": 7352,
      "olt": 7353,
      "Ġreaching": 7354,
      "elli": 7355,
      "ĠBuck": 7356,
      "star": 7357,
      "ĠHere": 7358,
      "Ġtrained": 7359,
      "ovo": 7360,
      "angel": 7361,
      "Ġsole": 7362,
      "ĠKnight": 7363,
      "Ġplot": 7364,
      "ulate": 7365,
      "ĠRot": 7366,
      "ĠClar": 7367,
      "Ġadvent": 7368,
      "Ġprotein": 7369,
      "lete": 7370,
      "urday": 7371,
      "Ġtropical": 7372,
      "Ġ55": 7373,
      "olph": 7374,
      "ĠPear": 7375,
      "pective": 7376,
      "ĠOperation": 7377,
      "Ġspecifically": 7378,
      "ects": 7379,
      "ĠKelly": 7380,
      "Ġfoundation": 7381,
      "Ġstandards": 7382,
      "Ġbatter": 7383,
      "Ġassess": 7384,
      "Ġextrem": 7385,
      "lon": 7386,
      "onder": 7387,
      "Ġtrying": 7388,
      "Ġ1902": 7389,
      "Ġ1901": 7390,
      "Ġarchae": 7391,
      "Ġeffic": 7392,
      "Ġcomic": 7393,
      "oda": 7394,
      "ivalent": 7395,
      "ĠSoccer": 7396,
      "pers": 7397,
      "ĠPeace": 7398,
      "Ġaffected": 7399,
      "ĠCrown": 7400,
      "ĠLev": 7401,
      "ĠChristopher": 7402,
      "idel": 7403,
      "Ġban": 7404,
      "cht": 7405,
      "Ġchemical": 7406,
      "Ġislands": 7407,
      "Ġuncle": 7408,
      "ĠFA": 7409,
      "erbai": 7410,
      "Ġagency": 7411,
      "ĠDyn": 7412,
      "hop": 7413,
      "atherine": 7414,
      "ĠExt": 7415,
      "Ġimportance": 7416,
      "=\"#": 7417,
      "ĠRest": 7418,
      "itals": 7419,
      "Ġbehavior": 7420,
      "ĠVik": 7421,
      "Ġtwelve": 7422,
      "Ġvolunte": 7423,
      "ĠPad": 7424,
      "Ġtun": 7425,
      "Ġcomput": 7426,
      "Ġtend": 7427,
      "ĠYugoslav": 7428,
      "argo": 7429,
      "ĠBangladesh": 7430,
      "ĠPrincess": 7431,
      "Ġexped": 7432,
      "then": 7433,
      "do": 7434,
      "Ġtoward": 7435,
      "Ġimprove": 7436,
      "itations": 7437,
      "ĠPatri": 7438,
      "Ġsale": 7439,
      "Ġment": 7440,
      "ĠAdvent": 7441,
      "anned": 7442,
      "top": 7443,
      "eties": 7444,
      "intend": 7445,
      "Ġheard": 7446,
      "ĠDean": 7447,
      "ĠCole": 7448,
      "ĠLeban": 7449,
      "Ġtranslated": 7450,
      "Ġwrest": 7451,
      "IV": 7452,
      "ĠBroadcast": 7453,
      "Ġvide": 7454,
      "ĠDead": 7455,
      "Ġrebu": 7456,
      "ĠPersonnel": 7457,
      "ĠRand": 7458,
      "Ġobjects": 7459,
      "ĠStudio": 7460,
      "orus": 7461,
      "inea": 7462,
      "Ġhair": 7463,
      "ĠMedicine": 7464,
      "ĠPy": 7465,
      "ashi": 7466,
      "ĠMunicipality": 7467,
      "Ġsession": 7468,
      "ĠStewart": 7469,
      "1994": 7470,
      "ĠYears": 7471,
      "irt": 7472,
      "ĠRan": 7473,
      "Ġintroduction": 7474,
      "aughters": 7475,
      "Ġreality": 7476,
      "Ġshell": 7477,
      "Ġregiment": 7478,
      "Ġengines": 7479,
      "ĠEver": 7480,
      "ĠFIFA": 7481,
      "Ġnegative": 7482,
      "Ġlat": 7483,
      "Ġseventh": 7484,
      "Ġreception": 7485,
      "ĠGlas": 7486,
      "Ġpainters": 7487,
      "ĠMaj": 7488,
      "uscript": 7489,
      "going": 7490,
      "Ġdeleg": 7491,
      "ĠCare": 7492,
      "Ġdeputy": 7493,
      "ĠVienna": 7494,
      "owned": 7495,
      "Ġresistance": 7496,
      "anny": 7497,
      "Ġweather": 7498,
      "Ġstrateg": 7499,
      "Ġseconds": 7500,
      "Ġcollaboration": 7501,
      "ĠCEO": 7502,
      "uda": 7503,
      "ĠKon": 7504,
      "Ġlicens": 7505,
      "Ġthrow": 7506,
      "Ġahead": 7507,
      "esc": 7508,
      "ĠHampshire": 7509,
      "boards": 7510,
      "Ġarmed": 7511,
      "coming": 7512,
      "Ġnick": 7513,
      "Ġ47": 7514,
      "br": 7515,
      "Ġille": 7516,
      "Ġ{": 7517,
      "ĠSign": 7518,
      "ĠMarket": 7519,
      "Ġdescribes": 7520,
      "Ġpossess": 7521,
      "ĠOri": 7522,
      "Ġadapted": 7523,
      "ĠTournament": 7524,
      "ĠLen": 7525,
      "white": 7526,
      "Ġruled": 7527,
      "ĠLib": 7528,
      "ĠBed": 7529,
      "ĠAssoci": 7530,
      "ĠNev": 7531,
      "ĠTrade": 7532,
      "gow": 7533,
      "Ġproducing": 7534,
      "osm": 7535,
      "Ġextension": 7536,
      "estyle": 7537,
      "Ġmole": 7538,
      "Ġaccompan": 7539,
      "ĠLithuan": 7540,
      "ĠAngl": 7541,
      "umbent": 7542,
      "Ġdistinct": 7543,
      "ĠTrad": 7544,
      "Ġzone": 7545,
      "Ġbriefly": 7546,
      "DA": 7547,
      "ussion": 7548,
      "ĠMean": 7549,
      "ushed": 7550,
      "Ġdivers": 7551,
      "Ġprice": 7552,
      "Ġproved": 7553,
      "Ġfactory": 7554,
      "ĠNelson": 7555,
      "amic": 7556,
      "Ġri": 7557,
      "ĠPsych": 7558,
      "ĠGill": 7559,
      "level": 7560,
      "Ġcalling": 7561,
      "Cl": 7562,
      "aman": 7563,
      "ĠAzerbai": 7564,
      "ĠEston": 7565,
      "ĠHorn": 7566,
      "Ġdivisions": 7567,
      "emen": 7568,
      "Ġere": 7569,
      "Ġentirely": 7570,
      "Ġprize": 7571,
      "Ġsteam": 7572,
      "ĠPhot": 7573,
      "ĠOur": 7574,
      "Ġmarine": 7575,
      "ĠAT": 7576,
      "ĠCampbell": 7577,
      "Ġcomposers": 7578,
      "Ġrevolution": 7579,
      "ĠDallas": 7580,
      "ĠLiverpool": 7581,
      "Ġexerc": 7582,
      "inking": 7583,
      "Ġimages": 7584,
      "Ġlect": 7585,
      "Mar": 7586,
      "ĠMaine": 7587,
      "ĠSupport": 7588,
      "Ġgain": 7589,
      "Ġclosely": 7590,
      "Ġupd": 7591,
      "ĠConservative": 7592,
      "avalry": 7593,
      "olleyball": 7594,
      "ĠChairman": 7595,
      "including": 7596,
      "ĠOnce": 7597,
      "inian": 7598,
      "ĠAthletic": 7599,
      "Ġscholars": 7600,
      "bal": 7601,
      "Ġresidence": 7602,
      "ective": 7603,
      "Ġagricultural": 7604,
      "ĠArena": 7605,
      "ĠEconomic": 7606,
      "ĠHend": 7607,
      "mingham": 7608,
      "ĠDod": 7609,
      "ĠThompson": 7610,
      "ĠCarlos": 7611,
      "ellite": 7612,
      "ams": 7613,
      "Ġrating": 7614,
      "Ġchose": 7615,
      "ducing": 7616,
      "1993": 7617,
      "ĠAustin": 7618,
      "ĠSarah": 7619,
      "ĠDra": 7620,
      "Ġnorthwest": 7621,
      "ĠKra": 7622,
      "icit": 7623,
      "Ġcauses": 7624,
      "Ġapplications": 7625,
      "ĠJimmy": 7626,
      "ahn": 7627,
      "Ġdistin": 7628,
      "Ġedited": 7629,
      "Ġinterior": 7630,
      "aska": 7631,
      "ovation": 7632,
      "ĠEvery": 7633,
      "Ġpages": 7634,
      "dy": 7635,
      "Ġcontributions": 7636,
      "Ġideas": 7637,
      "Ġacid": 7638,
      "ĠEpis": 7639,
      "ĠNorman": 7640,
      "aby": 7641,
      "ĠChen": 7642,
      "ĠFood": 7643,
      "Ġsurg": 7644,
      "ĠMethod": 7645,
      "ĠAlliance": 7646,
      "Ġshall": 7647,
      "thm": 7648,
      "inae": 7649,
      "ĠWright": 7650,
      "Ġmilit": 7651,
      "Ġdocuments": 7652,
      "ĠComple": 7653,
      "ĠHell": 7654,
      "unch": 7655,
      "Ġcolonial": 7656,
      "Ġreduce": 7657,
      "iler": 7658,
      "Ġlocality": 7659,
      "Ġentertain": 7660,
      "Ġsymbol": 7661,
      "Ġinform": 7662,
      "Ġcopy": 7663,
      "Ġpassengers": 7664,
      "ĠOrthodox": 7665,
      "Ġdoor": 7666,
      "final": 7667,
      "ĠKennedy": 7668,
      "Ġflat": 7669,
      "Ġleads": 7670,
      "ĠUEFA": 7671,
      "Ġproducers": 7672,
      "ĠRain": 7673,
      "ĠPlat": 7674,
      "Ġedge": 7675,
      "Ġdismiss": 7676,
      "ĠAgency": 7677,
      "Ġpup": 7678,
      "Ġopportunity": 7679,
      "inch": 7680,
      "ategy": 7681,
      "2022": 7682,
      "Ġathletes": 7683,
      "Ġ1898": 7684,
      "Ġchoice": 7685,
      "Ġemot": 7686,
      "Ġgarden": 7687,
      "inner": 7688,
      "Ġrailroad": 7689,
      "Ġbelieve": 7690,
      "Ġcharges": 7691,
      "Ġ54": 7692,
      "autiful": 7693,
      "Ġgraduate": 7694,
      "ogether": 7695,
      "1992": 7696,
      "Ġcrown": 7697,
      "insula": 7698,
      "Ġroads": 7699,
      "Ġstrength": 7700,
      "entially": 7701,
      "ĠRud": 7702,
      "ĠBeck": 7703,
      "ĠOm": 7704,
      "ĠNord": 7705,
      "iri": 7706,
      "Ġregarded": 7707,
      "Ġtechniques": 7708,
      "Ġwitness": 7709,
      "Ġpossibly": 7710,
      "ĠOpera": 7711,
      "person": 7712,
      "ĠEmer": 7713,
      "ĠAdams": 7714,
      "ĠLower": 7715,
      "pha": 7716,
      "Ġcompilation": 7717,
      "ĠBrooklyn": 7718,
      "ultan": 7719,
      "West": 7720,
      "ĠBomb": 7721,
      "Ġdebuted": 7722,
      "Ġproced": 7723,
      "Ġinterests": 7724,
      "ranean": 7725,
      "ĠSenator": 7726,
      "Ġones": 7727,
      "ĠKit": 7728,
      "amo": 7729,
      "ucks": 7730,
      "via": 7731,
      "ĠFranklin": 7732,
      "Ġgetting": 7733,
      "Ġresign": 7734,
      "ĠApp": 7735,
      "arus": 7736,
      "ĠBernard": 7737,
      "Ġimproved": 7738,
      "Ġreally": 7739,
      "ĠBilly": 7740,
      "ĠGulf": 7741,
      "ĠDub": 7742,
      "ĠNash": 7743,
      "Ġmist": 7744,
      "phony": 7745,
      "atures": 7746,
      "ĠDemographics": 7747,
      "Ġcommitted": 7748,
      "ĠSerbia": 7749,
      "etime": 7750,
      "haps": 7751,
      "Ġaer": 7752,
      "Ġoperate": 7753,
      "Ġdistributed": 7754,
      "Ġflying": 7755,
      "Ġancest": 7756,
      "ĠCooper": 7757,
      "ĠVolume": 7758,
      "aware": 7759,
      "ĠPortland": 7760,
      "oba": 7761,
      "orial": 7762,
      "tered": 7763,
      "Ġrefuge": 7764,
      "ĠRobinson": 7765,
      "ĠTrump": 7766,
      "ĠDakota": 7767,
      "ĠCatal": 7768,
      "ĠConstitution": 7769,
      "Ġadjacent": 7770,
      "eler": 7771,
      "ĠNam": 7772,
      "Ġparticipate": 7773,
      "aire": 7774,
      "Ġfine": 7775,
      "ĠLINE": 7776,
      "ĠBirmingham": 7777,
      "Ġcore": 7778,
      "lee": 7779,
      "Ġsinging": 7780,
      "ĠPir": 7781,
      "ĠHom": 7782,
      "Ġax": 7783,
      "Ġintelligence": 7784,
      "ĠStanley": 7785,
      "arest": 7786,
      "ĠBrothers": 7787,
      "ĠIvan": 7788,
      "inate": 7789,
      "pen": 7790,
      "Ġfavour": 7791,
      "ĠWrestling": 7792,
      "pir": 7793,
      "Ġconvent": 7794,
      "Ġusers": 7795,
      "Ġwaters": 7796,
      "Ġenl": 7797,
      "Ġ150": 7798,
      "Ġ1899": 7799,
      "Ġvalues": 7800,
      "Ġcontrolled": 7801,
      "ugar": 7802,
      "Ġsam": 7803,
      "Ġdamaged": 7804,
      "ĠLud": 7805,
      "Ġgrounds": 7806,
      "ocracy": 7807,
      "Ġclean": 7808,
      "Ġobtain": 7809,
      "ype": 7810,
      "ĠUpper": 7811,
      "Ġquite": 7812,
      "uct": 7813,
      "Ġham": 7814,
      "ishment": 7815,
      "ĠTraining": 7816,
      "ĠMotor": 7817,
      "bach": 7818,
      "Ġbrig": 7819,
      "ĠMurray": 7820,
      "Ġ1870": 7821,
      "ferred": 7822,
      "ĠVari": 7823,
      "ĠWol": 7824,
      "Ġsurvived": 7825,
      "Ġdemonst": 7826,
      "ĠConstruction": 7827,
      "writers": 7828,
      "icate": 7829,
      "ĠWa": 7830,
      "Ġans": 7831,
      "ĠVerm": 7832,
      "Ġpros": 7833,
      "ĠReport": 7834,
      "Ġclassification": 7835,
      "ĠTele": 7836,
      "ĠSocorro": 7837,
      "ĠBush": 7838,
      "grade": 7839,
      "Ġsections": 7840,
      "Ġfranchise": 7841,
      "ĠChang": 7842,
      "Ġphotograph": 7843,
      "ĠMarshall": 7844,
      "ĠLINEAR": 7845,
      "Ġrepeated": 7846,
      "Ġsubstant": 7847,
      "ĠGraham": 7848,
      "Ġcombination": 7849,
      "Ġitems": 7850,
      "Ġfly": 7851,
      "Ġmeasures": 7852,
      "Ġdrawn": 7853,
      "eta": 7854,
      "Ġbudget": 7855,
      "Ġdefensive": 7856,
      "ishments": 7857,
      "ĠBud": 7858,
      "Ġbroken": 7859,
      "Ġconsequ": 7860,
      "alymp": 7861,
      "attan": 7862,
      "ĠCollection": 7863,
      "ĠABC": 7864,
      "ommod": 7865,
      "iop": 7866,
      "ĠDoc": 7867,
      "Ġelectronic": 7868,
      "Ġbelief": 7869,
      "Ġdefeating": 7870,
      "Ġprem": 7871,
      "oka": 7872,
      "sch": 7873,
      "hu": 7874,
      "Ġanniversary": 7875,
      "ĠYouT": 7876,
      "Ġuniversities": 7877,
      "Ġshooting": 7878,
      "ĠGary": 7879,
      "orses": 7880,
      "Ġbenef": 7881,
      "ĠSaturday": 7882,
      "Ġexact": 7883,
      "lie": 7884,
      "ĠJazz": 7885,
      "Ġphilosophy": 7886,
      "ĠAqu": 7887,
      "Ġtransition": 7888,
      "ĠMadrid": 7889,
      "illo": 7890,
      "Ġdesigns": 7891,
      "tic": 7892,
      "ĠSyn": 7893,
      "Ġimprison": 7894,
      "ĠMort": 7895,
      "ĠCarter": 7896,
      "ĠChand": 7897,
      "Ġtank": 7898,
      "Ġjustice": 7899,
      "Ġstanding": 7900,
      "Ġearliest": 7901,
      "Ġgrade": 7902,
      "Ġsignal": 7903,
      "ĠRu": 7904,
      "ĠTaxa": 7905,
      "ĠPierre": 7906,
      "din": 7907,
      "Ġhour": 7908,
      "ĠIns": 7909,
      "ĠSecret": 7910,
      "Ġgoods": 7911,
      "ĠPrefecture": 7912,
      "Ġworth": 7913,
      "ĠSi": 7914,
      "Ġmoment": 7915,
      "Is": 7916,
      "oming": 7917,
      "Ġowners": 7918,
      "Ġlists": 7919,
      "Ġmort": 7920,
      "Ġcapture": 7921,
      "Ġfeed": 7922,
      "ĠIranian": 7923,
      "Ġjudges": 7924,
      "eless": 7925,
      "Ġmedicine": 7926,
      "Ġrejected": 7927,
      "Ġcriticized": 7928,
      "Ġdry": 7929,
      "cious": 7930,
      "ĠVic": 7931,
      "ĠCarib": 7932,
      "ĠVers": 7933,
      "rm": 7934,
      "ĠCass": 7935,
      "Ġfinals": 7936,
      "ders": 7937,
      "ĠLane": 7938,
      "aptist": 7939,
      "bishop": 7940,
      "ĠArtists": 7941,
      "Ġtrip": 7942,
      "Ne": 7943,
      "atabase": 7944,
      "ĠRap": 7945,
      "Ġprovincial": 7946,
      "Ġhumans": 7947,
      "ĠPC": 7948,
      "Ġhttp": 7949,
      "Ġcharged": 7950,
      "Ġ63": 7951,
      "Ġneighbour": 7952,
      "Ġactual": 7953,
      "Ġdelivered": 7954,
      "ĠIv": 7955,
      "aked": 7956,
      "rons": 7957,
      "Ġchain": 7958,
      "orer": 7959,
      "hetic": 7960,
      "He": 7961,
      "Ġactivist": 7962,
      "bridge": 7963,
      "utation": 7964,
      "Ġdie": 7965,
      "ĠYorks": 7966,
      "Ġpurposes": 7967,
      "EE": 7968,
      "Ġbottom": 7969,
      "Ġ().": 7970,
      "Ġreleg": 7971,
      "ĠDefence": 7972,
      "GA": 7973,
      "Ġparallel": 7974,
      "Man": 7975,
      "wall": 7976,
      "Ġpremi": 7977,
      "Ġgrant": 7978,
      "Ġ1896": 7979,
      "Ġinterpret": 7980,
      "Ġcancell": 7981,
      "Ġterror": 7982,
      "ĠAgain": 7983,
      "oca": 7984,
      "General": 7985,
      "Ġskills": 7986,
      "Ġshowing": 7987,
      "ĠDaily": 7988,
      "PC": 7989,
      "Ġstores": 7990,
      "Ġregularly": 7991,
      "ĠThus": 7992,
      "Ġveter": 7993,
      "coh": 7994,
      "bat": 7995,
      "pat": 7996,
      "ĠLead": 7997,
      "abled": 7998,
      "iac": 7999,
      "ĠMovement": 8000,
      "Ġsell": 8001,
      "ĠParalymp": 8002,
      "ĠJohnny": 8003,
      "hibition": 8004,
      "Ġprisoners": 8005,
      "Ġmedium": 8006,
      "antly": 8007,
      "ceived": 8008,
      "ĠAld": 8009,
      "ifer": 8010,
      "otes": 8011,
      "Ġgets": 8012,
      "bean": 8013,
      "Ġseems": 8014,
      "Ġisol": 8015,
      "ĠSax": 8016,
      "ĠJason": 8017,
      "Ġqualifying": 8018,
      "eton": 8019,
      "TS": 8020,
      "ĠCathedral": 8021,
      "ĠTot": 8022,
      "Ġvenues": 8023,
      "town": 8024,
      "Ġcourses": 8025,
      "Ġgreatest": 8026,
      "olar": 8027,
      "ĠGor": 8028,
      "Ġopposite": 8029,
      "Ġroutes": 8030,
      "ĠNad": 8031,
      "Ġnaval": 8032,
      "Ġbusinesses": 8033,
      "ĠCycl": 8034,
      "ĠWing": 8035,
      "Ġpublishing": 8036,
      "Ġdesigner": 8037,
      "ĠMedalists": 8038,
      "FM": 8039,
      "Ġ1897": 8040,
      "Ġvictims": 8041,
      "ĠBenj": 8042,
      "itable": 8043,
      "olly": 8044,
      "ĠGuy": 8045,
      "ĠStra": 8046,
      "Ġpurchase": 8047,
      "Ġhabitat": 8048,
      "Ġsouthwest": 8049,
      "Ġaware": 8050,
      "Ġsuburb": 8051,
      "ĠWoman": 8052,
      "ht": 8053,
      "ĠNazi": 8054,
      "Ġlegislation": 8055,
      "ĠOrganization": 8056,
      "alia": 8057,
      "wright": 8058,
      "ielder": 8059,
      "ĠLanka": 8060,
      "Ġtries": 8061,
      "overty": 8062,
      "iterranean": 8063,
      "Ġ1895": 8064,
      "1991": 8065,
      "ls": 8066,
      "Ġstrip": 8067,
      "Ġpersons": 8068,
      "Ind": 8069,
      "ĠEgyptian": 8070,
      "ĠAdditionally": 8071,
      "Ġfactors": 8072,
      "ĠYorkshire": 8073,
      "Ġresidential": 8074,
      "ouver": 8075,
      "Ġegg": 8076,
      "Ġjournalists": 8077,
      "ES": 8078,
      "Ġ56": 8079,
      "leased": 8080,
      "astery": 8081,
      "ĠNBA": 8082,
      "Ġinsc": 8083,
      "operation": 8084,
      "Ġdies": 8085,
      "ĠHig": 8086,
      "Ġfreedom": 8087,
      "Ġboys": 8088,
      "Ġmeters": 8089,
      "Ġmile": 8090,
      "Ġhits": 8091,
      "Ġstands": 8092,
      "ĠAppe": 8093,
      "Ġgender": 8094,
      "dr": 8095,
      "Ġscientists": 8096,
      "Pro": 8097,
      "yll": 8098,
      "Ġminute": 8099,
      "merce": 8100,
      "ĠAR": 8101,
      "Ġwounded": 8102,
      "xual": 8103,
      "Ġbusinessman": 8104,
      "Ġheat": 8105,
      "Ġadmitted": 8106,
      "rong": 8107,
      "Ġrivers": 8108,
      "Ġtack": 8109,
      "Ġadvantage": 8110,
      "ĠTob": 8111,
      "aceae": 8112,
      "olia": 8113,
      "Ġ53": 8114,
      "Ġexamples": 8115,
      "ĠBeg": 8116,
      "ĠMack": 8117,
      "Ġattached": 8118,
      "ĠNigeria": 8119,
      "Ġarranged": 8120,
      "ture": 8121,
      "Ġknock": 8122,
      "aments": 8123,
      "ĠRico": 8124,
      "leans": 8125,
      "ĠWindows": 8126,
      "Ġtur": 8127,
      "ĠAuthority": 8128,
      "Ġdriving": 8129,
      "Ġmemorial": 8130,
      "Ġhill": 8131,
      "ĠKum": 8132,
      "Ġcrisis": 8133,
      "Ġalleg": 8134,
      "hai": 8135,
      "ĠCapital": 8136,
      "Ġdevice": 8137,
      "Ġmotion": 8138,
      "ĠCook": 8139,
      "Ġcycle": 8140,
      "'re": 8141,
      "ĠSerge": 8142,
      "resents": 8143,
      "ĠWebsite": 8144,
      "iph": 8145,
      "Ġdescription": 8146,
      "ĠLiterature": 8147,
      "ĠTrophy": 8148,
      "ĠFull": 8149,
      "Ġcosts": 8150,
      "ĠIan": 8151,
      "ĠGhana": 8152,
      "fiction": 8153,
      "Ġcommunication": 8154,
      "Ġaccommod": 8155,
      "Ġstages": 8156,
      "umin": 8157,
      "NC": 8158,
      "Ġstreets": 8159,
      "Ġsynd": 8160,
      "ĠMoths": 8161,
      "ĠGuide": 8162,
      "Ġsave": 8163,
      "Ġwhy": 8164,
      "ĠEvans": 8165,
      "ĠParish": 8166,
      "Ġeasily": 8167,
      "Ġrob": 8168,
      "orce": 8169,
      "OC": 8170,
      "Ġsequence": 8171,
      "Ġcredited": 8172,
      "vant": 8173,
      "endment": 8174,
      "ĠGray": 8175,
      "ĠHas": 8176,
      "Ġsuff": 8177,
      "Ġclimb": 8178,
      "Ġduty": 8179,
      "ĠGrade": 8180,
      "asure": 8181,
      "Ġsubmar": 8182,
      "Ġdecade": 8183,
      "low": 8184,
      "Ġmine": 8185,
      "Ġrich": 8186,
      "Ġrestrict": 8187,
      "Ġdetermine": 8188,
      "Ġfaith": 8189,
      "asi": 8190,
      "1980": 8191,
      "sea": 8192,
      "Ġstarred": 8193,
      "Ġrooms": 8194,
      "ĠDerby": 8195,
      "ĠSr": 8196,
      "Ġcommune": 8197,
      "MP": 8198,
      "--": 8199,
      "ĠElectric": 8200,
      "Ġkid": 8201,
      "Ġcourts": 8202,
      "ĠElementary": 8203,
      "Ġprotected": 8204,
      "ĠNote": 8205,
      "Ġgang": 8206,
      "Ġtypical": 8207,
      "iah": 8208,
      "ĠHum": 8209,
      "Ġmembership": 8210,
      "othes": 8211,
      "Ġrenew": 8212,
      "ĠRichmond": 8213,
      "Ġfer": 8214,
      "Ġpainted": 8215,
      "auty": 8216,
      "Ġdemand": 8217,
      "Ġcomed": 8218,
      "ĠGlasgow": 8219,
      "ayed": 8220,
      "rapy": 8221,
      "Ġski": 8222,
      "ĠOrleans": 8223,
      "Ġmyth": 8224,
      "ĠUg": 8225,
      "Ġassumed": 8226,
      "Ġretained": 8227,
      "Ġaf": 8228,
      "ĠConvention": 8229,
      "ĠMediterranean": 8230,
      "eenth": 8231,
      "Ġbond": 8232,
      "Ġrunner": 8233,
      "iece": 8234,
      "Ġhunt": 8235,
      "Ġcircum": 8236,
      "bul": 8237,
      "Ġreaction": 8238,
      "Ġassistance": 8239,
      "Ġtheater": 8240,
      "ĠPrimary": 8241,
      "Ġoperates": 8242,
      "profit": 8243,
      "Ġrestored": 8244,
      "ĠJama": 8245,
      "ĠEug": 8246,
      "rant": 8247,
      "Ġaccompanied": 8248,
      "Ġnickn": 8249,
      "ĠLad": 8250,
      "mund": 8251,
      "Ġmining": 8252,
      "Ġinvestment": 8253,
      "ĠFoot": 8254,
      "Ġpool": 8255,
      "ohn": 8256,
      "ĠJudge": 8257,
      "ĠMilan": 8258,
      "Ġoffensive": 8259,
      "cho": 8260,
      "Ġteen": 8261,
      "Ġfan": 8262,
      "ĠMond": 8263,
      "ĠSS": 8264,
      "ĠMap": 8265,
      "opal": 8266,
      "ĠBorough": 8267,
      "Ġcited": 8268,
      "ĠUrban": 8269,
      "ĠBarry": 8270,
      "ĠCritical": 8271,
      "ĠTu": 8272,
      "Ġflo": 8273,
      "annels": 8274,
      "Ġvideos": 8275,
      "You": 8276,
      "ser": 8277,
      "ĠPublications": 8278,
      "mith": 8279,
      "ĠConfeder": 8280,
      "cussion": 8281,
      "ĠDiscography": 8282,
      "ĠFleet": 8283,
      "ĠChallenge": 8284,
      "ĠHindu": 8285,
      "ĠSpecies": 8286,
      "ĠFather": 8287,
      "ĠCher": 8288,
      "ilst": 8289,
      "1989": 8290,
      "Ġcontext": 8291,
      "aired": 8292,
      "Ġ57": 8293,
      "ĠMuham": 8294,
      "tery": 8295,
      "Ġpian": 8296,
      "Ġrepresents": 8297,
      "Ġseed": 8298,
      "Ġutil": 8299,
      "ĠTigers": 8300,
      "ĠPav": 8301,
      "cop": 8302,
      "Ġfest": 8303,
      "ĠSalv": 8304,
      "ĠWayne": 8305,
      "Ġbrain": 8306,
      "Ġnotably": 8307,
      "Ġexecuted": 8308,
      "Ġheaded": 8309,
      "ĠBroadway": 8310,
      "Ġfra": 8311,
      "Ġdoll": 8312,
      "RS": 8313,
      "ĠWW": 8314,
      "ĠKath": 8315,
      "rang": 8316,
      "icket": 8317,
      "ĠTheater": 8318,
      "ĠFrances": 8319,
      "CD": 8320,
      "cyclop": 8321,
      "Ġexperienced": 8322,
      "Ġcous": 8323,
      "onian": 8324,
      "Ġretail": 8325,
      "acc": 8326,
      "Ġnewspapers": 8327,
      "Ġadvis": 8328,
      "Ġbed": 8329,
      "door": 8330,
      "Ġfired": 8331,
      "ĠAndy": 8332,
      "Ġstood": 8333,
      "ĠMi": 8334,
      "ivated": 8335,
      "ĠActress": 8336,
      "Ġ1893": 8337,
      "ĠPictures": 8338,
      "Ġchallenge": 8339,
      "Ġmanuscript": 8340,
      "Ġpolicies": 8341,
      "Ġprime": 8342,
      "Ġgrass": 8343,
      "Ġ62": 8344,
      "Ġsed": 8345,
      "ishers": 8346,
      "ĠHold": 8347,
      "ĠSelected": 8348,
      "Ġcollections": 8349,
      "Ġdating": 8350,
      "rec": 8351,
      "Ġ1860": 8352,
      "ĠPradesh": 8353,
      "Ġcaught": 8354,
      "aku": 8355,
      "Ġreturns": 8356,
      "orrow": 8357,
      "Ġseparated": 8358,
      "oi": 8359,
      "Ġlooking": 8360,
      "edding": 8361,
      "ĠFace": 8362,
      "Ġcarrying": 8363,
      "Ġinfl": 8364,
      "Ġjump": 8365,
      "tha": 8366,
      "ĠVas": 8367,
      "Ġheritage": 8368,
      "Ġdoub": 8369,
      "Ġconqu": 8370,
      "iation": 8371,
      "ĠBaker": 8372,
      "Ġracial": 8373,
      "IP": 8374,
      "kov": 8375,
      "cular": 8376,
      "inter": 8377,
      "Ġselling": 8378,
      "ĠPolitics": 8379,
      "Ġtail": 8380,
      "Ġformally": 8381,
      "gie": 8382,
      "ĠPhoen": 8383,
      "Ġconcerns": 8384,
      "ĠRena": 8385,
      "Ġbran": 8386,
      "Ġrhy": 8387,
      "ĠWarren": 8388,
      "ĠCentury": 8389,
      "ĠNever": 8390,
      "Ġunsuccess": 8391,
      "owski": 8392,
      "Ġwings": 8393,
      "otan": 8394,
      "ĠFrid": 8395,
      "ĠHit": 8396,
      "Ġstopped": 8397,
      "Ġassault": 8398,
      "Ph": 8399,
      "ĠYouTube": 8400,
      "ĠPil": 8401,
      "Ġelectoral": 8402,
      "ĠFlore": 8403,
      "ĠVel": 8404,
      "ĠBlues": 8405,
      "ĠMong": 8406,
      "uka": 8407,
      "ĠPeru": 8408,
      "acon": 8409,
      "Ġ1894": 8410,
      "chers": 8411,
      "Ġ1889": 8412,
      "ĠBrist": 8413,
      "ĠLov": 8414,
      "Ġkilomet": 8415,
      "ĠDJ": 8416,
      "ĠGabri": 8417,
      "ĠNat": 8418,
      "ĠSeven": 8419,
      "rage": 8420,
      "Ġdest": 8421,
      "Ġnor": 8422,
      "ĠMitchell": 8423,
      "Re": 8424,
      "ĠCharlie": 8425,
      "ĠJosh": 8426,
      "ulu": 8427,
      "Ġfiled": 8428,
      "ecution": 8429,
      "ĠFact": 8430,
      "ĠDelhi": 8431,
      "iege": 8432,
      "ĠBenjamin": 8433,
      "Ġrestaurant": 8434,
      "yles": 8435,
      "atters": 8436,
      "Ġduties": 8437,
      "raska": 8438,
      "Ġastron": 8439,
      "ĠRangers": 8440,
      "Ġcarbon": 8441,
      "roc": 8442,
      "Ġ1892": 8443,
      "Ġeye": 8444,
      "ĠAer": 8445,
      "inding": 8446,
      "Ġuniform": 8447,
      "ĠMother": 8448,
      "ĠMonte": 8449,
      "Ġvaria": 8450,
      "Ġattract": 8451,
      "ĠSlovak": 8452,
      "Ġinstruments": 8453,
      "Ġtall": 8454,
      "Ġmagazines": 8455,
      "load": 8456,
      "amps": 8457,
      "Ġendemic": 8458,
      "oples": 8459,
      "isd": 8460,
      "ĠAS": 8461,
      "ĠRal": 8462,
      "ĠLimited": 8463,
      "itime": 8464,
      "ĠRav": 8465,
      "ĠCart": 8466,
      "Ġsomew": 8467,
      "Ġsignificantly": 8468,
      "ĠLanguage": 8469,
      "Ġinher": 8470,
      "ĠMans": 8471,
      "ĠGun": 8472,
      "oked": 8473,
      "ĠCase": 8474,
      "ĠManh": 8475,
      "ĠPoly": 8476,
      "tenance": 8477,
      "ancouver": 8478,
      "Ġshel": 8479,
      "jab": 8480,
      "Ġguitarist": 8481,
      "Ġcoastal": 8482,
      "Ġadaptation": 8483,
      "Ġlink": 8484,
      "Ġnothing": 8485,
      "Ġcolleges": 8486,
      "Ġsevere": 8487,
      "ĠBund": 8488,
      "ĠBenn": 8489,
      "Ġarrival": 8490,
      "ĠQuarter": 8491,
      "ĠMall": 8492,
      "ĠNorm": 8493,
      "ĠCompanies": 8494,
      "ĠMess": 8495,
      "Ġdemonstr": 8496,
      "orne": 8497,
      "Ġthick": 8498,
      "master": 8499,
      "Ġpreced": 8500,
      "Ġcriticism": 8501,
      "Ġlegend": 8502,
      "ĠRic": 8503,
      "ĠHawaii": 8504,
      "Ġtesting": 8505,
      "page": 8506,
      "Ġdegrees": 8507,
      "ĠNova": 8508,
      "ĠNevada": 8509,
      "ĠGuinea": 8510,
      "ĠColombia": 8511,
      "Ġownership": 8512,
      "Ġwindows": 8513,
      "ĠTowns": 8514,
      "formance": 8515,
      "aran": 8516,
      "away": 8517,
      "Ġbat": 8518,
      "ĠNepal": 8519,
      "Ġexpression": 8520,
      "HS": 8521,
      "iggest": 8522,
      "Ġequivalent": 8523,
      "Ġromantic": 8524,
      "Ġbrick": 8525,
      "Ġresponsibility": 8526,
      "Ġbringing": 8527,
      "original": 8528,
      "Ġobl": 8529,
      "eget": 8530,
      "Ġinstitution": 8531,
      "Ġexplos": 8532,
      "ĠNation": 8533,
      "utions": 8534,
      "Ġ120": 8535,
      "Ġcolour": 8536,
      "ĠBurg": 8537,
      "ĠConn": 8538,
      "Ġuser": 8539,
      "ĠVoiv": 8540,
      "leton": 8541,
      "hab": 8542,
      "ĠZe": 8543,
      "ĠAndr": 8544,
      "ashed": 8545,
      "Ġmedals": 8546,
      "oker": 8547,
      "ĠAlberta": 8548,
      "ĠNebraska": 8549,
      "Ġchampionships": 8550,
      "ĠMak": 8551,
      "Ġincorpor": 8552,
      "ĠBachelor": 8553,
      "Ġorganisation": 8554,
      "Ġpoets": 8555,
      "idency": 8556,
      "Ġdaughters": 8557,
      "Ġdepend": 8558,
      "lock": 8559,
      "ĠWarner": 8560,
      "Ġpractices": 8561,
      "Ġflower": 8562,
      "count": 8563,
      "gressive": 8564,
      "usalem": 8565,
      "No": 8566,
      "Ġlearned": 8567,
      "phan": 8568,
      "Ġpoem": 8569,
      "Ġflowers": 8570,
      "Ġsuccessor": 8571,
      "heme": 8572,
      "Ġcoordin": 8573,
      "Ġotherwise": 8574,
      "ĠBarbara": 8575,
      "ĠSched": 8576,
      "Ġmunicipalities": 8577,
      "ĠVlad": 8578,
      "Ġ1885": 8579,
      "isations": 8580,
      "Ġvessels": 8581,
      "Ġstorage": 8582,
      "Ġsuggests": 8583,
      "ĠStandard": 8584,
      "ĠBuffalo": 8585,
      "Ġindu": 8586,
      "ĠPhilippine": 8587,
      "ĠGrad": 8588,
      "Ġfilmed": 8589,
      "ĠWeekly": 8590,
      "Ġunderstanding": 8591,
      "phone": 8592,
      "ships": 8593,
      "who": 8594,
      "astrop": 8595,
      "ĠAlt": 8596,
      "Ġreplacement": 8597,
      "ĠJenn": 8598,
      "Ġ1891": 8599,
      "break": 8600,
      "ĠCaribbean": 8601,
      "ĠMinor": 8602,
      "ĠHunter": 8603,
      "Ġhur": 8604,
      "oom": 8605,
      "Ġwindow": 8606,
      "Ġcolspan": 8607,
      "odeship": 8608,
      "ĠTower": 8609,
      "Ġfactor": 8610,
      "Ġchance": 8611,
      "atern": 8612,
      "ĠYe": 8613,
      "iya": 8614,
      "power": 8615,
      "Ġphen": 8616,
      "arma": 8617,
      "Ġwave": 8618,
      "ĠSpeed": 8619,
      "Ġlinked": 8620,
      "Ġcrowd": 8621,
      "ON": 8622,
      "ilk": 8623,
      "ĠFitz": 8624,
      "ĠMuhammad": 8625,
      "ĠUnt": 8626,
      "Ġaccur": 8627,
      "Ġturns": 8628,
      "stances": 8629,
      "Ġmedieval": 8630,
      "Ġcrossing": 8631,
      "ĠAlaska": 8632,
      "ĠJonathan": 8633,
      "lem": 8634,
      "Ġprepared": 8635,
      "xts": 8636,
      "Ġclassified": 8637,
      "Ġrecept": 8638,
      "Ġdisappe": 8639,
      "Ġcoverage": 8640,
      "DS": 8641,
      "ĠPant": 8642,
      "ĠWang": 8643,
      "uy": 8644,
      "Ġdifference": 8645,
      "Ġdiagn": 8646,
      "ĠFine": 8647,
      "Ġpeaked": 8648,
      "ME": 8649,
      "Ġhosts": 8650,
      "ellect": 8651,
      "enia": 8652,
      "Ġcommemor": 8653,
      "stad": 8654,
      "Ġnomination": 8655,
      "Ġsoundtrack": 8656,
      "Ġinterested": 8657,
      "Ġbanks": 8658,
      "ogle": 8659,
      "nik": 8660,
      "ĠGreater": 8661,
      "Ġfrag": 8662,
      "ĠJess": 8663,
      "Ġ76": 8664,
      "Ġauthors": 8665,
      "Ġoccupation": 8666,
      "ĠRelease": 8667,
      "Ġrecip": 8668,
      "ruption": 8669,
      "ĠStars": 8670,
      "ĠVancouver": 8671,
      "Ġtied": 8672,
      "Ġmonument": 8673,
      "ĠVictorian": 8674,
      "ĠCharlotte": 8675,
      "avan": 8676,
      "Ġdevices": 8677,
      "Ġmouth": 8678,
      "chang": 8679,
      "Ġdidn": 8680,
      "ĠTechnical": 8681,
      "1988": 8682,
      "Ġartistic": 8683,
      "fare": 8684,
      "ĠApple": 8685,
      "ĠKos": 8686,
      "ĠPA": 8687,
      "Ġveget": 8688,
      "Ġfictional": 8689,
      "ĠLate": 8690,
      "Ġweekly": 8691,
      "ĠBengal": 8692,
      "iency": 8693,
      "ĠProtest": 8694,
      "ĠSaints": 8695,
      "ĠUnit": 8696,
      "ĠConstant": 8697,
      "ĠTang": 8698,
      "ĠRecipients": 8699,
      "ĠAmaz": 8700,
      "Ġinvent": 8701,
      "Ġtheore": 8702,
      "ĠAP": 8703,
      "Ġcovering": 8704,
      "Ġensure": 8705,
      "Ġdanc": 8706,
      "Ġmobile": 8707,
      "ĠSum": 8708,
      "Ġrecru": 8709,
      "Ġteachers": 8710,
      "Ġlanding": 8711,
      "Ġdescend": 8712,
      "Ġunus": 8713,
      "Ġsubjects": 8714,
      "ĠBlood": 8715,
      "ĠTag": 8716,
      "ĠHud": 8717,
      "arked": 8718,
      "Ġ|}": 8719,
      "ictions": 8720,
      "antine": 8721,
      "Ġagencies": 8722,
      "ĠAssistant": 8723,
      "Ġflows": 8724,
      "Ġparliamentary": 8725,
      "Ġbiggest": 8726,
      "ancell": 8727,
      "Ġchildhood": 8728,
      "Ġ61": 8729,
      "Ġassass": 8730,
      "ĠVoivodeship": 8731,
      "ĠAlger": 8732,
      "enburg": 8733,
      "aron": 8734,
      "Ġaspects": 8735,
      "enses": 8736,
      "ĠLuther": 8737,
      "ĠHeb": 8738,
      "rix": 8739,
      "ĠNicholas": 8740,
      "ĠClassic": 8741,
      "Ġign": 8742,
      "ĠDefunct": 8743,
      "ĠCharts": 8744,
      "ĠLore": 8745,
      "otype": 8746,
      "ĠAlice": 8747,
      "ĠStre": 8748,
      "ĠOnline": 8749,
      "1987": 8750,
      "Ġartillery": 8751,
      "iko": 8752,
      "Am": 8753,
      "Ġsun": 8754,
      "ĠPle": 8755,
      "Ġcold": 8756,
      "ĠFilip": 8757,
      "ournals": 8758,
      "Ġpod": 8759,
      "ricane": 8760,
      "Ġexpert": 8761,
      "eria": 8762,
      "Ġdepos": 8763,
      "Ġstruck": 8764,
      "ĠChel": 8765,
      "Ġsquadron": 8766,
      "mosp": 8767,
      "ivia": 8768,
      "Ġmanufacturing": 8769,
      "ĠIndians": 8770,
      "ĠFab": 8771,
      "ĠSteel": 8772,
      "ĠPast": 8773,
      "ĠExper": 8774,
      "Ġcounties": 8775,
      "ĠUlt": 8776,
      "Ġpopularity": 8777,
      "oustic": 8778,
      "anim": 8779,
      "Ġ1888": 8780,
      "Ġministers": 8781,
      "ĠGriff": 8782,
      "gov": 8783,
      "Ġstayed": 8784,
      "Ġvary": 8785,
      "ĠDistribution": 8786,
      "ĠBristol": 8787,
      "essions": 8788,
      "ocol": 8789,
      "Ġcup": 8790,
      "ivan": 8791,
      "ĠLuis": 8792,
      "ĠSumm": 8793,
      "Ġhistorians": 8794,
      "ĠOrange": 8795,
      "Ġeliminated": 8796,
      "Ġforests": 8797,
      "Ġsort": 8798,
      "forcement": 8799,
      "Ġassembly": 8800,
      "Eng": 8801,
      "ĠFish": 8802,
      "Ġdog": 8803,
      "folk": 8804,
      "fers": 8805,
      "idad": 8806,
      "ĠFaculty": 8807,
      "ju": 8808,
      "Ġappropri": 8809,
      "ouncill": 8810,
      "ĠCode": 8811,
      "ĠSid": 8812,
      "ĠAfghanistan": 8813,
      "Ġclassic": 8814,
      "uru": 8815,
      "ĠPin": 8816,
      "Ġrose": 8817,
      "Ġpapers": 8818,
      "olds": 8819,
      "Ġreferences": 8820,
      "uez": 8821,
      "ĠStorm": 8822,
      "Ġdisestablished": 8823,
      "Ġgene": 8824,
      "shaped": 8825,
      "Ġaccompl": 8826,
      "inations": 8827,
      "ĠJerusalem": 8828,
      "Ġevening": 8829,
      "Ġlocomotives": 8830,
      "Ġdated": 8831,
      "Ġelement": 8832,
      "ĠParker": 8833,
      "ĠMoroc": 8834,
      "ĠDNA": 8835,
      "ilia": 8836,
      "Ġheads": 8837,
      "Ġpicture": 8838,
      "ĠTol": 8839,
      "ĠAppl": 8840,
      "Ġscheme": 8841,
      "ĠCinc": 8842,
      "hus": 8843,
      "Ġmanga": 8844,
      "othy": 8845,
      "oga": 8846,
      "MC": 8847,
      "Ġdim": 8848,
      "bel": 8849,
      "Ġchannels": 8850,
      "Ġinfrastructure": 8851,
      "ĠAdmiral": 8852,
      "ĠMind": 8853,
      "Ġ58": 8854,
      "ĠSmall": 8855,
      "Ġles": 8856,
      "Ġcheck": 8857,
      "Ġfram": 8858,
      "Ġrequirements": 8859,
      "Ġgraduating": 8860,
      "Ġid": 8861,
      "Ġfalls": 8862,
      "ĠSR": 8863,
      "Ġorchestra": 8864,
      "Ġappointment": 8865,
      "ĠMeanwhile": 8866,
      "ĠKap": 8867,
      "hand": 8868,
      "ĠUnd": 8869,
      "Ġvert": 8870,
      "ĠSaudi": 8871,
      "ĠMaced": 8872,
      "Ġtie": 8873,
      "story": 8874,
      "ĠNi": 8875,
      "Ġsynthes": 8876,
      "anner": 8877,
      "ushing": 8878,
      "Ġaggreg": 8879,
      "Ġaffairs": 8880,
      "Ġpenalty": 8881,
      "Ġprocesses": 8882,
      "Ġwithdraw": 8883,
      "Ġwheel": 8884,
      "ĠSide": 8885,
      "ĠSoft": 8886,
      "ĠOliver": 8887,
      "ĠContemporary": 8888,
      "race": 8889,
      "oven": 8890,
      "ĠEsp": 8891,
      "Ġconduct": 8892,
      "Ġsigning": 8893,
      "Ġnations": 8894,
      "Ġbit": 8895,
      "apping": 8896,
      "ĠRAF": 8897,
      "Ġ1887": 8898,
      "Ġfixed": 8899,
      "ĠAround": 8900,
      "ĠKnights": 8901,
      "ĠInit": 8902,
      "ĠEvent": 8903,
      "mm": 8904,
      "Ġ1865": 8905,
      "Ġsentenced": 8906,
      "Ġrounds": 8907,
      "Ġlieutenant": 8908,
      "Ġtask": 8909,
      "Ġdifferences": 8910,
      "Ġaudio": 8911,
      "Ġconvicted": 8912,
      "Ġsnow": 8913,
      "Ġrent": 8914,
      "know": 8915,
      "ĠAction": 8916,
      "Ġpoverty": 8917,
      "cons": 8918,
      "Ġrates": 8919,
      "ĠKnow": 8920,
      "ĠClare": 8921,
      "urers": 8922,
      "Ġcommit": 8923,
      "ĠPrincip": 8924,
      "Ġnominations": 8925,
      "Ġru": 8926,
      "Ġthousands": 8927,
      "Ġstret": 8928,
      "ĠAnti": 8929,
      "Ġreplacing": 8930,
      "ĠKun": 8931,
      "card": 8932,
      "ĠSha": 8933,
      "ribed": 8934,
      "isition": 8935,
      "ĠBron": 8936,
      "Ġopinion": 8937,
      "ĠManhattan": 8938,
      "Ġappearing": 8939,
      "Ġexpedition": 8940,
      "Ġliqu": 8941,
      "ĠNature": 8942,
      "Ġplane": 8943,
      "ĠSoul": 8944,
      "Ġchapter": 8945,
      "claimed": 8946,
      "Ġquestions": 8947,
      "iary": 8948,
      "ĠSultan": 8949,
      "1986": 8950,
      "ijing": 8951,
      "wig": 8952,
      "ĠHispan": 8953,
      "ĠArtillery": 8954,
      "Ġmovements": 8955,
      "ĠBert": 8956,
      "Ġencounter": 8957,
      "castle": 8958,
      "Ġevolution": 8959,
      "Ġextremely": 8960,
      "Ġjourney": 8961,
      "Ġmental": 8962,
      "ĠTrinity": 8963,
      "ĠFreedom": 8964,
      "ĠHem": 8965,
      "Ġsurre": 8966,
      "Ġsoil": 8967,
      "Ġmac": 8968,
      "iors": 8969,
      "fish": 8970,
      "aris": 8971,
      "Ġlimit": 8972,
      "boy": 8973,
      "Ġmonarch": 8974,
      "Ġportrayed": 8975,
      "Ġindigenous": 8976,
      "ĠYam": 8977,
      "Ġrelative": 8978,
      "pent": 8979,
      "uis": 8980,
      "Ġadding": 8981,
      "Ġemergency": 8982,
      "ĠCroatian": 8983,
      "ĠPage": 8984,
      "ĠModel": 8985,
      "ĠDiocese": 8986,
      "elected": 8987,
      "Ġlov": 8988,
      "feld": 8989,
      "Ġindicate": 8990,
      "ĠControl": 8991,
      "Ġsax": 8992,
      "Ġtemporary": 8993,
      "pression": 8994,
      "ĠTrail": 8995,
      "Ġwooden": 8996,
      "Ġnote": 8997,
      "ĠIsa": 8998,
      "alis": 8999,
      "ĠPlant": 9000,
      "lement": 9001,
      "Ġplate": 9002,
      "inos": 9003,
      "Ġweak": 9004,
      "acht": 9005,
      "ĠKirk": 9006,
      "Ġcapable": 9007,
      "ĠBarcel": 9008,
      "Ġstrategy": 9009,
      "inces": 9010,
      "1985": 9011,
      "ĠFalls": 9012,
      "Ġmeets": 9013,
      "Ġterritories": 9014,
      "ĠShang": 9015,
      "keeper": 9016,
      "Ġ1864": 9017,
      "Ġtechnique": 9018,
      "ĠEducational": 9019,
      "ĠMars": 9020,
      "Ġsuicide": 9021,
      "Ġphotography": 9022,
      "Ġoffering": 9023,
      "ĠYu": 9024,
      "ĠAdela": 9025,
      "Ġwor": 9026,
      "Ġ1886": 9027,
      "ĠFeat": 9028,
      "ĠHarrison": 9029,
      "but": 9030,
      "ĠPoet": 9031,
      "ĠBranch": 9032,
      "ophone": 9033,
      "Ġhip": 9034,
      "istani": 9035,
      "Ġsubsidi": 9036,
      "Ġdefence": 9037,
      "ĠKo": 9038,
      "Ġago": 9039,
      "usc": 9040,
      "ĠPay": 9041,
      "ĠTerritory": 9042,
      "Ġamateur": 9043,
      "Ġmountains": 9044,
      "hered": 9045,
      "maker": 9046,
      "ussian": 9047,
      "ĠRef": 9048,
      "Ġvolumes": 9049,
      "Ġlosses": 9050,
      "Ġkingdom": 9051,
      "Ġelder": 9052,
      "Ġsuspended": 9053,
      "Ġvision": 9054,
      "ĠShip": 9055,
      "ĠChron": 9056,
      "ĠDraw": 9057,
      "erk": 9058,
      "ĠML": 9059,
      "ĠZone": 9060,
      "host": 9061,
      "Ġactivists": 9062,
      "Ġhorror": 9063,
      "ĠSocialist": 9064,
      "rov": 9065,
      "imir": 9066,
      "Ġroughly": 9067,
      "Ġoption": 9068,
      "ĠArmenian": 9069,
      "ĠElection": 9070,
      "Ġlap": 9071,
      "ED": 9072,
      "care": 9073,
      "ĠLost": 9074,
      "Ġcards": 9075,
      "ĠCosta": 9076,
      "mate": 9077,
      "ĠCollins": 9078,
      "ĠGlen": 9079,
      "Ġpoems": 9080,
      "celand": 9081,
      "Ġassociate": 9082,
      "ĠTib": 9083,
      "ĠCBS": 9084,
      "Ġboundary": 9085,
      "enberg": 9086,
      "stery": 9087,
      "Star": 9088,
      "ĠLag": 9089,
      "Ġalcoh": 9090,
      "Ġcompeting": 9091,
      "iration": 9092,
      "Ġproposal": 9093,
      "Ġdenied": 9094,
      "ĠLis": 9095,
      "geon": 9096,
      "Ġeyes": 9097,
      "Ġrelief": 9098,
      "ĠPrivate": 9099,
      "ĠEdition": 9100,
      "Ġ1861": 9101,
      "ĠPhoenix": 9102,
      "ĠTas": 9103,
      "innati": 9104,
      "ĠVincent": 9105,
      "ĠFisher": 9106,
      "aba": 9107,
      "1970": 9108,
      "udden": 9109,
      "aja": 9110,
      "rack": 9111,
      "ĠSoutheast": 9112,
      "1984": 9113,
      "Ġcatch": 9114,
      "ĠTurner": 9115,
      "ĠRank": 9116,
      "uart": 9117,
      "Ġ66": 9118,
      "ĠGiants": 9119,
      "ework": 9120,
      "agg": 9121,
      "Ġappeal": 9122,
      "ĠCA": 9123,
      "uckland": 9124,
      "Ġcomponents": 9125,
      "ĠBaptist": 9126,
      "istical": 9127,
      "Ġrecre": 9128,
      "ĠEU": 9129,
      "ĠFilmography": 9130,
      "ĠCuba": 9131,
      "icon": 9132,
      "ĠCities": 9133,
      "ĠUniversal": 9134,
      "Ġeval": 9135,
      "ĠEss": 9136,
      "Ġfinding": 9137,
      "Ġ1850": 9138,
      "Ġ1863": 9139,
      "ĠBible": 9140,
      "ĠMA": 9141,
      "udes": 9142,
      "ĠCond": 9143,
      "acre": 9144,
      "Ġcredit": 9145,
      "ĠAzerbaijan": 9146,
      "Ġimag": 9147,
      "ĠArchitecture": 9148,
      "Ġfoss": 9149,
      "Ġhang": 9150,
      "ĠSah": 9151,
      "ĠSpirit": 9152,
      "Ġfruit": 9153,
      "Ġpercussion": 9154,
      "Ġfal": 9155,
      "teenth": 9156,
      "ĠFell": 9157,
      "gate": 9158,
      "Ġplus": 9159,
      "Ġbranches": 9160,
      "Ġmessage": 9161,
      "Ġexperiences": 9162,
      "Ġthreatened": 9163,
      "ĠOriginally": 9164,
      "Ġcelebrated": 9165,
      "Ġassign": 9166,
      "ĠHouses": 9167,
      "Ġentering": 9168,
      "commun": 9169,
      "ĠFif": 9170,
      "Ġexplained": 9171,
      "ĠCommissioner": 9172,
      "ĠAntar": 9173,
      "Ġentertainment": 9174,
      "ĠFlight": 9175,
      "ĠRat": 9176,
      "ĠPow": 9177,
      "ĠSymphony": 9178,
      "ĠIndustrial": 9179,
      "Ġeighth": 9180,
      "Ġinvolvement": 9181,
      "ĠPopulation": 9182,
      "atar": 9183,
      "etta": 9184,
      "Ġdoubles": 9185,
      "anne": 9186,
      "ĠNE": 9187,
      "Ġcm": 9188,
      "ĠComputer": 9189,
      "Ġdemolished": 9190,
      "ĠOverall": 9191,
      "ĠPunjab": 9192,
      "Ġdeclined": 9193,
      "Ġlicense": 9194,
      "Ġunf": 9195,
      "Ġfishing": 9196,
      "later": 9197,
      "mel": 9198,
      "ĠSite": 9199,
      "Ġjurisd": 9200,
      "ĠProfile": 9201,
      "Ġmoth": 9202,
      "Ġdebate": 9203,
      "Ġtheat": 9204,
      "ĠReturn": 9205,
      "mod": 9206,
      "Ġintent": 9207,
      "Ġswimming": 9208,
      "ĠAncient": 9209,
      "Ġhelping": 9210,
      "Ġspr": 9211,
      "Ġaccounts": 9212,
      "Ġ1862": 9213,
      "fielder": 9214,
      "ierra": 9215,
      "ĠSad": 9216,
      "Ġcousin": 9217,
      "Ġconservation": 9218,
      "ĠArtist": 9219,
      "rypt": 9220,
      "Ġgather": 9221,
      "Ġachieve": 9222,
      "bane": 9223,
      "ilarly": 9224,
      "ĠCraig": 9225,
      "osph": 9226,
      "Ġsupposed": 9227,
      "using": 9228,
      "ĠNBC": 9229,
      "Con": 9230,
      "ĠHerbert": 9231,
      "Ġrend": 9232,
      "type": 9233,
      "Ġcontroversy": 9234,
      "Ġ1884": 9235,
      "igo": 9236,
      "ĠCommunications": 9237,
      "Ġraise": 9238,
      "ĠJerry": 9239,
      "Ġdress": 9240,
      "vision": 9241,
      "Ġstring": 9242,
      "ĠBass": 9243,
      "ĠGrey": 9244,
      "Ġmob": 9245,
      "otton": 9246,
      "Ġforming": 9247,
      "ĠCincinnati": 9248,
      "isin": 9249,
      "Ġinfluential": 9250,
      "ĠBarcelona": 9251,
      "sters": 9252,
      "DF": 9253,
      "Ġcalcul": 9254,
      "Ġexcell": 9255,
      "ĠAlong": 9256,
      "Ġwarm": 9257,
      "Ġstudying": 9258,
      "ĠJoy": 9259,
      "hill": 9260,
      "Ġmissions": 9261,
      "Ġsolution": 9262,
      "Ġfilled": 9263,
[...]
